d5e6cd7a5acaf674497c7ced5af4fb41c1ec644e6a76db40
5f4d42e34ddaea5b594c70db59d4fa54d15feb5040c65ef3
d445e255d8e2ca7ee559efda70f855785adfcbe543e95e7c
40527cd54643cfe553cae35dccd954c6cddbd1c8e150d357
e27eeae3c5e8f5c0544044d06d79c8c2d353d3c471dac0c2
695467c06bd6787af5c975fa436ff2f1fcec4a59cb6467e7
6846d3ca4a55c261d3eac153427ac9f4dd42d844d359654c
40d8f84854d6c9f0d1f5e2d54f605bc1d1d46afc45c35d48
c963eed2c4d9c4e871f46cce45c3e1e4cbea4d5befd0e440
7f56eddc61c9f25754df61e77a7a5f7870cbee4f65c7dfed
cb48fc42da4aeb7ec8ec7a48ded1c3c3dac8ecfaf046dae4
f4f4f2f3e342f742cacaee534f42464200d6f4da40cb46ed
65daf300fed3cc4842ec56f3426740cd4fe5dac84ff3f2f3
e853f7ea4600d042c2ffffcc7800e4ef48cae2ccc26068d6
d644dee05c60f44ae074f67870784d7c50dbee5bc17ef8ee
4e55d1f7d34b42e8c8ccd1ea6c79e579dc47c97568cff962
e0f9c275f9c4d040c073f15cc673d64052c0c0da40e24f54
77ebf0efc7434c706d69e1c7f0e9cb6e77ce515cd9c651dd
d049ec58e0d04e55d278fecaf048e844584756d872594860
d2c3d143d1f3cec67ddbdbe4d355dc45ebf3404b565be9d2
407ad1f6faf0df7ae96c51dfece57af0c05467605fdbf3f6
7f56ee6677534bead6c46e53cc48667950c4d0d9c055d56e
d5d47d49cb4f59dcdbeff55c42f5ffd85fe753757dcac260
c2e049f0f4fef25e63e3f0d4cfcc6a404972f0fe404960f5
6f7745c7cd677965756fd5475beb4500ff7f4953dfcbfff7
7ae2ef41415bc8475cef4345f94cd14cccc854cac1dcdc6d
7b65e7c1c9577246cfe9517bfdfb4fc65cd5fb7b6b724569
4b6468fc7c665dc761fc766eec64cd61cffc6ce6f44e594f
635d66fcf0f4f963d0d4d8c144f04d4a66e3d7790041cdf0
7ff74effc3f0e87fcae170774c00ffcc59d2ca61654acdca
cf7554c9c9cde4655f6fd4e85dd9cc4c7fd9ece07bfbd1c0
5851ef6fc45a4ccedde6f0e2537befe34ccc4fd85d5a7d5d
4848c843fbc8dee974c6e9d1fbc341706059edcc4fcafbcc
e2d1c5dc73dcd558e8dcc3c1735658ee48dcc25cc2ced1d8
e26e53f5e8c36b5a515149fb726843fee2dce26b46ee6262
f6e155e571c90049e551df495500c1c47e414b5d5141e755
58fcd94feaf6c2d9c16ddee9da777ed5f05f677c79e6f9fc
4b5646c3f86279dfda6fde60c66de6cdd6cdd64ee6fbd663
5050e2d5dde8e6e14e71e9ce5158cdec41e845644dc1ef43
d254505e6149454641f0e1545ae6f6f4d258fed0fac7f8d9
d8f878c7c2675c6b426f444456414dc9c4564549f842c4f2
d4c3e3f958575962606800d9f6df5e7fc165e0e47343d147
ceed5fcff5ca57f4f84ee14143d9f6f5e6c1e36678d95ee2
4bc2ededd9e3ec60d9dc6a4849c059d1da784c52c278e743
73f96fde4a4c65ca48fd6347c758d45ec7deeceadb4d4140
d3f8deeeebd56b41d7e844cbf057f2cd4bf05355dc7ad863
5456eaee566c457cd2f7f8c654e058e7ff63da416bcb50ee
ea56cae2f1de42e37566ff005fdf5f46f0e0ce5ace71f146
774fc1ebddc9e77746d5f7576cf254f2725744e6d1f177dd
7d414edcd844f06d44f77f48f042416fdeff41c66462d26f
d4d959dbf745cdd7e8da7e4cced948ce4df4e84259dbc8c1
5143daecfb6655d37951c16473007341e4564764c56a7b45
41cfcfcbebfb5fefd155c7c643cf53dfd751c0e5d0fff169
4fc94dc3c6c7c652fc78f0e2d6f6d5e54b4f5ecbf2e94bcb
dce25ac4fafef7d25cd250f0ec4d47deecceea55f7c6c67e
e6e6cafdf1e5e0d5c045eaf855c1edcec5f8585c4cf5f8df
e6d8c053effb44e2fd76d844cde36bf54ac25c4efd724bed
47cb6900c766645f47d5447a516351d17ac5cefacced6b44
4ece7ed249f662f0edc57acad14ae2c247dff64f60dc6a4a
4c6fcc644a4ed7d7e2cee9cc64fae94ef257c64e5dc6cbc6
625a50e57b54dadbea5b607849e0e8f9cc414ae4cc69d3c2
71f9d3e176f600644ddec8c3526b7eebebfe7f4ff76548c5
ccde50f7cbd4f341e0d6eb65cc73dae7dcf9d0f55c5141d8
75e2fcc3c5574eeac77563dd40f1dcc0630059efee4a7c52
da607fdc554d45dd515de4704df14a74e9dbc0cd57e35d6c
d55f40e647575e7cc6c0feede057de69d3c9fecbc9c6d446
4df4f75af2f8eccd6bd467525a6156d2c1cfe14078676172
614a40c95dfce7d5fc59e5ddc246e37cf7c6fb71c56b74de
e3ddc06c5a44594044def1c45a6ff55a44597de04c7de4c0
75ca7143d356624fe5f2ea717cfcf34d4efcc3dac67cd3c5
55c4d9e85865fee17ef6c64a5de2dde1fb5be9fcf56874db
6252ea5b4b60d664457feec5e7604bf0cdd664c571d0d8cf
5b5347d342eadbc2c04279e2f9f9c07ff9687777cc616871
ced8ffc5eee6e067e37a4dc5da4de9e0e4da69f7ddc75e55
4a48d66a7e70e5e3fe48676cd1c3e97acc7548c44c4b67cc
c1005d53cb44fec2db6c48c7fd46724143ee53c4f9e2df5b
f34dc848da5fc6ea65f244c177c34673d673736cd3ca614c
50d400c7e65a4058dc0078e4747cf0da7a446c56d6cce0c0
f4c0ecd851c86c48e3e0c6d64cffd66c687c487ce84866d2
e0006842fceeca4547c2534dd779c759d7cac9c37d604064
6f66f175dfd8ed6d40d8f2c0d8cc75f5480054e071d0cee8
df62695bed694d63c6e8cdc148e7c1d100e042d270dfe2ea
44d2c3f850daded2e5d7ff4c4c4a7cd1f7c0f645c0f4ccd8
4d477d4eeace7a4ffaea64ea6fddde4a4fe4ffd86ce551d1
c9fd5f567dc3e1526c59517864e47de5c7faebc3c7fa6649
4c665546d8d5e6eee5fdeefdc6c3f9eed7e1e1fbf27b72c4
ea427bd7d7004055cf6cc258f1c24f75e6fad34b645e51f1
5c59f07e77e077ea5b6a7a4fdc5ccae3eb426341fad1515c
fbd9e353ef5fe9515f75c7756b5f7f77c0d5dc43eb4b507e
5cea7aeb5ce3e9d0575cedc248dc42d2e9fa45d8e8c4cc4c
7bc653d7485a72cad0c5d6c4d8c0d2c1e97846dc47e272eb
f0cd61c1ecdd4de4e45d704164446efc41c548fc5268cdcd
5269e968506bcae3f6ca60c660dd7cc4ccec7644eef64250
470079494aeed97b43f04cd0c6d6ffd6fd685247c64cdd41
65d9c5d262f5ec7567c17bdfeccd4cc2c54f5c7fd9f2e546
c7586acc54d2584cd761c2006feeedde7debd2c26bc453c9
4379e0d7515e4cc865de7457d3de7bedf0c54f48e5d17469
c86ed6dc5c45f3cc45d85445d8e8c156f348514ec5ff007f
59c668e2d6f2c05af243c94b4bd3e5e5e4d0cdd6d0f54651
cb5dc94d5541d66acd6f69e1f6fa5bcfd7fed95bf17e6640
72ecf2cfcc4753fa5f4ccece5561ccf054f77cd3df4ccbe9
eb64fbf0d844de4646cb5af1f164005ec2c348db446d5bd2
5ec0e477f3d0ccf35b55c4484a77def271dfe04dccca42cf
dacbc1f4df63e5c041c34b6bc7cbc6f7e34b58005ac0cbe3
e1e75c5863f8c85ec97cef6744c067c94dc4e57c44e75058
ee5242f96ac8ddc3e3c0cfccfbcee0d651e5db43e5ffefc8
d0df5f43f5eaf17e47d4494c4af5c3f3ead751caf5edc15c
445cd9c263cfc17448dd74c4f849ffce59daf9524ecd4cf9
e2cf62d8c258c365ddf343de437643786f6cd179654a6cd1
5a7de442c0e4f6c242d1e7f549c86f7dd859ef69ed5ddc4a
49c7d0e5f0cc527fcee9c7e9f4464eec6c7cd4474a54f059
56c578d8fde878fddeff43fc655c6ac855c36d55c4e5ea6f
cc4b77597d64f7d1ccd063e2f251cac157774c48e6d7fdd7
7f5260dcc14fd941eb4146fbebdeea73d4517973414a527f
e451f8decaef54ef4a55ef7ef142d9f2c7ea7377f668cffa
f5fa70fb58f3c57dee66cd75ececfbc9d80041d8e44245d4
49f0775fe557feebd2f7df49db41cfe4d47d535b79c9ebf7
f851c3c35adac44dd06d7865f7e4d447734156e5d6cae9c7
48d05bf0e7707a7e7e52f3c24dc0414b7fd0fecd46f76257
78dd755555f8ce45cf70ea76d47f5c78ce665358d448dc7a
624b53d2d3d85a677def7affcf51e2c2c0cef4efdc4051cd
44e0647a44c4c766f7cec244e1634e796b576655554cdbf4
cf5a565afd66006ece607ee67afe7eefd6454a54deeacec5
6f45e96bcade62c657d1c6edef7ffdfaeb536ce9e9c6d7ed
40f440c7f8df53dd5fe0ec42f856f8d0c7dcf15ac2d44c7d
fed1e558c8cbe545c24555d25bdd6bc5c871e955de5e7e4e
514ce44bc14dccd8fa6245ed75cc45c1d049f6c959f7c559
d3e7ddf1474cc1f943c055e47cc345f0e0f95550515cc256
436259f5fc7c60e8dd6a4d5d4747f3e9e855c2ddc7565272
e446424646546570c97050cdee70c6dcc800deefd6484755
7acf65fcf45a546356d2d04bdccdf0da43e1ee43dc5a6c61
e3fcefe9e946f45d5a74c4cfed4fdd6de15c4542cf536f62
7dc96849f946fb58effb5ac6f9c955f8dfda5eda6ad9cbe2
58d4e0ebf54143e7d3f862f7e64e4bd05447e0435e46d95e
e6fefa78e153dfd1537ce9e857f342c2617059ecc6ecc246
dc414f45ee78cb6e00c8eafcc5f7c558ed56cecb5164e8e6
eef96a5b4044cc4df95ee2dff5f95cdb46f8cb6e46c84b44
614deedadfd9c7d2d05fd2dadc59495841ca63dccc7446cf
fec0da735c5e7ac8c3c7c651e2f3e9e1cd5c636cccc151fe
c3db43e1c7c2c26c745ff14df1fb55c5e346e853dcc1c26a
dad7daf3c85ef3fe65c172534870734c41c1ea4a46535ef3
4c50fd58c9c0c6cfe3ecde42cb4e4264ec58484970e0f8e9
4848ec43ced1f67cd9406e60e24cccf140e3d440dcd6e055
f057ec4bf142c24fc059caff60e1ce4b4c4fc5fddce06479
f0dce87566ca4660cd507964c8c57dd1d67dd4e0ce44dedc
f7cbc151dd54dfd15ccfdb4e415f44f0ccdb5b5c6266c8c2
44c87cc268c450ce4de4c9f078e3ce624852fc4d50edc649
f8e9c3ec6a61d65ecb5b7a6c5fdbefe0e8e4dbd5cc6ce251
cacdd2e07decfa657dc06bdf655b43435b47e54c626c51ec
c64ad944f5d5dd4cd5dfefe56ae9dddf7f6461f740555fc0
e4db6cc4dcd3d1c2c25158f5c14277dce0c5686add6aded0
42cfc54feac9c45c72c34e7ec469567a4e77d74c726a49d6
c7c3f5cb6bc5cb5b45cf47d77f6f53ff65ff6367675bcd43
c15cc8c5c3d2d6c46048d2cb5645f7486f63f3fa73ca51c6
d7f24c74e5fb7bfbe97b41ee4a4ae0d37b6976fbd75745ee
d57a7ef45d4f626cdbf4fbc545f1c1d1db4b4ad9cf7c6c72
7cc05a7079dd425760c46150d74af65d6044ec7962656960
68e1f7d265c77d6577ea567f4541dbd96854d66c74724179
f8df497f457f5d4260f84a647f42515a54c9624c45e57fc2
4976d84e645f63ef6700e4c749fd4d7dd3cec2e44fcfda58
70dee3c1d7e351de7fd9735ae25de9744462ee537753e5e5
51ced67c424273d959f972ffcb5c5c6f595cf97ec55c6b42
dce2e7da61d6fb5743e46edcc94644597cc3ee575860d053
59ebcad156c1fa5a43c15745f17641f15e00c24f4c7cd151
74e45e4c4ccc48e6fc5bc072004c6ddfd5cc79f1c6dacb72
c4f146e678c7d8dc4de4e166e263ddecd1545052e5f244d6
c3eaf66fd7d159e8516c77c87e64c67e71faefe4c1d96055
495e40e5e95a6be578c355d6d94ecc5a41de43ea7847eb51
f8cfd6d151fa444444e378e7c44e55de5ec4e96774494d4d
e5caded158f3cf6afdd151e2e543d751d8d240ebca5df46e
c575d542f5664162f8d2edf54a57e9c5f554e9e77ef571d0
d2cded55634be0e7eddf42d9ede2415b4b4e424ce071ecca
d86a4dc3d96cec6965c3ebc7cafd73cdd6d167eccf736367
5457eb6758d86bcd78e4576bfad7c3fa44c042e0ef446474
c34156695cec4e597f5ad67069c8ecf6c3e549cb6bda665d
46d26655fc48e7c3d1ed5f567fd27362fd634fe94ed5f1ea
6cd1c967605745e459c96c5cf55446514dec4648567d406c
624adec0c141c94afbded9e641e7c0d673c17364d249efd4
42e8fef66f7a4056c655d045dc5551e0f0d17aefdbe348f7
c154737bec4ddc4ee84564e464fbfbd3cd7be45cd264d54d
59ddd347ce7ff342ef6b6f5f6bc5effbf54a506fc3eb6b59
40454f5ce45a5864edcbe9daea4240e2784bfed3dcc36965
6ce5e6dcc3f0feedc762705bdeeeefd74e6a537f7e5ec6e3
d6edd9ddc87863f14ad551ea4fc350ddcae8d7f8fdeaca75
7af472d1e0eff2425858ddf4744fda6576e7da65515a4a58
d75557ed50fa596d5fc4c7ebc4ebdcc5dd4bedc9e1fe406c
fd5362dcf2dcfe43d2c94e424afb6ed4fb49ced941ee7ed0
44465769724659e2fad772d7f600c66f4ced4e6467ce64f8
fe4cc7dfc5fbd0d659f4d971d6f96ae366e04750dddac3f1
53f4eb52436b7e6479fe6b4846654dd243d2d840cb4bc85d
c1ce7b4b7bd4fb574a4fd9e3f367c3fbc3ee50d8ccd4475f
60d0ced0dc6a506a484ac7ca437971dccec2d54e7955d141
