e4212200c9d428
05ecdfecc8bb1d
2cf0f308e21635
e5bac7cbdcc5da
cbe9dcde35ba1d
d6ea1008e72ed2
edd811c6c41124
343703d9dfeec7
e2e2d92dd0d4df
26cd03121e13d2
07b6cfe91adbed
2409decb0ae821
0fcee0efc28daa
23081cd206f70f
24f1c308bfc305
f0f9f51fc81911
ee15ed071b0cf3
c9d0c8fec0d3d6
0ebdd9cb0decc2
d03ddffaf4ffc9
2cd4e6f0c497cb
cfc6d7c5ead225
1892f7a2c4a1a4
2cd5dcf7c1d3b7
10e91c0b09d6d5
300d142dda04f5
e5e3f9c42324d9
9b0613081dc51c
2aefe2f6bbd7c8
44c5bdb1eb95e1
3ac7dc06d1ccd1
3bd8270f07d428
1bf2c3fcb8e5c2
35e9bffdcae2d1
0ecac9c2d081a8
1ce2ebf9e8d1ba
89e0c8cfe51ae2
fdd01bfa01f022
29c5eaf8cd1de6
d0bff4fc0533e7
03afdcd4f09ea2
c5e6dec71d0f06
fcd63916200b2d
fb2c0eef0414da
adfc06fd129d09
110e3a332d2e0a
d1c3c727d1dbdc
0cc9c40d28f30d
29d6d6e3e2dac3
00e2cfed3604d0
dd29d6d52ded13
c1d41edae788af
1a211329d5bfc8
de3202f6e138cf
c4c738f1d930fe
fcf22807c3bdbe
d0dece242b2433
ab03fcdb208619
ddfe1c0216c8cb
fd03c108ee45de
f3060b22fd0739
0b9b07f3e093e8
e4360cfe36ebe3
e9f93500c61007
