ffff4a53 ffff86fd ffff2526 fffe9aad ffff0d6b ffff2abb fffed2dd ffffbd21 ffff1cdc ffffbdb0 fffe2f12 fffdadd8 fffe37ec fffe75ce fffedf64 fffea2ca fffef605 ffff5e6c fffec156 00000000 fffe726c fffe946d ffff32ec ffff3653 fffa4e44 fffee4ff fffdcb4f ffff992a ffff7702 0001ecfb ffff4538 ffff6d1a 000190b4 ffffb78a 0000280f fffd689f 000633fc ffffb482 ffff23ca fffed9da fffd467d ffffe25e ffff41e0 ffff3f4c fffcfdf3 ffff35ad ffff0e14 ffff84b6 fffed3a8 fffe4b25 fffec11c fffddc62 fffe4c57 ffff2411 ffff7905 fffff95a fffea075 00008375 fffe9bd9 00083900 00000000 fffe7afe fffeb88f fffea0c1 