03
AB
25
B3
1B
20
A9
03
AC
25
A3
15
01
B3
92
B3
A2
B1
B0
1A
18
A9
AA
20
93
26
21
A3
B0
98
A6
84
26
1B
24
17
B3
15
94
28
1D
A5
B7
9D
10
A6
1D
B2
AE
1D
A4
B0
1D
A5
1C
23
16
12
1B
A7
AA
97
93
25
8A
89
1B
21
A2
1F
81
9F
B2
0E
A1
AC
98
17
88
16
22
A9
A2
24
21
19
A8
2B
1E
AC
B1
B0
AF
B0
B0
20
A7
B6
A5
A1
A4
B1
21
21
B2
22
B3
A2
B4
B3
A8
21
AB
21
B1
B1
9B
17
81
B0
A3
AB
AB
20
22
0B
16
20
A1
AD
22
A3
17
17
B0
A3
AD
A3
18
B1
11
A7
9C
21
2B
AA
27
9B
9F
A8
08
1D
2D
27
9C
93
26
AB
23
A9
28
9F
B1
24
2C
20
AD
A3
9E
20
95
AF
A4
A9
9F
A9
AA
9F
A4
B1
AF
08
1D
A0
94
AB
AF
1B
A9
14
A1
23
B0
17
A2
00
01
A0
16
9F
AB
A8
21
AB
A3
B0
A4
AE
AB
B4
01
A3
8D
20
20
07
A6
21
1F
B4
AA
AB
B3
A1
B2
29
24
24
81
1F
21
23
9B
A8
20
16
A8
B3
AD
AE
23
1F
AB
93
A1
1E
99
9A
1A
AA
A9
AE
14
AA
1E
A8
9F
B2
B2
B0
1F
96
2A
A3
AF
AA
A2
A0
9C
AD
93
AD
AB
95
B0
B2
23
9F
B4
9B
B2
B1
23
A1
9B
1A
AA
20
B2
88
0F
21
9F
A9
20
22
21
A2
AB
AF
88
13
14
1E
9B
1A
10
B0
1A
A3
9A
1F
21
03
A9
B1
B4
B2
A1
0A
12
AD
A2
99
24
12
93
B0
29
A4
17
23
A1
1E
20
A3
21
AE
88
AE
1C
AA
0E
98
21
B2
AD
B1
A4
22
23
1C
2F
AE
A3
2A
A1
AE
82
AE
10
24
93
0A
25
B3
1F
AF
96
98
94
A7
20
B2
1A
20
12
A0
25
14
26
AB
9F
1D
B2
AC
B1
1B
9A
23
B1
16
18
94
A1
1F
20
9A
20
20
B3
20
21
24
A7
1C
23
98
B2
20
AE
8E
AE
09
9F
05
A8
B0
A5
9F
A9
94
B0
A5
B3
AB
9A
26
1A
1D
1C
B0
B1
88
22
B1
A2
1B
A6
9C
12
16
20
20
81
25
91
AF
8F
AA
A3
90
1E
1C
1B
1F
A7
98
84
B1
1B
AF
19
A6
AB
B1
1C
A5
9F
1D
20
B7
B3
11
24
8C
B0
0C
1B
A3
B7
A6
1E
B2
1C
1D
25
21
9F
AA
24
8E
A9
22
23
B3
02
8F
19
AA
23
95
B2
20
92
A8
9E
A2
B2
1A
9A
B2
9D
A7
B7
24
B6
23
1C
20
29
99
9C
19
20
1E
24
17
95
24
91
AA
21
9A
A6
99
AD
B1
1C
21
27
A4
B0
11
B0
B4
A8
9C
AD
22
21
9C
B6
10
1A
A7
16
1E
1F
11
B0
B6
19
AE
B2
A4
AA
22
9B
B2
84
B1
B3
22
92
A8
B4
16
98
A4
07
A8
22
B2
24
A7
18
20
A1
B5
20
25
25
05
18
B5
A8
17
21
AA
B6
AD
23
A9
30
23
B0
A2
99
2A
A4
A1
89
8C
84
17
0B
22
22
A2
22
AA
A0
AE
A6
13
23
29
A3
B4
B4
1D
1A
23
A1
B4
A9
1F
1B
A8
B2
B0
20
A7
1D
23
AC
9B
A8
8E
13
24
B0
B5
24
A5
B1
AC
92
92
B1
1B
17
A3
B1
24
B0
03
B5
A8
29
B2
A7
1A
25
21
AC
98
B1
AC
14
B3
B0
21
9F
B1
A2
B1
20
20
1E
B1
16
0E
93
98
23
01
20
24
1B
B2
20
20
0B
08
18
01
8B
19
01
25
9E
A1
1C
22
A3
21
0E
21
A1
AD
94
26
A9
20
B3
AE
19
23
A2
B1
B2
16
16
0A
A4
B4
9E
AF
8F
82
85
1D
AB
A8
B1
9A
A8
AC
21
AF
22
99
18
9D
0C
11
0A
AE
22
81
B0
21
A8
AD
81
1A
2B
31
A3
11
13
03
1E
95
AB
AE
1A
B0
B1
A9
9A
1E
A3
A5
20
11
AF
94
A7
A3
29
01
82
9D
B1
A1
1B
AD
AE
B3
03
A0
99
A2
B0
B4
AF
29
16
19
A2
0E
B2
93
26
0D
0A
31
B1
A3
A8
81
A4
1A
19
1B
08
A1
05
B4
88
B0
97
A2
9C
B3
8C
1C
20
1B
91
1A
A5
16
A1
AD
B0
2C
A6
A8
94
B1
9C
B6
A8
24
1F
2B
AB
08
23
98
AB
A8
A3
AE
1F
99
B2
B1
AD
B2
20
98
1A
28
AA
2A
A7
9F
0C
21
A1
1B
09
19
18
AA
26
12
AB
A6
12
AD
