B3 27 B2 25 27 B4 23 21 0C 9D 8C AA AB AD AF B2 2B AA 13 19 A7 20 A6 1B B6 B6 20 A3 0B 9F 9B 1F 21 A6 99 0D 0C 22 1A 81 0E 81 1F 91 B3 A1 AA 1A B2 A8 AE 1B 29 91 AD AB 25 A5 20 AC B3 22 B6 21 1D B2 93 B5 21 B6 B2 AF 1B 0F 26 B6 AD 9A A8 25 A3 A8 AE A2 23 9B B5 B1 B8 26 0F B1 AB A3 23 AE 1D 1E A3 AA A3 9B A0 B0 1A A1 8E 9E 1E A1 20 A2 99 A9 9C A8 A3 A6 0F 98 24 B0 22 B1 80 93 1D AE 21 AA 28 B4 B1 B3 B2 26 B2 22 B8 B1 B0 23 A1 A9 B8 01 18 1A 9A A8 1E B8 21 98 AD 30 B5 A4 AF 1A B0 01 AE A9 B1 B1 B7 2E 1E 22 99 1E 9D 15 24 9C 96 15 A9 19 B5 B2 19 A3 A9 01 B2 1D A6 90 1F 9D 1A A0 A2 94 22 98 A1 B3 B0 0F 91 89 AB 21 B7 B5 01 A2 2D A2 B3 AE 92 AE B4 8F AB B0 24 25 9E 27 B3 A2 AC 27 B0 28 24 B1 B2 2D B0 12 B0 B0 13 9F B0 22 1D B0 B2 A4 92 82 1F 1D B6 A9 B2 93 12 A8 1C B7 15 A6 8F 84 A9 21 B8 AF 08 B1 96 90 A7 0F B0 24 A9 1E A1 A4 20 B5 0B 96 1A A0 9D 22 9A 22 19 B1 28 17 15 B3 1B 0D AD 23 1F 9B B2 A9 AB B2 21 26 AA B2 B1 90 AA 23 26 A8 B1 AF B1 24 13 B3 23 21 1E AD 20 AF B4 25 21 9C 9A 9D A0 23 20 97 1A B2 10 1D 24 B0 91 89 8E 01 1E 10 97 01 B0 AF 2B B4 9C 1D 1E B6 23 B0 A7 18 B3 B2 AD AE B4 26 A0 2B 8C B1 95 AE 22 96 B7 22 0E 9D 93 25 B4 1F B2 B3 22 12 A3 28 B8 AE 19 17 1F AB 1D AE B3 B0 B1 18 98 B2 1A 1B 97 A6 8D B0 B7 84 87 1B 90 A0 A2 9C A4 AA B0 17 B0 15 B3 20 23 B6 A7 20 AB 15 B1 23 21 22 1F B2 AB 1D B0 B1 20 9B A9 1A A3 81 A8 B3 2C B0 A8 A8 2B 0A 28 1C 9A B1 A8 B1 01 B1 AA 8B 22 B2 AF A3 22 B4 23 16 A0 21 B5 1E AB A8 20 B8 26 18 19 17 B0 B8 20 83 AE A3 A9 AF 25 28 B1 25 9E 8F A9 B7 23 B5 AE A4 A9 23 25 B4 81 B6 9B 20 1C 23 AE 11 99 20 01 1B 1A B3 B0 24 AD B0 08 25 B1 B2 AF 24 B1 29 B0 A5 1B 15 B4 2E AC A9 B3 AA AC 9D 8A 90 18 B4 B1 25 B0 23 B3 B0 27 B1 0A 13 18 8D 9B 97 8A 93 9D B2 11 8C 99 B4 20 24 A1 19 B2 80 AD B5 B1 23 AA 20 A6 A9 94 B4 92 AB A1 9C A2 26 B1 91 B5 B6 22 AE 0D AB 92 AF A3 B2 26 A1 A8 B6 B0 B4 24 29 B6 90 88 1C 23 A9 22 B8 00 AB 81 15 B6 18 27 AA 16 B5 B7 28 B5 1F 80 B0 B1 97 84 AF AD B1 A9 B6 A3 B7 2E 0E AC B1 8F B2 1E 16 AC A8 91 22 B3 99 81 B2 A2 B6 03 B2 24 29 21 01 20 9F AD 13 B3 1F 29 99 B1 B0 AA B1 A2 1E B3 08 B6 8E 20 A5 A9 B2 B0 91 B1 32 17 1A B1 AE 21 B0 99 1B 1C 1E 18 B6 20 18 19 AF A4 23 B3 20 B4 AC B1 2B 1C AC 97 AE A3 99 9A 95 21 99 A4 2A AC AC B6 A4 A6 12 AC AD B4 AF B4 24 2A A5 22 01 1B 17 A6 9D 91 AE B1 22 22 14 28 AD 1B B2 20 22 B2 B2 A5 A4 23 97 1C 23 A1 8C AE 1C 9E 27 B6 AC 95 9F 9E 09 1B 95 9B 23 B0 27 8E AC A9 B1 B1 1F B2 21 21 A2 0D 1D B0 22 99 AE 01 89 15 18 1D B0 B8 17 19 B0 99 AE 26 B2 B2 2A 22 96 0A B1 B5 22 28 B4 A7 AD 9C 22 A1 B3 12 A8 B0 B4 B4 27 2F B0 A9 B1 88 AB B1 2F A5 AC 21 AC 20 AA AC 1C AF 0F 05 1F 01 B2 AE A7 2B 22 A1 AD A7 B1 0F B0 B1 2E B7 B0 81 A0 9D 99 98 1E 99 A6 27 B1 18 B5 1D 22 