99 23 1B 0F 0F 28 1D 10 9C 15 01 27 00 9E 0A 18 A0 9E 91 99 14 01 91 9E 08 A2 0B 1F 98 00 0B 98 17 01 99 1F 9D 17 84 0D A7 8A 09 86 93 01 1B A1 A4 95 1F 9B 1C A3 09 81 01 1A 8A 9A 00 93 A7 1E 9E 96 A3 9C 98 95 1C 13 9D 9A 20 1E 9A 19 01 88 95 02 9D 93 90 A3 0D 9E A0 A6 1B 97 18 24 22 01 1D 1A 22 26 01 24 8F 25 0A 1F A1 27 0C A0 92 93 9C 84 8E 9E 9D A0 98 81 18 9D 15 01 98 20 02 A3 15 0E A3 1D 1D 08 01 1E 98 9B 1A 19 9C 99 90 9C 91 08 23 98 96 A9 80 A0 11 25 9B 14 0A 95 9B 21 9D 83 81 84 11 A3 1D 8D 10 82 1C 03 18 89 1F A0 96 9B 97 12 10 93 16 12 10 81 9B A0 98 12 91 10 1E 98 18 21 22 1B 9F 1A 9F A9 9F 29 20 83 89 9E 18 A2 07 90 1A A2 90 19 98 81 9F 1A 13 1A 81 A2 11 83 8E 8A 20 1C 93 0A 9B 99 9F 00 9D 19 9E 18 8C 0F 08 14 9F A0 98 93 1D 21 A7 1D A5 0B 80 21 91 9B 10 0E 9D A2 1D 8A 9F 10 9A 20 08 19 22 01 1A 06 A0 91 A6 86 03 1B 22 0C A2 A4 9B 0C A7 14 22 9E 16 1E 26 8E 0F 96 A0 A7 A6 25 2B 18 29 9C 0C A4 99 97 14 19 1B 25 81 1F 9E 20 01 8C 12 92 13 98 1F A1 8D 22 AB 01 95 A3 99 23 01 99 06 95 A6 21 20 92 0C 8D 92 99 26 1B A8 17 A5 93 9E 1D 9F 98 98 99 90 A3 18 19 1A 18 99 18 9C 80 20 96 1F A3 81 A6 A9 10 81 92 1C 92 90 20 9F 01 9C 1F 25 A3 A0 16 1D 1C 1F 91 0A 88 A0 15 26 15 19 A4 9E 98 90 09 80 16 20 91 94 1C A2 1B 11 97 22 A3 21 14 1E AB 0D 14 A3 07 9D A1 A0 1A 9D 8B 03 98 A5 01 1E 23 A2 20 1E 1A 12 1B 00 14 15 94 9E 9A 01 88 15 06 96 18 0E 21 08 87 9E 20 09 15 9E 9F 24 A0 98 A0 A4 20 1C 01 0F 23 8F 23 A5 01 18 22 87 2A 8E A1 1E 21 00 99 12 A5 9E 19 81 27 1B AD 9A 81 81 15 A4 A5 12 20 1E 21 23 A2 94 01 A1 18 01 93 A3 0D 04 12 25 A2 9C 97 1B 19 98 00 1A A3 94 13 27 10 9D 99 95 21 9B 28 01 A3 A1 93 A3 16 9C A2 9B 99 19 9C 13 9C 81 9B 1B A2 92 11 20 98 17 29 95 10 08 01 90 A4 A4 A3 22 97 A0 1A 18 97 07 1D 0E 05 1B A0 15 23 9C 90 A4 A1 09 1F AA A9 1B 95 9B 04 A2 14 90 11 1D 92 1B A4 A0 1D 99 95 03 01 95 11 0D 9C 14 A1 A0 A3 97 04 98 1E 9B 91 1B 28 1F 18 A8 99 9D 0F 81 26 92 A6 9F 91 90 8C 9F 9C 9B A2 A0 01 19 12 1D 1D 22 A0 9A 19 22 20 1C 28 84 18 93 A1 01 24 A4 1A 19 0E 80 16 A3 9C 29 21 11 09 25 1A 9E 21 9B A7 9C A1 8D 2D 9F AA 91 84 A0 95 A1 91 89 13 8A 80 9E 91 93 10 21 A2 98 A8 A0 15 1E 9A 96 A5 A2 96 97 9E A1 18 A4 94 A0 1C 24 98 08 9D 9F 1D 89 12 A4 A0 9D A4 09 0A 09 06 80 14 A3 9C 1A 9D 19 18 0E 81 8D 09 1A 1E 05 96 1C 15 9C 19 A9 29 A0 9B A1 18 99 A2 A6 98 26 28 81 A3 86 8C A6 8F 0D 08 A3 A2 24 2C 26 9D A0 84 9C 95 90 97 9B 01 1B 84 A2 19 A5 9C 15 20 14 A7 85 A0 92 94 A8 A0 9D 86 A0 17 10 1F 17 9A 00 14 24 9A 1E A5 A5 91 96 9F 8C A4 AB A2 18 13 9F 85 01 14 00 92 1D 9B 1E 9B 01 11 A3 9B 14 1C 17 20 11 96 08 11 AA 1A 14 A2 A2 24 1D A8 20 18 1E 81 90 95 1D 81 18 23 94 1F 99 A0 1C 26 23 95 A4 9A 80 9F 98 8E 06 0A 13 9D 97 20 9A 18 20 22 9B 9C 19 A3 96 20 A0 11 17 23 9F 23 9C 12 1F A4 9D 8C 24 07 86 A9 99 99 01 9B 87 A3 A4 1B 8D 90 98 81 92 98 97 97 03 19 1B 8C 9A 15 A2 99 01 10 18 0C 21 A2 25 1C A9 9E 01 A5 A6 18 22 A7 1E 9A 19 27 92 A7 9A 14 9C 20 01 91 21 AA A6 24 92 A2 0B 1D 13 10 81 9A 90 9A 0A 0C 82 92 0F 9F 8E 1F A5 85 A3 1A 15 A4 02 89 9D 9C 81 9F A2 10 20 1C 0B 1F 01 93 91 15 9B 81 A1 24 14 0F 0A 01 99 05 1E 0D 85 94 9F 88 1A 12 92 15 90 8B 13 9D 01 1C 1C 1D 9C 02 01 28 24 9E 97 81 06 98 A5 99 1A 06 1F 1B 0A 25 9D 9F 9B 2B 99 1A 1D AD 14 1A 92 A9 87 9C 9C 16 1B 9B A9 A2 14 A5 93 01 93 9A 18 1A 9D 1E A5 21 9E 9C 80 91 A1 19 8F 81 A2 01 8B 9F 1D 08 01 A1 01 0C AA 93 99 21 16 98 18 12 A2 81 1E 1F 0B 93 9B 19 94 15 1D 22 14 11 97 A1 24 1F 9C 09 8F 90 11 90 1D 04 03 8E 1C A7 97 0A A0 1A 20 10 A6 24 98 9F AA 1D 19 1F 9E AA 27 98 20 A7 13 1E 19 91 92 16 A8 0A 9C 9C 9A A1 99 07 23 91 93 8D A1 21 9E A6 1C 18 A7 21 A9 A0 8E 81 A0 98 8F 0B 82 A1 20 1B A7 8F 90 A1 9C 99 9B 0B A1 9F 1F 0A 9B A2 9A 19 9F 1C 16 1A 16 9E 89 A1 1D 12 91 1B 10 13 24 01 90 AA A2 A8 12 99 81 13 AB 13 24 24 A3 AC 9F 95 A5 1E 08 17 95 A4 2B 9E 29 1A 81 8E 18 81 02 9D 01 0C A1 99 9A 0F 01 A2 11 16 98 81 83 8E A1 9B 8D A8 A5 8D A9 19 23 0A 1E A4 0A 98 20 99 20 82 0B 9B 06 A1 A2 A2 8D 8C 1C 98 91 06 8A 9A 15 1D 1B 01 20 98 0A 85 81 A0 9A 81 99 1D 1F A3 96 99 AA A6 18 A8 18 19 9C 1F 9E 18 27 1C A8 AB 28 19 A3 21 94 85 A1 A3 0C 94 1A 21 21 92 20 91 12 0D 1E 94 91 92 88 87 86 9F 10 1E 14 07 1B 9E 22 13 A6 A1 8A 1C A2 19 0E 9D 21 98 0F 9B 81 14 1A 89 1B A2 04 0D 15 A0 A0 9B 1F A4 17 93 92 9F A1 9B 07 1A 22 A1 01 9B 8B A1 92 17 9E 9D 20 AB 21 81 A9 1B 9C 0B 9C 24 18 2B 1C 99 A8 21 11 99 1D 9E 26 24 96 21 1B 9E A5 16 A1 12 96 A5 99 19 89 1F 0C 15 22 0B A1 8B 1E 14 A9 22 A9 17 1E 99 99 99 1B 99 02 16 21 24 11 81 25 20 1A 8C 9F 1E 08 20 81 0D 97 92 0D 12 99 22 A5 A5 1C 94 0F 1E 8C 22 14 87 92 1D 85 21 13 96 18 12 97 26 88 1D 15 12 27 A5 14 A2 1E 25 A2 10 81 24 A3 9B 88 27 23 A1 1F 90 8D 1D 28 98 1B 9E A8 1E 81 8D A6 21 81 20 0F 1D 20 98 22 A2 0A 07 9B 1E AA 25 A1 19 1C 9C 22 8C 88 19 1C 20 16 93 20 80 97 1E 90 24 1C 23 19 A1 A0 03 1F 20 1D 20 A8 99 1C 90 1B 94 02 23 01 9B 8E 9F 14 16 19 1B A0 1A 91 22 10 25 8F 93 20 2A 99 12 20 1B 9F 11 A3 1B 9D 0F A6 22 19 A1 0E A7 10 91 2A A0 22 22 02 1A 9F 1E 93 9F 93 03 9A 96 21 0D 27 92 04 8B 20 08 98 A8 10 26 01 9A 10 27 12 1A 13 01 0F 94 9B 97 A2 A1 01 10 95 23 99 93 8A 84 20 23 25 20 21 81 10 98 1A A0 1E 22 90 10 1E A3 12 18 0D 8E 93 01 95 A8 A0 26 0D 0B 89 2A A3 23 19 91 24 1E B0 8B 15 25 A3 89 21 81 95 93 18 84 21 A1 0B 24 1B 1E A1 18 85 95 96 8D 8C 83 1A 97 17 96 98 81 91 8E 12 A8 9E 21 99 9C 9B 0F 19 81 1B 0E 2B 81 1E 11 A1 A0 01 81 1D 1B 1D A2 84 90 0F 1E 0C 19 2A 87 A1 18 14 9A 18 21 0D A0 18 9F 20 9F 9B 92 97 11 AB 21 A0 23 A1 A7 A2 A5 20 10 91 9B 2C A6 93 8D 10 01 93 9C 27 29 25 20 1E A1 23 1C 9E 16 9E 1F 93 81 1E 15 83 1F 23 89 06 8B 18 93 9F 18 14 1C 17 A7 0D 9A 21 8D 15 20 19 10 17 22 26 A3 20 1B 8C 95 91 19 15 22 15 1E 9D 9D 14 99 99 99 23 99 8F 98 01 0A 95 94 82 97 19 99 20 90 1C 20 8B 9B AC 8D 01 AC 25 01 A8 A0 20 25 18 20 23 1C 25 20 96 9C 22 93 20 98 1C 1D 21 08 95 1B 8C 12 01 A1 97 25 20 26 1E 1C 81 81 A4 1C 0F A0 21 01 A8 A8 01 15 9D A0 18 19 98 01 11 21 99 14 20 97 81 10 97 92 20 22 A0 20 0C 1C A8 A0 01 99 0C 00 9F AC 21 0C 22 19 9D 1B 8A 1B 90 A4 9A 80 20 84 9B 01 A6 19 24 A2 22 18 28 AB 9B 99 15 2B A2 08 16 25 9B 96 8A 14 18 0B 26 26 18 A1 0A 93 98 A2 A0 9F 88 98 1E 24 0E 22 94 18 AB 23 01 1C 26 9C 9F A2 A1 16 A1 A0 15 9B 8F A7 18 1B 15 A0 9D 16 91 20 83 99 18 26 96 1A 98 06 AE 95 A6 0E 22 98 01 B2 22 90 25 1A 8E 24 01 1F A0 98 9E 0C 13 8E A7 A1 A1 28 21 15 19 A1 19 9F A1 8B 2A 20 A4 A0 A9 98 1F 1F A8 29 1A 1B 27 81 1F 17 25 8B 15 18 93 01 9A 25 22 81 8E 91 1D 81 A1 10 1B 1F 18 8F 9A 81 10 8A A7 1F 0B 14 9A 80 22 A0 19 A2 81 10 01 1F 92 98 8B 23 9D 90 16 98 9F 23 A3 20 27 A4 21 AE 9D 8D 25 95 01 1B 85 99 8D A1 84 1C 1A 16 9A 09 18 94 1D 29 8D AA 01 15 AA 18 28 9A 26 90 AD A5 25 27 A0 1D 0C 16 19 13 17 9D 22 23 8E 98 98 17 01 1B 22 9E 21 13 18 80 9B 1C 23 9C 1B 18 82 17 23 08 9E 21 94 0C 95 14 8F 9C 01 9A 21 21 01 19 24 0A A0 96 0A 1A 90 1F 02 A0 19 94 26 93 28 A4 A0 98 1E 1B A0 15 11 96 A0 10 98 18 82 98 9D 97 92 0A 18 21 17 A9 A6 9D 9A 22 28 98 2E 25 1D 92 1E 1C 23 85 21 10 23 01 10 9B 86 1E A1 A0 07 23 10 1B 1C 01 22 22 13 A1 95 96 81 A1 92 22 89 9D 07 0C 9C 01 0C 81 A1 20 06 9C 21 85 22 92 15 01 1D 9D A8 14 1D A2 1D 18 12 87 20 94 11 18 99 8A 8F 12 19 14 8A 01 02 83 9E 96 1A A0 93 11 81 A0 24 02 1C A5 22 A2 A9 1D A0 23 1B 9D 29 A7 26 01 