98 00 18 1D 01 01 27 A0 8B 23 15 0A 0D 20 1F 80 11 94 26 96 03 23 A3 97 9F 20 19 18 07 10 1A 1D 23 02 1C 90 92 17 24 97 1C 15 19 20 01 1B 98 10 20 91 93 A3 93 13 91 94 27 20 81 9F 81 91 0E 98 07 9B 22 01 1B 06 20 1E 23 9D 1F 1F 15 23 02 1A 13 10 9A A3 20 1B 8F 8B 20 83 01 0A 18 1B 10 1D 8D 23 9D 9E 20 0B 1A 92 92 12 98 9E 29 A2 98 24 9C 1B 80 19 1B 0D 89 20 20 1C 9A 28 A1 1B 99 81 16 8B 18 A0 80 16 98 1C A0 A4 24 19 AB 1A 17 91 14 A0 28 25 99 A3 94 11 1C 1C A0 9B 9F 8E 81 05 1F 23 93 29 28 22 93 01 0E A4 A0 94 01 1D 9F A0 11 9C 21 1D A5 25 92 14 21 81 1B A3 94 20 0B 0C 20 1C 19 19 1A 9F 20 A5 88 29 24 98 21 26 28 11 A0 84 93 21 8A A3 98 98 1D 24 A8 92 04 9C 81 99 9E 98 9C 13 9B A1 A4 26 10 8C 8C 1B 8D 08 01 22 0A 86 0B 12 9A 1E A0 0E 94 15 21 13 08 1F 99 0F 01 1D 99 20 18 1A 1B 99 17 8A 20 A0 0B 1B 1B 10 19 15 1B 01 1D 95 11 1E 11 22 89 99 1C 1D 82 1B 0A 19 20 16 82 1C 91 97 93 19 08 23 99 14 90 93 13 99 8C 01 92 1D 17 9B 1A 85 09 13 1A 9F 23 0C 81 9A 15 8D 99 96 18 20 21 0A 26 18 23 1F 20 20 81 21 99 22 01 1F 00 81 24 0B 81 20 27 11 9B 20 22 08 13 1D 22 87 0A 9C 8F 1C 20 8B 24 13 17 21 97 97 91 1A 8F 8B 9E 93 9C 19 19 80 17 12 85 9A 96 95 15 09 9C 11 9B 11 9A 9A 2B 0D 91 28 1E 9D 98 9C 27 25 92 9A 9A 18 9A 19 95 A0 15 1E 23 28 1C 1F 17 28 19 29 25 1D 89 87 95 23 19 1D 14 1B 2D A1 01 97 9F 1C 90 24 8B 13 98 84 A1 26 9B A0 28 9E 29 96 20 98 A1 9D 1B 23 15 1C 98 23 26 1A 9A 16 94 24 28 09 12 1B 05 1C 1F 00 28 9A 1B 0B 98 A6 9F 8D 0F 9F 94 1F 98 01 1B 81 14 81 01 24 07 19 81 22 92 0A 8E 0B 14 11 8E 29 22 12 9E A6 1A 01 8D 87 95 1D 99 19 1C 01 1B 1F 1C 99 99 1E 9D 81 1F 12 08 0D 13 98 9F 9A 99 06 95 0A 1B 01 01 1C 10 01 9A 12 09 1D 91 9F 11 9C 91 1A 01 1D 97 88 9B 0D 1B 11 14 89 9E 94 10 9C 1A 9A 8A 13 18 99 88 0B 1B 8C 98 96 1D 98 9B 1C 9C 8F 9A 9D 19 81 1A 9A 0E 13 1B 1F 1E 99 95 88 01 9C 09 18 9A 93 1C 1A 18 1D 97 99 9A 80 9A 95 83 99 91 96 96 17 19 14 1A 85 1F 14 1C 9A 18 17 8A 8B 14 01 19 9D 0A 9E 9B 9A A4 22 08 16 17 9B 94 23 98 10 9A 22 96 93 18 16 1A 99 91 11 81 9D 99 85 A1 1D 25 9A 81 81 9F 01 84 9F 1B 9E 98 19 9A 19 01 1A 88 1A 94 16 1A 24 98 1C 98 22 97 99 25 91 8B 95 06 A1 A1 09 97 9A 89 1A 9A 20 8E A5 14 0E 99 9A 18 10 17 18 9E A2 8B 1A 81 0D 90 9A 97 96 25 1E 01 A0 19 14 85 23 1D 98 13 A6 18 01 8B 18 1C 96 9D 85 1F 9A 88 15 0D 1C 01 80 A0 9C 90 A0 14 24 0E 1A 8D 28 9B 93 15 98 1F 19 19 24 19 A4 1C 07 0B 10 2A 26 A4 86 91 17 1A 27 A0 0A 25 24 1E A1 A4 1A 8E 26 20 29 19 28 90 18 19 91 A0 9F 18 98 26 1C 08 81 A5 93 9B 90 2A 89 20 8B A6 20 23 14 25 27 1C A1 87 1F A2 1C A1 14 23 08 A3 1F 23 28 9D 92 18 20 28 92 19 A1 99 A2 21 23 93 9E 81 A1 2A 26 9D 81 22 11 9A 23 99 23 18 0C A2 19 07 29 A0 29 A5 1E 29 81 15 9F 1B 92 01 24 20 21 91 9E A2 92 94 1C 01 0A 16 97 01 97 15 93 1A 12 1E 01 18 A1 1B 22 98 A2 9F 9A 99 1D 0A 9D 96 17 1C 97 1B 1A 09 10 89 20 18 21 91 1C 1C 1A 9E 88 9A A1 15 95 93 08 8D 9E 9B 1F 0A 8F 8F 94 A3 21 92 11 9B 9B 21 98 0B 01 8B 1C 88 18 92 89 9C 1D 19 11 9B 01 9F 21 27 18 8A 22 9E 82 9B 20 98 0F 92 91 06 06 A3 12 1A A0 98 8E 9D 89 1E 16 8A 10 93 18 9F 9E 9B 82 93 A2 09 21 1A A0 0D 21 A0 1C 97 99 18 19 9D A3 96 9B 21 81 92 98 1D 1A 91 1A 93 A1 1C 21 81 97 01 01 9D 15 A0 18 20 12 12 0D 17 89 A1 9A 1F 28 16 1C 9B 1D 93 1E 9D 81 05 01 A0 16 19 9E 9A 9A A2 20 1B 99 1D 8E 03 13 92 99 9D A9 81 91 20 18 9E A1 A9 12 1E 9D 23 19 13 19 1D 09 88 1A 01 9B 9B 17 19 A0 9A 81 12 17 98 17 81 00 9B 02 16 01 98 02 1A 18 98 21 88 A0 81 17 A0 22 11 11 08 20 1A 1A 96 81 81 15 9E 96 1F 02 1C 01 1D 9B A8 A0 01 9F 90 8A 9D 81 8D 99 23 21 0D A0 8A 81 A4 A2 16 25 99 19 9F 9B 18 9A 8D A0 1A 25 24 9E 1C 09 19 90 99 9A 99 8D 0F 1D 95 21 16 9B 96 9A A0 9A 1F 19 0D 01 9B 19 01 0B 25 16 10 8B A1 98 19 17 20 99 81 09 25 0C 95 88 21 94 0A 92 9F 07 9B 90 A1 01 01 19 01 0B 0C 0C 22 1B 16 1A 9F A6 1C 1F 01 20 90 8F 9B 81 1F 9E 22 1F 8A 85 95 99 21 10 8B 22 0B 12 23 27 9A 09 9F 93 13 8F 99 10 91 8D 9B 01 26 A0 1D 1E A2 98 26 9A A1 19 99 81 9E A2 13 20 8E 83 15 A2 1A 10 21 A0 14 2A 91 A0 21 1B 9D 8C 81 9A 11 26 21 12 9B 9C 9D 12 1D 1B 9F 9D 92 A0 04 A0 03 8C 16 0D 23 A3 15 01 99 90 27 1F 1D 1B 1B 1E 18 A1 97 22 96 0A A1 18 85 2A 1B A2 20 18 94 20 19 14 28 19 09 28 1A 23 99 93 22 01 28 81 1B 9D A0 1B 1E 09 29 96 10 21 1B 96 16 02 82 0F 12 23 23 1A 80 1B A0 81 0C 9C 21 21 19 0B 9F 81 9A 80 91 1A 21 15 8C 01 10 19 0B 98 21 18 22 92 25 1C 99 26 0B 09 20 15 11 8D 93 85 96 24 1C 22 A5 01 A0 9D 8A 9F 1A 18 93 01 1C 1F 17 1F 81 91 96 1A 23 1A 01 94 1C 23 15 11 92 0A 0F 08 91 18 81 14 96 21 22 96 95 22 04 93 9B 8C 1C 0A 95 A0 1F 83 13 18 A5 12 83 13 14 01 98 22 1E 1A 11 94 A9 20 98 1D 84 84 08 8C 1D 1A 10 13 1E 9E 8E 12 1A 81 17 06 03 90 1C 18 01 01 21 1F 8E 10 1D 9D 9C 8A 81 20 8B 1E 08 A0 1E 96 93 9F 23 22 A1 94 93 0A 9F 26 98 16 19 00 15 96 96 17 19 20 25 2A 23 1A 01 0A 1C 91 07 A1 27 A0 2B 18 81 98 9A 09 14 21 28 1F 14 92 9F 23 98 0D 1B 9E 23 04 22 21 8D 1E 20 21 29 20 A1 24 21 25 93 9A 99 0A 24 9A 20 A2 11 25 19 11 1E 22 93 9B 10 19 1F 1D 18 00 9A 20 01 21 96 91 90 08 1A 2B 01 1E 95 28 1F 18 8E 8B A0 1D 25 26 20 21 89 1D 1B 0E 18 23 8C 99 A3 94 01 0D 15 98 97 A0 21 19 9B 16 18 25 24 10 1E 18 0D 85 81 94 1C 21 8E A2 21 1F A5 0D 21 24 92 92 A1 95 9B 9A A0 20 16 9D 89 A1 22 18 1E 81 9F 29 21 14 17 19 8E 22 20 27 24 90 90 91 00 27 1C 9F A0 1A 10 9E 1E 1C 25 15 14 9E 81 1C 1F A2 15 01 21 01 1F 00 20 A0 A0 99 04 1D 1A 06 99 21 A1 16 81 A5 1C 98 9F 12 A0 0C 9A 12 81 1C 28 11 15 15 A4 15 24 83 16 94 9A 0C 1B 84 1A 9A 15 90 90 94 18 82 14 88 1B 8F 0E 9B 9B 01 01 13 18 A0 93 9F 9D 20 96 95 1D 13 16 9E 9D 85 1D 84 00 21 9B 03 94 0E 01 98 9D 09 99 1A 98 9F 12 07 A9 92 A5 1B 14 9C 81 9B 86 90 22 1A 17 01 15 9B 96 01 14 9D 99 84 23 20 9B 08 15 0D 99 09 99 16 18 96 98 A0 9F 8E 1A 1A 93 A2 91 A7 1C 23 10 8B 81 9A A0 11 9F 96 A1 01 98 A0 05 1C 1A 9C A1 99 1E 96 95 97 01 91 1A 1C 18 90 A0 A3 1A 96 19 1C A0 19 8E 8F A2 A3 8C 1F 9E 8A 9A A0 99 9E 1B 01 1F A1 92 25 9D 03 A8 19 81 85 89 1C 8A 01 0B 8E 23 03 96 01 1B 0A 17 92 9C 81 1D 0D 19 18 89 1B 14 0C A9 0E 90 11 1D 1D 9B 21 92 20 24 A7 10 03 81 95 1B A3 19 18 A0 96 98 96 9D 10 8D 8B A0 1A 22 A0 13 24 23 15 19 A3 20 9B 9F 22 A6 9B 08 0C 81 A0 94 9D 09 13 20 15 0E 9D 9F 22 9A 9E 03 19 96 18 20 19 20 12 8C 09 A2 18 A0 11 03 20 97 9A 12 99 1A 0F 01 83 8C 13 88 08 9B 81 99 10 1F 9D 9C 17 19 07 12 81 23 9E 0D 9A 20 23 0D A3 1A 97 A6 98 20 1C 11 23 26 22 18 A7 12 9C 22 9F A2 8E 17 95 1D 9B 9F A5 A1 1C 9F 85 99 A2 A2 99 23 1A 9E A1 A0 18 0A 9A 10 03 1B 18 A3 17 98 24 16 A6 83 24 9F 19 14 11 1A 1F 90 0F 1C 94 98 90 1D 10 20 18 22 9D 19 14 88 81 16 12 81 20 92 81 1B 90 9A 9A 09 19 8E 9C 01 18 84 9E 81 16 A5 1A 96 81 17 01 24 0C 0B 24 1D 22 16 8C A1 9F 20 22 21 17 9F 1D 9C 9C 90 12 9C 9B 8A 89 24 01 18 86 0F 01 11 1C 23 20 92 21 27 09 17 1A 1D 8E 1C 0A 11 94 81 A3 23 A2 24 0E 91 9D 9F 16 20 A7 01 10 11 9A A5 24 A0 24 84 0C 1B 88 98 1C 20 26 98 24 1E 07 09 1F 1B 94 9C 94 20 93 A0 1C 1D 9D 27 16 98 9F 06 27 22 1F 96 0F 97 98 21 A0 1C 81 9C 22 9E 81 11 A2 0F A3 16 9F 96 12 1B 8D 96 8D A0 0D 1D 81 19 9D 0D 21 81 12 27 96 12 20 1D 18 01 96 1F 1F A8 18 9F 81 8A 16 20 19 98 21 81 84 1D 1F 86 1C 8A 21 2C 2B 1E 1C 1A 25 18 18 1F 99 27 13 14 A8 26 14 15 19 27 1E 95 19 1B 9A A2 9C 88 AA 21 0B A3 A3 A2 23 22 22 95 01 89 11 97 23 97 1A 9C 25 24 23 1B 9D 0A 9A 23 9F 0C 20 19 88 1D A5 93 9F 98 01 1E 9A 8C 90 98 16 12 90 A0 26 9C 01 0B 14 90 9C 18 18 9E 81 21 28 98 1D 81 99 81 94 17 23 10 8E 80 1B 1E 1C 16 01 21 88 8B 1C 13 A2 8A 20 01 92 9C 90 9E 12 19 83 10 1C 20 87 A2 11 98 1C 8A 1A 18 22 1A 10 8B 88 89 20 27 96 18 00 0E 15 9C 90 1D 91 24 81 15 14 A3 81 23 01 0F 81 9A A1 1B 8A 24 1E 1F 90 15 A2 0E 0B 1D 89 9B 19 8E 1E 01 12 89 0D 1A 9A 8D 1D 16 10 99 98 25 17 09 19 99 10 1A 20 05 99 81 97 25 13 8D 11 9C 18 9D 21 23 16 1C 10 1F 18 21 84 8B 19 9E 0E 24 8B 1B 1A 9D 19 92 92 97 21 21 98 91 25 15 8D 92 18 1F 8B 22 1F 1F 27 01 01 0D 98 A0 81 1B 0D 07 9C 99 22 81 0E 19 13 98 14 01 9D 13 21 21 89 1B 18 1C 9A 23 25 1C A0 1D 29 25 9B 21 1E 1B 9B 0A 96 04 24 02 20 99 1A 25 16 15 98 20 93 18 8A A0 21 9B 18 1E 81 8B 13 01 17 1F 99 24 26 20 8E 1B 9F 1F 20 0E 21 90 1C 98 18 91 19 1D 08 9F 98 96 81 24 23 1D 20 25 19 23 0D 97 8E 81 9C 94 1D 24 8C 99 21 1C 14 20 1D 8C 1B 89 11 29 AB 1B 1E 1F 1B 97 1B 21 0F 1D 15 89 89 99 02 13 21 1E 9B 97 92 99 99 29 1A 8C A3 98 8E 01 19 89 A3 22 19 0F 86 08 22 A2 8C A5 24 22 9D 9A 1A 1E 22 25 23 9D 15 8D A0 22 2B 28 1D 11 13 1B 1C 9B 01 98 89 01 01 22 27 19 01 81 1E 1A 20 94 2A 23 0E A9 17 21 29 27 0C 21 19 8D 9C 04 0E 9B 1A 02 12 02 1F 18 09 87 93 28 10 23 2B 20 11 09 98 A4 17 9A 20 01 01 21 0E 15 09 86 27 13 81 22 22 8D 2B 28 96 9B 8D 90 9A 01 04 A8 22 81 9A 9B 10 A0 19 8C 2A 22 0E 27 2A 17 93 08 87 18 94 0E 18 23 2B 15 19 30 9B 15 A1 1C 2C 21 98 9D 27 16 8E 25 23 A7 A4 28 20 28 23 9C 14 A8 8D 24 2A 21 14 26 20 1D 9C 01 91 A3 0C 20 11 26 8F 2D 28 A3 A8 17 28 20 23 9F 8A 20 23 95 1E 15 20 13 01 28 9B 23 23 81 01 97 21 19 28 14 29 21 09 1A 26 13 18 26 A0 9B 18 8E 97 9D 9B 99 1C 1F 94 9E 98 9F 1D 9C 0E 93 8F 98 9E 03 1D 99 94 81 80 8A 8B 81 0B 1F 9D 1B 1B 8E 8B 1B 9A 99 91 0D 99 16 9E 98 0F 81 94 0D 9E 09 98 94 81 1E 05 01 9E 93 01 1F 81 9E 19 17 95 80 98 1C 96 0B 18 8A 1B 14 1A 8C 1F 1C 9B 12 96 8A 16 9A 81 13 01 81 81 17 9C 95 19 9B 98 13 9B 94 1C 19 81 81 9A 99 1C 01 14 1E 99 9E 12 96 01 81 17 1D 9A 15 81 01 1E 16 04 81 97 98 9C 99 1B 23 9F 21 9D 15 97 A3 9A 9B A5 27 1A A3 18 9E 14 9B 95 23 25 20 A7 A4 8D A0 27 A3 91 9C 20 A2 A3 9C 27 A3 28 26 29 99 91 18 A8 9F A2 91 1F 95 8B A1 17 21 1D 9A 1A 9F 2A 25 1E 81 90 9F 29 11 1B 83 18 A5 94 23 20 23 9F A2 28 25 98 0F 20 22 A4 A0 A9 A2 26 97 A9 9D 90 1E 25 9F A3 17 9E 8F 14 93 90 A1 95 9C 99 A4 28 9C A5 9F 98 A7 1D 81 21 1B 22 19 81 01 18 92 91 95 1B 22 A4 27 23 92 96 0C 98 9B 9A 14 93 01 95 9A 15 16 9A 1D 98 9F 1B 97 99 91 8D 13 1D 81 81 81 0F 0D 8D 8C 95 92 A0 15 8F 9B 8E 88 19 01 01 9B 1F 93 0F 9C 9D 13 18 0E 07 8F 0C 1D 97 0D 1D 15 9D 9A 9D 1E 81 01 0D 1E 9F 94 9D 8B 9D 1F 1C 0A 99 1E 99 15 01 89 01 9A 14 98 9C 89 81 19 1C 9E 1F 8A 9B 0A 9D 96 94 12 99 1E 9C 98 09 12 8F 9F 81 9D 8B 20 81 9C 1B 15 9E 99 1D 1B 1C 1B 96 1A 1A 98 1A 1A 1A 1F 17 1B 96 99 1A 94 98 12 1C 27 8D 1F 9E 20 A6 1F 8A 85 A0 2A 27 9B A4 A3 19 1A 22 16 0C 1E 81 18 1B A0 18 21 20 28 28 28 21 1F 97 9C 1E 0C 98 12 13 24 13 1C 8D 9B 9C A1 1E 21 A0 1E 96 A2 1A 24 22 22 A4 27 97 22 04 06 20 1D 0A 23 22 A2 08 22 21 96 16 9E 22 2A 27 06 1A 10 10 1C 21 25 9B 9A 12 1A 1A 98 24 27 A5 93 A0 81 28 0E 11 1A 92 9B 2A 99 20 A1 21 1A 9C 22 17 21 8E 29 28 01 28 87 A3 23 1A A3 8E 9B 9E 21 12 99 23 8F 9B 20 25 22 08 81 18 81 97 18 20 89 0C 8D 01 0D 1D 1D A8 11 29 1A A3 10 1C 80 9E 1A 1A 1C 14 26 21 20 17 A0 96 1C 16 A5 81 1C 1C 16 88 9F 8F 98 04 81 9E 19 A0 A3 18 8B 28 1A 94 09 19 20 A0 15 23 1C 9C 0E 9A 9F 1F 20 9D 88 12 1C 17 91 21 89 94 12 23 11 1A 15 01 22 16 21 23 0B 88 01 1C 01 9F 28 25 80 17 1C A0 18 8D 98 25 05 25 21 91 9C 1A 87 1D 19 26 17 11 81 1B 14 06 01 9D 15 93 1E 91 08 9B 94 9D 81 13 0C 1B 1F 0D 1C 01 90 12 0C 9B 9F 16 1D 0C 81 1F 89 18 23 1D 9D 93 1C 9E 99 1D 16 96 8C 9A A0 95 8F 85 9A 1E 01 21 10 9A 14 0D 98 19 1C 1A 00 01 08 14 18 1D 0A 9A 9E 1B 1F 81 89 10 17 A4 9F 9C 1A 94 9F A2 11 9C 1A 20 9B 18 1F 95 98 89 95 9D 11 1F 1A 81 9D 20 88 9E 09 19 8D 8C 9C 19 1C 9A 12 10 13 82 09 1A 96 93 01 9C 90 12 99 10 9D 14 1F 26 97 9A A0 1E 25 16 27 22 8C 08 81 0F 21 A8 29 21 8B 9E A9 8C 99 27 16 1A A1 29 1E 96 18 25 98 23 22 81 18 1E 0C A3 9E 1B 9C 28 26 99 21 10 25 A3 0E 02 18 9B 24 1E 22 92 96 28 17 1D 28 19 1F A4 01 26 21 A1 11 1F 25 91 A6 29 21 16 91 01 A3 23 24 85 1A 01 22 94 22 A1 08 9A 21 11 22 0C A2 17 01 1B 9C 26 99 A0 95 97 1F 96 8C 24 86 27 A1 28 01 18 24 81 A2 18 0F 26 11 13 A0 05 14 01 99 91 9C 95 1B 8A 21 16 90 1D 8C 9C 20 8A 17 98 1E 13 9E A1 20 12 01 15 9E 8D 25 81 21 1D A4 11 19 28 21 16 9A 18 9E 9A 0B 09 98 9D A0 13 21 9A 97 22 99 8A A1 1E 24 9B 92 18 9B 1F 22 94 8F 1A 1B 10 20 91 8A 90 83 06 27 25 9D 0B 82 14 A0 1F 17 15 01 19 23 81 99 22 99 12 93 9B A0 04 21 24 9E 8F 29 A0 9D 0B 18 24 9F 01 9A 8E 90 21 98 15 83 0C 08 94 1A 15 0E 21 1E 14 93 22 9B 9E 99 1A 9A 84 1E 90 97 9C 97 1B 0E 1A 98 15 16 9E 1F 01 80 9A 1C 06 98 1C 93 9D 13 1D 01 9A 09 1B 9E 15 12 8C 21 9B 12 06 11 91 01 8C 8C 20 11 98 1E 97 18 16 9E 19 9C 18 1B 9A 87 1E 9E 16 9A 99 13 A0 1C 8E 91 02 9E 07 21 18 9C 98 81 12 09 9D 9A 10 01 09 1C 01 15 98 1E 01 9A 85 91 18 15 98 99 1B 82 1A 88 8F 9B 81 1F 1E 0B 16 9A 9F 1F 90 81 9F 96 95 09 95 1B 9A 06 18 88 20 9E 19 9F 20 0A 1C 99 01 9F 1E 1E 8F 1E 0E 8D 9B 21 98 17 19 93 88 1B 21 9A 0D 1D 22 8B 20 1A 9F 29 23 20 1D 1F 1A 8B 29 20 27 1A 94 18 01 90 A0 01 01 86 98 27 19 1D 1D 81 21 A2 81 29 8E 0A 89 A1 08 1D 99 86 25 97 8F 20 26 A2 9B 84 13 28 12 01 1B 1F 21 91 21 0C 1A 19 81 1E 97 8A 1A 22 17 15 10 A0 A1 0D 21 94 1A 21 01 19 85 15 24 9E A0 9C 1B 9B 25 9C 24 A0 21 29 1A 1F 9A 22 96 85 23 18 9C 19 12 9B 94 9B 1E 0E 9E 99 16 22 1F 98 9E 22 15 0C 0D 1F 20 A0 97 97 21 12 1B 9F 17 14 A0 1D 18 85 97 18 9D 9D A5 9F 98 85 12 10 81 0C 94 92 1D 12 9F 9C 8C 8E A2 1D 89 1C A2 A0 21 23 0C 14 A1 1C 94 A0 8E 1B 81 9B 14 94 26 A0 9D A4 1B 88 20 97 18 8F 1C 94 A2 9D 00 9C 14 95 9D 0A 01 96 86 90 1C 1E 1C 1D 9D 93 1A 23 0A A0 0C 1E 9E 11 9C 01 98 9F 12 08 1D 21 18 81 15 1B 88 A0 85 A2 A1 9F 92 28 05 A1 9C 9C 9F 19 90 96 93 20 93 1D 0D 14 9A 9A 23 20 24 23 19 14 1A 9B 27 92 16 A8 9E 01 24 1C 11 A1 18 1F 23 21 8A 92 83 81 27 11 25 24 9C 20 99 8D 1A 1F 09 05 20 22 25 81 A2 18 17 15 11 0E 9E 18 25 1C 08 94 A2 1D 21 13 81 16 8A 14 91 1B 90 0B 1A 20 9F 0B 1E 24 1D 9F A4 1D 18 1A 10 A0 98 26 18 06 1B 99 20 9B 97 1B 9A 20 25 84 22 10 A1 28 A3 9C 91 8B 22 91 13 1F 16 A4 17 16 1F A2 21 22 9A 19 A0 A1 01 25 A3 26 8D A7 91 9B A1 10 A0 28 26 AA A4 AD A4 99 24 0D 99 9D 1D 0B 11 A6 21 25 27 06 1A 22 21 A1 9C 1C 1F 81 0B A3 A1 29 13 1B 81 A8 95 A0 16 21 86 0D 95 AB 1F 0F 9A 21 81 1C A0 99 A0 9D 99 1B 22 24 26 87 01 23 24 16 A0 A2 21 20 91 9C A8 10 9D 10 A5 A6 9C 97 A5 01 9B A8 A5 9E A2 15 21 01 95 A4 81 85 1A 0A 2A 1D 23 A0 22 10 A3 9D 9E A4 A0 10 29 22 9A 19 A9 A0 9C 81 81 11 18 8D 92 21 1A 93 81 8F 01 94 1B 92 8E 1D 19 1F 11 A4 1A 16 95 1A 19 9A 12 11 19 1D 08 0C 1B A0 0E 2A 1A 19 8F 1B 01 8B 20 1B 08 19 15 1F A3 1B 01 27 1A 9A 1E 1D 93 98 0E 8F 18 93 01 1C 01 A0 92 1F 19 09 1B 85 18 9A 1B 01 1B 99 97 13 16 26 1C 99 A0 8A 10 1D A2 99 97 1B 1C 1D A0 A5 0A 9C 1B 25 1E 18 A1 81 10 13 9E 07 14 18 1F 99 9F 9A A1 23 17 99 91 21 21 90 83 81 92 80 9E 9D 9D 88 15 1F 1B 98 1B 8F 8E 92 01 11 96 8B 8F 9B 18 9C 81 81 90 97 1C 98 1D 1A 98 1B 82 1C 8A 08 01 9C 9C 1D 0D 0A 9A 81 8F 1D 18 95 1C 90 98 94 88 94 92 11 0B 8A 8B 1B 9A 1D 9A 1F 1F 01 1C 16 94 8D 05 95 9C 9E 08 9F 1A 1E 99 18 1B 1C 1B 1D 04 98 81 89 19 13 9F 19 9C 13 1A 09 10 92 17 81 9B 91 1E 9D 0E 12 9B 81 9B 8A 95 1B 9B 14 99 1E 9E 1C 1C 96 19 09 97 91 01 9C 17 12 81 1C 81 10 9A 14 99 A3 18 9F A0 24 8A 9F 1D 22 1D 23 21 95 04 1C 97 92 1F 0F 8F 98 1E 15 97 9A 07 19 1E A1 1E 21 01 A2 A2 0C A0 91 82 A3 22 23 80 23 A0 1B 8F 02 2B 99 81 16 10 04 10 1C 13 96 91 26 1D 20 20 1A 19 A7 16 9A 21 18 9D 1E 24 1F 1A 10 A2 14 01 95 19 24 9A 0E 07 A0 A1 23 87 81 1C A5 00 23 1B 89 16 81 20 06 0F 98 9B 13 95 10 93 01 1B 99 22 24 26 89 9B 97 1E 9D 98 20 9B 18 24 20 10 94 04 12 10 25 9E 12 12 88 15 18 21 16 95 92 14 81 91 A2 13 A0 19 04 15 01 19 22 97 01 1C 93 8E 1B 22 A1 01 01 96 9B 20 13 17 83 21 10 88 22 89 8C A0 81 18 A0 A4 01 1B 82 8A 97 99 19 A3 14 19 20 06 A3 89 98 A2 1F 1C 1E 17 18 1C 9B 1A 99 95 81 17 28 17 23 81 98 8C 8F 1E 14 1C 1C 87 81 01 1F 90 98 20 97 26 93 16 97 15 19 1F 1B 21 15 23 8F 1B 15 24 0A 9D 95 27 8A 86 1C 81 0F 9E 1C A6 20 06 98 16 18 13 07 93 1C 22 25 21 26 81 1D 93 19 1D 18 94 9E 20 1D 1E 97 9A 9E 81 9E 29 24 11 20 21 1C 21 18 A7 8A 12 15 24 20 22 28 9D 22 19 1B 1A 1C 23 9D 0C 98 27 21 10 2A 89 98 1C 20 A8 09 28 14 1A 1B 99 24 21 81 1F 15 A4 98 22 14 20 A1 22 24 28 88 1A 26 2A 13 9B 26 1E 15 1F 9C 9C 1F 24 82 A1 A2 13 15 19 1E 98 28 90 07 1C 8F 18 26 21 01 24 28 22 26 1F 1C 11 16 25 01 14 A6 0E 92 1F 0A A0 95 81 22 11 81 1D 1B 01 97 9C 9D 90 97 18 A0 81 94 9B 9E 93 19 93 01 1F 98 09 08 1C 03 20 A3 15 23 22 1A 15 18 8A 03 94 0B 19 1F A0 16 A2 1D 9F 1A A2 99 9B 85 1C 99 8F 04 A6 1A 9C 81 86 9F 82 95 1D 9B 9E 01 93 99 81 91 29 01 88 1F 96 21 21 1E 9B 9D A5 0B 09 A5 81 92 98 28 08 92 9F A1 17 1D 96 98 11 17 8E 96 9A 0F 02 99 25 A1 20 0E 9B 99 A2 95 81 8B 25 11 93 01 03 90 9B 23 95 8A 11 11 1D 81 22 01 0A 0E 1C 91 9B 13 81 8C A1 21 19 21 A0 11 9D 1A 89 A4 1D 9B 9A 22 1A 0D A2 9C 81 19 04 9D 07 1F 1F 21 14 19 99 A5 9D 11 98 1F 8A 25 1B A2 1A 01 11 27 93 21 8B 9C 81 9C 88 06 21 1E 0F 05 01 9A 9F 20 A4 9F 82 9E 1F A1 17 90 99 9D 80 20 81 1C 96 A0 25 0A 16 24 A4 11 99 9D 29 15 8D 11 A2 1A 82 1C 15 19 9A 14 A5 23 02 1A 96 9F 23 9A 94 1A 1D A2 A2 8A 23 10 01 1B 93 9B 9A 9A 9B 17 20 25 22 0C 8B 20 1A 18 8F 26 18 9F 19 A3 9A 8F 12 8E 01 8C 0B 8A 12 A6 1D 10 27 18 22 08 1F 9A 0B 20 1B 17 1C 12 88 90 A0 11 18 99 11 20 91 11 19 A0 12 0A 99 81 92 12 19 1B 9F 1A 80 0F 8B 16 09 26 0B 14 20 29 24 90 10 98 1E 18 15 15 91 1B 1A 1B 9B 97 82 1A A3 21 19 17 A5 81 25 21 19 86 16 A7 1D 25 20 16 23 9E 21 98 12 21 10 11 01 81 A4 1C 1E 97 18 99 A1 11 0B 01 23 01 9A 0B 91 20 9B 09 14 20 0E 92 18 01 9A 9D 19 87 9C 1F 02 9C 9F 99 95 88 81 9E 94 8B 99 06 01 81 89 90 13 14 9B 9E 97 18 01 0F 9D 98 0C 88 01 90 12 9A 10 18 1C 23 0F 22 1F 20 1E 91 9A 9C 88 23 24 28 9A 9B 8A 01 95 8B 08 A0 18 99 19 A0 21 17 15 10 1E 05 1D 10 95 8A 81 A3 1C A0 10 20 01 96 97 82 A0 8F A2 10 A0 1E 01 18 99 A1 9A 1A A0 9E 1A 8D 20 20 01 8F A0 A0 91 07 28 21 18 A4 81 1B 01 2B 1E 15 27 0B 0D 18 8D 88 92 9D 29 98 A4 17 21 22 1C 9F 13 20 8A 20 1C 22 1A 21 A6 10 91 81 1D 09 90 18 22 22 94 8E 88 16 08 92 81 A1 18 21 1B 14 1C 18 97 93 1D 24 82 22 1B 98 19 90 23 01 23 89 1A 9A 9F 1E 13 21 A0 91 20 98 24 19 01 20 1A 9B 1D 0A 1B 89 1D 15 1F 9F 98 1D 20 21 98 1B 23 11 10 01 98 22 1A 23 1C 01 A0 05 A0 23 A3 1A 17 22 20 11 92 8B A0 A2 92 9B 22 10 87 81 99 19 0B 8D 99 1C 0B 8D 06 1A 18 1C 8C 0C A4 13 18 81 01 A0 02 81 99 8D 96 9A 18 97 1E 28 20 98 95 08 8E 93 8C A0 A1 01 1B 19 28 25 A0 21 19 15 A0 16 0A 11 14 98 1E 1F A1 23 0A 99 14 1F A1 14 1A 8E 91 9F 1C 25 25 A2 00 93 1B A0 01 9B 11 A0 16 25 A1 21 21 23 1D 09 18 21 84 94 27 91 A5 19 21 99 24 A1 90 8F 9B 1E 98 28 A2 10 1F 89 1D 15 1F 90 25 88 18 01 20 22 A2 A0 99 1D 98 A1 0D 81 95 9A 9E 1A 9D 1B 1E A3 81 24 15 0F 8E 91 21 96 88 0F 15 81 9F 10 95 18 95 04 12 1C 22 91 94 06 01 A3 94 1D 9E 17 21 20 1D 12 8F A0 19 08 A0 A1 11 07 93 25 9D 12 94 9A 20 20 A8 0D 9B 92 92 95 13 A3 21 94 23 9B 9C 11 05 1F 11 81 92 92 1F 21 A0 9A 1F 9F 12 95 9B 22 14 09 10 22 18 19 93 18 94 1C 18 12 1B 01 01 0C 81 1F 1A 98 A1 1C 0D 1C A0 15 99 23 9B 12 0E 08 01 A3 90 97 9A 1F 12 24 08 94 9C 1E 21 99 27 92 91 23 17 01 05 9F 26 98 18 24 27 15 1A 9C 0B 22 98 A5 22 9F 9B 2A 88 16 1B 20 23 07 9B 80 23 1F 26 1D 12 00 9E 8B A0 22 1D 11 98 21 23 10 23 9F A0 19 A1 1B 25 10 A0 92 25 8E 24 25 0A 91 12 18 8E 0E 01 1F 1E 06 20 0F 20 9F 8E A1 1D 26 21 89 9E 91 19 21 1D 26 94 1F 92 13 26 26 16 1A 9D 1B 0F 24 23 16 01 9E A0 29 A3 9A 92 89 20 1A A2 10 12 9A 21 9F 26 11 18 20 0A 9E 1C 99 A1 1B 99 0D 84 19 92 1E 99 96 00 17 1B 12 23 08 29 1C 20 8D 90 21 08 1C 19 99 89 11 17 21 1F 20 0A 06 98 91 1C 0F 20 28 93 18 A0 22 1F 96 1F 0C 1F 1C 21 25 1C 20 24 1B 21 01 96 20 18 23 01 81 9B 0E 21 26 9F 1D 9B 9A 01 08 0A 21 25 29 17 26 1A 26 21 17 14 1C 85 1A 20 10 08 1D 26 25 24 9A 9A 12 23 24 81 21 1D 99 20 81 1B 9A 21 28 19 19 1F 10 27 18 1A A1 15 81 23 A4 A4 2A 15 0D 9F 81 19 23 96 01 81 03 10 11 16 A1 10 01 1A 99 0D 99 84 0C 87 14 18 95 12 8B 9D 0A 1D 8F 1E 0A 8F 81 23 8F 1A 0C 8A 1C 18 1F 19 81 8C 18 A5 21 9B 19 9A 9B 20 1C 01 85 9C 19 13 8F A3 98 96 A0 9E 18 90 1F 18 A1 A2 15 20 18 25 9F 8D 99 22 24 91 13 90 99 95 22 A3 9D 1B 92 16 15 9F 8A 97 A5 13 1A 81 96 87 A2 05 09 1E 13 20 03 1B 10 14 94 88 18 92 9E 8B 1C 10 22 9B 0E 81 81 96 85 01 98 81 8C 10 97 19 81 96 23 23 09 01 9B 12 10 9A 9B 28 95 17 01 92 26 1A 90 A2 8D 22 23 8C 17 9D 9F 9C 26 21 91 87 95 24 21 22 18 8E 1C 9E 94 9B 21 99 20 A0 81 1C 99 9A 86 A1 9E 93 A0 04 1E 20 9A A4 99 18 23 17 9E 01 98 1A 9B 15 15 01 01 9B 8D 1D 99 26 10 97 22 9B 09 2B 1F 23 01 8D 12 8E 11 14 26 9C 19 1D 22 8F 27 1A 9C 1C 0D 97 0F 91 A0 18 18 1C 28 23 9E 23 A4 02 88 10 8D 20 1B 97 91 8B 01 14 15 1A 0C 99 20 82 9F 18 20 8A 24 1C 98 84 9E 99 19 1F 21 9C 1A 12 88 22 A2 81 25 1A 19 22 28 20 16 25 21 22 20 9E 1C 12 21 97 0B 92 A0 0F 17 1E 13 10 94 81 A2 21 89 01 A0 0D 24 81 22 9F 19 1A 1B 8F 16 20 9F 8A 11 1C 9A 15 9A 1D 23 21 9F 94 0E 1B 8F 16 92 1D 9A 0F 0B 9D 9D 1C 23 A1 01 09 81 1A 8C 10 2A 01 88 18 1C 9A 11 1B 9E 9E 89 26 1D 22 1B 29 A0 27 1B A8 9D 8A 9A 22 13 18 28 21 18 2B 9E 9F 22 1F 97 9F 90 1D 92 A2 80 2B 95 A7 9B 9D 2B 9F A0 02 A0 1A 01 93 90 01 A8 96 2E 28 81 29 26 25 1D 02 23 9E A3 1C 9E A2 23 A3 2E 9E A8 1C 9E 99 20 A8 0E A7 AD 95 20 1C A8 17 98 28 0B 9E 9E 1F 81 A4 81 28 91 2A 19 9B 07 28 9C 17 19 8D 28 10 A8 28 08 18 22 A0 10 A3 9C 25 2D 9D 19 A2 22 89 2C 19 1B 11 05 A4 22 97 9C A0 93 93 24 A6 8D 1F 9E 9B 9E 16 01 03 08 97 95 81 9D 80 9F A4 20 80 A4 9B 28 97 22 A1 23 18 25 A6 A8 29 91 98 A8 9A 22 07 81 9A 1D 23 18 26 28 90 26 19 0F A0 9C 20 9C 88 24 99 2B 90 20 9D 24 27 9F 86 8C 17 25 A0 06 2A 1B 20 2A A6 1F 1F 12 0D 9B 0B 23 2B 12 1E 97 0B 0A 17 98 91 01 26 18 17 22 17 23 24 A1 93 29 A0 1A 25 9A 09 8C 1C 20 21 96 9A 18 0A 22 9B 04 9E 1B 16 8E 08 96 26 1A 16 1D 81 20 26 0C 21 12 16 19 94 13 8A 95 94 13 9A 99 99 08 A2 03 01 A3 1A 1B 98 9B 00 8F 01 8A 9C 9B 23 8C 1E 9D 1B 14 14 1A 9A 05 13 12 18 90 20 94 82 93 A4 9F A7 01 20 9B 9B 10 9B 1E A2 A7 26 81 9A 1F 81 24 80 13 81 94 94 21 24 8C 23 9D 20 A1 9B 1B 08 22 1C 1C 24 20 9F 9D A5 01 14 0B 81 09 95 14 81 93 A6 07 9D 28 9E 11 81 14 84 83 22 97 21 8B 18 94 91 9A 9E 98 1A 1E 26 A1 14 1F 26 20 A4 A0 1A 91 9D 1F 9C 1A 93 A1 1D 9F 1E 9F 0B 19 16 1A 1F 98 A0 0A 0C 9B 14 9A 13 0B 9F A0 1C 91 9A 81 99 13 A0 10 A2 1E 20 A5 9F 1C 89 99 15 26 21 00 1A 25 94 0C A0 97 05 24 08 81 A1 A7 98 24 A0 1B 9C 0D 20 A0 9D 93 A3 A4 1F 21 16 A2 9D 83 1D 91 0F 21 18 12 0B 0C 12 80 28 20 81 1F 23 9A 91 A1 98 1B 06 99 81 21 A3 19 16 9E A3 1F 93 24 98 18 92 9B 99 25 1B 01 1E 96 81 91 14 9F 96 1B 9D 1B A0 19 1E 0E 96 19 A5 20 1E 81 19 9D 85 8D 02 29 10 29 0A 25 A3 22 91 93 A2 20 29 99 A0 A8 12 9C 27 01 9F 1C 19 18 21 A7 09 11 20 20 0F 1F 23 99 1B 20 22 94 05 15 10 2B 16 21 8D A3 A2 9C 23 25 0E 16 14 A3 26 23 24 12 11 24 96 21 21 0E 1A 16 23 1C 25 A5 1D 20 17 92 0A AA 2A 28 9C 1A 81 1B 22 23 13 0B 94 A3 91 20 8F A7 21 28 20 93 8B 0A 86 97 9A 22 15 8A 28 13 21 98 18 21 01 20 1D 1B 19 20 29 1B 1D 1B 9B 9B 1D 19 22 9B 84 0E 12 1D 22 1A 16 21 8D 93 15 8F 14 22 19 A8 13 A2 1F 9B 1D 15 9F 00 8F 21 1C 9A 89 23 23 13 02 2A 1B 0A 24 16 02 9C A4 05 98 1D 91 9A 98 9A 8E 20 0D 1C 0F 23 1E A3 21 22 9B 80 1E 22 90 A2 21 9F 28 1A 18 96 24 8D 96 9E 26 97 1A 81 99 28 19 1E 9C 17 A1 21 01 97 23 95 98 21 91 10 9B 09 23 22 08 04 81 13 9B 01 9D 9D 18 9D 10 9F 0D 20 91 1E 0E 05 A1 16 28 16 11 00 A3 13 A1 21 23 16 94 A2 A1 05 9B 1C 22 89 1C 11 16 12 1D 94 22 25 A2 20 22 8F 22 9F 1C 98 18 90 9D 95 27 A9 01 26 21 98 9C 17 A2 A2 96 01 26 22 A0 17 16 27 0E A1 06 A1 1A 87 2A 20 8D 99 26 21 25 24 1E 9F 01 12 29 11 A1 94 20 12 A9 24 86 23 A0 99 A0 84 1F 1B A5 26 A0 16 20 16 A0 23 A4 8E 91 16 83 1A 25 10 0E A1 22 A0 9C 16 A0 98 A0 95 91 A2 8D 1B 20 1C 09 91 93 9F 0E 1C A7 93 16 0B 22 A8 16 16 29 A0 9A A1 12 25 9E 1C 83 19 18 1E 97 81 A7 27 09 A0 24 A9 12 9E 11 21 13 84 26 95 23 99 81 92 1E 92 81 26 2D 15 94 8A 20 98 21 24 9D 22 1E 26 A9 8A 9B 1D 87 20 29 28 95 A1 1B 96 16 81 81 1C 9E A6 16 18 24 88 92 99 21 A6 24 81 2B 1F 19 01 25 24 19 81 97 81 A0 28 89 1A 26 21 17 25 98 9D 91 90 1E 25 13 98 11 9C 1C 22 9D 19 25 90 25 A5 24 9A 00 24 25 94 A1 1F 24 22 1A 95 98 94 17 01 20 9A 19 20 9E 19 22 A2 16 1C 1A 01 16 8F 00 A0 A2 0D 80 A1 0A 0D 92 20 A0 24 1C 17 19 10 9C 11 13 9A 9B 81 20 0E 19 18 A2 92 9B 05 9E 9F A1 81 93 88 9A 20 9A 0D 08 1F 98 97 99 1F 01 0C 20 0E 01 88 0B 20 1C 15 8C 01 9C 97 1C 97 14 11 21 22 01 1B 1D 9E 95 14 A0 94 1E 01 12 09 81 1C 93 21 93 A1 24 94 22 1D 01 9C 97 19 A0 85 18 0B 95 9C 14 20 93 22 98 1C 10 8F 99 1E 9D 9D 97 90 9D 1C 81 18 9B 1E 87 81 15 96 9A 1E 9A 1F 82 93 14 93 90 19 15 81 9D 9A 9C 91 0D 1F 08 81 8D 1A 90 99 0E 08 99 8A 0A 1B 15 01 1C 14 9C 90 8B 9A 1C 20 8F 01 17 19 99 8D 1B 12 91 13 98 9B A0 98 8B 05 93 9C 93 9B 1E 1F 19 09 1B 8F 16 99 91 10 81 08 97 15 8C 1A 0A 8A 90 9A 0B 1F 1D 01 97 01 19 19 9B 01 1A 98 10 9F 9B 17 94 94 15 1E 8D 1E 9B 99 9C 87 94 98 81 1F 18 93 9C 16 8A 9D 1F 9E 26 A0 89 12 9D 1B 1C 01 24 9B 80 13 13 92 9C A2 23 00 0C 8B 28 A1 A5 18 9A 21 8C 1B 81 19 16 15 0C 21 13 A5 13 24 25 11 1B 28 1F 1D A1 95 9C 1D 9D A6 01 8C 17 28 A0 1B 96 8A 1D 94 A2 89 9B A3 24 23 83 A8 17 A5 19 06 98 21 1A 1A 9E 81 1D 16 23 12 9A 97 21 A1 8F A4 9C 23 21 A1 17 11 91 1F 90 09 A3 01 27 29 18 9E 23 1D 08 01 06 1B 1F 92 1C 0F 95 9B 8B 16 98 20 A9 9F 23 01 14 17 98 A4 0F 12 22 99 9F 16 9A 20 1B 1A 81 13 9B 14 9F 1B A8 26 25 A9 90 AC 99 9A 28 18 19 8B 10 23 1A A0 81 1D 24 9C 1B 28 2A 16 1C 25 22 1D 1F 1D A0 23 15 01 A9 87 92 17 12 20 97 06 1E A1 15 0D 9C 11 81 28 9D A9 9A 19 1B 0D 08 19 29 A5 1F 13 25 16 10 01 22 2E 24 09 A0 99 A2 1C 20 A6 1B 97 A1 1D 1C A7 A5 0D 94 22 20 9D 12 8B 97 1F 81 8C 2D 1A 20 A4 22 01 81 1F 95 9D 9E 1A 28 81 04 80 AB 96 81 93 1F 9A 88 02 9F 02 14 0F 16 91 1A 9C 95 92 9E 16 12 9C 88 A8 9E 98 1A 1F 9A 20 17 1F 8B 89 10 02 24 11 22 29 22 17 12 88 8E 9B 1B 22 9A 21 19 20 12 A4 0E 0D 1E 96 9E 1D 1E A2 1B 98 95 1B 1A 8E 1D 0C 82 0A 8A 21 28 25 8D A1 1F 82 1D 1B 91 99 1E 24 17 15 9F 02 18 20 A2 9F 19 94 A2 1E 16 13 96 92 8F 26 87 17 88 1E 9F 21 8E 1E 21 81 22 17 1E 96 A6 27 0C 0B 97 0A 1D 9E 0F 04 A0 20 88 9E 9A 1C 94 1B 1D 1F 12 93 8A 1A 01 8C 1D 1A 1D 87 85 14 94 01 25 01 19 98 8D 20 81 9A 25 96 97 12 1F 90 1B 8F 9F 8F 02 A0 0E 9D 21 1D 9E 0D 9D 0C 10 1C 10 98 01 1D 1F 20 81 21 1E 16 01 21 19 86 27 1A 94 08 1A 16 86 1D 15 09 02 22 21 1E 99 01 1A 1F 01 1C 21 19 1F 1D 98 20 23 20 25 13 85 1A 22 1F 1B 1A 18 91 8D 01 9B 1F 97 1D 9C 1A 1A 8B 99 09 86 16 01 08 25 98 1A 19 98 9A 1D 14 19 1E 98 9B 1A 15 06 19 1A 82 05 9D 1E 1E 0F A1 01 9C 15 1F 15 A0 96 15 10 94 81 0F 13 16 11 22 1D 01 20 9D 19 25 23 94 20 26 1C 20 07 95 1B 8B 95 0A 9D 20 93 22 1E 18 24 16 1D 19 01 9C 04 9A 91 99 19 A1 0A 9F 24 20 24 21 1C 19 81 23 1A 99 21 1E 8C 09 81 17 0A 24 88 21 15 8A 22 22 0F 16 14 17 9B 89 13 26 0A 18 8C 9D 0E 04 22 9E 8B 10 16 1B 1B 0C 17 9E 17 A0 99 A1 24 24 8D A0 12 1D 18 18 92 81 9E 89 9B 99 85 9E 14 99 1D 97 9E 98 01 1E 98 17 9C 8E 0E 96 9D 9D 1E 87 81 90 9C 19 07 19 10 81 1C 1F 11 9D 88 1C 81 0C 9E 12 96 1B 18 9E 1E 0D 9F 12 9E 19 1E 9F 01 96 9F 9C 1A 98 1A 14 91 05 9B 1A 9F 1A 81 11 12 04 09 09 12 12 19 98 9A 95 8F 0E 19 8C 9B 88 81 9F 9B 01 12 17 1D 89 0C 9A 1B 1D 9B 91 06 17 81 19 0B 1D 1F 18 9C 0D 00 94 16 01 01 99 93 04 0E 99 91 9C 9B 22 8C 15 81 98 92 01 18 A2 9A 81 0B A3 20 98 9B 92 23 81 A1 22 98 25 1D 9B 09 A0 84 9B 80 9D 0C 23 81 90 1D 0E 18 A2 A4 98 9D 10 06 22 29 86 98 1B 13 1B 89 24 23 22 1F 14 1E 1C 11 25 10 8E 9A 1D 9D 9A 1B 21 20 98 99 25 20 16 94 28 15 20 99 18 85 22 17 05 A1 8B 21 1E 22 A8 81 18 91 21 24 19 1E 09 19 A5 26 98 8C 9D A4 22 9C 12 81 18 9A 0A 82 18 92 9C 1A 9D 1D 9A 21 94 97 1F 00 96 24 98 08 9B 25 0F 98 29 10 25 2C A2 1B 2B 1E 1A 1C 15 1E 18 98 20 23 20 01 16 A0 2A 12 24 1B 1C 28 96 A2 19 19 9F 95 25 21 16 25 1F 16 98 09 25 96 21 9B 10 96 03 16 22 82 24 8E 28 92 01 94 22 01 98 9F 10 0D 8E 29 19 21 8B 9D 1A 21 A2 9B A4 29 12 11 17 A4 23 29 1A 28 99 94 26 22 1F 2E 94 18 21 1C 27 0F 19 20 26 A0 9D 20 0C 9E 26 93 A0 19 01 88 81 0B 81 12 2A 20 29 90 81 22 9F 94 A0 24 A4 1B 81 05 98 12 22 99 18 21 18 19 01 A3 A0 87 99 0A 03 89 A4 1A 10 A1 1B 98 20 81 1E 01 21 1A 9A 15 23 98 8E 99 1E 24 81 22 04 1C 0F A1 91 18 1D 1B A1 A4 96 98 1C 9A 1D 99 1C 1C A4 8F 21 96 97 88 1C 08 A3 93 8C 19 1E 9B 17 01 9B 8B 9E 0D 18 1B 20 9A 23 18 09 A1 9A A6 1E 17 A4 81 20 01 24 1F 99 9D 94 1F 24 81 9B 1D A5 8E 02 0A 97 98 9B 0C 99 0B 10 99 99 99 1B 9A 1E 17 9F A0 00 A1 1B 9D AA A2 0A 0E 28 21 9C 24 A1 8C 1A 27 15 89 98 17 9C 9F 17 2A 10 18 9D A1 20 9A 9A A7 1C 28 1D A3 15 89 01 11 1D 15 99 27 17 28 25 16 95 92 17 10 A2 1A 1F 1E 18 91 9E 17 9B 01 20 92 A2 90 95 A2 1C 2A 1B A6 8F 9A 21 A2 8C 1B 19 A4 93 98 97 25 05 85 A1 97 9D 02 02 21 90 1D 01 1D 07 19 15 0A 20 8F 88 81 21 A8 88 81 16 91 2E 88 0F A0 1C 9C 22 A1 A6 17 A0 2B 1B 01 9D 8C 9A 21 92 18 1B 07 11 93 06 84 9E 02 90 A7 28 95 9F 1A 10 19 21 A3 26 20 A5 A8 AB 1E 1D 0A 83 0E A0 9E 9A 12 81 1C A1 23 28 1B 1A 99 94 9C 95 15 01 1B 90 13 23 94 20 15 9E 11 A5 24 95 19 9D 0A 9C 24 A2 21 1A A5 1A 15 03 A0 8B 95 21 20 96 1D 99 8F 13 1F 95 A2 A2 1D 25 A0 16 0D 29 19 8F A0 19 91 9A A1 9E 99 A3 02 8E A0 9D 16 94 8A 97 9F 81 17 0E 27 9E 9F 10 80 9B 0A 95 1C 97 20 21 22 1A 24 1E A7 0D 17 9F 21 9B 9E 26 19 96 1F A3 10 2A 17 9C 84 91 16 14 9B 98 20 A8 9D 98 1B 22 10 22 A2 26 1B 23 A9 08 01 A7 12 21 84 1A 28 27 1D 01 1E 99 A0 20 9A 9A A1 98 0A 27 A0 99 01 1B 99 20 89 1B A3 A4 9D 24 24 98 1D 15 23 97 9D 05 24 11 A1 A3 04 A0 29 1D A7 19 28 96 0A 01 19 23 22 01 25 10 22 8F 94 13 9F 1B 0C 28 A0 04 1B 1B 90 2C 13 92 17 0A 96 87 11 81 17 16 8B 1F 14 A0 12 93 20 1B 83 13 12 90 1D 14 93 20 88 11 26 A3 8A 28 19 87 9B 19 26 01 A1 20 22 21 9A A0 98 16 0A 1B 98 05 8D 1B 83 0E 93 A6 9B 0D 06 01 1A 1B 10 9F 9E 1C 9C 93 94 A2 15 9C A0 24 9B 99 81 16 0A 12 9C 1F 91 A7 13 0E 89 9C 22 A2 1C 10 A3 19 05 1B 94 9B 91 92 20 25 98 8F 1E 96 10 9F 8B 1A 21 01 18 8A 1B 25 1A 1D 9F 16 25 06 98 19 96 1D 9B 20 01 16 9F 01 9A 1E 99 1B 18 20 A4 19 A0 9C 8B A3 87 9E 26 91 86 08 87 1D 01 18 1D 10 20 1F 21 0F 14 1F 93 21 1F 1F 22 9B 28 92 93 97 14 26 18 09 23 9E 9A 28 80 21 1F 18 1F 26 21 9B 21 26 23 09 17 0E 98 24 99 14 9A 23 1E 23 1E 25 22 98 99 21 91 17 A7 0B 1C 21 19 98 16 95 19 03 99 20 1D 19 07 21 87 91 28 28 22 18 17 06 12 1E 0F 07 9C 89 22 1A 1B 21 15 90 81 91 1C 20 95 1A 99 99 16 1E 19 18 06 9B 22 1E 94 1A 16 24 1D 94 88 88 1A 01 18 1C 22 28 08 9A 01 9D A0 0F A2 00 18 99 15 18 1B 96 17 1E 21 A3 A1 28 A0 29 1E 81 1B A8 1E 21 24 1D A8 1E 81 A3 96 21 9E A3 9E 95 87 9D 97 9E 1D 24 16 A1 9B 15 01 12 17 9D 0D 0C 03 28 8B 2A 21 22 26 81 25 9F 21 21 2C 98 8B 95 13 1D A0 28 19 01 A1 01 A3 25 0F 14 81 1E 1E 0F 29 9D 0A 0E 9A 1B 1A 08 25 2A 21 1B 24 A6 16 9B 97 22 9A A3 81 98 A1 89 0C 24 14 2B 12 24 A0 1B 1F 14 A5 97 82 16 28 A2 12 19 21 8C 9D 9B 97 1F 91 19 1C 9E 86 A2 81 18 91 1B 91 9B 81 A3 9F A0 1C 03 80 16 0B 20 0B A6 81 16 1E 1D 08 23 22 A1 20 94 90 A0 84 11 14 0B 0B 98 9F A8 97 1D 90 1B A1 15 81 A6 14 89 15 19 1D 95 A0 90 0B 1B 1B A1 01 1E 1D 0D 21 1A 20 8D 0D 1E 10 11 93 A3 A3 0D A1 22 8B 93 95 8F AA 15 1E A2 A6 19 84 21 03 8F 19 A3 86 92 15 9F 81 01 20 A5 1F 20 A6 15 9A 88 A4 96 21 20 95 95 A2 A1 12 22 28 97 12 A1 95 19 81 12 95 98 18 10 86 97 96 80 19 21 9F 12 97 98 9D A0 81 9A 1A A1 99 0E 23 9D 01 95 06 07 1E A1 A4 A2 9B 0B 1F 23 9A 93 06 23 9D 98 91 18 06 98 20 22 A1 01 20 12 96 22 1C 03 9E 0C 22 9A 17 9A 08 A0 9F 9E 01 81 21 8F A5 9E 0B 26 13 9E 12 1B 9D 19 0C 98 19 91 94 98 9C 0C 1B A2 81 8F 1A 19 92 23 88 A0 A3 16 97 00 01 92 1F 19 8F 1C 8A 13 98 1D 81 20 9C 9B 96 1A A0 19 A2 99 10 A1 90 06 99 28 88 98 22 11 90 12 81 20 15 99 95 09 1C 1D 80 08 01 A4 90 87 29 2A 0B 8A 22 1B 1C 9E 9C 14 9A 07 21 2A 28 A6 1A 2C 1A 8E 8F 1B 23 8D 1B 1F 23 99 9A 1D 22 A2 11 14 98 1D 22 1C AB 14 A3 20 2A 1F 12 0B 1A 26 97 9B 1B A8 22 0B 9E 9E 05 2B 24 99 91 22 15 1C 26 A6 A7 80 1E 17 91 9A 25 89 8B 8D 9B 29 22 A0 1C 1F 8B 23 20 9D 1E 81 28 01 29 17 1D 1A 23 81 03 92 01 1A 10 81 1B 82 18 20 99 1C 1B 1F 08 97 9C 10 9E 21 03 96 09 9A 9A 81 1E 9F 18 0D 00 1F 9D 92 13 1F 1B 8C 26 22 21 98 8E 21 99 8F 8C 1B 81 1C 90 22 9E 9F 8A 13 98 22 1A 1B 01 00 0B 23 20 9B 20 26 07 A3 20 00 18 22 81 22 14 9F 01 23 23 8C 11 14 20 16 91 1E 9F 9A 12 17 04 92 8B A0 9C 22 13 8A A5 15 23 84 11 96 1B 01 03 08 9A 01 1E 0B 20 9E 1E 21 A5 1A 1B 9D A1 22 18 1F 0B 81 8C 1F 97 00 90 A0 17 13 97 00 9E 28 13 A0 25 27 A0 22 1B 16 20 19 9C A9 25 92 95 A2 9A 09 1A 14 26 23 17 10 27 28 22 18 A0 9B 14 06 1B 15 26 1D A0 27 98 26 A1 22 2C 83 92 0E 21 19 17 21 24 9D 94 28 98 1E 21 20 9D 01 A4 2C 27 16 14 23 1B 10 8F 93 A1 99 25 26 11 24 11 27 25 9F A2 28 21 27 21 A8 A4 20 27 1B 0B 9C 1F 91 1F 25 93 24 08 17 25 98 1E 16 21 18 28 1B 13 24 29 99 18 81 9B 10 1B 14 1A 1F 10 17 95 8D 93 81 04 12 97 10 A5 19 A0 1C 1B 1C 92 91 9B 1C 10 91 21 96 1B 1C 01 04 A4 A1 96 8D 1D 8A 25 A3 1C 9F 16 9D A3 08 A3 98 96 91 12 8B 26 A7 A3 99 27 2D A5 20 1E 9F 9A 29 1F 9B 1B A3 8A 24 1F 18 A1 9B 9B 16 9E 8B 19 14 98 99 9D 23 91 95 A2 87 91 09 8F 02 12 93 81 9A 9D 23 26 01 9D 29 1B 91 81 99 99 A8 1D A1 18 1B 9D 14 81 01 10 20 9C 12 1E 01 A1 81 A0 10 22 19 9A 1C 21 12 28 19 95 20 9C 19 26 14 01 01 1D 89 81 18 27 1F 87 03 22 23 23 9D 18 95 81 1B 21 1C 14 20 1E 1B 8F 1A 17 8E 1D 90 21 8E 91 09 24 23 0F 13 0C 1F A1 80 16 20 A2 1A 23 25 81 17 8A 1E A7 28 14 1C 25 1E 21 97 88 1C 1A 1D 96 24 16 99 10 15 11 22 0B 92 23 29 1A 0A 22 27 1B 26 1B 25 1C 1A 1B 28 16 80 2A 81 93 82 16 23 9F 1B 19 1E 1B A0 1D 01 24 2A 20 29 A2 26 21 0D 9A 15 A2 93 22 11 86 91 01 93 9E 1A 1D 81 1D 17 A0 16 9C 80 1F 0A 1C 92 9E 27 86 1D 22 10 19 81 98 95 9F 20 20 1C 01 A0 24 24 21 18 9A 13 1D 14 04 1A 8C 23 17 25 1F 21 20 94 0E 95 22 81 A2 97 89 23 0C 21 25 16 19 20 00 28 2A 26 81 22 27 16 04 A0 A4 07 18 1E 26 81 82 24 18 1F A4 28 0E 1E 1C 26 16 9D 0D 1C 81 1C 01 1A 1D 1C 99 0D 20 A3 85 1C 9E 13 11 85 85 12 9D 27 20 20 29 12 9F 9D 9D 91 20 99 22 A4 21 19 25 19 1A 81 21 1C 11 2A 90 1F 03 28 1A 21 98 2D 17 A6 19 9D 13 94 24 19 17 1B 20 24 81 9B 26 26 26 87 1F 2C 25 19 20 29 1C 94 20 21 1A 2B 9C 24 A5 18 10 29 11 21 81 25 19 A9 92 18 99 25 93 28 98 86 81 A6 1B 22 22 23 23 81 29 1E 25 9B 03 9D 20 2E 19 28 91 8F 90 22 13 19 05 25 98 29 17 8E 1E 1E 17 24 1B 94 10 95 81 13 0A 1A 28 0E 23 A5 2A 16 93 21 97 11 A2 1D 2C 22 18 1D A8 8D 10 00 80 0C 08 01 09 19 98 1E 9F 1C 8F 91 98 0F 13 8D 96 1F 1D 9A 9A 17 96 9D 16 9B 81 94 0C 99 1E 8C 1B 83 18 8B 91 92 08 93 1D 18 9C 18 1C 98 9E 18 1C 9F 9F 94 1D 95 81 9C 01 15 9A 01 93 1E 99 81 17 19 95 93 9C 94 84 00 1E 9E 94 99 9E 9F 10 1F 89 0E 81 09 85 05 14 82 1B 13 1E 05 01 18 1A 97 9A 9B 90 01 19 87 9E 15 8B 94 9C 9C 1F 91 0C 0D 18 1C 02 8E 81 19 1B 19 0D 9A 0B 18 95 23 0F 1E 1B 1A 08 A3 92 18 18 17 A0 1B 1D 18 81 85 1A A0 15 1E 1C 90 22 02 09 1C 81 20 8C 1D 97 0B 13 A3 81 09 1D A0 9C 9C 0A 9E 9B 81 19 20 8D 93 9E 20 8B 15 1E 0C 14 1D 0E 18 9A 1F 18 17 20 23 1C 92 20 25 19 23 A2 1C 1A 11 A5 1F 17 09 09 17 9F 83 1F 98 91 9B 01 24 1F A2 90 20 1A 9E 19 88 21 20 21 15 0D A1 22 98 12 12 9B A0 08 86 04 9B 99 93 02 23 16 18 02 22 89 89 A0 19 01 0B 19 99 9D 9B 12 04 1A 16 1B 1B 9C 9A 1B 9E 94 1F 1B 18 85 86 1C 9A 1D 1C 9C 18 1E 85 1F 98 11 96 14 06 1F 81 17 90 9D 93 0A 13 98 81 9D 1E 93 15 9D 98 1D 00 87 98 1C 92 9A 1D 00 8C 18 9E 9C 8C 1E 18 9B 18 0C 18 9D 12 16 94 0F 99 9B 15 9D 1B 9D 98 17 98 01 9D 81 8F 98 19 02 01 05 1C 9C 19 1B 12 8B 9A 9B 8D 09 1F 11 9B 91 01 10 00 9B 92 15 80 9E 97 9E 9A 81 9E 16 9B 0D 99 1A 19 1E 04 17 0B 88 07 8B 90 01 1E 10 90 1E 15 9E 81 19 21 03 17 01 99 9A 8F 05 11 21 09 A4 05 13 88 13 94 24 1C 0B 18 23 10 19 27 98 84 23 22 1B 23 1F 24 13 14 9D 81 A0 23 22 1E 01 98 22 1F 17 28 11 89 9E 1E 81 08 22 81 9F A5 8A 24 1C 17 9F 18 81 87 1C 94 17 97 81 17 25 1C 21 1F 23 10 15 24 1F 21 29 8F A2 21 20 A1 10 20 81 94 12 24 19 20 18 A0 18 9E 14 22 1E 1C 22 1C 1C 10 21 10 1D 93 A1 01 22 28 9E A3 9C 19 10 0B 8B 98 23 12 11 19 22 1D 14 90 17 98 A6 01 16 94 81 01 A1 23 9E 98 A8 1F 22 25 93 21 0F A1 11 19 8D 8D 23 25 8E 23 01 0F 9D 0D 1C A8 01 22 26 1D 9B 9C 99 9D 9D 11 A5 81 12 98 97 23 25 0B 86 18 16 1B 94 94 1F 22 81 9A 89 9E 1C 19 99 08 21 9B 92 1D 82 93 1F 9C 26 08 27 20 85 20 90 18 0A 1B 9E A1 1A 81 1A 22 1B 9E 9C 8D 08 28 19 9F 20 9B 20 8A 21 A1 1F A3 9D 9E 23 21 24 01 9E 98 84 9C 9F 9E 88 0B 1D 92 9B 81 8D 12 8E 91 1F 99 9A 84 9E 99 10 12 A0 8A 91 19 8E A4 16 A0 14 10 17 A5 99 0E 12 A0 8C 94 99 8D 14 8D 9F 0C 19 99 07 90 1A 0F 95 96 22 A0 1D 8E 13 9C 0A 95 99 18 01 99 9A 9F 1F 1E A0 94 08 20 A4 17 A3 8A 0B 14 95 19 A1 8C 1E A1 98 98 96 0D A0 12 13 18 11 13 1A 9E 0B 96 80 8A 9D A0 92 81 0E 99 16 81 94 15 A1 96 17 95 1A 14 0A 8E 19 0E A0 92 11 8A 1E 01 89 97 81 16 9B 0B 20 93 1A 16 16 21 9A 1F 25 A2 8F 8F 9E 9B 1D A2 94 98 1F 9E A3 93 0E 99 28 17 25 23 1C 90 8E 81 1E 0F 1A 0C 01 1D 93 1D 05 A0 9D 12 1E 1A 22 90 1A 93 1B 05 0B 23 0A 0B 01 97 9D 1D 1E 86 22 24 A0 17 1E 1D 1A 01 A3 80 21 1E 14 10 A0 16 15 15 9F 81 18 0E A1 24 0E 9E 81 98 81 99 03 1A 0A 9F A1 8A 23 9C 23 9D 1B 81 25 92 98 9B 09 9F 83 1B 11 20 0D 95 9B 27 93 9E 91 9D 11 23 00 01 1D 12 A3 11 84 8D 1A 19 9C 01 97 22 16 0F 94 90 01 22 9B 18 9C 94 1F 12 A4 1B 96 18 22 20 08 9C 22 23 1C 25 9F 1E A0 9A A0 1F 20 94 1A 18 24 81 15 01 91 25 11 1A 08 97 9C 1C 25 1F 8F 25 11 0A 95 8A 9A 12 97 9F 22 1B 0F 93 1D 81 15 92 1E 06 15 09 8E 01 18 05 1D 1F 94 0D 04 13 15 15 A4 09 01 1F 98 23 0B 18 88 18 A2 1C A2 9C 99 11 28 0B 14 19 22 A4 22 9E 1D 07 9C 8E 1A 0B 15 9B 10 9E 81 9E 9E 16 9A 9D 18 0F 17 15 1E 1C 18 19 9A 1E 9C 99 10 9A 88 9F 9C 93 9B 1E 90 13 9F 99 90 1A 1A 98 1F A0 16 05 0B 19 94 83 9A 1F 81 9C 91 12 03 9D 1A 90 1E 1E 9B 98 01 9D 1B 18 13 9D 19 06 10 9D 89 1E 1E 9F 02 9B 8D 92 9A 12 9D 1D 16 8D 9F 8A 1D 97 97 1B 9C 19 10 8C 9E 8A 9A 1A 98 8C 0E 18 1D 19 99 19 19 1D 8F 10 81 1E 10 81 9C 1A 1C 99 18 9A 8F 13 9C 29 A2 81 96 19 0E 13 1D A6 13 A9 A1 1C 2C 1E 10 14 29 A1 AB 2C 21 22 20 81 A6 28 17 98 14 94 2B 2F A6 1E 9A A2 A8 9E A2 97 28 27 23 22 2A 16 93 20 A1 8E 1B 2C 25 1B 98 A1 2A 22 1C 2C A1 A1 81 23 8C 0D 2A 09 08 A0 88 20 09 99 0B 2A 98 A3 94 10 22 8B A4 A5 00 9B 2B 29 22 A1 9A 13 27 29 2E A2 99 2C 22 A1 2B 80 A0 19 A1 2A 0F 18 15 91 A8 94 A4 29 94 1A 29 21 1B 22 27 A9 00 A1 04 16 2A A4 0C 9E 1C 90 1A 1E 1B 95 93 99 97 1F 81 9E 94 1C 8E 08 9E 12 26 A1 92 1B 0B 0E 18 22 81 23 9A 96 88 9B 9A A4 99 1C 1C 81 98 09 9B A5 96 1E A0 9E 01 99 A4 9A 9F 1F A8 09 9F 21 08 9B 9F 22 98 8D 23 99 99 A2 20 9C 25 A0 A0 9C 11 9F 0B 94 1E A0 1E 24 08 08 1F 9B 89 96 A4 23 1F A2 19 8B 81 1F 18 8F 98 81 15 8B 81 14 20 8D 90 20 92 9A 9A 1C 10 A5 12 19 0C 1F A6 87 12 01 88 91 A3 91 81 23 11 93 0A 11 1E 81 21 18 13 15 A2 A0 8B 23 10 A0 A2 23 21 81 19 92 12 96 19 85 08 9B 81 91 1D 95 0C 14 20 25 20 9A 81 1C A1 9E 06 1B 99 9E 88 23 97 21 85 A1 1E A2 24 24 26 9C 81 1C 21 81 1D 01 16 27 08 23 16 18 13 22 21 1E 24 9A 0F 23 1E A0 17 96 10 26 09 10 03 8B 24 98 A2 20 0E A0 10 01 9D 19 8E 81 11 8C 1F 9C 13 20 1B 22 04 8E 11 11 9D 1D 83 09 1C 83 8E 8B 1C 87 99 8A 26 97 17 A0 19 1F 1B 9B 81 A5 11 12 A2 20 8A A1 15 09 81 1D A0 09 24 20 A4 A9 0C 14 1A 94 08 95 0C A1 1C 93 22 9C 1D 24 0F 21 0F 03 9A 16 0F 01 21 11 18 10 1A 1B A2 9B 95 9E 14 1D 81 19 12 9C 18 89 81 21 9A 20 02 10 97 1E 05 99 26 0A 8A 9D 15 21 23 9C 98 9D 11 28 01 21 15 26 18 9F A2 1E 9B 9D 22 0F 88 96 22 90 8C 98 1B 12 81 98 89 02 97 81 1E 85 90 19 1B 93 01 1B 1A 9C 17 1F 1B 21 81 06 96 94 02 19 10 08 01 9E 9D A0 A0 20 0E 93 98 87 18 1A 9C 8D 18 96 A8 A8 1D 9B 1E A8 1C 1C 20 21 18 1A 20 1D 1F 1F 24 02 92 94 0F A2 0C 9B 1E 21 0C 20 A1 15 9B 9A 24 A0 10 19 22 11 9B 91 22 96 81 26 A1 17 9C 0A 99 17 9F 96 22 1A 18 97 1B 99 10 9A A4 A3 1D 28 1B 22 94 1B 1E 9F 95 1D A1 92 1A 0C 15 15 24 04 A0 9A 82 01 15 9A 19 89 A2 19 18 0F 1F A6 23 1C 0D 01 9C 8C 24 02 01 20 89 19 A3 81 98 0F 1F 9B 1D 1E 0A 01 9E 1E 1C 9D 01 8F 99 1D 13 0E 1D 19 01 9C 9A 14 99 1C 9A 91 14 11 19 9D 14 9B 13 1D 81 99 18 96 9E 91 19 1C 98 80 9D 1B 07 1A 9E 05 94 02 96 12 94 19 96 1F 06 9C 9B 00 90 1A 19 0C 86 14 01 1E 99 1A 90 9C 98 99 96 94 9C 18 9B 95 9C 9C 0D 95 8F 1C 1D 0D 0A 11 9B 19 0A 9E 8C 1A 15 9C 19 12 1B 8A 01 1D 9E 95 1C 16 8D 01 13 1D 9A 1F 01 9F 9B 95 11 1B 1E 99 11 01 82 25 01 15 81 04 08 01 20 13 17 00 18 22 1F 16 91 22 1B 1C 09 05 20 12 1E 9E A0 81 11 12 23 11 20 12 91 19 1E 21 20 A0 9B 0B 21 81 0D 27 12 17 19 19 13 8C 9D 94 18 26 10 24 1C 08 12 1D 03 20 14 22 1A 20 26 98 23 13 01 1D 9A 8C 91 20 1A 18 81 20 21 1A 1A 18 00 21 92 24 A0 1F 1A 97 15 17 8D 19 05 17 01 95 9D 9B 01 20 1C 9B 81 11 11 17 18 01 18 09 86 10 99 20 1C 0F 1D 94 81 81 1C A4 12 8D 18 13 9F 24 01 23 26 A9 A2 23 1D A1 18 9D 23 92 9C 97 2A 1D A0 10 81 28 04 1E 1A 87 15 12 A6 01 9E A8 A0 24 22 9A 05 25 23 1D 90 1C 01 95 01 A1 9C 21 A0 26 A4 A1 98 92 19 23 A4 15 9B 90 92 98 0F A6 1A 21 23 08 A7 98 8A 1C 13 A7 26 01 24 1C A0 8A 1C A0 1F 01 A1 25 24 9B 24 99 23 19 88 0C 99 0A 20 28 9B 19 9E 13 81 24 01 1D 96 96 96 1F 20 1C 93 0A 0F 91 99 9E 16 A3 9B A0 10 28 A2 84 A0 A0 9E 9F 1D 98 9E 23 01 96 90 90 8C 80 02 22 24 18 A2 90 23 9B 1D 9D 9B 98 9A 1B 29 23 1E 1E 1E 29 23 A0 97 9E 01 92 1B 20 21 01 8D 27 8B 1B 21 96 24 A8 22 90 29 91 98 21 1A 81 1D 0B 9E 27 28 28 A0 1A A1 25 2D 23 23 20 85 22 A1 91 97 A1 21 20 A0 20 1C 2C 2B A5 A5 25 1B 1C 1D A9 A4 1F 23 22 A1 94 83 9B 0D 14 9A 1F 1B 14 12 9D 97 22 9E 9A 20 10 16 20 26 1E 1A 12 16 9E 11 81 9A 13 08 9B 19 19 9F 23 1D 95 99 1F 86 12 98 9C 11 20 97 99 22 A3 13 98 1A 25 97 1F 1A 1C 23 20 99 25 81 A1 9E 1E 21 9B 24 23 03 8A 12 81 90 1A 92 A1 A2 20 A0 01 0E 98 01 1B A0 1C A2 1F 8C 87 A1 22 90 8D 1F 98 22 09 95 90 21 93 0E 9F 19 9F 12 8C 12 1C 15 93 09 9E 91 21 11 96 26 0A 81 21 A1 88 17 90 98 25 91 1E 22 19 1B 1D 15 8D 84 15 11 8F 81 8D A1 A0 81 93 9C 16 16 99 19 1B 15 20 1F 9F 25 9D 18 21 98 24 23 9C 9A 22 91 9C 9B 20 11 21 A0 1C 21 29 19 9C 1E 01 93 23 1B 94 1A 29 93 9F 10 92 1D 01 01 9E 11 9F A1 9E 20 18 0B 9F 9F 10 0E 20 1B 16 16 19 0F 26 95 27 93 24 1C 9B 09 9F 01 99 29 14 1A 92 A4 94 01 08 01 19 20 8D 01 20 9D 10 12 20 09 A7 08 19 25 08 01 A4 21 25 19 23 18 1F 23 0B 10 95 0E 18 90 01 90 99 98 95 1C 14 1C 28 0C 10 1D 1A 28 93 12 A0 99 91 2A 22 15 20 99 A0 9C 98 20 18 10 1D 21 A0 1F 16 1B 13 01 21 23 0E 07 98 97 9C 25 93 09 90 00 81 87 9A 1E 03 1F 20 22 1F 8F 11 10 06 22 19 19 A0 88 1C 9E 14 22 A2 98 0B 23 25 1C 9E 1A 9F 17 81 1F 86 19 12 91 9E 9C 92 99 1B 26 26 16 01 87 26 A0 19 0C 06 23 8C 81 19 A0 04 1A 9D 9E 9E A2 26 9E 19 9A 15 A5 14 01 15 22 06 00 A8 90 14 1F 89 25 91 15 1A A1 A2 9A 01 19 A3 8E 24 0D 1A 22 1C 8A 9F 98 96 0A 18 01 22 A0 0D 23 A8 9F 22 94 9B 8C 89 1F 9D 13 28 1F 28 9F 81 82 1C 12 21 13 0F 89 9A 93 A5 A5 0C 9A 97 09 95 95 A1 A3 07 A4 94 9D AA 05 0E 25 98 A4 91 18 9C 11 22 99 1B A4 27 20 90 22 A7 0A 20 27 1E 81 A6 A3 9F A3 A0 9E A1 A1 1A 98 1B 98 9C 8E A1 1D 01 09 1D 20 07 86 A5 14 15 20 20 81 1D 25 A5 9D 93 18 89 19 A2 A2 9D 9D 9A 9A 85 9D 26 9C 17 9A 12 10 96 9E A4 19 0C 26 98 89 98 90 9B 1D 26 1F 95 27 A2 9A 22 97 1B 12 13 23 1E 9A 1F 29 28 0A 9E 00 20 12 22 0D 16 17 17 9F 22 22 95 01 25 95 9D 26 13 1B 22 99 18 07 0E 10 A2 82 20 81 24 04 16 18 13 1D 14 A3 9A A2 9C 1F 1A 94 A1 1E 04 15 17 92 12 0A 0E 8F 9F 21 99 27 28 9F 8E 00 0A 1A 0A 98 21 1A 14 28 18 20 27 19 1B 9A 0A 2A 27 12 18 13 98 0B 25 1E A0 95 10 93 20 0A 12 95 01 19 00 89 A7 20 9C 9A 9A 19 19 99 18 90 9B 1D 16 20 9E 9D 1A A0 18 A0 1B 81 98 A6 1C 1C 87 93 14 17 9C 9A 0D 8D 17 04 0D 20 14 9B 00 1C 24 00 1C A0 9B 1B 0C 17 91 9C 11 9E 1F 08 98 90 10 9C 98 90 1D 93 18 9C 9A 22 95 13 98 90 20 A0 16 9A 0B 17 1C 05 0A 90 8A 96 23 15 1A 11 A0 0C 21 1E 20 86 11 10 8D 01 1A A0 0D 98 8C 96 92 91 14 9F 9D 13 1A 0F A1 9F 1D 18 89 23 1D 1F 90 15 9A A2 0C 1D 96 91 81 20 01 21 9B 93 01 1D 9A 17 82 10 17 A2 0C 03 9A 1A 16 98 98 01 14 27 13 A0 9A 88 12 08 95 12 8D 81 91 98 1C 19 99 9C 11 1D 9B 18 99 96 84 9C 1B A0 01 92 A8 05 19 8A 85 01 9D 0C 20 01 20 88 03 8D 94 9B 21 8E A0 22 16 1E 8F 92 95 19 9C 81 20 1D 23 1C 9C 9D 8D 1C 24 A3 9D 1E 02 14 9E A2 97 96 8E 0B 21 9C 87 15 10 9A 21 8A 1F 15 8E 82 92 8F 12 10 9F 10 99 81 20 9D 14 17 19 A1 1B 91 A2 9A 99 11 01 21 28 23 9C 1D 98 9D 1E 09 01 22 98 1B 24 11 10 13 17 19 22 99 28 01 21 2B 0F 22 A4 1C 17 89 28 1F 1D 0F 11 87 81 24 18 0A 99 20 24 0B A0 1F 1D 1B 22 13 8A 22 19 21 A4 18 26 92 8B 1C 29 22 21 1F 1A 11 23 2A 25 20 04 12 1F 96 2B 17 0D 81 8C 0E 9C 28 27 A0 16 1A 25 20 17 29 25 24 25 1F 9C 23 22 18 1C 0C 2B 23 8E 99 A0 22 22 92 11 19 9E 13 15 85 28 24 22 16 23 93 23 22 21 09 08 28 1B 25 0C 81 1C 20 9B 81 18 9B 13 1B 19 1A 98 01 03 11 16 9B 22 20 17 1A 1D 1B 18 22 10 99 20 04 19 06 04 8A 18 98 26 08 11 8E 16 11 96 21 90 A0 21 95 21 8B 18 01 1A 13 A2 1C 8B 9B 9A 11 1F 20 A1 25 86 A1 1F 21 21 8E 19 1B 22 93 01 1C 9A 97 0C 20 07 12 9F 1D 24 21 13 1B 12 19 08 1B 20 22 A7 81 19 96 21 14 22 20 1A A2 18 1F 99 1A 1C 19 86 20 1A 0C 22 89 14 A2 93 23 1B 07 1B 13 98 1C 91 1C 22 90 94 8D 89 A0 81 23 9E 14 95 1B A0 18 20 1B 8C 9A 96 1F 21 90 99 8B 98 9B 8A 19 01 02 91 0D 09 81 0C 91 8C 89 91 A2 90 9B 97 18 21 0E 19 18 81 9C 95 24 97 20 99 10 9F 19 91 0E 18 1F 9B 1F 01 9E 14 88 23 95 9F A2 01 98 9B 18 90 02 1B 9D 16 01 A0 01 15 93 21 8D 22 1F 99 92 98 A0 1B 89 9A 9B 20 00 22 8F 10 19 99 06 22 10 1B 19 9E 94 96 20 21 07 0F 20 01 91 96 11 9E 14 91 1C 90 18 22 86 A4 95 A1 81 20 03 8F 0E A0 04 1B 21 21 8E 09 1A 9D 9D 08 24 1F 22 0E 9D 90 9C 1C 90 8F 2B 23 A7 1E 1F 01 81 08 97 02 20 81 19 12 90 9C 1B 87 95 A2 A1 21 25 91 9B 9E 91 0A 81 25 A0 9E 9A A2 9A 0C 29 08 9E 0D 9D 18 9F 14 1E 16 A1 81 9C 98 1F 98 A3 81 8C 8E 81 03 15 1B 95 1F 24 8F 26 95 9C 1A 21 14 01 17 81 96 1F 17 19 27 92 9D 8E 1B A0 20 14 9E 0E 19 13 01 1B 98 99 01 9A 15 14 17 9D 94 9F 1A 9D 18 8B A0 A2 1F 98 13 19 23 12 9D 97 1F 0A A1 81 A4 86 0F 26 12 01 10 9D 1E 24 93 01 11 1F 23 01 1D 98 17 0B A1 17 18 21 98 93 28 88 A1 18 01 1A 9E 11 21 23 99 92 9B 19 0A 1D 20 98 29 1E 1C A0 15 9B 24 1E 18 1F 1D 19 15 16 A0 09 A6 90 1C 98 97 16 18 14 99 12 19 9B 0A 1B 91 99 9F 1A 0D A1 9B 16 1E 09 13 99 26 1D 8F 28 01 21 04 1C 98 16 96 19 0B 04 14 1C 90 22 19 A0 23 21 A1 1B 99 01 1A 9D 9D 1C 97 1E 18 16 01 11 93 19 1A 89 25 91 1D 2A 12 18 91 98 29 01 2C 1C 22 94 0C 1D 19 21 A4 0C 0B 07 A2 99 96 1B 20 19 25 12 17 81 A2 22 A9 88 26 97 19 00 14 9A 19 1B 23 11 89 24 23 1B 81 15 15 93 21 1E 1F 23 18 19 05 10 1B 8F 90 01 24 24 91 1A 13 14 24 12 18 1E 04 27 21 21 07 13 A8 84 9A 26 20 9A 16 8A 9D 0C A0 21 19 20 27 22 09 97 2A 25 01 9C 10 05 94 24 1C 15 13 1B A0 96 9A 97 81 9C 22 1F A2 22 20 01 21 15 27 1D 25 A2 91 2A 17 92 9D 96 23 28 20 9B 20 24 85 0F 21 23 86 1D 88 A3 A4 9C 93 28 24 12 2A 02 23 9D 17 25 87 18 86 25 2A 9F 20 17 22 21 2B 10 23 1B 01 26 A0 94 10 19 97 0D 1B 28 1C 1A 91 99 09 1F 25 1B 29 90 21 22 12 01 29 9B 02 92 18 80 1E 28 9B 23 A1 09 97 21 15 80 A7 A3 0E 19 18 21 06 20 29 23 27 A5 1E 14 21 97 25 A1 11 01 09 90 20 14 1B 8B 9F 90 20 93 19 11 8A 24 12 9A 9C 12 18 06 0A 12 9E 9C 15 8E 00 14 9E 01 A6 99 21 0C 9C 08 18 13 17 0B 8E 18 12 14 01 1C 20 10 A0 96 00 97 02 89 1D 0A A0 20 91 88 1B 00 A0 8D 9D 98 18 18 9E 19 0D 0C 1F 98 9A 9B 21 0B 81 1C 9B 8E A1 9B A4 84 08 9F 15 0C 08 9D A0 11 13 04 01 9C 91 05 9B 1E 02 22 18 A4 05 9B 15 21 9A 91 8F 9A 25 98 18 08 96 1A 10 A2 10 99 18 93 1A 10 97 81 9B 9A 90 8A 81 0E 17 93 1F 9B 19 9E 9B 99 1D 9C 89 18 93 A0 A5 01 8E 11 A0 14 01 99 18 23 A4 8B 22 81 13 21 1F 1B 9F 81 01 1E 18 1D 16 16 20 93 17 13 9F 0C 95 21 15 01 8B 04 98 90 01 1C 98 81 1B 8E 21 81 1B 9A 12 8D 20 21 A8 9C 0A 90 81 09 90 10 26 20 00 9F 1B 17 94 13 0C 10 18 A0 81 83 12 19 1E 9F 8B 17 8A 22 9A 9E 24 A3 13 20 1A 1F 97 90 A1 95 16 19 92 04 07 28 99 26 9D 96 17 95 21 1C 1D 96 23 1B 1B 20 1E 12 25 A2 9A 90 1A 9F 23 1B 96 16 19 81 18 1B 22 91 23 20 01 84 9E 94 A3 1F 24 1D 1A 24 8A 21 80 95 81 20 2A 9C 25 91 01 90 A0 9C 16 21 1D 9C 17 25 A3 01 28 1B 1E 86 20 A2 25 22 11 21 21 87 17 06 A6 22 A0 2A 9B 21 A0 09 2B 24 1E 0E 23 9E 23 26 1D 18 A8 81 22 91 87 13 24 17 28 9E 93 01 9D 1E 1B A4 98 25 9D 20 07 23 28 A5 25 01 20 92 15 22 A2 22 9D A5 1A 20 86 25 03 83 9B A1 01 90 1C 81 13 99 1B 97 01 9F 27 1E 1C 19 AA 19 95 2B 14 9C 8C 15 21 91 A2 19 81 20 26 2B 20 26 18 A1 18 1F 9A 1E 0B 88 29 17 24 1B 9F 8C 9D 29 2C 1A 1D 9D 9B 22 18 28 20 03 21 81 1E 20 15 90 23 21 23 1F 81 15 1F 1E 17 17 90 21 2C 20 21 22 87 20 83 18 20 88 92 16 0D 95 01 25 21 17 95 9B 1A 25 9B 1A 10 11 93 29 01 14 13 1B 11 A3 23 89 0B 1E 23 21 99 24 93 90 88 83 98 90 88 0D 90 9A 8A 14 91 8C 1D 24 08 05 01 02 24 81 0E 1E 16 A0 9E 10 15 19 95 83 A1 88 22 10 93 1A 23 21 23 21 9B 1E 22 05 16 1F 24 92 90 8C 1E 9A 9A 9B 18 25 90 94 97 19 11 24 8A 19 95 8C 08 09 1A 20 26 1D 05 1F A3 1D 81 89 20 1A 99 22 9B 13 25 1C 8A 92 12 94 19 00 1F 25 02 1B 88 99 8B 1A 92 9C 26 9A 13 9B 25 9F 23 13 18 19 81 A2 81 0B 92 9F 24 26 1F 8C 12 1D 99 27 19 1E 91 01 26 24 93 98 A7 26 1A 9C 24 1D A0 22 21 90 90 A2 27 22 A0 1B 9F 22 0E 29 98 0C 84 23 88 26 17 26 17 2C 23 23 27 1D 01 9F 20 1E 20 2B 2A 9A 2F 05 21 96 18 1E 96 18 23 24 21 9B A6 28 A3 A2 22 9D 06 1C 0C 9B 88 A1 1F 24 24 18 01 22 21 21 11 81 16 25 29 95 1F 21 20 94 9C A9 28 1E 22 A2 0B 9F 9E 24 A1 21 15 1C 8A 8F 01 17 20 1F 19 23 9C 23 94 2C 20 1F 1B 1C 08 28 17 29 2A A1 9F AA 97 01 19 1B A0 1B 9D A2 22 95 0D 04 11 A0 89 94 9B 14 1B 1B 82 8F 89 1C 9E 20 99 A1 10 1C 21 81 97 20 19 99 1B 23 A2 08 9D 91 07 9C 98 95 9A 98 1E 0E 81 10 01 A2 99 1D 23 12 1D 01 89 1F 26 22 1A 18 11 01 9A 22 18 17 A1 1D 1E 03 8F 18 22 0D 0A 9F 88 83 25 8C 93 8B 9B 12 20 01 01 91 88 9D 26 1D 9D 94 15 81 91 1E 16 8E 91 0B 80 9F 8B 86 9E 17 98 19 1F A1 97 1B 0A 9B 1B 02 09 20 99 99 91 11 94 19 12 1A 12 86 01 0D 19 81 16 1E 17 9A 9D 9F 13 9E 92 18 1D 8B 9C 9B 97 9A 0D 1C 9B 8F 82 08 16 9E 0C 94 0F 1B 1D 8C 98 19 08 89 98 0C 1C 97 8C 90 1C 1E 81 0A 96 90 99 81 07 9C 1A 1D 1D 98 97 1D 11 98 01 01 95 82 15 1B 0C 99 99 9D 9E 9D 1E 8C 01 20 16 A0 20 1E 9A 17 1A 1C 9A 0B 09 81 01 8D 9E 90 9D 8F 12 9F 85 18 99 90 16 9D 1B 98 1B 1B 9A 87 16 11 19 16 1D 1B 94 11 99 1C A3 8C A0 1A 13 91 24 07 20 24 14 99 15 20 22 9C 81 22 9A 81 99 24 10 16 9C 18 1D 92 1C A3 9A 20 0E 15 26 1E A0 A0 20 19 19 1C 27 21 8C 18 99 01 12 00 0E 9C 16 9A 28 99 9C 1B 9A 16 1A 81 21 8D 01 1C 1F 24 A9 1F 91 28 9F 08 81 23 95 1C A2 0E 9A 27 1E 93 16 22 9C 8F A0 9C 18 1F 08 20 20 99 13 99 16 A3 9B 26 2C 99 19 9F 18 01 16 1D 02 11 19 0D 11 1D 91 92 92 1B 1D 0C A3 22 9B 10 1A 81 29 93 93 96 98 97 1B 0F 00 10 1B 81 15 8C 25 0B 01 9C 27 19 9C 8C A8 25 8A 21 A0 17 19 16 20 29 A0 A0 1B 9B 29 24 9B 9B 08 91 15 22 94 0B 15 97 25 96 1A 15 9E 8F A6 25 23 16 9B 93 01 29 9D 2A 01 A3 1F 20 26 99 23 07 26 23 19 05 A8 9E 10 A9 12 9B A1 80 24 90 27 22 27 24 9F 22 28 86 A5 24 9B A9 81 25 29 A0 92 9E A0 29 29 A2 28 19 99 28 0E A9 99 A0 91 1A 27 20 25 25 23 17 A4 2A A0 8C 01 A0 9F 1D 02 99 1E A2 99 1D 0C 8E 1A 22 95 14 8E 19 A3 A1 26 99 01 15 91 93 82 9A 12 01 12 18 20 96 19 A0 17 94 80 18 96 A0 94 A0 9F 1C 10 95 01 9D 90 13 22 14 12 81 A3 1E 18 A1 22 A4 01 90 0D 9B 1B 11 1E 1E A3 8E 1A 0E 94 81 21 A0 9E 1B 8B 96 1A 91 10 12 1B 20 18 00 81 15 99 0C 1A 22 1D 94 08 0F A0 24 0D 12 1B 8F 22 19 91 0A 86 A0 95 92 25 17 1C 1C 27 8E 0B 17 A4 0E A0 9C A0 26 18 19 21 18 1E 99 12 9A 26 01 09 86 17 18 10 1D 20 9C 14 11 A0 9D 0E 91 1D 1F 13 05 81 98 1C 22 9E 11 81 1A 1F 01 20 97 99 19 1C 19 84 8B 81 8B 23 0F 89 1F 02 99 99 16 23 18 19 9E 9A 8E 24 01 23 83 01 81 99 14 1B 98 80 11 25 0F 81 8F 24 18 18 0D 0F 19 26 11 9C 97 10 96 1D 19 12 98 22 81 25 8D 81 11 86 22 8E 20 83 9C 1C 19 1A 22 16 22 93 01 20 1C 81 18 95 22 01 1F 22 1C 1E 98 94 A0 A4 16 0D 28 1A 9D 16 01 04 9B 81 1E 82 86 91 91 1B 9A A2 81 27 92 21 21 10 0A 0B 1A 17 28 A1 9C 91 01 A0 A2 91 05 90 9D 99 87 A0 A8 A1 1E 19 86 94 98 22 10 97 13 01 A5 9A 18 2A 99 19 19 21 18 10 1E 98 A3 16 28 87 12 A7 99 A3 9E 19 13 A0 88 97 9B 10 11 1D 0D 14 81 04 A4 84 80 24 A0 82 1C 19 1D 1C 24 85 28 90 1A 15 17 1F 12 A3 A9 0B 88 93 8A A0 14 25 9F 22 A7 1D 92 A1 A0 93 A6 9C 18 89 94 99 09 01 10 95 1F 0A 1E 9F 1A 16 81 9D 95 01 19 14 8C 81 1A 15 1F 9E 11 94 1A 9F 90 9F 90 10 90 01 9E 20 14 20 9D 82 07 8C 13 8E 9B 1E 15 81 04 81 9D 11 94 1B 0B 8E 1F 8A 8E 12 99 9A 1E 0B 87 12 19 10 11 99 9C 01 99 9A 80 95 8B 95 18 95 83 9A 80 14 01 9D 12 99 1B 99 93 9B 15 1A 93 99 88 9D 1F 99 0F 99 00 1A 9A 1F 81 81 1F 18 1D 9E 1D 19 01 91 81 81 20 96 1F 1B 96 14 14 13 89 A4 1A 14 1C 08 9E 26 96 28 26 A4 94 19 9D A4 8B 81 1E 9A 0A 9B 1D 22 A2 9C 91 25 9E 01 19 0A A6 A0 95 14 98 A4 99 20 24 87 1F 91 A0 8F A3 1C 9A A6 98 9F 9B 11 89 28 A0 99 9C 92 0E 10 A0 1A 90 91 19 96 92 A8 1F 95 24 89 9B 9E 90 1F 0B 96 28 A1 81 28 9A 93 27 A8 99 93 9F 20 80 A8 88 20 84 28 01 21 AB 9E 24 21 A0 96 9B 8C 9C 91 A2 98 98 1B 92 81 1A 1C 9C 1B 89 8D A2 9C 16 15 A1 9F 14 A3 8D 1A 23 9C 9F 22 A0 23 26 0A 1D 21 9D 92 19 15 01 1A 12 16 21 A4 26 8A 20 16 A1 81 29 11 9F 9D 00 9D A4 9A 19 21 28 1C 1F 80 A8 9D 22 2B 8E A3 8C 19 AA 16 A8 21 97 22 0F 2C 09 9A 10 22 A7 13 9A 9B 9E 90 2C 8A 24 A3 13 A4 A6 9F 12 A0 28 11 20 1C 88 28 26 8B 24 A1 A4 26 28 01 23 01 0C 26 A7 1B A3 1A 28 1D 20 81 18 1E 98 98 A6 81 92 82 1C A5 01 27 8F 28 9E 12 9F 1C 0C 19 97 01 99 0C 01 A2 9C 1B 97 01 01 9F 92 24 96 81 9E 24 A0 22 A8 29 1D A2 80 A1 19 82 25 15 8D 1F 9C 17 1E 0A 81 22 1D 1C 25 27 1E 1A 1D 20 1C 23 97 1B 9E 28 1B 9C 98 17 8C A1 1E 81 9B 96 97 A5 01 A5 1A 19 9D 14 9C 1F A7 1A 19 26 13 24 25 9F 11 08 98 0D 19 9D 20 1C 91 15 92 1C 11 16 99 91 18 9C 9A 9D 08 A0 8A 92 9F 81 15 12 1D 10 9D 09 13 9B 22 9D 1E 94 1D A1 8C 87 23 91 83 8B 1A 01 22 91 A1 A3 19 23 22 98 18 A3 92 21 0B 9A 1A 01 92 1A 99 06 20 0D 23 21 1B 01 9F 81 01 9A 0C 8B 1C A7 A5 12 26 A1 A0 13 A1 93 1F 18 A1 A3 A3 9E 1F 20 8F 9A 98 17 A2 85 13 93 A3 95 01 23 99 18 1A 26 A0 24 19 A2 A5 A5 24 95 1F A5 1F A2 9B A2 22 9D 23 98 99 A1 1A 1E 1D 8B 94 9F 99 22 11 9C 9E 0B 93 23 1C 94 01 A6 11 A1 20 19 9E 8E 1A 97 A2 14 A0 0D 13 A0 22 15 00 01 A7 91 9D 22 A1 1C A7 81 81 15 01 81 81 9D 95 8D A2 9A A1 8D A1 24 20 22 99 8B 12 A3 09 27 13 98 11 9C 95 18 A0 0F 10 9D 24 1F 90 9B 09 16 8F 1E 9A 9D A0 9D 98 92 9A 1E 12 A0 18 A0 A2 93 23 95 95 A5 23 13 88 23 02 A1 0B 01 A8 18 0B 81 1A 9F 11 24 97 A8 12 89 16 A1 16 9C 01 A4 84 1E 1D 92 28 87 1E 1F 8C 89 20 90 23 A9 A1 24 21 A1 23 13 9D 9E 0C 2A 9A 18 9D 1C 9B 9D 0A 95 98 0B 1C 21 94 29 22 84 20 A2 8C 99 1C 27 9D 9D 19 0E 92 14 A0 93 90 0B 9A 24 12 1C 9B 8B 92 01 21 05 1D A0 21 81 12 16 9D 20 01 84 23 17 94 A2 98 18 94 20 A2 08 A4 A7 8B A0 22 23 0F 14 98 23 9D A3 24 99 21 85 26 1A A2 20 14 94 20 9B 9E 10 19 20 25 21 81 15 17 A2 A1 1A A1 96 18 1B A6 96 1A 29 8F 19 24 18 25 22 9B 29 28 18 0C 8C A7 20 2A 0A 83 0A 9A 9F 03 20 89 25 A4 0F 93 81 A1 19 1F 08 24 28 9A 2C 27 95 01 91 20 9F 21 9E 19 97 24 88 01 8D A2 1E 1C 9A 1B 20 9C 1E 9A 9B 93 24 9F 12 27 09 24 9F 1A 20 1D 1E 08 81 1E 9B 82 97 95 9D 81 25 1B 91 04 A1 A5 A8 94 2B 18 1C 1A 93 9F 91 A2 04 81 0E 08 25 A2 16 98 0E 9F 1C 80 0E 02 1D 22 92 1B 9D 08 A0 19 90 22 A3 22 99 0A 16 A0 29 1C 1B 23 9B 9C 28 18 1B 1E 94 01 19 82 24 24 9C 1E 1C A2 13 23 1C 12 1E A6 92 0A 16 16 97 1E 25 99 2D A1 26 9A 01 12 1E 18 19 8B 18 11 89 1A 99 9D 1E 96 11 95 21 1C 13 81 24 8C 23 18 1A 81 25 1A 9D 07 0F 23 9B 04 96 18 98 23 0D 27 A2 9D 24 19 97 1C 8B A6 A1 82 19 28 25 9B 16 92 8A 9B 1A 12 96 8C 23 14 23 0F 1B 23 20 23 92 85 21 17 23 81 21 1E 22 26 9C 25 06 1F 19 9C 9A 93 8D 23 2A 9B 16 24 1E 22 1A 82 28 1F 1D 89 9D 0C 8A 23 1B 88 1E 18 9B 81 19 8A 86 8A 12 20 1E 1B 16 0E 12 05 27 1E 25 91 24 22 23 1A 9F 1C 15 8C 88 9E 9F 90 93 23 94 81 28 9F 02 0C 94 9D 85 9F 0B 18 93 1F 9D 08 0F 08 20 96 9C A0 98 1F 9C 19 06 26 12 0E 20 14 1C 91 20 22 05 91 16 10 2B 18 90 1A 19 26 91 22 0D 0B 9C 87 9D 0D A1 93 16 85 20 A0 01 A3 A5 98 22 29 20 1D 0D 94 09 97 98 98 15 1E 15 A4 94 A3 21 16 91 A1 A2 94 91 A1 89 A2 9E A0 92 1D 19 1E 96 00 A5 01 1E 26 91 26 8C 19 94 1F A6 92 A2 22 A2 9D 16 23 26 9C 81 A0 21 84 9A 19 88 9B 01 1B 9F 19 9D 04 23 0E 81 92 1A 1B 80 A4 0F 1C 97 20 9E A1 01 1B 20 A0 10 10 8C A5 9F 94 9F A0 23 8D 1B 01 84 12 81 19 23 15 81 02 9D 85 18 1F 16 A0 A0 93 88 9A 07 9F A3 98 1A 96 1A 01 1B 89 9A 20 1E 95 A1 81 1F 09 9E 94 0A 1B 9A A6 96 96 0A 13 1E 14 8F 81 20 19 18 09 A1 9D 08 21 81 16 12 9D 88 11 14 19 0F 9E 95 81 20 1B 1D 0D 01 1F 21 92 13 23 9B 99 9E A1 8F 1E 1F 04 A3 0F A1 92 24 96 A2 1D 81 8D 23 08 93 07 14 0A 18 9C A4 9F 08 9B 81 20 92 0F 1E A9 A2 95 A1 A8 14 9B 07 9B 1B 03 16 0D 20 02 1A A5 0B 16 93 1C A3 18 14 A0 9D 8C 97 9F A4 99 9C A1 1C 97 A7 9E 0C 22 17 A3 1A 98 1C 96 97 18 9B A8 0A A3 9C 14 98 A0 01 A3 9D 1A A4 8F 9E 27 A0 10 A2 8A 8C 94 92 1D 21 A1 9C A3 89 9E 19 A0 1E 22 9B 81 1B 94 19 9F A2 97 9D 10 16 96 1B 12 A3 23 01 18 AA 11 27 20 84 0F A0 0D 23 A3 26 23 9B 09 90 9E 1C A0 1F 1C 8F A2 A6 94 9B 1C 95 81 01 2A 86 A4 9C 22 A1 88 21 01 12 07 9D A5 A4 88 A1 11 1F 87 20 1B 29 A8 98 A4 9A 8A 19 16 2B 16 9A 27 20 18 28 81 A1 AA 9F 28 98 9F 89 22 0D A8 A3 25 91 87 A1 A9 85 1A 28 21 20 A5 8E A1 9A A4 80 A9 21 9E 09 A0 A6 9A A1 1B 9E 23 98 A1 81 18 A3 A1 18 0F 08 28 A2 27 28 81 9B A1 9A 9F 19 1D 24 A4 9C A8 2B A5 A2 96 14 06 08 04 A6 A0 A0 8E 15 81 24 9D 24 01 97 13 91 26 A2 22 91 9F 93 99 15 A2 81 2B 01 A1 99 1D 23 99 20 A6 9D 19 8C 1F 96 01 20 98 09 11 90 A3 81 2A 10 A3 A0 1B 11 98 21 24 A8 97 26 9D 8D 21 29 8D 8E 9E 29 19 A7 0D 21 96 98 A6 9E 99 A2 A7 92 1D 24 28 1E 28 A0 A9 24 24 21 2B A6 A1 21 29 9D 03 84 A9 13 18 21 9F 28 8C 1A 01 1B A2 1F 26 09 26 8F 1A 28 1F 04 9A 86 96 1B 26 15 0E 90 9C 99 9F 1B 10 01 1D 18 1C 91 98 94 9E 0B 09 95 9F A9 1B 9F A1 1D 1E 25 9A A3 89 12 0A 21 9F 81 8C A4 A1 22 20 9E 16 17 22 18 1C 9B 18 08 8A 9E A4 28 0F 18 A1 96 81 89 8F 8A 83 9B 9F 86 07 10 1C A1 A0 1B 16 8B 1D 9E 1D 93 01 A0 1F 9A 27 A2 A2 9A 01 88 0E 22 9A 1F 20 A6 25 12 90 20 A2 0A A1 9B 9B 1E 1A 01 05 9E 17 20 93 1B 88 8A 9C 84 19 98 95 81 22 96 16 81 24 00 9E 9F 9D A0 99 21 23 81 8A 86 A4 1F 93 23 20 89 24 94 01 81 0F 1B 1C 29 93 1E 0E 92 93 A2 95 A0 22 A4 A2 22 26 A5 21 1B 25 91 15 8E 9E 9A A0 9E 1B 22 8E A7 9E 26 8D A0 87 8C 81 21 23 26 94 1B 17 2A 83 1D 1F 9E 84 A1 2B 19 19 A6 23 97 A4 9F 1C 25 24 1A 98 96 29 20 0E 8B 13 1A 01 20 1A 21 81 18 1F 22 92 1E 88 A1 90 9E 24 1C 10 95 18 9B 87 93 10 A1 08 95 9A 21 16 0B 0B 0C 99 22 99 22 94 94 1A 26 A8 80 04 9B 96 9D 94 9F A5 24 8D A0 AA 98 1B 1D A8 2B 25 95 A3 A1 AA 1A 25 81 09 A0 A2 A3 1F AA 1F A0 14 29 24 21 A0 A0 9F 92 23 1E A6 9E 19 23 9F 1E 27 9A AB A9 2A 2B 9C A2 90 97 2B 81 29 A4 A9 28 0D 28 A6 21 9D 22 03 06 19 AB A3 29 95 0E 9A A8 29 28 9D 01 A1 20 24 12 26 88 A1 A8 18 A5 A4 AA 0D 28 A8 A9 A9 1C 1B A1 A0 1B 1C 1B 28 16 A7 28 A9 9E A4 97 29 A2 9A 21 28 A8 2A 8D 95 A2 0F 15 2D 18 9A 24 1B 26 28 A3 A1 27 21 22 81 20 14 90 A0 1C 2A A2 21 1E 11 2A 8E 1F 98 18 16 91 9C 9A 9A 9D 93 2C 26 9A 22 06 8B A7 1F 24 06 0D 98 18 A5 04 96 23 03 0F 23 2A 20 17 9E 1C 9F 19 A6 96 14 9C 28 22 28 84 9C A0 0A A2 92 9D 1A 17 10 28 19 1F 2A 20 23 00 8F 28 26 01 25 A0 21 23 0E 21 83 9B 1D 27 A5 93 22 22 94 26 9D 1A 9B 94 81 9F 13 91 91 28 9F 29 A0 16 1D 9E 01 A0 83 22 81 27 19 15 03 89 2A 22 A4 2E 99 A4 95 20 01 23 A8 29 28 A3 00 98 20 12 22 01 8C A4 18 15 26 9C 20 1F 2A 29 27 29 1B 1C 20 25 29 25 23 04 13 31 1B 23 0E 20 1A 21 28 13 29 1C 08 9C 2A A2 1F 1F 8B 2C 9F 24 97 1D 81 2A 28 28 2A 9B 09 2A 12 99 1A A3 26 28 01 24 9C 2A 24 0C A3 96 20 01 85 18 A7 9A 0B 18 0B 25 21 01 19 A0 10 28 27 81 2B 8F 01 24 22 98 07 9E 20 8B 93 10 2C 23 23 99 9E 08 1C 16 20 11 16 8A 16 1E 89 0A 84 11 9F 98 80 93 0B 18 0D 98 10 98 06 9D 9C 09 81 92 9C 9D 14 0B 9F 95 08 96 9C 18 95 9E 17 93 0F 98 92 1D 17 82 98 11 01 92 9C 9C 82 01 1C 1B 88 8A 0F 9D 1F 9A 17 1C 81 9C 97 1D 81 81 89 9B 9B 00 19 1F 02 8B 92 9F 85 9A 92 16 94 1C 18 81 17 1A 94 93 92 13 0D 12 82 1C 00 19 9D 95 18 15 1D 84 98 12 9C 9F 18 81 97 91 86 97 19 1D 9B 95 8A 1B 91 1F 09 A5 1F 93 22 0C 8A 21 01 28 23 A2 05 22 9C A2 97 1C 16 2A 99 8C 1D A0 A0 8B 2B 88 9D 25 03 23 04 9F 08 1E 1A 0C 14 14 2A 8E 1D 26 89 12 A1 98 A0 09 03 16 91 9B 91 0F 80 28 A3 93 09 99 81 2B 0B 94 21 26 1E 9C 17 A3 19 A2 A4 27 22 98 16 91 27 A0 28 22 A2 23 24 19 20 9C A0 28 28 A7 20 9C 8F 25 25 11 A3 20 9C 27 9B 9E 25 99 0F 1D 1E 9F 21 82 17 93 1A 24 A8 10 17 14 A4 18 2B A1 22 0F 87 9D A0 19 9F 8F 96 91 10 1E 01 96 9A 1F 9C 01 1F 01 86 15 1C 0D 18 9D 95 1A 0E 0D 94 99 95 9D 97 81 1F 16 12 1F 97 9A 9B 9A 93 81 10 85 1B 9E 9C 93 18 9B 1F 11 98 15 8B 1E 18 03 1F 98 99 11 9C 90 1F 14 9C 0E 94 1F 1E 92 1C 08 18 9F 98 1C 1E 8B 1C 18 81 8F 1D 1F 98 96 1B 01 9B 13 89 8C 84 89 9A 01 92 19 01 08 15 93 9C 14 9F 9F 05 81 17 9B 97 1F 98 97 80 8D 15 01 9B 1A 8E 1E 9D 98 1A 1A 2A A0 1D 9C 9D 20 22 20 21 94 20 25 24 81 A0 8E 21 A0 96 81 22 13 23 0C 10 1B 94 89 88 0B 22 29 A0 24 18 A2 A6 1E 96 9E 24 20 12 12 29 10 09 0C 96 9B 0F 20 26 20 99 01 25 18 92 21 8C 13 A4 26 8A 98 21 9A 23 94 24 11 8B 91 9D 20 89 9B 81 1A 22 19 A5 13 17 9B 1C 01 8E 96 0A 9A 1D 25 26 1D 18 27 21 90 28 15 82 17 9F 1D A1 09 01 8A 98 98 19 9C 19 21 2B 21 A1 1E 28 A1 81 1F A1 93 26 91 20 09 23 0F 0A 81 A3 1A A1 1F 90 8F 91 1C 98 23 A6 28 21 9C A7 18 09 1A 25 81 9C 1D 1E 9B 01 9C 1E 8A 13 21 1B 94 1C 9F 05 98 94 8D A0 21 1B 81 1C 23 97 A0 9E 9E 81 11 8C 17 1A A6 24 20 20 21 20 9D 9A 1C 01 23 91 10 28 1B A4 99 1F 1C 81 1B 8D 08 1C 28 99 05 81 24 9E 17 A4 1E A1 8F A1 1F 1F A1 18 9C 9C A7 9C 9B 96 A6 9C A2 A2 1B 23 99 21 81 1C 22 A0 85 93 98 99 20 0B 19 94 99 95 A6 9A 81 24 9F 9E 1F A4 21 16 99 1F 0B 9A 0C A0 8C 16 24 9F 80 92 10 8A 96 00 1E 10 11 1C 8C 97 18 99 14 96 10 01 07 21 1A 11 9B A1 A1 8C 9A 9A 95 0B 81 9B 12 A2 8C 9F 81 91 24 9E 9D 1A 23 A1 95 88 9A 98 A3 28 A0 22 A8 9A 1E 8D 13 21 91 20 9D 0E 11 A0 20 1B 89 1C 95 A2 24 22 92 16 99 22 24 17 95 15 18 24 19 8E 98 9A 14 97 81 A5 99 01 97 23 9A 1C 26 81 24 A1 0C A2 8E 01 92 9A 9E 10 8D 9E 08 1D 1A 97 1C 9E 1B 11 24 90 21 0D 20 1D 1C 98 10 20 9A 96 A1 8A 9C 21 90 19 9F 1D 12 1A 0A 14 15 8B 20 10 20 21 1B 9D 81 14 8D 15 20 98 1B 04 1F A2 1C 9A 07 11 15 23 13 85 99 0F 1C 15 99 99 22 94 98 21 90 19 81 19 9A 09 A1 09 9B 93 1B 81 01 24 27 15 9D 1E 88 89 1F 0F 1D 21 81 20 90 A0 01 1F 93 18 1C 81 A0 87 81 9B 1C 8B 9B 24 07 0A 8E 91 19 16 29 10 19 22 20 23 8C 9B 07 12 2B 21 9C A0 9D 1A 92 90 A9 15 9A 13 91 9C 03 13 13 20 9A 93 9B 91 20 29 05 93 12 03 0C 99 10 1C 13 A1 1C 22 1A 1B A0 A2 81 28 24 25 1F 85 A2 09 26 8B A3 1A 0A 28 9F 9F 9D 9A A8 1E 21 16 98 81 8E A0 8C 2B 1F 9A 9D A0 19 18 28 16 21 19 15 A4 1B 21 17 93 9F 9A 22 0F 1C 20 A6 19 28 0C 01 12 9F 90 18 27 1A 99 93 9D 96 1D 9E 1A 21 22 11 1F 9B 88 23 03 93 20 92 91 1E 1B 9C 16 0B 1C 99 25 98 05 1F 20 8A 99 20 13 10 12 12 1D 9A 09 1A 1C 84 88 19 10 10 81 1E 18 14 9E 97 81 81 89 9A 91 99 19 9A 9E 93 98 9D 92 09 98 1D A0 1A 89 14 9D 1D 1C 1B 81 9E 00 92 1E 15 82 96 1C 1B 8D 9C 18 98 1C 81 98 9A 98 1B 8E 98 9A 9B 13 10 1E 1A 94 14 13 90 0D 9D 81 19 14 14 9C 20 14 92 91 18 18 14 96 01 03 20 9D 21 1E 90 01 8C 88 89 9E 1F 1A 99 9D 98 12 20 99 92 0C 98 1F 1C 07 18 98 98 1C A0 18 1D 25 9A 9C 8C 0C 29 8E 1D 1A 81 12 13 19 20 A4 21 18 00 9C A1 20 8D 22 03 95 90 28 96 1B 93 24 99 18 12 15 19 21 93 8B 18 1F 92 1B 2A 01 01 13 23 96 1E 99 92 A0 0C 24 1D 06 97 1B 23 04 25 9D A2 A1 14 17 21 23 18 15 8C 81 A5 22 8C 27 1B 9A A0 21 26 22 1B 81 20 97 1B 81 20 9B A0 A0 20 9C A1 0E 17 18 1C 27 14 8F 93 9B 13 A0 1B 23 95 12 A5 20 01 1B 23 10 1D 1D 05 16 1C 8F 01 9D 24 A8 1B 9A 9F 91 A1 23 A8 A9 24 8F A8 A4 21 8E 85 AB 24 27 0B A7 9F 99 9C 18 A1 0F A0 99 8F 28 1B 0C 27 1D 23 23 1A A2 9E A0 1E 28 22 1B 10 11 27 14 19 22 08 1D A5 0B 0B A0 A2 13 97 23 A0 24 82 A5 29 1D 23 A9 1F A6 29 29 2A 25 A3 A9 28 A8 16 11 A9 23 25 9E 1C 92 1D 2A A2 8B 1E 99 9A 98 AC AA A4 96 28 A8 88 AA 12 23 1A 8A 23 28 01 25 86 A3 25 A8 A0 9B 98 28 93 98 22 27 98 21 9E A1 15 25 84 0D 93 9B 21 99 1F 0E 26 18 1E AB 16 9F 10 A1 2C 27 A9 97 A4 28 9B 24 82 91 29 97 26 21 A9 16 15 29 19 28 25 29 81 20 23 9B 8F A9 9B 9A 2E 9D 9F 81 AC 9C 01 25 20 A9 A0 90 AC 93 21 81 18 9A 2B 03 19 01 20 24 1D 0A 8A 2A AB 22 A4 21 9A 19 22 16 2C 26 2B A1 A2 9A 16 28 1F 95 A8 A2 25 28 A9 28 2E A6 10 9C 0E 2B A4 9F 1C 9D 9F 2D 10 21 A9 25 89 A0 1C 14 8D 18 1F 28 A0 28 9B A9 93 94 0F 90 9A 15 9F A0 A1 A0 97 A2 1D 0F 87 10 84 12 A2 99 81 22 81 01 96 8D 18 9A A3 13 A8 0E 20 8D 15 99 88 A1 9D 0C 86 9D 8A 95 88 22 04 17 82 01 10 A0 01 81 21 A2 99 27 97 09 22 81 0B 9B 99 10 96 1B 9A 9C A2 A0 1B 9A A0 8A 22 A1 94 89 A0 8D 8B 19 91 A0 8C 9D 91 01 A1 A6 18 1C 1E 81 9B 95 16 01 9D 22 10 20 1C 98 24 01 9C 04 9E A2 81 91 19 1F 9D 20 A1 9C 03 94 1A 18 83 A0 91 19 26 81 A1 A8 91 0C 86 15 A5 91 1B A1 AA 22 1E 18 9F 0F A0 05 A1 21 1A A5 1A 88 90 01 A8 A4 99 0C 19 A0 21 23 9E A0 99 9A 9E 28 26 12 25 9C AB 98 9A 96 A5 24 26 18 1C 18 8A 98 AB 0E 18 A3 A2 11 A7 81 86 28 81 A8 8C 0A 28 1C 27 22 21 9F 23 AC A1 2A 93 A3 A5 AB 06 9A 1F 1A A7 10 A3 1A 0B 01 A2 81 1D 93 98 94 1B 19 9D A3 A3 13 1B 29 9E 88 90 9C 27 9C A7 1F A9 23 A4 9B 01 19 06 19 9F 81 9D 12 9D 98 11 1E 0C 14 9B 95 1B 9A 91 8A 0C 1A 90 99 99 1B 18 19 1E 19 90 1F 96 9E 08 90 81 95 16 96 1A 11 91 9A 91 08 18 98 1C 9D 8D 9B 0D 1A 9C 97 9F 1C 9B 91 9A 13 9A 0D 99 08 1C 89 00 98 1D 89 1F 81 01 85 8F 94 89 1C 95 15 01 10 1E 8D 01 9B 1F 1C 1F 96 92 1D 13 14 9A 1F 9C 93 08 1B 18 9A 1B 99 18 18 1E 1E 9E 9A 10 0A 83 A0 9C 8E 9D 00 81 90 14 18 1C 1B 1A 11 01 1D 9E 01 18 9F 27 15 9D 11 A0 9B 1F 01 A5 80 A1 1B 20 A7 20 96 1D 24 0D 98 90 15 25 25 93 22 10 9E 26 81 21 1E A2 98 21 20 16 22 01 A0 17 8B 0C 9F 93 A1 A4 9E 24 19 A0 27 A3 20 11 1B 21 A3 99 9E 20 8A 09 25 1C 18 25 1D 25 16 81 16 9A 9C 28 1B 24 87 0F 92 19 1E 24 A2 01 13 28 18 98 1E 9E 20 1E 17 9C 96 97 27 21 25 27 21 9C 9F 1D 27 90 89 1D 20 1D 15 80 9A 23 81 1C 0C 1B 9B 1C 18 16 95 A1 26 84 1B 0B 1E 1B 95 11 8F 81 A2 8B 24 21 9B 91 95 22 91 1A 8F 26 16 9C A2 21 0C 19 19 81 9D 1A 9E 80 1A 94 95 17 20 01 18 1E 04 A0 0A 22 1A 23 99 95 97 22 93 81 26 A1 89 98 26 22 A4 A7 18 94 23 1D 10 9D 94 26 86 19 93 1C 1D 21 1C 20 17 90 9F 24 85 11 18 99 1C 1D 15 89 90 1A 17 98 01 81 88 99 9C 0A 98 81 99 24 8E A4 9D 1C 81 8A 1E 1D 1B 9A 10 07 91 1A 9B A2 01 93 24 A2 18 0E 13 81 21 95 9C A8 21 1A 26 09 9D 0A 97 27 96 17 95 1B A4 95 81 80 A2 25 25 A3 9F 8F 99 09 20 9B 1D 1A 24 10 A2 A2 15 18 98 22 16 12 1F 01 21 18 10 9E 9C 9A 1C 1B 17 92 9E A0 9B 84 9A 1C 9F 26 1B A1 22 22 84 81 14 9B A4 A0 1D 14 24 A1 9F 17 08 A7 21 19 1F A0 9D 81 90 1E 21 1A 0E A0 A5 27 81 A0 93 A0 99 27 04 A4 16 18 9C 20 01 01 1F 91 19 A6 95 9B 0C 9B 1D A2 09 24 A4 8D 18 97 01 20 1C 1B 19 13 A1 24 94 21 A1 12 10 AB 1E A9 A0 21 1A A6 21 81 89 18 1F 99 93 98 81 9E 22 13 A1 8D 9A A5 14 A9 14 20 14 9A 10 21 98 A6 AA 95 9D 9B 1C 82 24 A0 86 A3 97 23 0E 0B 1B 17 88 9C 10 81 99 1B 20 A0 9B 1A 13 97 1C 1C 8E 8B A7 06 25 19 A5 23 89 18 A8 98 A3 01 21 9D AA 1D 98 20 1F A1 A6 18 A2 12 91 A6 9B 99 19 91 9C 9A 1A 88 A2 8F 9E A3 21 99 A1 A0 86 22 A0 91 19 01 19 94 22 91 A4 25 91 19 91 2C 11 10 AB 15 8C 15 1E A4 81 1E 9C A5 10 19 1C A1 23 91 1B 9F 92 14 9D 04 98 9A 9C 97 A7 18 24 81 96 22 29 0C 81 81 9F 16 21 29 27 28 9F A9 11 24 00 A6 21 1E 24 21 19 90 8B AA 9B 81 9E A7 99 A0 9A 08 2A 94 A4 80 A4 27 23 2A 11 19 9E 24 A9 09 28 1F 1B 91 9B A4 A6 21 2A A9 9F 04 9F 90 05 9A 9A 1D 9C 1D 0D 0E 9C 97 13 A7 19 22 2B 17 18 1F 85 28 9D A4 1F AB 13 A7 99 9C 19 9E 9A 99 17 8E 8C A0 25 9D 83 1E 93 22 98 A2 9E 25 0A 0B 1B 1B 20 A8 9F 19 25 13 22 0C AB 1A 1B 8F 1E 80 24 22 A7 99 A9 9E A0 20 1A 81 80 A1 9A A1 1C 25 11 92 05 9D A7 21 98 98 A7 A4 18 28 9A 12 97 99 89 95 A0 99 8A 86 2A 81 22 A7 9C AA 04 13 A9 AA 23 1D 99 15 95 81 27 14 28 9F 99 19 21 19 25 1C 21 A1 83 25 0D 84 24 27 9F A0 81 1F A2 20 A3 9F 9B 8B A1 9A 15 20 8F 22 A4 22 22 9D 02 A3 A8 88 27 20 9B 20 92 80 01 A4 1F A1 9F 28 8D AA 97 1E 09 9C 8D 1D 26 99 1C 1F A8 99 21 83 99 A0 81 A1 8C 1B 22 20 21 13 21 81 04 97 1D 1B 08 22 1B 90 98 25 1A 24 27 27 9B 21 04 1D 81 8B 96 10 1B 01 1D 0C 21 1A 01 17 15 1A A0 22 22 29 89 11 17 29 9B 1C 21 0D 18 20 9C 9B AB 20 1A A0 A0 09 99 12 A9 18 19 94 A9 18 81 1A 20 15 A0 A1 A0 8F 28 95 20 84 23 1C 9A 9E 07 A9 24 A6 A8 8B 25 19 21 9C 12 24 19 88 14 8D 15 88 95 13 89 8A 1C 1D 9D 0F 98 1B 21 01 92 23 9E 20 28 9F 1B 02 19 29 20 14 8F 9D 8B A4 9F 0F 0E 97 A2 18 81 A1 A9 9A 23 23 8E 19 0F 20 21 AA 28 8D 21 0F 90 28 1A 24 1A 10 80 0B 24 A6 02 24 25 99 91 A9 1E A0 A0 1B 12 9E 1A 01 A3 23 14 01 04 1F 27 9C 26 21 1E 23 92 04 19 19 26 2A 26 21 28 9A A0 9F 13 20 0E 8D A8 81 A1 1B 0A 9B 81 2A 26 26 98 22 20 00 A7 92 8D 01 23 03 06 11 0D 10 8F 1B 1C 1B 81 18 21 09 18 16 1C 20 9D 17 90 0A 21 15 22 96 19 21 99 A0 1E 0D 1B 24 1B 1A 1C 9B 81 10 1A 91 8A 20 1A 1D 24 1D A0 1C 97 22 03 19 86 19 9B 8D 1C 17 10 19 1A 1E 10 1C 01 01 97 10 12 0E 16 0F 98 1E 9E A0 22 98 01 9E 81 09 01 14 18 92 1E 9C 81 98 9A 1C 28 9A 14 21 99 90 17 1C 0F 16 81 1B 9D 0C 19 13 98 02 A1 8F 1E 9D 1F 1B 94 06 1A 14 22 09 22 12 1D 9E 09 20 1A 0D A0 9A 97 A8 1B 9E A5 95 0B A2 A1 8D 99 96 A1 18 13 11 A4 87 09 1B A3 20 16 90 A4 9B 1E 9B 01 1D 1F 23 23 0F A2 14 15 8F 20 23 A6 A3 9E 20 0F A2 1F 9D 97 A2 20 A2 9F A4 9B 16 87 A9 10 A1 A1 1F 01 10 A6 25 81 25 8D 1C 0E 93 A2 21 A4 0C 1F 98 86 9D 9B 20 A0 28 24 A1 97 1D 8C 93 13 A8 A6 95 8E 99 9A 9D A1 97 20 9C 9E 24 22 86 0D 1B 12 1E 9F A5 99 A1 1F 85 1F 1C 17 9A 20 8C 98 2A 98 99 A9 15 14 A2 13 A8 0C 22 92 A9 80 18 0B 14 21 01 88 98 81 1A A2 A0 19 A1 9F 9A A5 88 17 1C 9C 27 27 1D 19 9A 9F 9E 22 20 26 28 A0 AB 10 20 08 80 1C 11 23 91 25 16 9F A9 99 89 0D 9C 0F 99 1B 22 20 1E A8 0F 9D 1F 23 2C 1A 16 0B 29 A5 15 23 1D A0 95 A1 98 A5 23 2B A9 8B A5 94 03 A9 A2 82 10 9A 22 9B 01 80 81 1D A4 9A 23 2B 9A 21 98 97 28 A2 A4 20 A7 23 AC A2 92 99 88 17 96 17 23 17 21 9F 95 81 19 96 A3 06 27 8D 93 9F 20 18 1A A5 22 25 A0 98 80 81 01 21 A4 9D 9E 9A 1B 25 A4 18 1D 27 29 1D A0 94 81 88 02 1A 18 9C A0 95 29 8D 89 11 A8 21 A1 08 21 A1 9C 85 10 22 9A 1F 1A 81 23 1C 27 9E 1B A3 26 25 1F 26 0C 1A 26 01 01 94 8C 20 1C A2 04 1A 21 23 92 93 26 91 9C 11 9C 9A 98 25 26 A4 A4 97 1C 24 99 95 26 22 9A 29 10 A0 23 1C A5 01 9A 22 9C 25 23 09 1F 20 91 A3 1F 21 A5 A0 16 9D 22 9C 89 19 A6 19 9B A5 17 82 9E 27 A3 A5 19 00 23 05 14 82 95 0F 29 83 20 A2 98 16 00 13 9D 82 A6 83 01 0F 98 A0 18 A6 A8 16 9F 81 A0 1E 93 24 19 9A 13 A7 12 24 1E A0 20 10 81 1C 9D 25 11 01 9D 1B 95 A3 0F 81 24 A2 91 A1 1C 19 2B A3 9B 15 26 97 06 1E A0 27 20 A0 9A 9C 1E 2B 29 98 1B 1B 9A A5 98 23 A5 81 9D 1B 1E A2 9D 21 95 98 26 17 94 A2 A0 1B 92 A4 91 91 0E 21 1C 98 94 03 9A 17 A1 1A 81 95 81 84 A1 96 1A 10 14 97 13 85 A0 9F 98 A3 12 1F A1 9D 18 9B 18 91 A1 23 19 21 19 04 96 93 11 20 1B 1C 14 9E 9C 8A 8D A0 1F 23 20 1E 91 10 89 98 A2 A1 98 85 14 1C 12 96 12 98 98 9B 86 10 22 26 22 98 10 87 2A A0 19 20 8A 0B 18 A3 21 95 1B 21 96 11 81 81 1A 9D 1C 8D 9C 9D 14 12 11 08 06 1C A5 98 81 1F 15 8E A0 1D 20 14 12 1A A1 19 A8 94 1A 81 09 1E 95 97 9F 93 11 29 03 18 A0 98 25 82 81 1E 92 1D 11 A0 14 A0 10 1F 21 12 9D 99 81 92 8B 08 11 22 9B A8 20 1F A9 81 87 9F 98 14 1A 93 A6 A8 99 25 29 94 9C 98 25 A7 18 9F 9E A2 89 26 2C 96 17 0F 1E 87 27 16 A8 A3 98 2A 94 1F 9F 22 9F A7 A3 22 A0 20 9C 9D A5 21 80 05 1D 24 11 92 22 A2 1E 81 24 21 8B 01 8D 11 A8 29 8B 12 95 99 21 18 A2 A4 9B A1 18 0D A2 15 2A 9C 01 A7 93 91 01 98 99 AB 16 81 1A 9B 85 90 9A 9A A2 8E A3 A6 1A 99 A0 01 9B 9F 13 9A 20 01 89 13 A0 A2 98 85 90 01 9F 16 9C 19 8C 15 8B 17 01 0D 9D 92 01 15 21 11 24 1B A1 97 05 99 0B 1A 09 1A 92 1A 19 0A A3 88 94 10 11 01 8D 96 1C 81 01 A0 1E A1 1E 26 22 97 1A 20 1A 01 A0 0D A1 1B 9D A6 9E A6 1F 11 18 A3 98 91 99 9E 01 9A A1 9F 97 15 00 96 98 9E A3 17 9A 19 00 91 1A 81 8C 14 A2 8C 9B 18 AB 81 1A 21 19 0C 1D 92 A9 1E 0A 24 9A A0 26 1A 24 27 81 8F 1D 01 12 95 91 0E 12 8F A2 28 9F A0 0F 98 18 A1 12 22 9B 9F 23 8B 17 98 9B A0 1D 29 99 25 23 11 08 0E 93 98 8C 19 9B 01 28 81 24 9D 12 16 9B 07 8A A6 01 9E A3 A1 98 9A A6 8E A0 22 1A A0 A1 9A 1B 1E 1A 0B 0E 1F 1D 8C A4 1F 96 9B 9A A1 15 23 A4 1F 1B 1A 22 8D 9E A3 A5 12 27 17 9D A1 01 19 9E 97 13 8C 1E 1F 98 86 A0 98 93 19 A3 A1 09 21 95 A2 9F 0E 18 93 24 A1 9D 0B 90 98 0E A0 97 97 1D 9C 1B 91 9C A2 21 81 18 91 22 1C 98 1E 9C 1C 81 1A 97 81 82 1A 89 98 0F 1A 9B 9B 19 1B 8C 0F 1F 89 17 15 98 1B 21 21 0D 9A A0 23 1C 9F 08 17 02 0B 8A 25 8A 1A 20 96 21 8F 21 98 20 08 01 21 8B 98 1E 98 1A 81 8C 1F 15 09 23 1F 07 19 9C 01 1B 8E A6 8A 9E 11 A1 11 15 A1 94 16 A0 01 0C 9B 81 08 95 12 18 8A 1D 1A 99 1C 09 22 15 12 24 12 92 25 98 94 28 AB 8E 1A 9E 01 A8 08 A8 A9 A3 A0 28 27 20 1C 22 92 A2 A4 28 A0 A9 26 92 AA A0 84 06 20 9E 27 1F A7 A9 A8 28 A6 A8 A8 9D AB A9 A7 AB 2A 2B 92 9C 1A 29 AC 98 1C A2 9E AA 2C 28 9F 24 29 A3 28 24 AE A4 2A 2C 22 9A A4 96 9C AD A8 15 A3 AB A1 91 A2 A9 11 20 9F 1D 29 20 1B 9B A0 2B 27 28 27 A9 AB 2A 2D 18 22 A9 A6 19 1C 2C 13 2F AA 01 AA A2 AF 22 23 2A 27 28 A4 2C 29 92 A8 98 90 9F 26 11 12 81 22 13 0F 13 0D 21 85 20 81 97 9D 1E 05 96 1E 24 24 A9 03 01 20 1D 25 A2 89 10 10 22 25 A7 81 26 28 21 28 24 2B 93 15 20 1B 81 A3 97 1B 2B 1B A0 99 A0 99 84 20 27 97 25 91 A1 1A 21 1A 90 24 2B 98 91 01 13 1E 8A 24 2D 2B 9C 2A 25 26 1E 28 22 8E 21 1A 20 90 10 84 1A 00 24 89 0D A9 27 28 81 92 1A 97 0C 1A 1B 20 AA 97 21 92 90 28 81 2A 9A 27 1C 1F 12 9E 10 96 22 2C 15 9A 1C A2 2B 9B AA A0 9E 9C 9E 99 AA A7 9A 96 26 28 27 9F 0A 9C A7 97 19 9F AD 29 83 AA 98 99 1A A1 A7 30 19 A6 93 A1 29 A5 AC AA 92 9C 9E 9B A4 29 29 98 29 0A 29 AA 98 2D A7 A8 A3 27 28 9D 29 2D AE 23 29 AF 9C 2D 29 1D A4 A9 2C 1B A8 AB 2A A8 A9 A0 9C AA AF A4 23 9B 26 2B 2D 2C AA A3 2C 2C 1D 29 AA AB 2E 2A 01 9C AA A6 01 28 28 16 31 A3 1E 8C 91 A8 20 18 28 24 2B 98 2E 2A 02 9E A2 99 8C 27 29 8C 01 17 9E 0C A7 94 95 AA 22 1F 1B 10 23 A1 18 9F 27 27 23 A2 99 24 1A 18 A2 89 0D 1C 9E 81 A1 16 A8 1C 2A 27 A6 82 A0 A8 98 1E 92 0A 01 11 17 09 22 1B A3 0F A9 2A 21 14 13 01 9E 24 A1 28 23 93 1D 81 2A 21 27 9F 20 23 9B 14 13 01 12 96 93 A3 A3 25 28 A7 27 24 27 29 9D 9B 25 8F 9F 1D 9D A4 98 0B 1E A4 A8 9C 9E 0D 06 18 24 A0 81 26 A0 98 16 8C 1A A0 81 1F 22 16 19 0E 93 1A 8B 17 A8 1A 99 20 8F 12 26 96 2A 20 12 98 01 9B 11 9F 1E A3 21 0D A4 20 A3 18 1B 1F 96 9F 28 13 22 22 90 92 9A 12 A0 19 2B 29 81 1F 21 9B 15 9A 28 98 22 99 99 A7 81 8D 19 A2 8C 04 1A 0A A2 81 24 A1 8F A2 23 06 A3 1E 01 28 9F 8A 95 24 A6 19 08 2A 14 0E 9A 81 25 28 18 20 98 A3 2B 23 1B 23 A0 16 24 12 A1 20 0E 85 29 99 1D 11 8A 99 01 A7 9E 1B 1F 0D 9D 27 1B A0 2B 21 25 99 13 28 1B 1A 1E A3 26 96 09 98 12 14 A9 9B A5 9C 17 01 A5 28 04 81 01 14 99 95 18 18 16 9B 9C A4 88 96 A0 03 A6 08 21 96 12 91 16 91 99 A4 8A 09 81 14 1D 14 9E 14 A5 A1 97 01 8E 23 01 1E A6 24 9C 17 19 1A A7 1E A3 07 11 21 1D 9B 8E AA 15 21 16 1A 1F A3 22 9F 9C 1F 8D 98 A3 AD 9B 9D 26 29 AC A5 01 10 1A 97 A0 01 90 1A 9C 9C 9A 18 81 A8 0B 92 21 20 9C 91 8F 9B 1E 01 A8 23 A7 90 1B 91 96 01 A1 8A 13 20 99 09 9A 9A 9E 90 97 1F 19 1D 18 98 94 0C 93 98 8E 93 A0 1B 18 9F 1F 81 18 8C 92 0F 83 1E 9C 99 92 95 18 8D 99 9A 18 01 9F 9E 1B 96 04 98 9A 8B 0F 9C 81 11 01 05 1E 99 1F 81 98 98 9F 10 9D 91 94 10 1C 9D 01 1D 97 9C 87 9B 1A 10 15 9A 1E 1E 1B 08 97 1E 1E 1A 18 98 9D 99 10 13 18 98 16 8F 96 1E 0C 1A 13 1A 17 81 99 1C 9D 18 20 9C 0C 97 98 1F 93 9B 99 20 1C A0 98 19 9F 9F 98 97 18 9E A9 99 2A 29 15 11 A1 18 29 99 23 23 9B 0D 16 06 1C A7 1D 20 8A 91 9B 81 0B 21 14 9E 20 28 A0 9A 92 29 A1 1C 15 20 23 1C 9B A8 A2 A2 08 2C 2B 9F 21 8C 2B A9 9C 97 18 01 1E 25 1F 01 90 25 28 20 27 8A 01 AA 99 21 22 22 9E 1D 9A 99 9F 2A 21 2A 19 A0 A5 24 2A 0E 22 9C 22 A8 08 9E 11 A3 19 9D 27 A1 A5 9A A4 82 A6 27 14 A2 A3 9B A5 A7 91 24 14 2B A8 2A 25 0A 02 98 10 09 29 0C 2B 1A 19 A2 2A A5 18 81 A0 A0 9E 1D 95 9B 1D A1 20 22 22 9D 15 0C 08 1C 24 26 AB 26 11 A1 25 19 01 A3 98 2B 1D A7 1B 81 1F 99 93 A3 A0 14 9E 1B 91 20 1B 87 8F 9B 21 1C 9A 18 18 17 12 21 1E 99 19 22 AA 27 1A 9D 91 24 27 18 13 9B 2B 1E 99 99 1D 9D 9E A2 9C 1C 99 21 10 A3 20 2C 2E 29 8A 9E 2C 1F 22 22 A2 A8 11 29 22 11 1A 95 8A 20 29 82 2C 16 12 9B 18 9B 23 9C 9E 18 28 1C 29 28 1F A2 A4 25 15 1F 90 18 1A 24 9F A0 18 9F 23 22 81 1D 27 01 94 93 92 1C 90 A3 0B 25 14 97 98 A0 23 81 91 1C 9B 13 24 A1 98 98 A7 A3 26 20 9E 24 12 9B 0E 19 26 99 14 88 93 A1 25 91 21 A3 A5 1F 23 1E 21 A9 1C A3 9D 87 9B 99 A7 27 A7 26 9B A1 9D 9E 12 A4 92 1E 97 18 17 9E 0A 26 87 23 A5 A2 23 82 99 22 08 86 01 A2 21 95 01 2D 24 18 99 A1 22 8B 17 90 92 01 9F 0C 8B 01 19 A1 26 A4 10 9E A1 14 01 9B 01 1E 13 81 01 24 1F 1B 21 8A 20 20 99 1A 18 9D 95 99 21 9F 8C 19 00 9B 9F 10 8E 80 96 1C 12 8A 1C 0B 8C 17 20 08 06 23 1D 83 10 1D 11 05 92 19 19 1A 82 09 92 00 1B 95 9B 81 23 93 9E 1E 9C 10 1C 9A 81 98 01 1E 1D 01 22 95 01 89 05 23 1F 1D 20 91 01 84 22 81 20 22 9B 21 21 01 8C 81 1D 9B 0A 94 11 1C 0E 92 91 12 99 A0 1F 96 1B 1A 13 1B 16 99 9C 8B 13 0E 81 90 88 10 99 91 0E 10 A2 81 98 1C 27 22 A8 A8 9F A0 2A 97 A1 2A A1 9F 1F 91 1A 94 18 29 97 A5 18 81 2A A1 9D A0 1D 94 81 9E 1F 10 81 AC 28 97 9A 1A 99 1A A0 28 29 23 19 A9 A2 9C 23 0A A6 2C 21 0B 1D 96 13 A5 A7 98 99 A5 1E 14 A3 15 22 24 1D 12 91 81 24 A6 21 19 15 AB A1 9C 96 2C 19 A5 A9 01 87 15 15 96 90 29 A0 9E 13 8A 81 1A 22 99 1F 00 11 A8 01 1F 9F 9E 1A 28 A0 0E 1A A2 28 A9 8B 1E 9C 24 A2 A0 93 83 A8 26 1B 1C 96 02 01 81 1D 1A 0F 14 1A 96 9A 97 19 1D 92 99 18 1A 9E 9A 93 20 17 A0 12 9B 9D 19 9E 93 9B 1B 19 8E 1B 99 85 9D 1E 81 8A 1A 00 92 93 9E 1A 90 0F 1A 16 9C 13 95 1C 1A 18 19 99 1C 9E 9D 9D 91 83 91 14 90 95 12 1B 81 81 0C 20 13 1D 81 92 12 99 9D 08 1F 1B 18 14 16 8B 98 18 81 11 9E 81 95 81 99 9D 93 92 1C 81 0E 1E 14 1D 19 1F 01 8A 89 99 1A 94 8F 87 11 99 99 09 99 9E 17 1F 9C 9C 9A 19 1D 90 23 17 87 1B 22 90 A0 21 14 25 A9 1D A0 1B A0 2B 24 96 A4 9F 14 1E 26 94 94 1E 18 25 20 AC 1A 17 20 23 2A 9C 88 99 8E 1A 9C 98 A4 20 16 22 97 99 18 9C A0 A4 25 2B 0E A1 22 A8 27 20 25 92 99 28 01 22 01 24 08 0C 96 0A 21 A6 18 15 99 01 81 9A 17 10 21 25 9F 21 8A 11 12 28 9A A6 A0 9C 13 98 18 25 A9 8B 0F 14 2A A5 99 25 11 81 28 97 92 A0 99 96 A4 06 20 25 08 18 21 94 1F 9F A7 96 14 1E 28 1C 9C 9B 1C 1C 91 1F 95 28 24 20 16 8F A1 8B 99 1E 20 90 19 14 16 90 13 22 0D 96 1E 25 16 99 99 9B 9C 1B 20 97 10 A2 96 18 28 29 8F 1A 99 22 A4 17 11 8F 99 82 26 28 90 1B 1A 92 9F 23 90 15 96 12 29 25 18 0B 93 9E A3 01 1A 18 28 1C 95 9B 1B 21 28 10 25 92 A0 12 17 24 1B 0B 12 9E 97 01 1E 1E 28 14 19 81 01 27 19 22 92 88 92 1A 16 A3 1B 1A 81 28 9D 27 15 07 27 01 21 96 03 28 9E 0F A8 01 99 AA 13 A4 A6 95 20 08 24 01 84 10 13 AB 9A 26 1A A6 20 05 A1 9B 96 0F 1C A4 19 28 97 05 9C 17 A8 A6 99 99 9D 9D 11 9B 26 11 17 A0 0B 28 AB 1C 1D 0A A6 A7 25 17 1D 26 1C A0 99 24 A0 9C 21 21 1D 9F A8 1F 28 A7 A0 22 A0 90 A6 17 A4 A3 14 0A A4 0A 22 20 1A 97 A9 22 21 28 27 A8 9F 22 24 A9 10 98 1A 0C 9E 1B 11 1D 98 83 A9 98 9A 10 98 A0 29 81 9C 16 1C 9E A8 91 A3 98 20 A6 1A 18 1C 14 01 A3 01 A1 A6 20 19 A0 9D 22 1B 1C A9 23 1C A2 95 AA 13 98 1F 9A 11 1E 03 1D 17 9D 17 12 1F 25 22 11 01 90 90 87 0C A5 99 10 9C 02 19 24 81 A1 A3 A1 1E 27 15 20 1A 84 1A 8D 81 90 A0 13 A4 19 10 13 95 0E 12 06 97 A4 28 01 19 A0 9F 96 0D 28 81 8B 1E 0E 04 16 A0 20 9D A0 16 94 11 A5 96 81 9D A2 98 12 23 90 89 92 8A 81 27 9C 19 9C 1D 9A A3 1A 19 20 18 1C 23 01 1A A1 A9 A8 14 16 26 99 1A 00 97 22 00 94 98 A2 9A A1 9A 8B 9D 17 25 99 92 A2 A8 1A 22 0A 9F 9C 1B 9E A6 01 21 01 A1 94 81 23 29 1A A0 02 11 81 8E 1E 89 A9 0C 0F 91 23 A8 1B 1B 24 95 22 15 91 99 0F 95 03 11 A5 9C A1 98 9E 1B 9E 89 19 A2 A7 24 97 81 9B 9C 1E 1F 93 82 A0 93 8C A8 1E 85 A9 A1 98 1D 28 01 9A A0 A1 21 87 0E A0 81 9B 9D A8 03 9E 11 9D 22 A2 14 80 A4 A8 98 A9 A8 1A 22 1F 11 A0 9D 8F 9C 89 9A 02 8C 18 9B 99 98 16 0B 81 21 25 98 98 A0 81 9C 1B 10 AD 21 15 0F 96 1A 15 15 97 1F 0A 20 9F 9F 22 89 19 99 16 98 96 17 A0 15 24 9F 83 0B 1D A9 9F 1A 9C 11 19 19 24 95 98 0C 9B 15 15 9D A0 09 01 98 1F 0E 99 20 A9 A0 97 01 A3 1D 99 96 90 22 11 15 0E 10 25 1B 25 9F 1F 23 1C 21 8C A6 9E 22 18 11 05 90 0B 15 22 9E 27 9E 9F 99 14 9B 1B 1A 91 00 10 0E 1C 23 18 98 21 1C 90 01 94 A6 23 21 8C 97 A1 A0 20 A1 0C 18 01 97 0A 16 8D A3 93 28 81 97 13 88 96 0E 9D 9F 1A 29 A5 A5 A3 21 AB 0D 25 22 90 19 1D A2 A5 9E 9B 22 1C 98 01 93 28 A1 9D 99 A0 0D 91 22 28 09 13 21 24 24 20 17 9A A1 11 26 1A 11 03 19 A0 A4 A2 22 08 28 9D A7 A6 22 25 0E 21 99 1B 8D 81 90 19 8E 9B 9A 22 8D A3 84 01 99 92 27 1C 1C 81 A0 A8 A5 01 97 86 1A A8 1A 22 81 1C A3 81 14 81 93 01 98 18 93 29 8B A4 9E 09 9F 9E 81 9A 1C 01 21 99 25 23 9A 20 21 11 04 2A 00 1D 27 12 83 01 90 8D 8C 10 1C 0D A7 9D 91 20 94 0D 8E 88 20 96 1C 1E 22 25 80 23 1C 24 0F 82 2A 81 1A 19 27 92 01 24 20 11 1E 20 A0 1C 27 23 8A 81 99 21 81 89 87 23 9B 1B 8A 11 22 21 01 26 21 21 21 11 20 99 15 27 20 18 27 94 1E 27 27 1D 28 97 A2 1A 21 0F 9D 25 20 84 81 98 9A 18 1D 1F 25 15 90 23 25 1A 01 A0 8D 97 13 1C 01 0B 81 17 A0 19 1B 9A 1E 01 92 1B 92 97 9B 14 26 92 01 90 18 93 0D 9C 99 20 1B 16 81 01 90 1A 92 14 20 15 08 23 9E 8E 93 81 82 1A 98 12 95 92 19 02 92 83 17 08 1F 9B A4 9D 18 21 9D A0 10 A0 93 0A 23 01 0A 22 8B 12 1B A0 81 18 A5 A0 13 9C 20 27 8B 18 1B A1 92 24 1F 23 1D 20 0C 94 0F 01 99 22 1A 96 1C 89 A3 07 95 19 19 89 96 90 92 9A 8C 26 81 99 1C 96 9C 1F 21 98 20 1A 1A 14 11 29 9A 88 A5 98 18 97 0A AB 0D A5 A1 91 28 24 1B 14 2D AF A5 22 1D 20 26 1A AD 13 95 A1 9F A1 08 1A A2 9B 9F 8E AB 98 A6 01 9B A0 A2 0C 2A 1A 81 80 97 1A 0B 13 22 91 9C AB 23 89 A1 29 82 A5 8F 08 95 A2 25 24 9C 99 A9 1F 1B A3 A0 28 A1 9A A9 9D 9C 14 A3 A1 99 22 91 81 26 A4 A5 23 10 29 22 A4 98 2A 23 A1 27 9A 93 9F A7 24 13 1F 1B 01 A9 18 A1 25 9F 96 22 16 9E 1E 26 A1 A8 10 A8 8D 2C 16 01 0B 9A 1A 99 81 1A 09 99 11 9C A6 1A 97 A0 0D 01 A2 16 9E 0D 99 A3 9C 9F 01 9B A3 88 A4 0E 15 1B 0A 1E 81 A1 01 A1 9B 01 1A 02 21 1E 9E 90 A0 12 98 A0 11 19 23 9E A2 87 9C 9B 07 9E A0 8F 9A 1A 03 9C A7 A3 9F 01 91 1B 23 99 14 96 1F 99 92 95 21 1A A3 91 8A 8C 80 17 A3 A1 A4 94 23 99 01 97 9A A3 A6 91 10 23 98 A0 A1 9C A1 0A 86 A1 99 19 8C 15 A3 99 A3 17 A7 9B 1A 8F 20 9B 95 9E 20 1F A8 1B 1D 0D 20 A1 0A 19 94 16 21 01 1A 9A 01 18 18 87 26 09 94 21 82 A0 99 9F 26 95 21 20 26 A9 18 9D 21 1B 98 0D 1D 21 90 1B 9E 9B 93 89 19 9D A7 89 0E 94 98 01 11 0D 1F 01 1B 09 1D 08 87 94 21 21 16 98 8E 21 81 9A 9A 1D 14 9A A1 0B 8C 1D 22 9D 20 18 10 23 09 20 1B 0D 21 1B 99 28 01 99 1E 28 26 9D A2 A0 00 13 27 0D 24 94 9C 23 01 A5 26 88 90 99 1A 82 2A 1E 14 1E 9C 25 95 19 27 05 95 96 8D 11 A1 16 AA A0 AC 91 27 22 28 99 83 28 A0 A4 28 21 83 27 90 A9 9B 98 92 A5 13 28 0E A4 9B 9D 22 A9 18 A3 18 12 A2 01 A3 1F 0A 10 18 91 0E 81 A0 2B 80 9E A9 22 22 89 29 8A A8 20 23 09 A0 2B 22 9A A2 96 21 15 90 9C 23 9D A9 A4 1B 95 23 A8 99 85 23 26 23 21 A4 A4 22 29 28 21 A2 14 2D 20 94 19 11 A1 98 17 20 18 21 1E 1A A8 8C A7 28 23 20 2B 24 98 29 29 A7 A2 96 9F 9F 26 22 20 A3 98 8E 9C 8B A2 A9 A8 9C A1 8B 20 21 9D 15 05 A6 A5 19 21 9C 27 0E 9F 0D 0D 1B A1 1A 25 20 84 9F 98 13 89 9E A9 18 0B 89 9F A1 15 19 07 1A 90 15 95 20 27 99 99 A6 25 94 09 18 14 A3 17 22 9F 80 1B 28 22 9F A6 0A 81 A3 9B 1E 98 A4 9A 01 A5 98 A1 12 8D 23 19 22 23 A0 01 2A 0A 93 20 A2 8F 26 2A 1D 17 9E 0A 14 19 1C 94 1D 95 9B 92 1A 01 21 07 23 23 1E A0 2A 21 A5 A0 8A 81 1A 1B A5 9C 8B 29 16 1A 17 18 29 20 01 14 21 92 91 81 81 06 27 1D 90 23 1D 1A 81 93 24 A0 22 22 95 97 9D 88 97 81 95 8D 26 21 18 12 95 8A AA 01 28 99 A0 A0 99 A3 1E A6 0D 9C 22 1C 29 1D 9E 98 29 98 9B A2 22 00 9D 27 20 27 92 A2 A4 01 9D 93 A3 29 02 16 19 81 1F 18 A2 1F 9C A9 29 23 01 29 A8 81 1F 98 08 A1 90 27 27 A4 18 96 17 0C 19 9C 05 15 1A 98 A7 22 1A A2 2C 9B 1A 99 1C 28 A2 93 9A 99 26 A2 0D A5 A1 98 9E A4 A6 94 17 88 A9 AF A0 0D 8A A9 26 26 01 AE 1F 9D A0 27 A9 9A 91 13 0D 17 A4 99 99 22 2A 24 9D A6 01 A5 90 1D 01 AC 9F 9B 1C 9B 16 23 A1 A6 AC 28 26 AA 9C 98 A2 1F 90 22 80 9C 20 81 2B 9A 22 A8 15 03 28 1C A1 A6 22 99 0C 81 A8 22 90 93 A0 92 28 26 A9 16 1B A9 AD 9B 9E 07 9C 0D 20 A8 A9 AE 97 02 9A 05 19 23 9A 22 94 A1 28 A7 A1 AA 95 13 A3 A3 1C 10 A9 24 9D A1 A0 1F 1A 27 9A 1B 24 22 21 2A 1C 10 2A 18 1C 1A 91 20 96 08 9C 28 A2 22 12 19 28 9C 20 26 25 1D 10 06 81 10 16 20 27 23 8F 1A 15 A1 10 25 25 19 28 9C 16 A8 9C 20 2B A0 28 19 2C 0E 01 9F 1B A4 23 01 17 13 95 22 A4 19 81 92 16 19 9C 24 A0 28 1A 19 0D 02 25 23 2A 25 1F A0 24 22 20 2A 1C 98 20 1E 91 14 21 22 27 A1 81 23 1A 98 22 9C 1F 22 94 15 8A 25 1D 97 25 91 20 09 93 22 05 01 9E 9A 11 24 25 15 19 15 14 0B 1B 01 22 1D 29 25 2A 96 11 A0 29 1F 20 25 A8 21 9E 28 1E 93 19 27 19 22 21 13 17 19 20 23 0C 21 98 A0 98 8A 20 28 2B 9A 23 11 28 A0 88 8D 99 20 1D 24 1A 20 15 1E 16 1C 1B A0 25 19 1E 1F 20 1F 09 16 22 08 A3 01 15 14 0E 95 81 0C 2A 18 28 29 1F 16 1D 19 24 1D 1C 1E 17 A4 8E 23 20 21 16 1E 16 21 1C 1B 24 92 99 26 99 9C 93 28 24 8F 21 09 26 01 88 12 11 91 9E 10 1C 98 94 06 1C 01 9F 1D 9E A0 1D 9A 1A 0B 01 95 19 9E 80 0F 98 12 93 01 91 9C 97 96 9A 1A 97 0A 99 8F 8D 9C 0D 09 81 91 9B 99 0B 1A 1C 96 16 98 1F 1C 99 96 9B 84 1A 96 90 21 10 1A 83 17 1C 98 97 95 15 13 81 9C 84 17 99 91 1C 11 91 81 94 9D 1A 92 92 9B 8F 9B 90 96 9F 09 02 9E 9D 9F 06 8E 89 15 1F 1E 98 9C 9F 9E 1F 9F 86 92 88 14 9E 97 1B 81 1A 00 0C 11 84 17 12 1F 01 9E 93 9C 18 9B 8C 17 9B 20 93 01 23 17 1E 24 90 17 23 91 99 13 8B 15 23 A0 81 01 13 8A A0 20 8D 19 29 8C 24 9A 90 97 1A 18 A2 1A 1C 28 0C 23 01 01 A6 A4 1D 9C 8B 18 81 94 94 9B 22 02 25 A1 17 1D 1C A2 22 98 1A 25 20 97 0D 28 A7 1F 81 A3 28 1D 99 15 97 1D 81 21 19 9B 25 1B 14 19 97 9F 15 28 93 09 81 12 2B 20 08 9D 1F 21 01 A6 89 1C 1B 81 90 96 16 23 98 1B A1 22 26 9D 1E A3 81 97 9F 26 9E 99 03 90 8F 94 15 12 19 1A 97 0A 81 16 90 84 98 93 06 98 8B 1C 9F 98 9C 99 97 1E 96 81 0E 95 84 94 92 97 8D 95 11 93 1E 89 8F 0C 1B 98 9C 0B 1F 9F 99 17 98 1C 10 18 16 A0 1A 9E 9A 1A 89 09 87 1C 1B 16 1F 09 9C 9A 96 1B 99 18 1F 13 91 81 1C 02 1C 8E 1C 96 1C 97 92 92 19 1C 99 99 15 19 12 13 12 13 11 01 02 9C 0F 1B 1D 1F 18 1B 93 18 1D 08 17 08 1E 13 1E 9D 10 9F 01 9F 01 99 0C 9E 9E 87 99 9E 0F 11 95 20 1C 8C 25 20 20 2A 83 18 23 1F 1C 0A 92 25 A1 A4 15 29 14 18 15 A4 24 18 22 1C 09 1B 25 99 25 22 93 9C 1B 83 94 2A 29 93 25 18 23 00 17 9F 9E 8A 81 22 28 A2 A2 19 8B 01 21 A1 01 A5 18 1B 14 15 A0 18 14 16 23 11 12 98 27 86 9C 1B 9E 1A 2A A9 14 88 90 20 09 19 1C 1B 20 28 29 01 17 9B 28 01 9C 2A 28 22 98 23 96 84 81 24 14 92 19 04 01 25 14 23 1E 98 20 15 08 14 21 9A 18 0D A3 20 00 28 9A 9C A6 A5 81 A7 27 23 AB A9 20 A0 14 AA 29 28 9E A4 9C 1D 1B 29 A6 06 82 26 99 01 A9 20 97 28 28 1E A6 23 95 A8 A8 A3 A0 81 20 9C 1A 19 26 A6 A9 9A A3 1B 2A 9A 23 9E A9 2B 22 24 28 25 99 00 1F 24 12 A6 81 28 25 94 A3 2B 19 0E 15 A8 9D 24 25 0D 24 A5 18 11 19 9E 29 A7 9C 9F 24 20 9F 1A 01 9B A8 23 9D 1D 9E 8E A6 A6 99 29 93 29 A7 14 21 8C 05 A6 A3 10 20 8C 26 18 9E 9D A3 8A 1B 22 96 9F 8B 9D 20 18 9A 17 1F 97 A6 13 9B 1A 9B 01 21 01 1B A7 92 1E 06 1B 08 1C 99 A8 17 15 A4 A4 98 91 1B 0D A1 93 9C A4 A7 1A 0F 18 A9 9E 21 9B 90 A8 8F 96 1E 1C 28 0A 20 16 21 14 9A 21 A0 A0 A0 25 A2 25 A3 A2 A3 0F 09 21 97 22 09 9A 81 8C 00 19 9D 01 A1 A3 21 21 A7 9B A2 8B 28 20 17 94 9B 22 08 01 08 96 19 9A A6 A8 99 9C 17 0D A3 15 2A A7 20 8F 1C 9D 11 A1 18 A1 9D 93 1B A9 16 87 0E 18 A3 8B 9D A4 81 9B 89 28 81 07 8A 1F A5 17 25 90 AC 18 9A A7 0D 81 89 A2 A2 23 20 81 9C 9D 23 A1 97 81 99 A2 93 20 A1 21 1D 88 92 9E 01 AA 12 24 9C 15 A1 27 94 A2 15 21 A5 1A 18 AB 97 22 16 19 21 0D 21 18 AB A0 1F A8 99 80 9B 16 A5 23 1D 95 22 23 24 03 9A 90 28 18 81 23 A3 AE 20 23 93 1B 99 95 86 A7 23 9B 23 8F 9A 86 10 9E 2A 93 13 21 21 1D 28 22 07 A3 A0 20 9F 24 26 8F A8 A8 9E 18 14 21 AA 8C 23 9E 1C 07 8F 14 1C 10 0E 01 93 89 90 8C 11 A1 87 01 9D A5 96 25 19 A4 1E 17 91 81 15 A6 97 1E 23 26 25 A0 9A 0D 22 0B A7 0D 27 29 A0 11 9C 93 81 08 23 15 A4 92 A8 8C 1F 26 27 9D 08 14 2A 27 29 01 21 A2 1A A7 8E 28 9F 81 9C 8D 10 24 24 2C 91 0E 87 1B 88 23 AB 8B 15 88 1F A2 91 A9 14 1D 26 98 2A 1C 9D 0A 8F A7 29 9F A8 20 11 21 1B 22 13 80 9C 22 99 05 81 15 97 9F 1B 99 1C 02 00 1F 11 17 20 94 98 8B 13 91 18 87 0C 94 1A 90 97 87 1A 8A 92 9F 99 9D 0B 85 81 19 93 1F 9F 94 8A 8E 95 07 1F 96 19 12 18 9F 95 01 1D 1C 90 16 0D 17 11 9F 9B 9C 19 14 19 0B 93 0B 0F 99 1B 9F 9E 14 98 18 1B 1E 98 81 97 18 1B 1A 92 18 0F 89 98 8C 1D 1F 98 9C 0F 97 9C 99 0F 1A 02 8D 81 19 81 14 97 95 1E 9B 9C 98 9C 10 0B 90 0E 16 98 98 98 9E 1B 9F 96 99 98 81 09 1F A1 28 1D 1D 24 9D 20 1E 20 80 1F 1C 20 1E 1C 9A 1F A2 8A 1D 97 20 9B 06 22 19 29 10 24 29 22 9B 99 93 8C 9D 28 01 9C 21 23 15 A2 26 23 14 1D 1C 18 A7 19 21 18 12 87 24 10 20 0C 10 1F 82 9D 9F 01 86 26 23 1C 25 1D 17 99 1B 93 19 A5 08 9D 1F 96 18 20 22 01 22 88 A4 20 1A 28 27 1C 23 1C 98 22 1F 1F 15 2A A0 90 16 21 87 28 A7 15 0D 8F 81 03 21 20 10 26 22 21 23 A0 21 A8 1C 9A 13 21 A2 1A A8 9D 11 11 1D A2 11 10 81 20 20 13 A0 01 A0 9A 24 86 12 10 99 1D 9F 19 1B 81 A5 A0 28 22 A0 24 8C 23 18 07 A2 91 9A 25 29 23 A0 9B 8D 21 93 15 20 03 81 9B 17 91 1B A1 9E 1F 20 A1 24 A4 A4 0A 27 28 A1 22 0C 2A 1B 1B 26 A5 A9 1B A9 9B 17 99 02 8A 9C 1F 1F 27 28 9B 18 1E 22 9F 15 A3 9B A0 23 22 A3 1F A4 8D 90 25 1A 2A 1B 95 05 1A A4 25 A4 9F 9B 1D 28 13 15 20 01 0C 1C 19 23 9A 93 A2 21 9F 90 24 9E 13 28 01 9F 28 A7 21 12 01 A3 21 9D A9 1E A6 20 1A 9B 01 17 26 9A 23 2A A5 9D 1E 10 0D 1E 1F 21 01 28 23 0C 9D A5 10 01 2B 9C A2 97 A4 13 93 95 21 AA A2 9B A8 9C 01 10 91 95 26 19 20 92 1F 1D 17 A2 12 28 A4 99 9A 1B 95 20 1E 09 28 1F 2D 1F A1 1E 29 29 24 27 A1 81 14 24 8D 0B 28 A2 22 A0 14 29 0B 01 22 01 9F 29 90 18 9F 22 01 18 1C 8F 26 19 81 1E A9 1E 9B A9 A0 81 81 9B 1A 16 16 9A 01 1B 10 1A 07 16 1D 1A 9D 17 10 85 A9 23 A1 91 93 9C 01 01 0F 16 1C 21 8F 9F 21 81 A2 95 1F 1B 9A 24 22 23 88 01 97 A1 20 12 A7 99 24 88 22 A0 18 99 1C 1F 81 A1 A1 9A 9E 1A 14 0A A0 92 94 94 1D 93 9A 1F 01 0E 98 A4 9F 27 20 8C 8F 98 9A 19 01 14 9B 1D 81 20 1C 21 0C 81 09 9A 00 10 23 90 8D 1E 16 9D 1D 1A 19 0C 1A 9C 1D 01 9C 8E 98 24 01 1A 9C 22 A2 15 9A 94 10 94 A0 A7 9E 01 0A 1A A3 1B A0 08 1B 9D 9E A0 A1 8E 0F 9E 92 1D 0C 9E 9E 95 20 19 20 A8 1C 99 19 A1 25 16 11 1E 98 98 01 19 24 0A 20 A8 A2 85 1A 93 9B 0E 1C 1D 81 84 93 9F A1 97 1A 98 9E 22 A2 16 81 1E 20 8A 17 23 20 8B 1F 1D 18 81 21 A2 87 15 16 A3 A8 A2 A1 8B 8F 81 A0 23 1E 21 14 92 17 01 82 09 20 91 1A A2 14 83 A0 92 24 22 1D 8E 1A 9D 1A 01 9D 98 92 19 89 8F 9B 80 A3 1D 93 22 96 11 1C 04 0C 9C 96 98 98 17 92 18 20 16 99 01 93 81 15 81 1D 10 9B 18 9A 1A 10 81 1C 1A 92 11 19 9A 1D 85 1A 0B 18 1E 97 9B 1A 1D 1F 01 11 9B 1E 9C 11 96 10 18 9D 9C 9D 1D 0E 01 17 A0 94 97 05 03 01 82 98 83 16 13 1D 13 18 9B 8B 81 A0 1B 9F 18 1C 1C 1C 1B 1D 9D 1D 98 07 9F 9D 8C 9D 1C 98 01 01 99 15 1B 0D 20 9B 15 16 90 86 00 92 16 91 1E 9F 97 1D 17 1C 9E 97 15 9B 19 0E 15 11 86 29 19 A2 9B 08 97 29 9B A3 2A A2 88 11 9E 1C 92 A0 1E 96 A8 13 1E 26 1C 97 A0 81 9B 25 AB 22 21 88 A8 2A 28 01 81 8A A4 9C 2A 25 21 25 A8 AA 99 23 98 AB 29 94 24 17 81 A2 A3 9D 99 11 92 80 96 90 18 24 26 24 80 11 20 23 9A 1F 22 28 A9 1E 9F 94 27 27 A6 A7 07 15 92 9E 24 A0 17 96 8F 96 13 A0 21 26 94 2B 8D 94 A0 97 1F 9C 04 90 29 11 12 01 9F 2A 9A A0 24 10 23 93 22 83 A2 A0 1F 9F 1A 25 9E 12 AA 9D 19 A8 1A A9 A1 23 16 A8 8F 02 19 95 91 8F 0E 95 9C 18 A9 1A 01 A6 91 A8 A0 A8 11 18 97 90 1B 1A 18 A4 AC 9E 9A 0A 20 1F 92 A3 9E 25 A0 01 1B 8F 16 A4 25 9B 9D A4 93 0E 20 9B 23 9F A0 1A 1D 20 A8 10 AC 28 2C 21 0F 12 A2 26 AA 81 9A A4 20 0A AA 93 A2 29 28 AB 9B 1E A8 9C 0A A8 9F A0 91 15 A4 A5 91 81 A2 18 96 1A 22 16 1E 8E A6 29 99 A1 13 A3 20 A7 99 24 90 16 18 1C 99 92 04 10 8A 1A 81 17 95 22 08 99 9C 01 80 1C 19 9A 1A 99 06 23 1D 24 98 95 87 A0 8E 24 11 1F 14 16 99 95 12 0F 10 A0 11 92 01 A3 88 86 18 85 9A A2 09 20 20 97 90 98 01 21 9D 10 18 1C 9F 23 21 96 21 A2 97 9A 23 8A 15 A4 87 90 98 16 1F 9A 08 13 23 1A 8C 12 1C 1C 1B 95 01 18 22 20 81 21 1D 22 22 0D 1E 10 13 89 92 A2 9D 04 9A 90 97 18 A3 80 94 1D 0F 20 20 21 93 19 82 A0 A2 01 81 91 15 28 22 99 A4 1A A0 9D 13 A8 13 8B 10 A0 96 0C 14 20 1C 91 9E 99 19 1B 1E 9C 9A 98 9A 8E 14 12 1A 90 96 18 24 1A 90 90 A6 1A 9E 19 1B 9B 19 95 95 19 9E 99 1F 9A 11 91 06 A1 0B 9B 06 20 0B A3 9F 10 88 1C 13 8B A3 0C 9C 0A 1A 19 18 13 1C 0C 9E 81 14 03 96 0C A2 18 86 21 1F A5 81 22 08 85 88 9A 8C 95 25 9C 98 98 A1 9B 83 99 19 9A 24 91 95 A1 13 1C 91 97 1F 95 97 20 21 9E 93 9B 0C 9B 81 24 9E 08 A0 16 11 18 18 96 90 21 99 92 92 1E 13 9D 10 1F 19 22 9D 08 A4 92 19 A1 99 98 9C 00 20 82 20 0C 17 22 1E 01 A2 0F 0E 26 28 29 81 A3 9A 18 9D 04 1E 18 1B 87 25 1E 90 A6 13 87 25 8A 25 96 98 23 21 25 93 15 00 2A 1C 21 92 A4 82 1D A7 80 22 95 21 1A A3 1B 9C 29 26 92 93 1A 19 98 0C 9B A0 91 9C 1B A4 0B 01 98 90 A1 89 24 28 8A 1B 8F 9C 24 A9 92 95 9E 1B 88 9C 11 1E A2 19 9E 1E 99 04 A3 09 18 15 02 9B 18 88 A7 94 28 1B 20 8A 1E 28 A8 A9 23 22 81 28 A0 A6 20 9B 88 01 87 10 0E A0 9C 9D A3 A0 1A A0 9A 11 A2 8B A1 19 81 01 8C 0E A6 A1 26 91 91 A0 A0 1F 25 15 24 99 19 01 96 A5 A1 81 1F 26 A3 01 A6 9A A5 A0 23 A5 AA 21 9A 14 9C 96 01 23 8F 1B 99 94 20 20 20 19 19 1C 93 10 28 23 9A 29 20 A2 17 9B 24 9E 14 A8 18 A3 0F 9E 09 9F 21 1E 13 A3 20 23 A2 81 8A A9 98 29 03 85 84 18 98 81 1D 22 1D 24 17 0B 0F 21 1C A0 05 24 A0 A1 19 26 97 14 9B 8C 1E 1C 23 15 96 11 0E 80 23 11 A5 A0 1A 13 01 25 26 81 08 24 97 91 98 1E 0D A0 15 26 2A A4 A0 23 01 14 1C A4 1B A0 1F 1C 01 22 A0 1C 9B 25 20 1F 26 98 24 22 21 8A 0E 28 28 94 98 96 A7 A0 16 A0 13 9A 18 19 29 80 24 1B 26 8D A6 28 24 1A 1C 9E 0E 14 20 01 8C 9A 01 22 15 01 21 28 99 14 1E 21 A3 19 1A A0 9D 12 18 27 9F 09 19 99 2C A2 1E 28 9F 21 25 A8 8A 19 97 25 1B A0 A2 0D 26 23 04 1D 1F 1D 28 1E 28 8E A8 02 1D 26 19 16 17 16 90 25 1B 92 12 AC A3 10 22 1A A2 9A A3 86 13 0A 23 AD 16 83 A2 94 28 A1 8E 0D 99 0E A0 1D 8E 21 9D A2 18 1E 14 1F 19 15 10 2B 2B A9 1C 25 27 A1 98 9A 19 1F 01 1E A9 98 2A 20 22 9A 28 13 1E 9B 8D 21 A9 94 82 A1 94 1E A0 28 01 1D 25 18 23 1B 1E 9D 18 81 81 89 1C 21 15 88 1C 98 9C 12 A8 21 90 82 1D 81 A7 25 16 01 A1 24 A6 A2 21 0D 01 92 98 81 07 95 9C 94 A5 A4 21 24 10 11 A4 A8 91 A4 10 1C 0C A1 20 21 A0 90 A1 81 1D A0 88 26 1D A8 9E 24 0A 0F 0E 81 9E A3 0F 1D 8C 22 A1 99 A0 A3 20 28 23 A6 21 14 8C 9D 13 06 25 91 9D A7 0F 13 81 24 A8 9F 88 97 29 95 10 12 1C 1D A9 28 99 04 10 9B 82 81 A5 19 1A A8 8D 09 19 10 96 28 90 A6 A5 85 A1 A2 26 A9 9C 20 81 9C 27 0E 96 8F A9 9B 05 AB 28 22 A8 81 18 99 13 9B 13 25 13 AA 81 1D 01 25 A2 92 9F 8F AA 19 A3 24 81 22 25 24 A5 90 A1 AB A3 88 A0 16 01 9B 19 15 28 1B AC 9A 9E 26 15 1B 84 9A 9A 2B 0F 2A 18 8B 16 9D 25 0E 23 A9 22 2A 19 98 A0 12 22 9A 15 A5 A7 29 22 A3 8B 98 1B 1D A3 AA 0D A8 A3 8D 94 A0 A5 81 A3 9C A4 1A 17 8B A4 10 A0 94 A0 25 8A 0E 90 19 81 A0 9C 99 A5 8A 15 98 1F 18 1C A1 1A 98 8E 13 96 80 19 9D 15 20 13 22 16 A3 A0 9A 98 8C 29 1A 91 19 94 A4 1C 82 13 97 21 9C 1C 02 A4 05 25 1B 18 21 1C 22 1B 22 28 0A 18 9C A0 0A 18 A0 98 1E 20 96 01 90 20 A3 A0 9C 8B 07 98 81 94 9A 18 22 17 1A 19 1E 91 98 1A 1C 14 19 22 99 14 28 01 90 90 18 81 A1 88 90 14 17 99 1F 9A 97 12 1D 1C A1 23 11 28 93 1C 21 AB 1C 14 20 9B 20 9E 9E 16 91 8C 8B 96 22 A0 93 01 23 A1 8D 1B 1F 28 9B A1 A7 98 18 9C A1 A8 95 9F A0 90 9D A1 01 0A 18 20 89 07 A2 98 11 01 1F 81 97 A0 98 20 28 20 A3 23 29 14 83 A2 A0 9D 81 23 24 12 A8 A2 08 1D 90 A2 22 83 18 9A 25 1A 91 A3 93 1E 13 A4 1F A4 A0 08 21 28 A9 97 9D 25 1E 29 81 0E 01 27 A9 04 81 98 98 97 A4 8E A0 28 2B AA 89 00 98 8D 1F A8 95 12 18 18 A5 A2 A2 0B 1D 96 9A 1C 25 93 98 13 A1 25 A1 A1 99 A2 16 9C 9A 18 81 95 1F 81 13 19 22 9F A6 91 9A 98 A1 A2 20 9B A2 1A 9D 11 1D 14 14 22 A1 9B 91 0A 20 9D 15 19 8F 24 18 20 14 9C 88 04 12 20 21 A0 A8 07 12 96 20 1B A1 A3 9B 20 15 96 13 92 24 9F 14 16 9A 19 99 A0 A1 A3 19 92 11 81 81 20 9F 14 9E 1C A4 21 22 A0 84 A1 91 1D 0E 06 A3 84 00 08 9C 8B 25 10 20 1E 12 A2 9A A5 81 9E 1D 24 A4 98 A8 17 22 91 0C 1C 13 1C 1B 99 96 86 95 8B 0D 18 14 0E 09 20 15 A0 91 92 97 23 1B 91 A3 9F 92 0E A0 A1 22 0C 9F A3 9A 1A 9E 1B 87 22 01 A3 97 8E 13 14 0F 01 14 98 A5 82 24 08 09 26 21 16 24 9E 9E 91 8A 20 22 24 A3 9E 8B 23 19 0D 1A 99 1A 1C 1B 1F A2 A3 9D 95 1B 17 19 A5 98 17 21 1E 9F 20 15 1E 17 2C 25 A0 9C 28 A6 18 1F 1F A0 8D 9A 1B A0 94 23 9F 22 88 99 00 A0 A0 21 17 12 1A A0 18 03 9C 1D 9A 0E 15 22 99 87 95 99 20 A6 A0 15 A0 1C A6 01 94 17 91 1B 10 01 93 93 09 27 83 92 91 97 1C 8F 9E 20 14 1B 9A 9F 92 1F 91 8E 22 18 1C A0 9A 98 22 17 1A 24 16 A6 28 12 A6 A8 9B A1 1B 0E 8B A0 A2 A6 81 1E 27 0E A7 A0 1D 99 22 A4 25 A2 05 25 22 90 24 07 1D 9B 12 97 A3 15 96 2C 9B 22 A8 9B 9D 01 18 21 8D 25 14 96 81 1B 92 08 A5 23 A0 81 28 20 98 18 87 22 20 1D 14 9D 9F 27 12 0B 19 92 20 9C 9C 99 14 9C 15 96 94 10 29 97 13 9A 24 8D 0B 20 9D A9 9C 20 25 15 A1 9F 19 9C 15 80 A3 90 14 99 A1 A2 9F 04 03 81 0C 19 98 A0 20 97 9A 1A A0 9D 16 99 14 89 9B 93 96 81 20 01 08 99 95 A0 87 19 06 9E 97 92 1E A0 8F 26 8B 9B 8E 20 0A 99 01 8F 88 9C 01 24 A6 98 8B 24 18 98 21 12 22 17 20 20 17 1B 17 9A 13 15 85 13 9B A0 19 9A 26 27 A2 92 92 A1 A2 9F 9A 1B 99 95 23 A0 A0 96 97 0B 8A 99 18 20 17 16 A0 11 21 A4 17 84 A5 17 93 97 18 9B A1 21 1C 1C 98 19 8A 08 8C 92 A2 0B 12 01 21 82 94 05 98 98 18 1D 01 1A 11 0E 1F A4 A0 20 95 16 A2 88 9E A1 08 21 03 98 0D 8F 1B 17 98 18 0D 11 16 22 19 A0 9C 1A 10 20 0E 8B 11 18 21 24 84 12 81 81 10 05 10 18 9E 18 9C 04 1D 99 98 8B 19 8C 02 01 25 90 0E 16 18 1A 85 9E 81 97 8C 81 12 92 A3 81 19 14 20 13 9A A0 9F 20 13 22 92 05 99 99 93 1F 96 9D 10 1B 08 9E 91 18 9F 1D A4 90 0B 88 23 12 11 91 2B 07 A9 A9 18 19 20 01 9D 20 A3 81 81 A3 92 9E 14 1C A1 A8 1D 16 27 01 1D A0 19 A0 01 A9 18 90 1F AA 24 17 98 98 9F 93 98 2A 26 97 14 9A A5 12 98 9D A6 25 17 92 99 1F 10 9B 9F 21 0B A3 18 97 A7 20 8E 29 11 03 1D 13 1B A6 11 1C 17 AC A4 A0 A0 25 22 A9 A5 0D A1 9F A1 1B 81 1D 9C 1C 93 14 9C 20 24 9F 27 81 8E AC 82 23 16 16 92 21 99 01 1F A7 28 9C 9F 15 A2 18 A0 01 A1 A6 A3 8C 9D 21 23 99 A4 1D 13 1A 90 98 14 A0 A1 18 29 16 21 1A 09 88 23 20 18 98 A8 28 99 A2 01 A0 28 1A 15 22 0B 98 9A 98 23 9F A1 9C 9D A0 9F 9E 9C 20 28 9C 24 11 01 A5 11 23 A8 95 9B 23 28 9A 81 1E A4 20 24 A2 16 28 23 1A 9A 89 20 1A AA 9B 18 23 A8 81 97 A6 A2 0A 25 81 00 29 22 22 01 88 27 1D 11 21 A4 A1 28 21 0D 98 0E 9D 9B 27 22 81 27 A6 8A 81 14 91 93 20 15 28 2B A5 29 26 A0 9E 05 18 01 23 00 1A 94 25 01 13 23 88 0B 2A 1C 92 20 98 29 1A 26 81 1B 1A A2 20 96 28 9D 21 26 82 22 10 26 28 A0 A1 20 19 1B 23 2B 1C 81 25 29 8D 9E 18 1F 1E 29 11 94 A1 0F 20 18 9D 21 9D 25 13 A1 92 13 A3 1A 8B 29 89 23 18 A1 27 0B 01 25 27 8A 1B 9D 1F 1B 28 84 93 29 26 24 19 97 0A 1D 1A 1E 26 10 1E 24 1F 81 24 22 21 28 90 94 27 21 17 23 1B 81 28 81 16 9E 1B 2A 1F 28 A5 23 14 95 25 9D 1E 9D A4 18 1D 9F 9B 93 8E A0 20 A0 9A 1F 1A 11 22 2A 92 0F 94 26 1B 20 10 AE 29 9B 21 1B 15 1E 1E 21 2B 14 94 19 1E 26 95 96 91 0D 85 11 95 94 21 2A 1C 2A 88 1B AB 18 28 A3 A2 01 1E 24 98 1E 24 8F 9C 2C 99 1A 18 11 0D A3 14 23 1D 92 0D 1A 22 86 14 97 A3 A7 13 27 8F 25 22 10 21 16 A7 23 29 1E 20 A1 A5 1E 29 18 93 94 A2 18 1E 21 1C 27 A0 9D 28 91 1F A0 29 20 28 2B 99 28 23 8A 9B 18 9B 1C 0D 01 97 91 0B 18 90 1F 83 81 27 95 19 22 1E 04 99 9E 22 98 8B 27 22 21 19 1A 90 25 96 98 A2 A0 14 21 00 98 8F 9F 97 1E 95 1A 12 92 9B 23 01 9F 9E 18 92 A4 A0 0D 23 1B 99 84 0D 15 08 27 A3 15 A2 9C 93 A4 21 A6 93 90 19 19 95 A1 9F 1D 01 11 1E 09 98 01 A2 8F 81 A3 04 9F 1D 17 A0 94 21 1C 24 8D 99 2A 12 AA 26 24 98 A1 A0 86 9D 91 9B 9E A1 16 9A 1E A0 8F 10 A0 11 01 23 15 89 0F A7 9C 2B 81 1B A1 1B 1A 0A 2A 9E 1C 29 AA 95 24 90 18 9D 22 16 21 A0 99 19 24 1E 13 11 23 06 29 A5 27 21 99 9F 24 1A 9A 20 1D 1F 95 28 1C A2 A3 A6 8D 8B 23 94 A8 21 17 A1 95 1F 92 A8 1A 88 1B 01 26 90 8B 98 23 15 24 1B 91 26 A2 A5 93 2A 81 9D A7 1E 19 1B 29 A2 15 1F 1E 11 94 0D 25 2B 24 1E AB 01 1E 19 25 0C 2B 22 14 AB 99 24 17 01 09 9C 81 1F 1B 9D 10 9D 22 9D 28 1F 27 98 14 22 A8 24 1A 25 A1 14 21 81 96 0E 99 90 20 A9 2A 0B A1 18 8C 01 98 A8 20 25 90 9E A8 A2 9F 21 9F A0 A3 21 A3 A1 A2 21 12 25 09 01 24 26 12 9C 99 1F 9E 24 21 17 81 9D 25 9A 8A A4 86 09 24 1E 81 19 A2 28 12 92 1A 14 99 A4 A8 0C 20 A0 9B 24 1C A0 9A 2B 29 0E 18 0D 9A 28 10 A9 A8 9F 1A A7 0C A0 A5 01 19 9A 25 A0 A6 A8 A7 81 12 1C 9F A8 A4 88 9F 9A 81 27 1E 19 9F 24 13 99 A4 10 A8 A3 10 1E 19 11 99 A3 1E 1E 8C 93 9E 95 13 10 18 99 10 18 0E 96 9C 9F 18 11 9C 11 9C 0C 0A 9C 1A 0A 1B 13 10 20 94 99 81 11 95 9D 8B 9D 18 17 1D 9A 81 9B 98 1F 9A 9B 9A 9F 99 1E 97 14 9B 8D 07 03 17 90 8C 92 97 98 0B 1E 1B 98 1A 1B 9B 19 98 9E 1C 9D 1D 9A 11 1D 94 1A 99 8E 91 98 1E 9E 12 84 1D 81 02 05 1C 1E 99 14 1D 9A 84 1A 12 90 8E 1A 97 88 19 16 10 1E 1C 1E 17 89 8A 99 95 1D 9C 9C 9A 17 15 10 0F 83 A1 99 26 24 01 9A 94 01 27 0C 14 93 15 01 1B 94 1A 97 1B 28 12 18 A5 01 9A 87 88 17 1D 1F 9F A4 9A 22 A3 96 1C 29 24 22 18 A4 96 9A 8D 29 25 9F 17 06 28 93 A5 A3 18 25 27 2B 21 1A 98 25 29 08 12 9D 0F A3 91 28 28 01 96 11 99 9C 9B 10 24 26 A0 A3 A0 24 29 97 23 1C 1A 91 19 A2 10 0A 01 9C 21 9F A4 83 11 1B 89 28 A0 19 A1 1C A0 A2 90 1F 14 27 9F 21 20 99 85 23 9D 81 17 8B 81 20 18 A3 