9C 20 9B 9D 9A 99 A4 1C 22 1A A4 18 A5 98 1F 81 9B 20 A5 A4 19 A2 A4 28 1D A1 1D A2 20 20 1E 22 00 98 03 A5 25 20 13 18 21 AA 1D 9B 81 9C 1C 9B 22 A7 16 19 1E 14 94 A8 27 A2 1A 27 24 99 A7 9E 96 12 25 24 8B A0 87 A9 23 1D 81 01 1B AA 91 9C 22 9F 9E 92 1C 01 21 01 A4 25 25 25 8C 9C 0C 20 9F 92 A1 20 1B 21 A1 21 19 91 1B A6 0F 23 A2 24 23 9E 8F 1D 25 29 09 13 90 A0 A3 90 95 1D A8 1D A8 9B 20 24 A6 1F A2 98 1D 00 16 9E A4 25 21 10 8C 99 1E 26 1E 9D 