02 09 90 01 91 91 11 13 88 16 9D 8C 0D 98 8F 90 8B 1D 9C 98 18 8D 20 0B 8B 98 81 8D 17 0D 07 A3 92 8F 97 9A 8D 92 9E 98 8F 01 95 96 8C 9D 93 8B A0 90 8B 1C 94 90 01 81 8C 9A 10 01 11 95 18 00 89 01 9A 95 14 19 13 11 99 9B 93 9A 18 90 8D 94 91 90 1C 99 A0 81 94 97 9A 01 82 10 93 99 81 99 00 1C 19 98 87 15 92 9B 8D 0B 97 93 A1 94 8A A0 89 8E 8D 98 15 06 0F 8E 01 91 8E A3 92 92 8E 1E 