93 10 11 85 13 1B 82 1E 9C 06 16 19 97 A2 20 0A A0 0C A4 20 95 21 18 9A 1A 91 96 84 27 96 0A 1C 14 21 02 9F 01 91 1B 9C 97 81 17 10 21 25 21 8F 9C 90 9A 93 9C 20 A0 24 99 1B 00 03 1E 11 16 0C 11 13 0A 98 80 1C 96 99 93 21 01 17 88 10 98 9E 96 86 8B 25 96 99 19 19 88 9C A2 18 1B 18 91 96 91 18 20 A0 17 9A 9F 90 14 01 15 21 0C 0E 17 13 13 9E 21 10 19 22 9D 98 81 11 A0 9D 1C 11 92 90 A3 06 A0 81 9D A2 0E 15 9A 99 A5 13 9B 14 16 14 08 8D 18 1F 15 A4 0A 99 1B 16 83 8A 99 1B 02 9B 1A 13 15 1D 1F 98 97 9A 8F 92 90 11 8F A6 9F 18 94 14 03 14 8F 96 97 A0 91 1A 0E 15 0F 8E 8A 15 81 14 92 87 0E 8B 90 81 9D A1 A1 A9 9B 99 15 86 19 A3 11 8D 90 0B 19 90 9C 9C 98 9A 9E 91 A1 09 A5 8D 18 08 1F 9C 01 A2 21 99 A1 93 A6 A1 9D 11 98 8C 82 90 9A 8C 01 8A 19 1D 1C 83 81 8B 01 81 18 1C 94 20 8A 11 21 A0 1D 18 A2 12 98 A3 A1 81 1C 19 00 12 85 A1 90 0E 24 92 24 10 81 1E 81 0E 8F 87 0E 1A 20 94 18 92 82 1F 8B 1E 90 9E 1D 14 14 1B 98 0F 1E 01 20 19 1F 12 07 05 A0 9E 9A 11 99 01 10 1D 09 8B 09 95 1A 0B 9C 93 97 1C 06 1F 12 01 97 1D 21 03 9C 94 0F 17 1A 82 1C 1C 91 99 1E 18 81 17 92 01 86 99 9A 17 01 9A 15 08 81 02 14 84 1C 1D 9C 91 A1 1C 95 94 9A 13 A1 9D 98 15 9D 1B 0B 88 9B 9E A8 94 22 9E 91 01 12 1D A1 9C 98 01 03 9E 99 98 0C 92 04 11 A9 03 19 81 11 81 95 0F 07 95 08 98 81 9D 19 A8 0F 08 A7 A0 0D 01 95 15 19 01 18 15 95 1B 98 17 92 91 17 94 17 18 8E 9C 8A 96 99 1E 91 0E 01 1F 18 26 9C 17 AA 20 18 11 1A 1B 1C 99 0C 8A 84 16 A4 2C 20 1A 9D 88 90 1E 0D 9C 12 97 01 22 21 A5 0D A1 1C 10 22 24 08 1E 16 9A 92 20 0F A0 9A A9 01 9B 8F 28 87 9C 9A 16 15 8F 99 9A 15 0C 05 1E 17 96 1B 8B 13 94 8E 01 08 12 18 19 01 91 A0 01 A8 80 1D 1A A2 9B A4 87 22 9A 90 91 90 18 19 81 92 99 1C 96 9C 10 1F A8 92 01 99 A3 9B 9A A2 90 12 1A 22 0D 92 89 18 25 9C 05 92 92 1A 13 96 20 9A 91 92 8C A5 1C 85 95 08 04 1C 10 26 91 12 13 9A 1D 19 95 18 9B 0E 01 12 A4 98 93 1C 22 27 01 19 09 16 16 15 1B 18 A1 89 03 19 90 0A 10 A9 14 A2 8E 1F 18 8A 1C 1A 95 90 04 9E 92 9B 91 23 9F 98 1D 16 9C 99 19 92 9D 25 20 91 81 94 13 99 8D 99 16 8C 87 A4 13 0E 9E 9B 01 0C 14 1D 17 A0 1D A4 9A 8A 24 81 18 A3 99 99 14 10 9C 0B 95 20 96 8A 93 14 9B 01 18 04 15 95 91 8A A1 98 89 8A 9E 13 01 A3 20 9A 8A 99 A0 96 90 84 1E 93 90 A5 83 A2 12 9F 1D 01 9B 97 1F 81 A7 90 0A A1 99 9F 17 19 98 9B 01 9C 80 0A 22 A1 93 9C 1D 9C 90 9F 1D 9E 01 81 18 98 88 9C 10 88 99 9D 9F 0A 11 99 93 9E A0 93 9B A1 98 94 A8 90 89 A4 11 91 90 01 92 85 81 10 9E A0 8B 9F 09 9D 01 9B 08 99 96 A5 A5 9F A6 8D 97 9E A0 A0 A0 95 01 8F A3 A2 8D 9E 90 A2 94 A2 94 9D 9A 20 18 1A 06 96 11 19 95 98 0A 13 A1 85 11 21 20 A4 17 A0 0E 82 20 89 17 A0 97 0A 1A 02 19 1C 9D 94 0F 10 A4 99 91 01 9C A0 01 9B A0 20 81 20 11 8E 1D A2 85 9D 20 A5 19 9F 9C A4 1C 10 13 8F 21 82 93 13 9E 15 0B A1 96 14 23 88 8E 90 A2 A8 A4 14 A1 1D A0 16 9C 1B 9C 9A 19 96 0A 81 81 97 01 8A 06 93 9F 9D 91 9D 14 83 90 85 9A A1 9B 18 12 9D 96 99 23 99 1C A6 97 A5 90 9B A2 14 A1 00 0B 10 9B 14 20 97 A3 9A 89 9E 1A 90 8B 1F 81 1E 10 22 07 9C 9D 18 02 01 0D A0 9D 82 96 1B 94 99 97 95 10 20 18 20 98 80 97 25 24 14 02 A2 0C 84 95 91 AB 1A 10 16 94 92 18 19 95 1A 96 21 9F 19 17 09 95 00 A0 18 06 11 A0 0F 8D 81 05 98 98 1B 01 8A A1 94 0A A0 1E 96 9B 0F 84 8D 9E 10 9E 1E 9C 98 16 93 1A 16 13 91 99 12 09 9D 8B 1E 18 A8 9D 16 13 11 81 93 1A 06 A1 20 21 98 A9 A1 1D 12 1B 91 99 83 16 8C 9A 8E A1 0F 11 83 95 08 A1 95 81 19 A2 03 1B A1 9A 12 9A 0E 18 98 1C 18 98 90 96 0B 8E 23 1A 01 97 16 00 18 95 A2 01 1B 94 0B 91 0C 0D 9A A2 02 0E 0F 08 92 01 9C 8B 1B 1B 15 0A A8 91 01 1C 99 17 8B 22 12 18 A5 91 1C 09 11 14 95 A2 1B 1F 9A 15 16 08 1E 80 91 A5 0E 23 1C 01 17 11 20 0D 9D 9A 21 81 01 95 8A 84 9D 98 95 9C 93 95 9F 96 A2 97 19 15 92 95 91 16 1A 0A 9B 94 1C 21 8D 19 11 9B 95 21 9B 02 9E A0 98 97 1A 11 14 A1 9B A1 A7 91 83 16 8F 84 99 A2 A5 85 9E 92 A3 04 90 1B 9D 92 A1 93 86 9E 9B 18 A3 92 91 96 99 9B A4 01 8C 9A 9D 92 9E 01 91 23 9C 9E 03 9B 1A 17 19 1D 01 26 19 8D 20 99 99 19 94 9A 90 93 19 81 1F 8E 97 8B 0C 03 1C 8A 81 8F 9D 20 99 01 15 92 1B 91 21 10 09 12 83 10 95 18 13 10 0D 19 17 9D 93 94 17 A0 20 04 88 0C 8C A0 9A 20 81 11 A2 98 9A 9F 17 12 15 81 89 97 91 81 98 8B 92 10 99 9C 1A 81 9D 92 9A 94 81 91 99 9C 18 97 8B 07 93 8F 97 9D 08 97 81 A2 9A A0 A6 8B 10 91 97 99 96 89 18 9B A2 9D 13 0D 9E 0E 9F 9C A2 0B 9A 02 9A 25 03 16 13 9E 03 98 09 16 99 01 0C 1F 19 20 90 12 94 98 80 A1 9B 99 A5 99 9E 0B 20 1A 93 9D 94 1F 06 1A 1A 05 9B 95 95 9B 92 8F 8A 21 A0 13 84 11 1A 11 9F 86 A3 14 01 91 17 01 20 0B 97 01 92 18 19 A5 17 96 1D 23 19 9B 92 9A 90 20 10 1D 86 01 A1 98 01 8F 9C 9A 85 89 1A 23 81 1D 90 81 98 1B 17 96 A4 92 95 17 1C 8C 90 A6 1C A0 23 92 81 09 A6 22 1D 88 A0 81 9E A4 A8 91 1B 9A 81 21 90 1A 97 01 93 19 9C 0A 14 95 13 20 95 92 25 19 01 1C 98 06 26 81 A3 81 1D 8D A8 93 1D 1B 0E 98 A2 13 1E 1C 1C 94 24 18 1D A0 17 1A 84 0A A0 8D 11 02 20 13 A2 19 A3 14 14 03 89 0F 1D 95 9B 81 96 18 18 9B 8A 1C 04 96 25 17 0A 9B 11 81 A0 98 14 9D 1D 0C 8F 9A 1A 9C 8F 99 9E 12 91 0A 99 9C 95 86 22 92 9B 9B 9A 98 0B 87 1C 01 8E 91 18 1B 17 A2 20 22 21 1A 98 A0 A5 23 A3 A3 14 90 9E 1E 21 01 82 0C 16 9E A1 19 0C 98 13 1A 13 0D 1A 9A 95 08 16 95 01 A4 A2 15 A2 12 96 01 9D 1F 9B 81 9B 87 81 9B 9C 0D 9B 21 A1 99 10 17 14 01 1B 1D 9F 18 A1 19 A2 91 87 16 92 A7 0A 01 15 9F 01 1F 91 14 8F A5 18 A8 95 20 A2 99 09 9B 94 01 1C 12 1D 9F 9B 10 A8 13 A4 9D 96 05 08 8C 13 81 1A 0A 12 15 96 8F A5 99 1A 0F 15 A0 9C 81 0A 10 15 8B 0E 18 9B 07 1A 1B A0 94 1D 1D 1B 0B 1C 8C 9C 80 A0 90 96 9B 16 18 18 98 1A 99 8A 10 1C A3 A4 99 08 A8 08 0F A8 1A A3 12 14 8D 26 96 80 99 1D 88 97 97 0B 18 99 02 A1 9D 1E A4 90 A3 1E A4 9E 9A 91 82 97 12 85 95 99 91 A0 99 9B 91 A1 A1 98 0A 0F 93 9B 99 9A 9B 1F 1B A1 8E 17 0B 09 81 95 95 01 A0 A6 19 9F 17 04 0D 81 98 93 15 8E 20 0F 98 98 8C 01 89 90 96 92 81 12 0E 16 A0 19 9B 8E 8B 97 9B 81 9A 01 11 9F A2 82 1F 83 9A 9C 21 01 98 9E 85 92 81 98 21 99 98 0A 14 11 98 97 A1 04 A1 14 9D 18 A2 06 94 A0 19 A6 18 82 1A 0A 92 81 81 95 9F 91 10 1D 9B 01 01 10 8C 89 81 A9 9C 1A 1A 11 8D 19 01 94 22 02 A6 81 8A 92 90 9A 00 19 A1 91 A0 96 17 9D 05 01 9C 12 06 A0 9D 92 90 81 22 94 22 25 9D 21 9B 8C 98 20 9B 98 9C 14 9A 9B 11 9A 8D 20 22 20 90 26 98 96 99 16 13 A2 1C 81 85 16 A0 29 18 93 91 99 20 01 01 10 15 01 1D 99 91 8B A0 05 23 08 1B 98 98 8A A1 8A 10 8F 90 16 94 07 01 13 1F 99 1C 88 19 27 11 8A 9C 22 93 0A 99 8E 8C 02 1E 9D 9A 22 80 0B 9A 10 98 23 84 9D 97 98 93 16 8B 08 1C 01 1D 90 07 A4 A8 9B 1E 93 91 93 19 9B 17 99 91 92 13 12 13 81 18 9E A2 95 8B 23 A4 9B 1E 1A 84 98 8D 23 92 01 1A 15 96 20 9D 0A 85 1B 99 9C 9A 95 21 21 8D 88 1B 09 95 8B 80 9B 0A 82 00 1B 01 92 1C 8B 81 9E 18 0C 16 15 00 A8 18 A2 9E 14 16 06 8B A0 1E 95 16 03 1F 96 01 A0 9F 9B 01 05 99 18 97 19 99 9A 9F 89 04 00 0F 18 1E 81 94 87 17 01 9C 90 0E 23 26 0F 0A 8E 8A 00 84 90 95 A2 A1 8D 91 98 81 01 1E 81 01 0F 99 96 9A 16 19 9C A4 0B 13 8A 0F 11 A0 1B A0 9A 9B A7 9C 91 A6 A5 A1 A0 92 94 98 1E 98 A2 A1 82 96 9D 92 97 1E 15 8F 13 18 9C 9B A2 22 AA 9B A0 94 A0 9F 8B 14 99 A3 9E 99 9C 0B 0D 14 9C 98 1B 91 1F 19 0E 81 98 28 14 27 1E 99 8A 25 96 12 0D 1D 81 85 13 01 23 19 94 97 22 99 94 0F 07 20 97 18 87 01 17 99 1B 0E 1C 23 9B 0D 1F 18 94 9A 1F 20 1A 22 0E 90 9C 1F 29 93 A4 8A 9B 9E 08 1A 81 20 A0 97 93 0B 10 1B 01 81 8F 07 A4 1A A1 0C 19 9E A2 81 11 9E 18 00 95 0B 21 8B 9C 08 13 87 83 15 11 97 04 0E 9C 13 87 02 01 A2 9C 81 90 12 17 81 9E 13 9C 97 98 A0 18 1F A1 12 9D 9C 07 12 8B 92 9D 19 9C 93 90 A1 1B 9A 1E 9C 00 9A A2 13 16 23 10 89 9B 9D 13 96 93 13 1A 96 8D 01 83 0E 19 9A 93 84 0B 81 93 17 22 95 15 91 89 18 09 1A 90 81 01 89 0C 85 0C 9A 9D A0 1D 93 1D 0E 17 1A 9A 12 86 88 08 81 93 1C 91 26 1B 92 86 19 95 A1 A0 15 2B 01 98 20 93 0B A4 01 90 99 22 01 28 13 12 9B 90 94 0C 17 19 16 A8 89 23 0B 1C 18 28 03 10 19 91 1A 1B 21 24 8A 0A A7 18 01 01 15 1F 21 9B 0E 9F 1F 09 A4 83 9D 01 98 8F 9F 0F 1D 9D 9E 20 01 81 18 87 86 1C 21 94 81 1C 8A AA 8D 14 81 A1 98 98 17 81 11 98 0F 10 9D 96 88 01 9B 98 1A A4 19 17 15 A1 12 07 11 A7 23 16 09 9C 9A 25 9F 15 9C 8F 07 9E 91 9B 24 81 9F 18 9A 21 0B 11 97 17 93 24 21 09 0C 23 22 A0 81 96 98 A1 1C 94 16 96 10 9B 94 13 A4 13 81 87 81 18 0D 99 98 99 19 A2 23 0B 8A 1A 10 A3 25 99 83 95 92 1C 14 1F 01 8C 0B 90 07 0F 1A 81 92 14 81 25 1A 18 14 89 91 9D 1B 1B 93 9B 0F 22 A2 8B 9C A0 94 11 22 01 20 18 9D 81 21 81 18 03 93 9D 22 11 1E 8E 85 94 19 1B 1D 93 01 01 18 0D A0 0A 8C 8B 00 16 15 A2 20 94 27 A3 8C 8B A1 0F A1 1E 14 89 89 87 98 89 1B A3 9A A2 91 18 17 A4 1B 99 9B A0 9B 0E 94 A3 10 13 81 17 21 A1 1F A0 9C A2 8D A5 08 1E 18 1E 94 81 92 98 A3 82 99 16 0D 9A A1 0B 04 01 94 8D 23 89 0E A4 94 09 14 96 89 9C 94 91 A1 1F 9B 01 92 97 A6 1D A1 11 08 A4 14 A7 93 9D 98 01 01 0A 9A 20 9D 1D 9F A1 21 A4 14 A2 14 98 9D 9E A3 89 1F A9 93 A4 89 12 17 0D 15 88 08 82 9A 8B A5 95 A3 9A 95 10 10 12 93 90 19 11 98 98 A8 1C 1B 91 13 25 11 83 12 9A 20 85 18 A0 0B 90 9A 9D 1B 01 1B 0D 19 9C 9F 92 8E 95 14 97 13 90 0C 1E A5 06 95 01 8C 02 16 90 A1 0F 1E 9A A2 9D 13 A1 92 94 1B 81 15 18 22 89 01 9C 8C A0 96 16 9F 81 A2 16 A6 20 1E 21 8E 0A A3 1D A1 9E 96 02 98 A0 21 99 9E 0D 98 98 99 20 1D 01 90 19 11 0C 1C A3 89 9D 1C 81 94 20 0D 09 1B 17 1C A6 24 13 8B 84 16 04 A0 17 01 9B 21 15 0C 94 96 99 98 8B 9E 08 99 91 9D 25 90 97 20 20 A0 25 9C A5 10 1B 18 81 93 05 8C 94 14 96 13 18 91 85 11 16 8E 9D 1B A0 93 A2 21 81 10 13 1F 0F 11 8F 86 91 2A 0D 81 11 90 21 9C 81 0A 1A 9B 01 23 11 22 20 22 1C 99 8A A0 1D 88 A1 A3 A1 0F 09 1E 81 21 8B 99 A0 95 1D 22 A1 8C 97 99 18 25 A2 9F 9C 17 99 18 9F 81 8D 22 06 20 23 21 01 23 1F 0D A8 A1 92 99 9B 03 09 91 1F 1B 16 21 81 81 8F 9E 87 99 18 9D 10 A3 93 8E 95 90 A3 22 98 9B 1A 94 01 11 19 83 9E 08 84 8B 95 1A 1D 06 8B 0F 94 9A 18 91 A1 1A 9B 20 1A 15 8C A0 99 18 84 20 A5 08 9A 20 1A 9C 95 1B 83 92 99 8A 05 21 A4 0C 0D 99 12 0F 15 98 1A 11 A3 A5 98 91 A6 01 94 01 1B 1B 90 A0 9A 99 16 91 0E 9A 91 A1 1A 01 19 96 A2 92 9F 94 95 8B 12 08 A0 9A 18 96 95 A0 9A 81 19 A0 92 A1 17 18 14 15 18 99 93 9F 92 0E 1B 91 A1 0F 9C 83 20 21 20 18 01 93 81 23 28 01 15 12 1A A1 A2 17 23 8C 19 81 A9 12 13 06 9A 97 12 1C 01 01 83 9A 8B 9E 24 A3 90 89 9D 98 98 8B 1A 9D 0C 94 15 9F 13 9A 98 19 8A 81 9A 99 16 07 26 13 10 99 10 8E 23 27 0C 0C 18 10 9C 98 13 1D 9E 80 0A 95 1F 9E 1B 9A 9E 90 03 96 81 0F 9B 05 A3 1B 18 0A 9A 16 A4 23 A0 81 18 01 96 0F A0 22 A0 99 81 17 97 92 9E 86 00 9C 12 13 AA 1E 1A 93 1F 98 09 1E 16 8B 11 09 18 9F 91 01 8B 8D 01 1D 9E 22 01 A7 0E 04 8E 81 24 9C 80 98 9C A1 20 01 20 1B 10 01 01 90 99 25 18 00 8D A7 81 92 18 A2 AA 24 02 9A A2 A5 9E 23 A1 94 1A 99 99 A4 11 8D 8E 1F 16 1E 81 97 A1 86 96 14 9F A4 14 11 07 0F 03 81 91 01 A0 99 15 9C 24 9C 15 A4 93 0E 8F 98 91 99 81 0D 22 15 17 A6 16 9B 9B 03 84 A5 A0 A0 01 9E 01 A0 1A 13 16 90 10 8B 14 04 8E 98 80 A3 01 8E 9C 1A 19 1C 11 1E 94 8B 1A 24 98 A2 1B 0D 9A 98 10 20 18 14 A4 82 85 98 95 12 20 97 10 0A 98 17 90 8B 10 12 9B 1B 19 9D 1A 9C 21 A1 9B 23 A0 92 12 96 1E 13 8A A2 01 9F 13 9A 1A 8C 9C 01 A9 22 92 10 99 9B 9A 9D 15 9B 16 99 16 9F 16 21 01 88 17 09 01 8A 99 8C 14 99 82 8A 14 16 16 0F A0 A1 81 81 A4 81 19 17 1C 97 9F 22 A1 01 9D A5 1B 1B 9A 9E 17 01 A1 02 9A 94 90 9B 19 9B 96 97 01 17 81 98 94 14 1E 01 14 81 21 27 1F 21 A1 96 8D 13 81 19 22 9C 20 05 1F 99 18 19 14 99 9D 99 81 1D 8F 98 22 98 90 A3 9B 25 20 1B 16 1D 06 27 21 9D 15 1A 9F 21 92 19 97 91 99 16 A5 A0 8B 25 90 9A 9C 99 81 9D A1 A6 A8 9C 08 81 84 18 98 1D 05 14 A2 01 1C 81 85 8A 10 94 95 A5 12 19 15 8E 1E 9C 04 20 1E 81 9D 13 99 8B 25 19 A3 A8 A8 89 9B 1B 0C A0 9D 17 0F A1 09 89 07 98 1F 10 09 9D 10 12 8A 92 9A 81 9C 98 98 89 18 9B 9A 88 23 A2 99 1F 96 14 08 01 81 92 1A 99 A3 12 09 18 9C 15 15 82 99 9D 8D 08 81 20 88 A4 10 98 99 96 10 16 A1 1C 81 9F 93 A6 A2 21 10 18 9F 98 9B 97 9C 11 22 13 9E 86 18 A1 A1 28 80 22 8B 1B 94 93 29 20 9F 25 98 95 A6 1C 1F 9A 01 01 81 1A 23 21 10 8D A2 01 A4 A1 9B 98 9C 19 92 9E 1C 06 99 03 20 21 1C A0 A6 97 09 92 91 AA 96 12 8F 9D 88 1B 9D 88 1C 24 08 9E 10 9B 18 29 8F 94 20 14 A0 1A 18 8A A1 0B 8E 1E 21 9B 05 97 91 86 1F 06 90 1C 91 0A 82 24 99 A2 81 17 91 23 9F 98 23 21 20 21 1E 22 1C A1 10 1C A0 81 0D 19 02 18 99 94 8F 94 99 1F 0C 1D 00 9B 81 85 8D 8E 8B 1B 8D 8C 87 04 17 9C 19 81 9A 12 9B A3 05 01 90 9A 09 20 1A 27 AB 9A 04 20 12 A2 81 81 98 AB 90 9A A1 22 98 88 99 1B 98 94 91 22 A0 98 A4 07 93 95 96 14 26 95 93 19 81 24 8E 99 82 89 10 95 9D 93 81 0A 18 16 9B 9D 93 1C 92 96 A0 10 99 92 15 1B 95 95 19 89 0B 98 8C 97 1B 11 9D 07 98 95 94 93 9F 22 0C 11 13 9E 97 23 94 1E 24 11 A2 A0 11 97 1D 0A 81 9C 15 1E 90 9C 0F 97 92 19 9C A8 9D A1 9F 9C 83 19 9E A4 0E 1B 20 9E A1 20 1C 0C A3 10 98 19 A1 8C 10 99 A7 01 A5 85 8F 17 A0 A3 A0 9B 8B 1C A5 18 14 A3 A5 0A 13 93 9B 11 0E 15 81 98 01 10 28 9A 92 80 8D 88 18 10 9B 83 97 10 12 A1 8F 97 9A 24 19 14 27 86 19 86 A3 A3 22 99 A0 82 88 A5 A4 12 20 0E 9E 93 94 09 A1 81 16 9D 8A 9A 15 14 14 81 99 08 16 9A A6 91 9D 08 1B A2 16 A1 0B 81 A3 11 81 0F 9C 98 12 9A 92 86 88 96 93 1A A5 89 17 91 A5 18 22 99 20 1C 9B 80 10 94 96 98 1D 01 9F 01 20 07 21 95 9D 99 A0 18 A3 81 88 96 0C 81 19 8E 10 A3 91 9C 05 08 A8 85 8D 99 A0 82 84 83 12 81 95 99 20 1D 9F 13 91 8C 1C 25 89 0E 17 1B 8A 95 2A 21 21 1A 9C 98 A8 81 20 97 23 13 17 10 99 19 90 9A 9D 92 99 0F 91 02 01 99 93 9D A5 18 8C 81 20 A3 93 81 A4 A1 16 96 22 12 1A 88 9B 8C A3 9C 10 06 18 A0 81 1C 95 88 81 10 9B 85 0A 8C 21 1A 14 1C 93 06 9B 14 23 91 12 84 A1 11 0A 9C A3 13 17 01 9F 11 98 1E 14 87 92 15 8B 0F 1A 83 01 16 A8 22 15 1F 17 0C 93 20 15 1C 11 9B 11 14 A0 23 8A 19 1A A4 19 89 98 1E A0 10 92 09 A7 09 01 81 99 24 9A 84 9E A3 1D A0 A1 08 A0 01 15 9E A4 A0 26 8F 99 20 81 19 02 0F 01 0C 9A 10 24 A3 95 81 81 0D 9A 20 21 81 AA 01 20 01 A7 9F A2 01 01 95 82 95 A2 22 16 21 98 9A 9D 18 A0 1E 8C 9A 8A 19 1B 25 95 1A 81 14 9A 90 9D 10 0B 8C 91 A1 1E 23 A5 98 0A A3 1C 21 23 99 28 95 93 9C 9C 8B 95 A1 1A 99 9B 9F 14 9C 96 A5 18 23 93 17 8A 1F 81 92 0D A2 15 1C 8B 13 10 A0 9E 22 A2 9E 8E A1 94 1F 29 0B 9C 81 9C 03 A7 1E 9B 08 17 91 1D 9A 13 1C A4 9A 9C 0A 11 88 A0 02 8B A2 9C 9A 81 90 1C 01 1C 93 9D 86 A0 1C 9F 01 81 1B 94 A8 A3 A0 1B 97 81 13 9C 19 13 26 09 24 9A 91 0B 0A 10 9A 83 11 1E 18 1C 22 08 15 83 01 9A 18 0E 9C A2 95 84 15 1B 9B 9F A5 1E 0B 97 1A 22 8A 12 07 92 20 A3 1C 0C A0 9C 06 1B A0 1F 09 8F 92 1C 91 23 95 1E A0 0A 01 9C A5 9B 08 93 20 1E 89 19 A6 8E 0A 01 A2 A6 94 13 A3 91 98 8B 87 14 98 11 94 9D 9D A3 01 9D 94 A1 01 1B 9A 11 07 20 A8 A6 20 A6 A0 0C 8E 97 19 12 0C 07 9C A7 18 01 A2 98 0E 9A 11 A8 A2 07 0E 90 96 80 8B 9C A4 A4 8E A5 A8 1C 81 86 21 05 0A 97 17 94 9C 16 A0 1D 90 A1 99 9E A0 9F 12 9F 98 13 80 9D 22 18 11 A4 9D A3 04 11 98 98 A1 97 09 20 A1 02 A6 9F 18 95 9B 0E 8D 8C 13 9D 11 99 A6 1D 8B 87 A1 0B 8B 99 0A 09 1D 11 92 A1 A2 20 0A 16 89 8C 1A 21 81 0B 81 1D 11 9E 13 24 10 20 9A 17 93 A2 17 1E 9A 9F 22 13 08 19 1B 9D 9B 91 07 99 21 18 98 24 9C 15 23 24 90 94 94 95 22 97 8C 15 97 91 19 96 9C 8F 1F 17 01 10 09 11 08 23 94 08 1A 9C A1 AB 15 81 91 9C 89 19 20 99 1B 99 87 89 9E A5 21 15 93 A9 06 1A 17 12 1B 87 98 98 84 12 A1 9C 8F 10 20 81 A7 20 82 22 98 A6 20 17 98 1D 9B 10 9C 02 9A 1B 15 1B 90 18 1D 9F 1A 18 9C 07 1A 0D 04 24 86 98 88 A0 10 92 81 0D 9B 96 81 A2 24 18 14 1E 9A 94 A2 1E 15 0D 1E 80 1E 81 2A 20 9B 86 1F 1E 17 01 92 20 14 21 1B 15 1C 80 28 94 81 00 93 01 8E 12 A1 1C 21 81 9E 13 11 8D A0 27 99 15 0E A7 96 91 13 93 15 A5 9C 23 9D 9D 16 97 80 1D 1D A2 19 87 AC 28 8B A9 28 A9 98 A4 9E A4 A0 01 97 2D A2 9D 9B 1D 81 12 88 08 A8 94 01 8D 01 16 26 9C 12 A2 90 81 1B 9C 9A 98 9A 98 1B 12 9A 9D 9C 8E 9D 81 09 11 9A 12 92 11 A3 16 90 88 A3 08 02 85 8E 99 0B 0A 09 0B 1C 00 08 8E A2 81 17 9B 91 18 07 9B A4 1C A0 18 A0 A3 0D 86 19 15 9F 10 20 0F 21 1E A2 21 89 A4 0F 81 81 A9 98 12 A5 A3 A3 10 12 20 9A 88 81 0E 11 A8 17 20 99 1E A8 15 A5 9D 89 09 99 1D 04 95 A8 9C 95 84 0B 87 01 0B 96 A3 24 8B 9D A3 1B 01 A4 1D A4 9A 9B 98 02 1A 1D 10 18 22 89 25 81 1E 93 96 1A 18 07 90 A2 9C 9B A2 14 00 8C AB 19 14 93 A9 1C 16 90 0A A0 9F 22 99 9D 9A 81 A8 9F 81 9A A1 97 0F 91 1B 99 09 0D A8 10 1E 8D 18 A2 1E 22 A8 8A 1A 97 9B 93 95 1B 08 08 81 1C 93 11 9F 0B 05 1D 86 82 95 A5 88 82 A1 9B 19 90 99 9C 01 90 98 88 9C 16 03 0E A1 00 81 94 A2 A3 0A 0A 1D A1 17 01 92 A3 1D 8C 03 9E 94 8F 1D 9D A4 07 A1 13 81 15 11 8E 1E 9B 12 10 0C A1 81 02 87 9F 13 92 84 9E A0 9A 9C 8D A5 96 A4 90 1A 9A 8C 09 20 A2 9E A0 22 9A 01 97 9E 16 98 99 98 20 A1 1B 01 1D 17 1C 17 9A A6 20 19 98 1D A4 91 12 1F 98 11 A1 A1 89 9D 90 8D 94 96 18 17 A2 12 95 97 A9 15 92 0D 1C 10 15 21 1A 11 92 24 1D 14 19 A1 10 8D A8 A4 A1 8F 99 0A 0D 9A 23 22 9D A1 0B 24 0C 91 A3 1A 19 A1 07 1F 21 93 1E 99 26 88 22 9B 10 94 1B 9C 1D 01 19 1E A6 01 84 98 1A 97 9B 81 08 A7 A8 90 02 A3 93 12 9D A7 04 93 14 97 16 1A 8C 99 0F A6 9C 9F 04 1F 18 1F 16 01 01 98 A8 01 20 1E A3 A0 81 83 92 28 91 21 0A 9D 28 A1 98 A5 97 9B 99 09 94 99 0D 98 12 1A 15 89 91 1B 99 9B 96 12 91 01 A0 19 16 A5 A3 9C 13 88 89 9C 9A 1C 90 92 A0 98 92 8C 01 A3 94 1C 81 9F 81 17 18 9A 10 1A 19 84 A1 22 9E 81 95 81 9B 14 A3 0E 21 20 91 14 0E 14 1A 1A 9C 14 96 19 A5 9B 98 1A 01 99 A0 18 09 8D 81 85 94 A4 98 9D A2 A4 8F 9F 0C 85 92 83 93 A4 08 18 8A 26 87 1F 0D 18 06 A3 1C 9C 0D 12 23 11 98 9E 20 9F 9E 99 14 94 99 03 9D 20 94 93 20 1B 1F 06 11 94 16 92 28 18 92 9D 10 9B 21 81 10 9D 1C 88 12 94 12 1F 07 17 0F 11 96 20 9B 1B 9F 1A 0A 94 83 A5 9D 88 1D 19 8B 17 81 11 03 19 1A 09 10 A0 91 13 1A 01 9F 11 98 12 20 17 92 15 01 16 01 9C A0 8C 17 19 22 9C 1C 87 97 12 8D 9A 14 01 9C 9A 0C 20 20 1B 96 A1 01 19 90 01 8A 0F AB A4 11 05 81 99 98 20 8E 99 8F 0E A0 0F 0B A8 A8 A5 14 91 A5 A8 22 A8 9F A6 1A 0A 87 1B 9E 21 22 98 A3 9B 9C 90 9C 81 91 16 A4 12 06 88 08 81 8E 92 21 86 99 98 0C A0 19 03 9D 1B 0A A3 89 99 A0 08 9D A4 9B A3 19 8F 0C 0B 13 15 24 92 8A 19 A5 15 9A 18 18 1B 93 9F 93 9C 91 87 18 8F A1 15 1C A4 03 0C A3 81 11 18 8A 03 99 A0 96 81 9D 15 1E 16 A5 95 19 99 16 98 09 25 1B A3 01 1B 17 9A 21 15 91 91 9C 0D 1A A6 14 01 8B 9C 98 90 22 24 12 22 83 81 26 23 0B 1F 1D 9B 1C 9A A5 00 16 1A A8 A0 27 93 17 11 01 81 22 08 98 11 9D 20 1A 0D A4 16 8C A9 A8 22 23 0C 1D A9 11 85 98 A0 9B 10 13 94 9B 20 91 19 A2 A5 19 0A 8A A1 81 13 29 13 1B 91 26 A4 1C 88 8D 80 1D 2A 9F 8E 9B 28 9C 1C A3 9D 23 18 20 8D 1E 1A 15 8F 12 1B 93 16 1D 9D 8A A0 0E 1C 1A 22 90 18 19 18 1A 9F 11 8D 01 12 94 21 16 95 94 9B 92 1C 21 21 8B 19 9B 19 22 0D 14 9F 0A 9A 24 1C 15 9D 18 21 24 16 20 20 9E 81 01 19 8E 81 1D 05 2B 04 20 92 10 A4 A7 99 27 1B 94 96 19 11 1A 17 01 83 81 A1 00 A4 99 0D 98 A1 11 25 9D 01 81 9E 93 1A 81 A2 95 1F 8E 12 A4 A9 9A A0 01 1B 83 AB 18 9A 89 23 A8 13 0B 94 18 01 13 01 19 15 9A 92 10 10 84 98 9C 9D 82 A2 18 81 95 90 1D A1 A4 88 8F 8B 12 14 01 13 0D 23 9A 1A 94 01 81 9C 11 9C 9D 18 8A A2 9A 21 A2 90 92 03 9C 82 01 11 9F 83 91 A5 A0 04 92 A0 1A 96 A9 08 A1 A0 9A 9A 9B 91 9F 98 19 01 12 13 23 1E 0C 20 23 09 81 23 18 16 20 12 25 9A 16 8C 10 93 0F 27 94 9A 01 A5 0A 27 1C 24 9E 9E 9C 18 1D 1D 00 98 95 22 21 91 17 81 A6 1B 8A 9F 81 95 12 A7 99 83 90 9C 1A 18 1B 11 97 86 01 91 81 16 20 A1 20 94 81 91 1E 20 28 9C 12 1D 9D 23 A2 20 99 9E 81 0A 98 09 8A 9B 91 A6 1A 16 19 90 93 08 1F 8C 01 1F A8 10 A4 97 17 A0 A1 8E 0F A0 15 23 92 98 10 92 85 A0 0B 01 21 93 86 9A 93 9A 0E 91 21 23 A1 9E 93 98 81 0D 9B 0F 14 9F A3 1B 12 18 98 14 97 92 1B 92 94 A8 81 94 81 9E 04 9B 91 88 19 A3 93 9E 88 10 A2 99 9C 92 A9 8E 9C 89 A5 9B 19 20 11 01 99 14 A4 1A 13 20 97 05 93 90 1B 1A 91 1D 97 90 98 1A 9A 14 9F 09 81 22 90 98 8E 25 81 1A 08 90 22 92 0B 01 18 02 0D 99 91 9A 9C 95 90 1A 08 8B 12 1B A9 18 01 9E A4 99 9A 23 99 25 A0 01 13 83 21 20 9D 92 8C 98 10 02 95 9D 94 91 9F 1E 14 20 26 10 91 17 1E 9F 0E 99 9E 1B 9A 10 90 1A 81 9A 9B 9F 13 8F 9C AA 20 81 1A 9B 01 19 1B 9B 88 A9 97 12 15 10 9B AA 88 9A 1E 9E A2 19 8E 19 86 9B 1E A0 9C 99 A1 0F 9B 0E 25 94 20 A3 1A 18 94 0E 1B 1F A2 15 9A 10 10 9B 9A 9D 95 0F 93 18 9A 28 81 0C 98 A4 11 96 A0 06 98 92 12 1F 15 13 98 93 96 13 0A 27 A3 A8 08 01 11 16 9D 8F 1F 21 81 84 12 9B A6 01 87 1A 9E 8D 9D 9B A1 92 A1 0E 0C A0 A4 01 9D A0 9C 0C A4 1A 13 03 8A 91 98 21 90 A1 12 07 1C 84 10 94 99 94 A6 A5 92 98 18 1B 9C 9E 22 81 A1 9E 99 94 15 9B 11 20 92 9B 80 9B 9A 81 8E 02 9C 18 1B 88 0F 91 A0 17 1E 20 25 9B 1B 8B 91 21 A0 22 23 19 99 23 1D 9B A4 80 13 0D 10 1E A4 12 94 1F 01 14 21 82 1A 26 11 01 91 81 81 14 A8 80 A6 81 89 90 0F A1 10 18 13 18 95 A5 99 81 05 19 18 8D 01 A2 01 90 8A 98 97 9C 21 13 28 81 20 05 99 A0 83 8D 99 A5 1F 81 09 81 99 90 93 17 27 20 82 06 94 15 A0 10 13 11 99 94 81 23 86 83 9E 02 83 24 1A 09 93 90 8C 85 01 9E 19 A1 98 92 16 9C 25 9A 9B 82 9B 92 8E 8B 81 8C 9D 19 9C 1F 1E 14 26 94 23 83 1A A1 91 1D 9E 01 9A 17 82 8E 0C 01 86 8B 8B 21 26 A0 81 A3 08 A1 9F 0F 9C A2 93 16 22 AA A0 A6 1C 94 98 09 95 0F 01 0A 13 83 18 97 A8 9A 1B 9F 09 11 A9 9C 20 20 A1 8F 19 A5 9D 94 A4 9A 21 9A 81 10 9E 16 A1 99 8F 1A 12 22 02 16 9B 81 9C 1F 0E A6 9F 22 9B 12 18 99 1E 81 9D 9B A1 14 9D 8E 81 1F 1B 12 80 24 88 9B 0F 01 94 1A 19 01 A8 13 1B 9C 01 8F 97 91 9D 01 A0 10 16 89 81 A3 94 01 8E 9B A1 A0 01 9E 19 0D 81 9B 08 9E A2 04 9B A0 82 19 1E A6 94 18 A7 9E 81 93 20 A9 8B 98 9F 12 9E 97 9C 80 81 9D 16 1E 90 9A 9B 19 03 9A 97 01 A2 0C A4 08 1D 97 0F A3 92 1B 07 19 10 A0 06 9C 01 26 98 01 8B 1A 93 A0 9A 01 10 9C 19 8A 0D 81 16 9E 89 81 19 8A 8B 9E 99 94 A4 07 98 22 0F 1A A1 84 8A A2 93 14 A0 9A 8C A0 1C 11 9C 9B 98 1D A0 02 8C 0B 9B 91 90 A6 9C 0C 1E 16 13 21 23 A1 21 99 18 8B 81 97 01 21 8B 1A A9 12 01 A0 91 A1 9B 11 91 18 84 9E A4 97 1C 08 08 8E A1 1E 17 12 20 16 20 96 1F 03 0A 11 13 98 18 A2 11 9C 9C 01 9F 10 93 94 A3 A0 9A A4 18 9C 96 99 0A 09 25 98 1E 1B 9A 89 9D 18 94 A1 82 9E 17 89 8E 16 00 92 9E 8F 1E 1A 16 99 01 9B 1C 17 10 0B 16 0F 89 08 0A 8B 81 97 16 9F 22 92 95 9F 01 95 1D 9C 18 09 A2 90 A1 8C 1D 1F 93 29 19 17 01 81 20 A0 15 0B 8E A0 85 11 08 9D 18 93 16 22 1E 1A 10 96 98 8F 8D A5 9E 8A 09 9C 1A 20 98 A1 A3 81 9F 21 01 99 81 08 19 8E 90 10 8A 97 A1 20 A4 A4 19 9A 1B 8C 94 89 91 90 01 A0 A8 81 A2 14 9A 88 1E 95 A0 A0 22 0C 9A 09 21 81 09 A1 15 1D A3 9B 8D A0 99 9D 8D 1E 96 19 94 10 A3 1C 21 81 10 9B 1C 9C 9A 8D 9A 14 0C 95 1A 18 24 01 93 0E 9B 1B 23 91 88 1E A3 95 12 8C A0 1C 22 9C 97 93 81 12 9E 29 1D 99 1E 20 A2 29 99 86 14 A0 8C 81 A5 A2 20 99 8D 1D 28 A2 1B 20 8C 24 92 99 06 02 A7 22 A6 2A 18 14 93 82 1A A8 90 27 12 A0 8B 9D 03 8B 89 15 18 02 9B 1A 81 9B 12 9E 0C 1E 82 94 9B 91 9D 06 A0 1E 13 16 9B 1B 15 16 19 99 9A 1E 24 96 01 A7 80 09 1A 1C 90 91 11 1B 25 9B 1C 11 92 99 96 10 15 A8 8F 9A 1C 20 18 9A 08 11 9C 02 A2 19 A5 18 04 03 9F 8D 25 9A 97 AA 98 11 81 8B 90 03 99 9E 92 14 83 18 9C 9D 07 01 90 1C 9A 20 14 98 13 20 08 01 9B A3 A4 A2 81 1B 1D 01 12 9E 11 90 A2 25 9B A0 16 A0 9A 0A 9E 12 91 20 20 1D 88 01 9F 9B A0 1A A4 92 18 15 9E A1 80 93 1C 18 A2 08 8C 1F 9A 99 1D 05 9D 97 95 1A 91 A2 84 8C A1 A2 A1 9D 9A 9C 1C 20 0D 1F 98 1D 94 86 91 8B 14 13 06 20 11 01 1C A0 21 21 1E 14 10 1C 17 12 81 9B A1 9B 02 1C 9C 14 8C 85 81 AA 0B 18 1D 11 93 15 A0 8E 1B 07 90 96 8D 20 9A 01 98 A1 9A 23 98 A1 95 9F 92 96 90 81 01 0F 18 19 13 09 1B 01 96 18 98 1C 95 92 81 1D 20 09 01 01 19 20 88 17 9D A0 12 98 9E 95 91 8D 14 9D 1B 1C 0A 21 23 A5 19 18 A3 9B 1F 21 A0 00 1F 20 93 89 0A 16 84 13 22 1B 95 8E 18 0A 1A 8E 94 A0 9C A3 22 20 06 19 8C 95 8F 8E 0E 9D A0 99 15 1D 92 16 9C 86 12 98 9F 1C 81 98 22 99 85 9C 03 10 89 A8 01 92 98 21 1A 0A 18 27 20 AA 25 20 9D 01 98 A0 98 A0 96 21 A0 96 21 9D 09 1D 82 1D 25 01 93 01 92 A0 98 96 11 9B A0 12 1E 17 09 24 1F A7 17 1D 27 1B 91 9E 96 99 84 08 22 99 A0 96 9B 18 1E 1E 24 19 1A 9A 0C 90 89 A2 91 1F A0 81 10 1C 9F 98 16 16 13 1F 13 11 06 85 15 04 96 98 82 82 19 15 0F 1F 18 1E 8D 1A 10 18 A0 20 08 13 00 1D 11 10 1D A4 A0 A2 13 92 24 85 0F 96 11 9B 9C 10 9F 99 A2 1B 28 98 1C 19 1E 23 22 9A 1B 94 9D 94 08 04 0E A0 92 8E 92 8B A3 15 94 9C 81 9F 15 92 93 8F 8D 95 1B 0C 91 A3 21 9D 1E 9D 19 15 9D A0 91 15 A0 1A 9C 14 23 8F 99 8D 88 14 92 92 9C 1A 24 93 81 9E 99 9E 8D 01 9A 9D 1E 83 01 25 9E 1D 90 93 0A 1B 0D 12 03 98 96 99 12 1A 1A A1 14 27 8A 8E 93 81 1E 8B 9D 24 01 82 92 81 86 19 97 12 08 28 01 A5 00 A3 15 14 93 9C A6 92 1B 9D A2 91 1F 0B 9D 1E 9D 95 1A 0B 20 A8 14 1C A5 9C 9E 96 A0 9D 90 81 9C 87 10 81 94 98 01 A2 9C 0F 20 95 15 92 9B 0A 99 9B 96 90 19 A0 21 9E A7 24 0A 18 18 00 95 98 8B 9B 1B 20 98 8E A2 01 98 0D 9A 12 14 A1 A4 8F 12 16 9F 11 0F 90 92 A1 16 19 8F 94 8F 18 17 AB 01 1E 10 A6 81 96 91 A1 9F A1 91 17 93 A2 8A 94 19 90 99 0E A2 17 9B 10 A0 A1 95 0A 9D 07 9E 26 09 21 1E 9B 9B 0F A0 01 9C 94 88 01 01 93 06 9F 19 22 A1 8D 8D 15 26 AA 11 93 18 A9 19 9D 99 96 8F 9E AD 8A 9D 01 97 A0 14 23 1E 8B 18 04 A0 9E 19 01 81 21 A1 92 A4 1E 16 9F 96 81 1E 90 90 23 9E 1C 10 96 14 13 9B A0 91 17 99 90 93 1B 95 1B 15 01 99 98 0C 0C 22 12 98 81 87 98 A4 90 14 A2 93 A1 81 92 1A 15 8A A2 AE 9B 27 19 90 A1 19 8E 0E 11 15 A2 9B A6 90 1B 85 A0 A4 1E 13 95 87 21 A0 1E 21 9A 10 93 92 1A A0 15 A4 9B 20 14 14 21 0E 8A 01 A0 9B A2 81 21 9B 01 01 1F A0 9D 0E 8E 8B 90 21 03 A1 1A 98 1E 01 94 0E 1B 87 08 16 10 89 0D 9F 91 96 08 10 87 9F 9C 24 99 88 23 A0 0B 8E 97 93 81 19 9C 98 23 9B 81 9C 19 13 21 22 8D 16 13 91 81 1F 18 05 1E 84 24 98 25 14 1E 91 01 04 1C 9B 9E 89 9B 97 20 18 25 11 21 16 1B 13 0E 20 08 10 A4 12 00 1C 20 9C 16 98 81 20 11 04 18 11 22 0F 22 1C 81 A3 1A A7 8A 1F 88 97 A1 01 99 88 0C 8E 1D 94 20 0C 98 81 A3 06 A3 81 12 8D A4 17 1B A7 A1 0D 9E A0 22 1F 0A 23 26 01 21 97 9A 26 99 22 1E 9D 25 81 19 18 22 01 10 9A 12 22 15 0E 1B 18 A7 1D 9C A3 92 12 9D 1F 97 1B 9E 09 90 0E 20 A6 1F A8 91 9D 20 19 1C 88 1D A0 01 01 9E 12 13 19 85 8F A1 09 81 26 1A 9C 1D 99 88 01 0F 1E 17 1B 1F 98 9C 81 91 87 10 94 05 01 9F A1 26 87 21 A3 1A A3 01 1C 1C 95 19 1D 99 18 99 A1 19 18 99 A6 01 9D 91 81 81 9B 9C A0 08 88 09 99 A6 9A 81 8E A3 8C 96 8E 19 9C A3 A8 A1 8C 0F 1A 98 A1 14 94 0B 9B 90 92 A3 12 1C 18 8C 95 1A 9E 81 20 94 0D 15 90 19 90 1C 98 98 94 18 96 9F 11 A0 17 0E 13 17 1F 99 9F 9E 22 20 01 07 18 0A 14 14 8E 0A A3 95 9F 0D 10 1B 1C 15 9C 21 96 90 9E 22 21 99 01 1F 90 8F 01 81 25 81 20 1B A0 19 04 1F 98 14 1A 99 13 98 9A 1E 90 81 A0 9C 81 AC 9A 9D 90 1D 9F A1 90 0F 9C 96 12 14 8E 20 A2 15 90 01 0E 81 86 8A 97 A3 9C 1F 1F 22 A3 27 16 81 9D 81 24 20 20 20 8F 8B 19 21 1E 1D 22 18 20 99 9E 23 9C 23 9C 81 01 81 A2 9F A1 10 0C 89 A2 9A A0 20 93 9B 01 96 95 0A A1 AC A4 9A 98 8A 91 99 96 99 89 94 25 23 A3 8E 9B 88 21 9C A8 A1 91 98 1B 98 9E 9E 81 99 04 A1 09 81 21 A4 A1 99 81 1E 9D 9E 9D 93 9A 8B 1A 99 25 A5 96 89 15 99 11 02 9D 1E 01 1E 95 1C A0 0A 20 A0 9E 23 A5 16 9C 98 9C 9D 8A 17 AA A2 99 1C 03 9F 95 13 28 1E 91 1F 26 10 1C 12 1D A0 9D 9B 8A 91 14 8A 97 1B 1A 19 1E 23 A3 28 25 1D 91 9F 14 8C A1 17 15 93 09 86 0A 12 A0 9F 8E 08 8A 01 08 22 A4 07 91 09 96 16 99 1A 8E 8D 14 97 98 9C 81 0F 1A 9B 0A 11 94 0D 01 15 12 11 98 06 21 A4 85 09 98 94 82 21 99 23 17 9E 91 99 A7 9D 98 81 0D 0C 80 02 11 9A 9F 8B A1 A1 1C 97 93 15 10 24 21 21 1F 00 A6 12 90 1D 19 9D 81 A6 91 99 A8 21 96 23 9C 99 24 14 9B 20 1A 27 9F 01 1F A0 97 20 A0 01 20 17 97 97 17 18 18 23 18 20 25 87 05 0A 99 91 1A 87 8E 18 0C A5 8F A3 9E 8D 93 19 9C 96 9E 92 11 9E 99 9C A2 89 81 98 12 90 9A 0B 14 8A 96 16 97 93 98 15 91 20 A0 90 1C A1 A1 9A 81 93 9C 85 9D 8D A0 94 0C 8E 10 99 91 A1 15 83 8A 96 A4 1B 12 1A A8 14 98 A2 9E 88 08 20 16 96 05 9E 96 A2 1A 8D 90 21 A4 0E 9C A0 87 A0 25 A0 16 A2 12 8E 24 1C 94 18 99 94 89 81 86 16 A3 1B 15 91 1C 98 A3 8B 1C 01 86 A2 80 A0 1D 9A 17 1F 92 81 12 24 21 84 A2 17 17 1D 98 23 29 A0 9F 10 01 A2 81 9C 20 90 9D 8D 1D 1B 0D A5 9C 9D 97 9C 21 95 13 28 A8 9A 03 1D 99 99 9C 92 29 13 9C 01 18 9C 81 98 8E 8B 8D 9F 89 10 11 08 10 1C 1F 1F 1A 1A 99 9A 20 99 9B 9E 80 8D A1 97 28 1C 15 81 1B 81 23 A2 99 87 85 A2 0D A3 87 99 81 8D A8 15 9E 0B 0E 10 1B 1E 18 03 8B 1D 21 81 12 01 81 1E 98 00 9F 0A 81 81 A0 98 89 12 90 19 9A 08 1B 9B 19 02 9C A3 18 18 1F 99 15 A6 0C 81 18 9F 1C 8F 15 01 23 10 98 A2 19 22 9C 9A 8E 01 86 9A 1B 19 98 18 9D 11 AE 9B 20 1E 81 A1 08 99 17 22 A1 A5 18 1A 15 24 9E 0C A7 93 1E 1E 99 9D 93 99 9A 9A 28 03 A8 16 9C 81 A7 04 98 9D 1B 1C 9D 96 8D 11 01 8F 97 1A 9D A0 1D 92 9D 01 00 23 11 18 8D 8F 9E 18 09 22 81 23 8D 96 9B 99 A0 21 8A 9D 9C 21 1B 89 95 18 13 8D 18 1C 9B 13 8C 98 01 A5 99 9C 9F 0B 9B 