BC9510D4 BDB504B7 3DE97204 BC42E62F 3D99AE34 BE2BD988 BD5CE3D1 BE38DC12 BD9BFCD1 BBED7EC9 3D955F28 3D94F9A7 BB42CB6C BDE08AF0 BDE85986 3B9079A0 3CFF3097 BD8BD1C5 3CE75C9B BDE25FA6 3B8453CD 3E2471B4 BDA6962A BE161390 3D9A1789 3D27F837 BC75F0B3 BD8D65CA BDAB3D4B BD9F5C0E 3DC9592A BDD8B370 BE3CF1C3 3D5D4D18 3DA2DA48 BBCA4965 BCEF6A87 3C90D3C3 BD90B3BA 3DB8EF6B BD690009 B9A95876 BC745DA0 BDFA5E35 BE3C4B90 BD9DFE4D BD9D20CA BD22D6DF BDEAA002 BD9E532F BDEEB80F BDAE443E 3CD78DF1 BD25FE47 3D47787F 3D4BC474 BD95AC04 3CD00318 BE0188B1 BDF77B7C 3CDCCEA3 3DD6C8B4 BCF463B5 BA39733A BD9D0D21 BD263B69 3C36FC81 3E13FCCA BD890646 BCC29EAB BDD395C4 3C81B0A4 BE6C8A7A BC7ADC3F BDD6501E BD1CAD80 BDC53975 3D5F6F9C 3DB11EBC 3C17F5E0 BD2F524E 3D04D298 3C733227 3A38964E BE3048E0 3D01E90E 3C1D6724 BC8230FD 3D47B7D5 BAE1FADC 3C79EB7E 3D9A7123 BCC94EFE 3D8C144E 3C74E22A BD292395 BCAFDB24 3D3C8811 BDBAE9FC BC9FEAB7 BD872A46 3D3D6551 BC89BB35 3C339050 BC1CB6A5 3DD209EE BD4DBD73 BD8C9936 3B944100 BC8D74C8 3D45015C BE28DA7F 3CC84F90 BE0DBDF9 BD8FFD89 BBCBCCC8 BC9E3F50 BDEC942D 3D26C292 3BD0F526 BD929D0B BD3A0290 BCE19BC7 BD92ABE2 BE07C526 3D52A96B BB8A758F BDC2A7E6 3D884076 3CA13321 3DCFDF3B 3D8282AC 3DC9D7D5 3E14538F 3E3CC921 3D9FC647 3D9D4BFE 3C93052B BDAD0B4C BD91DBB0 3DBFB96E 3D711369 3CB86496 3C8AF7E0 3D7C867E 3E119AC8 BCF316E3 3D1B1CA1 3DBC16DF 3E26861F 3DCA812E 3D568929 3DD9B1B8 3D3482F4 3CD42DEA 3D82DED8 3E1B79D9 3DEEAAF3 3D849DA4 3D6AE0B4 BE057B85 3E2FA69C 3C80222F 3DCB223D BD9C1906 3DCF2410 3D1A6C42 3C9706E2 3D8CA644 BB26CF37 3E06805A 3CDFB755 3DC879DF BC13C55A 3CE466E8 BD756E77 3D061508 BD177807 3D30D91C BCFA4EE6 3C779131 3E3B7C35 BE001217 3D807076 3C1B5BB1 3DEC7C95 BDB1356F 3D5DC30F BDD3CE64 BD780651 BD7A7653 3D38A761 BD813EDF BCA11051 BDAA2842 BD40B242 3D8C87CE BB711785 BDE686E8 BDA9AC94 3D10F932 BD574B0B BCAD08AC BDDF26F2 BDE6C11A BD60BF93 3D183F5C BD70DF16 3CB5ABB3 BC939AE7 3D240E4D BC9A6B51 BE6C8FFC 3E2C2763 BBF20124 BD4A04B6 3CF815BB BE1D3416 BC015230 BE5FB19E BC8D0DD0 3D34FCCC BD9CC624 BD9058B6 3C23AACA 3DAC5DDC 3E21AB08 3D31AE7E BE19ED39 BDF6ACEB 3CB8A131 3DDDFDAC BD277DF3 BD0A05C3 BDE27D03 BD4B67A8 BDDACE68 BE2BE404 BD486D72 BD24C6BF 3C630C3F BDD4751D BD548451 3D0201E8 BD810477 BCD700CE BBF8867A 3BA83CCB BDE539FC BD90B64C 3CD4F484 BDE4F7EC BCD273A0 BE144849 BB75319B BD9EF036 3D20A9DF BCC6F9BA BD024829 BDBD47E7 BCE341EF 3CEB49C5 3C407C5C BD860CBF 3DB6DE84 3B6AC17F BD0A6183 3C77E804 3B6EDF46 BDCFA7A8 3DEAB9B2 BCB0E75E BCE10F44 3D846A93 BE1E9A70 3D0076CE 3C96D854 BD7E9490 3CFA33D8 3DD4AB1D 3D576BC2 BDC4D46E BE28E68E 3D81BF7B BDF25CC4 3DF80FDC BD8374F2 BD86440F BD668BA0 BE4328FA BDC74B40 3D8899CD BDC52498 3A294363 BDD578A3 BCDBF2A5 BCD24796 BDD781C7 3CD8FBE5 3B807586 3D519BD4 BCA207FD BC0755CA 3D33212A BD9B282A BC043666 BCA02A42 BD353587 3D9D3E5C 3E2EBAF1 BE3EA705 3BABCD63 3DEB1811 3D8ADC4D 3CF21A64 BDDDB339 3BCAAEFB BD6432E5 BD94E400 BDA51175 BD141CED BBDDF797 BDD4ADBC BDF7470F 3C2A454E BDD6EF80 BD5BB807 3D9FEB30 BDD2324D BDECF9E4 3B5B6BA1 BCCDFC0C BD0E8CA6 BD1CBA30 BDC410B6 BE1C065B BDA4E0DB 3DB2F09E 3D28117C BDC60E2A BCCDF91D BD84D5D8 BD9590C1 BD536AC6 BC381EC0 3D7FEE47 3C850E92 3CCA4F7A 3D9B6DD7 3DB2BBDF BCBCF80E BDBF89B8 3D5AEA17 BD806E93 BE253AC5 3CCB16EA BD0312A4 BDCCC4F0 BDDC054F BDB46215 3D6CBF10 3C0CBD7E BC255F35 BE0B0575 BB2FBD9D BD812762 3CD8640F BDDB61BB 3BD54831 3D19D650 3D944666 3B84BF2C 3D105441 BD52C4AE 3D3AE6BC 3C0EF6B3 BBC6AF67 BC8B9C81 BC48D69E 3DF64AE0 BCE13463 3C712A0F 3D00E6B0 BE1D5305 BDF33F42 BD8A65F8 BD7EBC69 BD52F505 BD8CEAD7 BD1A1032 3D274EA9 BCF85FC3 BDE976BC BC0EFEB6 BDF3D641 BD6F1C68 BE4B6284 BD7487FD BE3B1CC9 BDEB07D1 BE764E8B 3A8DEFC2 BDE18E75 BD16DF0A BD3D5637 BD547410 BCDFEB58 3C7EA019 BCC8AA5E 3D164BB7 3DC6A6F1 BD7257A1 BDD85CEE BC4C730B BD5C6816 BCDA3E04 BDAAC315 3B820223 BE1E12E8 BBD7CAED 3CA1A13A 3CAFDE4A BD42FBFE BDB4D501 BDA29DBA BE030878 3C4D2913 BE019158 BD95B9B3 BDC50233 3D4A55DF 3D19603E BD66ECEF 3D1708C6 3D0C5FC0 3DA159C5 BCD3019A 3D42A08F BD5B8EB7 3DE921CD 3C26981A 3D86C2D5 BD8206AE 3D9221F1 3C8E0363 3D83C0EA BCA31C65 BC21C969 BC2C82AA BAC60406 3D9A7702 3DBC9C5B 3CEDC139 3E12517E BC87D871 3CA0D131 3DB94863 3D96AA66 BD9524C0 BDC12CC9 BDA5D108 3D750EF0 3DE81451 3D3F34E4 BE411BA4 3DAE46D0 BD90B00E 3CFF02E0 3E2151E7 3CB2DE7A 3D865DF5 BDE3C18B 3D16134D 3D504A80 3CB65AD0 3D64647E BC0F0806 3D3316C9 3BBCB8AE BD89CCB8 BE65AC8A 3D99D968 3D4B6219 3D7DEDBC 3D3AAB47 3D80C481 BD84018F 3DDEB852 3CB32BDC BBF3CF45 3D564C22 BDAD9077 3C710C47 3DB79DD4 3CDD4BD6 3D7C70E4 BCB64AE0 BE057F30 3E2A2DF9 BE36EC9E 3D33694E 3E38D2A2 BD6128F5 3C83DF53 3B2E8915 3E1970F8 3BCA98EB BD409F62 BCE53E13 BC862A1B BDA20EA6 BD280588 BD8D5263 BC97CAF8 3DC76BC2 3D5759B9 BD70DD18 3DB405C1 3D8FB621 BD34AE78 3C9005D2 BD650904 BD456ED5 3D0B6AE8 BD49E577 3CC01AA2 3CADD44F BBBDB558 BB835331 3DDB0AB3 3CA67E19 3AB3EE2F 3D846108 BCC752DB BC5003B9 BD8FA5D3 3D5F6EFB BD74E626 BCC09BD2 3BD79C34 3E3237CE 3D3A4A9A 3D1D4109 BD1D9D34 BE67F77B 3DC60EB0 BB8F5573 3DF70260 BD8A3197 3CBB4AC4 3CA9003F 3DCC2133 3DCA75E8 BD15E453 3DC825E1 3C516EF3 3D314A90 3D71E017 3C5F6B35 BD7726DE 3D59E782 BDA6E455 BDA87916 3D7AE9FC 3D0AE0CF BA487151 BD9DA710 BD0536D6 3DAE61F8 BD21B75A BE36EEFA 3DC81784 BCB4C2B5 3DFC486B BD1AE488 3E08155D BDDB0A2D BDD7574F BD119879 3D4B4396 3C2EA026 3DB303E9 BD819B91 3D987C63 3D08F019 BD920111 BD5ACE32 3C0F2684 BD94D0A7 3DE5375D 3D69C6BE 3C83B95E 3E0EF178 BC99DBA9 BC308645 BE0C9C91 3D982E95 3D19FFF1 3D3F34AE 3D1E19AC BD73969B 3DA1B9B6 BDAE48CE BC03F8C8 3DE8DE2B BDF215FD 3BCBA012 3D60271D 3DE33ACD 3CE6CCF3 3D651B78 BD926D55 3BC41873 BD9FB8C0 BD3CEB43 3D8E677A BC4A8926 BDF67BA2 3CF7C1D8 3D44FED8 BD225743 BDFDF86E 3D3918D6 BD5357CC BCCBD3DE BE88BAA6 BD19637E BDCA219A BC2B1B37 BC1159CF BE0F6B1A 3CC1C9CF BDDE9E1B BE0046C7 BD9DE424 BD367EC8 BD3D9EAC BD9C9BFD BDB7804F 3DA6214D BD2BECD3 3DDD5454 3AB219C3 BB52C58A 3B5FE4D8 3CC1B3CA BC364F47 3E058AFC BDA019A3 BD2285B7 BE2BDBA1 BD1C7241 BD32F266 3E0E2718 BD8BB0B0 BDA02EB7 BCF84D4E BE089FC7 BD8000E4 BE09FCB1 3DA4CA6A 3C4D9DAD 3D4182ED BE20B8D0 3D0A3401 BD1E4799 BE2086BE BCBFB232 3D97BEB3 3C936B4C 3CF3269E BCC2F655 BD693279 BD2098C7 BD9C5685 BDF54D1F BDB0E9FD BCC16342 BD2B592F BDAB3362 3DFA908A BCD0A31B 3CA5B7EB BD4A4BE9 BD6B24DC BDC4E684 3CDCBFBF 3DD7F51F BD50AD47 BD1E1FA6 BDFAA1D7 BD9AD058 3DB27F29 3C9CED0B BE1D8666 BDC7011E BDA4B798 BD00172C BE407BFE BD27D582 BDFB4B30 BDBDFDD5 BCFE3F6B 3D7F1CE1 BD12E276 3CE17BE6 BD85FB07 3C361B45 3D582144 BD1BBF79 BAE1AAAA BDC45DBB 3C135DA0 BC921287 BC61635D BD27F258 BC7319D3 3B2C6E88 BCE26047 BDE0B34E 3D2975E5 BDE50721 BCBC8C0D BCD3BB33 BE181CB4 BD963F9A 3CA30E22 BDC10D2B BD4281F0 3C9763CA 3E0EC637 3E038002 BBB832E2 BD959055 BDDFEC14 3D1EE808 3C83DA80 BE1D68C7 3D14CE59 BDFAADE6 BE1A45D4 BCB37543 3D7C8649 BBDD753C 3E0BB9D0 3D951B5D 3CDA1017 3B8EBEF5 3D83FCD7 BD4CC880 BDCCB66A 3C5F2D22 BD6FDEB5 BC4870B2 BD150D28 BD81367C 3D05713E 3D770E8A 3DD44674 BC1EA82C BC4599D3 BD2DFBD7 BCE8BCB8 BCDE1CB6 BDAB8B9F BE4F0803 3C579C9F BC46BACF 3C4181AB 3C9A7CEE BDDBE1A8 3D6FDF21 BD85EC9C 3D0A15CE 3DB5B574 3D771708 3DD1C64C BC9CB32A 3D52AE08 BD40FD71 BD4F2B67 BDD0856E 3D903C73 3D3ED64F 3B7AA5F9 3CC239CC 3DA0D19C BC19F20F 3D3E5703 3D4D94F9 3DD23A2A BE1198AF 3E06C1A0 3BDA80AA BC80BAA6 BD8D04B0 3CA9E618 BC2FCA5E 3C9EBC18 BDEEE200 3DBBFA32 BD9A4E6D BBCDDCED 3C056BAF BD519E23 BDD1F4F5 BD25634C 3CEE5B27 3C7EA019 3C79EB7E 3D8D1CC1 3BACE11F 3CEB47AC 3CA69D23 BD462655 3C31D2E1 3E00AFE6 BC8272A1 3C567D50 BDEA0664 BCB0B7C3 BD080A90 BCF24130 3DF09396 BC827052 3D7829DD 3D284E18 3DB0E637 BDAFC760 BB24DF48 BC65C91D 3D3A356B 3D9F520B BD3F86FF BD05C359 BDE9B0EE 3C18B868 3DD2274A BE05FE11 BDD94C01 BE1EB39A 3D15F80A 3CEBDE40 BD4BF049 3D7E1CD1 BD15054B BD00B1D7 BCD460E0 3D40485A 3CD967B0 3CBF525B 3DFFFC54 BDF0AE53 3E062A1B 3DA17607 BDE62889 3DAC2AE6 BB6AFA8A BE279FED BD516D60 BD790A5D 3DCDDA49 BCC71385 3D3C763D 3D21D1AC BD8F8B30 3D69363F 3D08F8CD BDDB6E50 BC9CBFF4 BD4DE54B 3D0E289D 3C436BFB BCC45E34 BB2BC469 3DE98A22 BCDD953C BCE9208B BE04CCAB BC059058 BD8E09E4 BE2C73AC BDAF191B 3D29A4C4 BDC8C45F 3C83420A 3B45A134 3D6A6B94 3C0510AB 3C55FA08 3D5A4881 3A9053CB BE1BD72C BD973330 BDDF0CBB 3B8EAE6F 3DA2EFEF 3D1F4EE5 BD91AD3C 3D44C57C 3D19FDA2 3D530FC2 BD20E0B6 BD4928D3 BD831DDD BDA160A3 3D0ED586 BE009D49 3DE13123 3C3CBDF6 3D54DF55 3D3D0819 BB8CE414 BCAED677 BC3CDF84 BD8AA631 3DBA374E 3DD4DF05 3B55606F BD64609D 3CE643CC BCFD611F BD97BBF9 3D77130C 3D8DD731 3CEBDE75 BD9F8EC1 BD906390 BDAB6D6C BCBE6F3C 3DD10A13 3CF10343 3C62FF3E BD9BAE54 BC9A67F6 3DCD8BA4 BE2656AC BDD055B9 BC30601A 3DCF86A1 3D96E702 BD9ACFED BE09CA9F 3D92990F BDE069E8 3DE503FB BCFE71F6 3D94C96B 3CC2D136 3D7D1CA6 3D180BC5 BC0F7A9C 3C44EB57 3DA5682C BD1962A8 BD8B3F8C BCF163BB 3CBC059F 3CD7C3A1 BB5CB522 BD16C178 BD5BC771 3DEF80DC 3DE43782 3C7C1CB1 BDACDD00 BD3535F2 BBDCCF79 BD44E527 3B974267 BC6FCCAC BD0B4FDA 3D86A12C BE20F16F BDD612C7 3C0EA346 3D4B412C 3DDB4F61 3D6EA9E7 BD5931E5 3D3D4A28 3D5DEFD5 BDACFDE0 BCADAD17 3D8FF195 3D39D239 3D9FBD0C BC8393D4 BDC05C11 BC6F672C 3C516690 BD7FB720 BE2DDB55 3D3D29A7 3CBDB065 3D855C45 BB70172A 3D14677B BCCC1D45 3DB91BB8 BDEA7B4E 3C41AF62 BD76DCBB 3CE8AAAF BE5578E6 3D6BF3A4 BDCE27E1 BDEEC398 3D952942 BD55C81E BD01BA4A 3D5A13F8 3C103C18 BE135EB7 3D5F0224 3E0CA4B1 3D931884 BC37D707 3D8F9188 3D465442 BD35B482 BC893BE9 BD2BD38E BDD54328 BD3A4907 BC8FED13 BDAEC8C8 3D10838B BD839EAE 3D35C4F9 BDDF9485 BE164AE0 BD50A5D5 3D173E0A BC33424D 3CC91263 BDDC7714 BE041B33 3C86CFFE BC825403 BDE266FD 3D866EBC BBB2CB44 BB24560B 3D8DC1B2 3D4A63D1 BE029BAE BDB1AFA5 BD771052 BBFA2E5A 3D7CA786 BD8B0179 BDD1183B 3D025FDC BD13A8BF BD94795C BD93EA55 3D0F9E89 3A5927A4 3D3C2C86 BD3B4DCF BDC876D4 BD9AF69E BD65A002 BC3A1032 BD8AA06D BDF32160 BD3F06A6 BDCC7673 3DA4722D 3D10C20A BD59B040 BE09B952 BD8574B4 3CE23514 3D664925 3D49F150 BC7DA471 3D4A4808 3D279BA0 BD92F19D BD8CC716 BCEAD81B BD9823E3 BDBBD23E 3DCC27F7 BCFCDB53 BBA65FBB BE3985F0 BCA1DB1C BD818D33 BC47C816 BCAA5C5F 3D63EDCB BE01EB42 BCDE52D1 BC722765 3D213C25 3C65AF87 BD936263 BE19AA61 BB98E391 3C608510 3DABB914 3D9FE048 3D172C1C BDDDCDF7 BB5CDC39 BE005144 BDB495E1 3CA07662 BD5739F3 BBD4DB39 BD62B628 3DB56C36 3C2807F1 BDE7B2CC BD4716E0 3CDDE269 BC2744E8 BE1EF241 BD79FBF5 3DCB0193 BCE47850 3B510FD3 3CB62F67 BD481868 BD08CC07 BDDCA750 BD3CE549 3DC127C0 BD2552A0 3DAA1F4B 3CB42389 BDA36885 BDDD1351 3E0AFAF8 BD507761 BD294B38 3D194C37 3C952E65 BD78E1C9 BD63C7A0 BC51FE65 BD8F970A BD61ECBA BE07B635 BDB47F06 BD1C9C33 3C4A0283 B96134B0 BDDB7846 3DAE6AC7 3CEB6C95 3C832625 BD0D66BB BD05001A 3D4F0BBC 3DEA1C69 3E039581 BD5C2713 BD37C9D1 3D71B717 BCC5FDDB 3D574A6A BCE90F23 3CE37048 BDAD9804 BD129FC5 BCEFD687 BE02ABAC 3D97E422 3DB73C4F 3DCFCB4F BD28C8AC 3E16DB94 BC8E577C BD933567 BD84364E 3DA11E1B BB4E7975 3D6D46A5 BC9634C0 BB8DE3C3 BE60F2BF BD9A4E96 3DAECCB7 BBE641E9 BE59EFD8 3D9E1389 BD2A18BD 3D92080B 3CB78BBD 3D9B5AB5 BC78B51E BCD362B3 3E52517E 3DBC2F40 BE159792 3C614163 3D8764AE BD1D47F5 3DD8BE73 3D5AEDA7 BCB0A9EC 3C3DE0A1 BD6D7A57 3D150459 3DB303A6 3DD6E610 BD64E161 3D81941F BD5547C6 3C0BC398 BCE1FBD3 BD217226 BD9C2B0F BD5E3FA1 BE0F6274 BD9C5EDB BD601132 3D92A008 BCE2B7BB BDDDD5D4 3D1D2CCC BD89E633 BDAB7E69 3D65C0EF 3D152886 BD583E50 BD8CE076 3C9CD1FE 3DD71FBC 3C65DF58 BC4074D0 BE056D1A BD49AC01 3BEBE4D6 BCF73C42 BE5CB07D 3C77D087 3D0018BF 3E06F21F BD764693 3B7BE3BC BCEAB83A BD5C2E4F BD9A8CA9 3D44C993 3BA4E4A6 3BC48556 3D186A90 BC47E430 BDB36106 3891C1DF 3E090215 3D27A348 3C5C15AB BDBFB0C8 BC67BE55 BDC3BEA9 BC078276 3C140901 BE1B8DC5 BD994E86 BE16EC9E BDE5C897 3C966BB2 BDF532E8 BC783FAD 3DCC37A4 BCA317FD BCA2A14A BD767903 BCCC2034 BE5ABB02 BDD0C997 3D78D7EE BD6281A0 BDD084E8 3DB2F62C BDAE1537 BCB3E0D8 3D3E3C2B BBE6AE0A BD28E3D4 BD9BD8B1 3D9A49A8 BB8F3DF6 BD58E051 3D3EBA6B BE1FD4BF 3DC9080F BE2014F9 BDE6088D BD5BF5AF 3B13CEFF BCD496FB 3DED31FD BD4257C9 3ACC0F38 BBAE4C19 BD7665B8 3DB4B0AC BCDF11A9 BC96F7FF BD97943C 3DE0E7BC BDB74165 3D15E991 BD732DDA BDCF01FC 3C91A686 3D37E48E B926C8CF BDD5896A BE07E4DE 3D4B6F34 BD7C0443 3DCFB5D0 BDFE7C8D BDEE9AB3 BCAF2445 3D212AD8 3D4E505B 3D398974 BCBA6308 3DD70BD0 BDD51D69 BDD985AD BCF6474F BDCFC82A 3DB06A61 3D4EB7F4 BD5ED7AC BC1C99F4 BDB73DEF 3DD55B46 3DC57F3E BB3046AF 3BF0768B BBC7275C BE167D35 BD18B42C BD87471C BB94F75E BD94D9E2 BD3FC34A BC807896 BD1ABC29 BC741A84 3C7BFEE9 BC214743 BD1618F6 3D21AAE0 BDA38EF3 BDB6C292 BD004B2F BD5997D1 BD0DF698 BC8EF1D6 BD82763F 3D87F8B0 BDBE3F50 BE21A7E3 BE3B877B BE3483CB BD9F15F5 BDD63D3E BCB94DCA BCB6082F 3C3A0DAD BD0D08FD 3D3DBF13 BD1B6F92 BDBB4BC3 BDE6B50B 3BD730A9 BCB0DA93 3D088B04 3D93DE61 BCB154A1 BDE21EA3 3BAC6625 BD88F54A BD8BA909 3DCFEBD1 BC516690 BDE0029F BDC6083D 3DB3CDEB BDC37AA9 BCFC95E8 BB815C76 3D344319 3C5211B0 BDA4BFAB BD462670 3D957024 BB9F3BF0 BDD3836B 3DBBC29E BD9A4B63 3D9BA012 BDA3A0E2 BD0F686E 3CCF3882 BD9C0A3D 3CD5C3EC BC8439B6 3CD017DB BD804400 3C80B029 BD732D1E BBE887E9 3C2A76CC BDD0BBF5 BDB2418E BE29E300 BDD41073 BDB57ED2 BDEAF35E 3CA26F2B BB5CC43C BE4EFAE8 3CCAE9D3 BD59FBBF BDBDF175 BD348F39 BDF96E9C BD0F190D 3A222C7F 3CF301EB BCB75A75 3DF76AB6 3D62C196 3DA2A7F3 BD31D657 BDD57D5B BCD0891A BBD0F0C9 BDCE13F5 BDFE36D2 BB83EF4E 3CC17FFD BCAD70E7 3BB7FBDA BCCAF9F9 BDC6E5E8 BCD395A9 BDC20635 BD41F370 3D84945C BB7F2FCB 3BC1240D 3CF2B600 3D391CED 3D88DA06 3C5E36ED BC59AB6D 3D9C99FF BD850E34 3D1B75F8 3D0FCBBA BD767BA2 3D7739BE 3D1E68F1 3CC8BD08 BCD786D0 3DBC7A7D BC84FC54 BDBDA8BD 3D92226A BD89EE96 BD41511E 3D80D654 3D80C324 BCFAA334 BDA0A054 BC7B168C BD0D0501 37DB70E2 3C30AAC3 3CBAB5A9 3D95AF01 BD5CCF44 BCDFDE22 BDD589F0 BE2C60CC 3D7BC9F6 3C42D0CB BD435B34 BDA8BC17 3D909D3C 3DCD99CC 3D9F6DD4 3E1E9531 B98398C9 3C4E519D 3DA663F0 BD512A44 BD4D576C 3C3C60D9 3C0F8747 BDF03C08 BD8CF561 3AA2384F 3D8B2DD3 BD53FC36 BB85ABBC 3C1738EC 3C4B68B4 3C44028E BE23369C 3DC36461 3C85E8E3 3DD8C650 3E06DE76 BDBCB909 3E1CA644 BD5D0C30 BDD30B5B 3DC6A7FD BE5F9054 BD5A8537 3DE388EC BDFC7369 3DD5DE59 3E015726 3E2773E2 3D282E6D BC2BF9EE 3D36D854 BCA22A62 BCA81BDE BDC70733 3D45A002 3DF25D4A 3DAC8847 3D3F122F BC518747 BD3F4D02 3CE2B02E BDD831F0 BDA28771 BD78C7C8 3B28BBF6 3CD9E3A1 BCFE0CE1 BD14E5BB 3DAEBE24 3E10AB71 BD36E71D BB99F4C9 3B6666FD 3E0D97F6 3D2ADDC4 BCEA4808 BDB9ADA1 BBBA5F4C BD13B8E5 BE676966 3DB705A0 BCD06A10 3E073040 3D62A993 BC1AB6B0 3CE98641 BE6C19C1 BBA06550 BCF08E73 3D450721 BE50DDC6 3D632BCF BCC1E654 3D98ED0F BD234BCA BDF27AA7 3DCF7985 BBEFDEB5 3DD38690 3D5998F9 3CC9A672 BE5A7A85 BA6C2456 BD840380 3E325D07 3E10B30B BB5C1B49 BCFAD305 BE0265AE BD41AD7F 3DF6DE33 3DF9F44D 3B8B465A 3D8EA97C 3D7439A9 3CBFD065 BCA13D32 3D8A7207 BDFB04EE BD487676 3D1A732E 3D1CC54D 3D9C5917 3D8772D6 BCBC7ADB BD0EADFE 3E2B30F9 BD54029C BD8FB748 BD8C2649 3DCDE871 3C171484 3DC7D1F1 3C6F1BAC BD242AD2 BD9310DC BDC6F1EA 3D937CC2 3D96B972 3E0DB835 3E0C9D5A BE280453 BC29CC82 BD2A7F30 BD758E22 BDB6DCC9 BCC6903D BCD96562 BD281D3B BDD6FA83 BCD6100D BD2E99DC 3E0B0681 BD9F9138 BBE9E68E 3D18B5D9 BBE45BCA BB342912 BDD3B29A BC2E17D6 3DA28078 3B3A0347 3ACF6888 3DC76295 BD9E8FE6 3D2EFABF BD9D1DE8 BE6E2824 3C83EA3B 3BAEFD6F BD743FA3 3E442917 BD52BB8F 3D47C26C 3D1897C1 BD922A2C BD80E67A BDDCE4A8 3B635C30 BD4984C9 BDA4BD6A BBE0DF94 3D89F178 3D1D7B8C 3CD246F5 BD81A303 3D89B711 BDA60179 BCDF3CDC BB0C5A97 BB18653C 3D5ECCAA 3D9B1FD4 BDB10D54 BC7FA425 3E085F8D BD0C503B 3D13AB0D BCFC1B04 BC0AC6D8 BDC6F199 BA4DB3FD 3D89CC3F BDBF4BA5 BD92215D BD8832D4 3BB9672A 3CA99484 BAE121C3 3C71F9AD 3DD61566 BCB1C9DC 3DA3666C BB4E04DB BD569411 BCE33376 BDA42147 3C39C22E BB6B8D01 3E01919B BDDCA6CA 3D26DA95 3D7A6699 3D49539C 3D9C9009 3D99EAC3 BBAD6F7A 3DF2F901 3DB8FE19 BD6293A9 3DD23A2A BE0A133C BBAE6F54 BE428177 BC8E44D2 3CA974D9 BC993F6C BE5B4917 3DBC53A3 3D743054 BDA763F2 BDA3779F BDED9946 BCBC67FB BE29AE4F 3D6E9C2A 3BC900A5 BDA5FE04 BD5ED395 BDBEB738 3C258347 BD48E475 3CBAFFE6 3C8B1898 BD7EAA7B BB68EE16 BDE8C1DB 3D239A8A BD08655F BDB1B9C4 BDC280E4 BD02BCA9 BBBD0AB8 BE2BC7B4 393126D4 BD51229D BC4C4985 3D406ADA 3DCECAEF BE24C33B BD9B72AA BC86CC37 BD7F0513 3D44AA6F 3D05E629 3D94AFF0 BE048883 BCD60D88 3D39AB1C 3C164A85 3D82665C BB0F71F8 BD1BD797 3D26FAAB 3C316DCC BDCB7C28 3D89D063 3C467316 BD3D9267 BDE4FD2A BD8ED4E5 BD4937D2 3C98A548 BD439871 BD026B9B BD604011 BD1FD60F 3C8D1160 BBA475EC BDA56A0F BD55376A 3B9B0EBA 3D05AF1C 3CEE293E BD819C25 BE020D13 3CBFB62E 3C92150B 3B52FA8E 3D0E1B31 BCDEF9F6 3CEBFC07 BA57DA61 3C3327E0 BD0E59CA 3D394714 3BF29762 3CA674DF BCB1ED83 BC3A11DF BCF93F51 3DBD49A2 3C88CCF8 BD89B3EB 3DE5D52C BC872ACC 3D4335E0 3DD356DA 3DF07853 BD00D994 3C941E65 3D5A478F BD63571D BC6B89BC BBD621E0 BC879555 3D8C1334 3D61BB57 BDD1DBCB BD42E33F 3C50B01C 3CEFDE7F BCD7E59A 3DD2189C BD9A9578 BD80E0F9 BD94EA9B BD357C9F BDC7F499 BD1DAB0C BDC03402 3CEE2974 3CAD73A1 BC2B87D9 BE2BA7FC BD85B658 3D9DF67E BDFBBCF5 3DBEA847 BDFF1BEF BD730AEF BDDB1D0D BE28BEF9 BD555F78 BD165DA5 BD4E15D8 B918F3E0 BD84ECEA BCB10632 3D0E99DC 3D680E21 BC5D7160 BCA9C9FE BCB5F94C BBDF48BB BD13F2C6 BE492EE8 BD6284E0 BD8468A3 3DD897A6 BD5CF04B BD920B80 3D142785 BD60D5CE 3D6ABDC9 BD47CC7D BDA3A216 BD12F449 3C9456CF BCEBCB60 3DA3E906 BD78C3B1 3D9C89F4 3D500714 BE0DC50D 3C8D0BED BD285935 BCDF81DB 3DEAFF6D BDAFAFE4 BC44559A BC8E42EF BD3F8495 BD6B7330 BD2BC749 BD0684B4 3DD64734 3D8B24DC 3DE8AD69 BCDCA22D BD832FB0 BDC8FD34 3CB54A65 3DC0C374 BD302207 BCADF71F BDA9B2D1 3D9CF43A 3C56D422 BD3A2454 BD2DE7D0 3D9F0033 BC50891A BE61743F BDD5E072 BCA1E7E7 BDE3D2D8 BDCEF0AE BD87433B BCA2CE61 BD26DE26 BD4DF58C BB0BA611 BD90F360 BE445996 BD844D95 BE16E7E6 BDBD3E27 3CE19BC7 BD2B7183 BDD2CE89 3D7B418A BD8881FF 3C21F040 BD7D4D68 BDAF727F 3C2CA7FF BE06A594 3D9481C0 3D73F72E BBDD40F9 BE0C026D 3CF6386C BD572E85 3E1BDA94 BD2051E5 3D94D397 3AB16EA2 BD9BE498 BC8BF1A6 BD9E2ECD 3D2EF2AC BC37FE74 BE16A6E3 BA94C59F BD9130E0 BDC6C813 BD1DEE42 BD999D60 3CEA5B53 BDA7AFA7 BD3ADC75 3DCAACA4 3CD86F2D BD942CB5 3C56DD5C 3D8CD035 3AA9158E BDBD382D BDADCE6F BDB39134 BD67EF17 BD360FD7 BD5FAD44 BD76F17E 3C34E047 BD824074 BD3087D8 3DA53A31 3D833E51 3BB80C20 BCA9FEA1 3D4227DE BDD4280B BC486AD3 3E024E16 BD405129 BDE4399B BD76B690 BE153D64 3D89864E 3AAE607B BD91C6ED BD2EBD9E BC11A2CA 3CBCDB1D 3CFE3667 BD45427A 391A5009 3D7376BA 3DC1FDFA BC556954 BDF116A9 BDF95E5B BC834FE1 BE182F51 BE076189 3D84061F 3CB38BB3 3D24680F 3C90CABE 3DBE662A 3DE2E98A 3D3CED91 BE2C1377 BD8EA4A9 BD97EA7A BD6DDE45 3DF91B3F BD2CCCCD BCDC403D 3C88F217 BDA82C54 3BAF321D BD0CC7FA 3D687336 3E0F559B BD6D0E8C B6367810 3CC147C9 BDEF440B BD67EBF2 BE0E54F8 BD3A7130 BD6EB6E8 3D8B001C BE62F512 3ACECA7E BC11829F BD57DC60 3B6EFA9F BDB3B8D7 BBDF3EEA 3DD8D717 BDA15D20 BDB76585 3D1B9CDF 3CC0B384 BDD29A1C BAC0AE5B 3B14614B 3D461904 3CF786B5 3CABB342 BD0E1892 BDA21FE5 BDDB16C2 BD8FD992 3C684209 3D45C5C2 BCD4D4D9 3DBD24D4 3C752D3E BE061459 3C3A281A BBB5158C BC2ECA18 BC26D480 3BD7F84F BD00648F BD3CD7A7 BB687824 3C59400D 3C2D2B47 3C7140B5 BD535FDF BD338279 3CB4A127 3D1F22C0 3D603FF7 BD381494 3D8135CD 3DA4AF19 BD91418C 3C9673AA BDB6B2AF BD537202 3D69AC01 3D30D703 BDDE3F36 3D2FE2CC BD48B4F5 BC8470DE BD8ECAAC BC14360D 3CE6A4AF BE031DB4 BD8A98B8 BDFE6363 BD741AD5 3BC31B89 BD87C7C5 3B2FE205 BDC974A3 BD33F474 3CF9279F BD48E806 BD97DB39 BDFFF690 BD92476D 3BF62FB2 BAAB123D 3BDFD919 3D8B1A7B BC0B4685 3D39310F BB89AC3C 3D9D447F BD0A8006 BBF00A6A BDB2651A BDCDE97D BC8724ED 3D46E32E 3D331551 3DB798E6 BD99F83C 3D2E9391 BC09F6B9 BDC3A2B7 BE06DC1A BDEF6A51 BE20ED81 BDB8A0C6 3D58F6F7 3D1392BA BC91B7B8 BD7802DB 3C67B07E BC84F3F0 BE040FAA 3C0AAC8C 3D19346A BDC5753A 3D672523 3C07BA9F 3DC66D0F BD2A5EE4 BDD72713 BD21E14C BE1B367A BCB4C67B BE3F61AA BCAE0C4D BCC24697 BD931EF6 BC9516B3 3D14A0A1 3D940230 BC8A6E4E 3D71569F 3CBDA258 BD079D4E BD3B63D4 3D1F9B56 BD176DC0 3DB313B1 BD537619 BCEFA5AA BE1F2885 3C523BA2 3CCD07F1 BBDC4D08 BD3A3063 BB8789CD BAA4C648 BDC7763E BD7DFF75 BD96B8FA BB2D02D8 BD7B5AEA 3CC62FFB BE0B5632 BD9445B8 3B60FC5A 3DE88CE7 BD76EAC8 BD946E3F 3DC62C6A 3E05AB7E BD68AE24 3DAD680B BDA69149 3C4FEA23 3DCFD439 3D61E3D0 3DC783AA 3BBBE3F1 BDBAFC8B 3C83195A 3C71FA18 BD0E11DC 3D4BDB50 3DC7D06C BD1A1BA0 3D4F1943 BDBFB126 BD2F3832 3D421C3A BD65C42F BCD21618 3C94D9E2 BD7CE39B 3D7E9A04 BCFBDCBB BC014CB1 3D3ECEF8 3C1977F6 BCC8051D BC2416CB BE55881A BD989F41 3D9E194E BBD667C1 BBBDC283 3E07A80D 3A59634D BC6C8A01 3D724313 BD3A000C 3D8096BC BD6B853A 3D77862F BE2A6F3F BD6D2913 BDBE7FA5 3D8F6C6A BD90470B BDCF1DC5 3C0B3654 3E29085F BBA43138 3C082695 BB6373AD BD475778 BC330220 BE1A4E38 BDA0B6B7 BAA1C0DA BC6CDDE4 BDE90BC8 BC070DD1 BAAEC072 BD0F4F94 BD10C68C BBA23331 BCBADA26 BE20FC72 BD8CBC8C BD1F12B5 BDE5BE1B BDDBCC29 BCE59A8F BC4257FF 3CB28523 BCDE78FC BD9C1ECA 3D69EDDA 3D79398D BD3561FC BD19D1E9 BD5B233C 3D9B5DBF BDBC8613 BD83795A BB0C7214 BBACB225 3CF62C42 3D9BF635 BBCEDFCD 3D87D1F1 BCCC7DF2 BCD0CEBA 3CDC1B8A 3CC83C7A BDA53876 BD536E57 3C8AB459 BD1BD3EC 3D4C249C BDA49EF3 3D17BB23 BD1A732E BD68AE90 BE686877 BD3B6383 BD3226F9 BDAD710F 3DB98D12 BE00CF5B 3C97F4B4 BC262889 3D866864 BD594D43 BDBD0339 BDF0A4E3 3D006A53 BDAFEBA8 BD8337A8 3DA10BB4 3D34D37C BD926AF9 3DDB035C 3D8BB2A1 3CB1249B BD02D440 BC67F6F5 3C712359 BCA4FC6E BD790306 3C9ECC3E 3CF21ECC BD8D35DE BCD7CA8D 3D871C39 BE0670A0 BD49194F 3C438A99 3E300E6B 3DC5C275 3E0492BC BDC63D23 3D727B48 BD759F1E BD9E6B76 BD2C163E 3D895BBC BD16AA66 3D857DC6 BC704A80 BD089CD7 BD82C867 BAA107F8 BDBF450A 3D12BE99 3DD5885D BD2634B3 BDB0DCBA BD0AE8C7 BDFFEEB3 3D9157C7 3DC18D91 BDE9D495 BE06A7AD BDE3B3EA 3DB063AB 3B85B44A BD8209D3 BDA32782 BCE8E20C 3D2F791A BD9E99C1 BCFD4901 BE203105 3CFED98F 3DBE7D21 3D2224EE 3D829B28 BCC56AA3 3D300622 BDC6F03C BC7E3A2D BDAEECF5 BE0DD00F BD90C657 BD0FC38D 3A99F001 BCB2F76E 3DDE69AD BD9FD9BA BE03FEE3 3D18AE32 3DE8E25D BD3E1CB6 BD516518 3DE17A89 BCCC3852 3D1A50E4 BD314629 BDEB56FC BD6449C1 BDFA9D1F 3D5BAAD1 3DA53600 3C247C4C 3C22A5BD 3CDCD848 3CF7E43D BD5926FE 3D2C7C0F BD0323BC 3CD7ACC5 3D6BDF9D BD80E2B4 3DA0AAEB BD8B223D 3B1D4CAD 3C843153 3DBE2916 3C44F63F BB9F0F90 BD04BCFE 3D97FA42 BD2A1FC4 3D019E81 BD68533B 3D67B917 BD108264 3C0357EE BD923E26 3CE520B6 BDAF79FE 3D63C826 3C3829A8 BCA2273D BD4390E4 3CFDC30F BD2BD754 3D484076 BBF51E90 3C6B7B0E BD4334D3 BE029D84 3D7526F4 BE236EF8 3D7E1EEA 3D0DBD8E 3D637DE9 BDC29175 BD97FEED BD69A962 BDAA73A7 3D9C9E16 BDD0F7BA BCC0F198 3D1B6F78 3CAB1B37 BDAD42A9 BDEFCCE2 3B0B68A9 3CFA4BC1 3D2B04AB BD5EF01B 3C53048A BD4F6E68 BD46EFF9 BE0ADF72 3DA1B2D8 3DBD816B BD8C462A BE163BAC 3CEAAD53 BE4A73B4 BD9B4734 BC23B282 BD76CBDA 3C11DFBC BCF7849C BD3E7678 BDEBF1A6 BD84960A BD59F73D BD829E4D 3D3CD5C4 BD5CBFBF 3C38E6D1 3D5E8FBD 3D4012AA BDAC5FDA BD9F8990 BBE55295 BC1E5CED 3D956ED5 BD92FABC BDE6AC21 BDC0DA5E BD8410B6 3CEA6889 3DD9DFDB BD8401B8 BB7CC791 BCAA0D85 BDA48ECE BD855730 3D40E3C0 BD3430A4 BDC39665 3DAD80FF BC0F7E22 BD852F64 BD1DF7B2 3D2C7FF0 BCE7D45A 3A9CB04F 3D285498 BD934763 BC3BB914 BD820528 BD995DD5 3D6C006F 3B277981 BC061030 3DA33DE5 BD808213 3E206141 BB820CE0 BC598BF8 3D2AAB8A BDA8770A BD8DC45E BBBA4348 3DD5FA22 3DFD566D 3DA5D03E BDC177A7 BD8CE78A BDB9DF6F BD42E126 3E32B5E5 3C8F8437 3D6B5C3A BC4AFD54 BE238972 3D3E0F2F 3C4430B1 BD550240 BC883FD5 3D1E3ACE BD2A66F7 BDBD92EE 3CB11948 BCC0E502 3DC6768C 3D1FAE51 3D593C62 BE1FB3B7 3DB08320 3C8E3AF6 3D97D3C7 3CCD335A 3E13E4AC BD1B19E7 3DE3E9EA BE0ED677 3D940406 BE1BDCAD BBA34DCD BD77641A BD14B564 3D9EB611 3DF8DC55 3E2CFFEB 3DB9B43C 3DE4C1EC BD9B1BF3 3D22235B BDC6941E BE38A00A 3CA8F9F4 3D925EA7 3D4635BF BD8ADED1 BDAFEF61 BD17D1E4 BDA1F0EC 3D8C82D3 BDF14E3C 3B12BEDF 3DF71F36 BD954FA3 3E067E84 3D468C91 BD1ABC0E 3D6E73B1 BC88B46F 3CC5BB2B 3DBA2270 3DF8AC9F 3DFC3DEE BD0CDC52 BDD9A5A9 3DCC89E7 3C919AC8 BE30778A 3D7DDEBE 3CFBA2D9 3D05A9F9 3BB919BD BC4F7F9A BB2FF09E BD58B1F8 3E162FE0 BD3DEE78 3E04A2FD BE1543F2 3DEE9B39 BCD8E8CF 3C7712F1 3C9C74E0 BE11782D BC961D79 3D989BB0 3DB05723 3D954DC0 3D54E733 BE2D590C BD26A099 BE81337F 3D733516 3DBA870D 3D3A55ED BDB6CC60 BDFCBA30 3DB3DC71 3DF29025 BD7EDDDC BD1B95D8 3DF31F47 BD422F35 3E0F0457 BC68B206 BDF0D499 3E0EC850 3DBF124A BD9B14D1 BCD71D53 3C19EAF8 3E360419 BDB41EC3 3DA5762C 3D351109 BDC8BF14 3D79FFA0 BD329B93 3CCFE840 3D499F36 BBB5C000 3D7B521B 3A2D3F1B BDC1DE41 3CEF96C7 3DE20BC4 3E077250 BC3164FD 3DE73EEE BD518670 3DA99D1D BD1CF7BD BD3CCC54 3DB67408 3DBA90E8 3D35092C 3B2982F1 BD61BF1D BD9BE894 BDD2F124 3E21EE24 3D99400D BD509ECF 3C62357F BD85CF0A 3C36F2DB BD498875 BB9C5927 3DD57DE1 3D6A85E6 3DE91106 BD1633B4 BE7A35D6 BDB14502 BC6E8300 BE4833C6 3D36607A BD9BEF14 3BD37182 3DB26619 BCBCBE2C 3BEF703B 3BB4CCBB 3DEC2507 3DBDB81A BE169553 3DDF8DB5 3DDE742A BDBDA77B BD017581 3D4B54E3 3C7550E5 BDEBC05D BDA839C0 3DC9A39D 3D565D3A BE0286F9 BD2D34EC BD9C8092 3DB21E89 3DBA9593 BDCE208A 3DECF6BE 3D3BC665 3D5ECC74 3DF22425 BE0E86C6 BD766425 3D98CD7F 3D515868 BC2180D9 3CCD4995 BCEB0963 BE04E054 3DF9B34A BB87AB70 3DBB818E BD2C4919 BD69D063 BB858CB2 3DAE31AF BD499C7C 3D1FCC9F BD241CAA BE15653D BC7787F7 BC0F1D7F BCD66B7C 3C504A30 3D5B61A0 3D0D216C 3DB9B3C3 3E49DBA9 BD21D44B 3C2B97C9 BD411813 BDA3CC58 BDFDBB9D 3DD0ADCD BD99C14A 3D81BE7C BDED7732 3D1621C5 3D03A358 BD95FC56 BE09C77A 3E7E3865 BCC43295 BD4AD4C0 BDCBA21D 3D1633B4 BE1990F3 BBDE9C83 3D04A39E BCED9DC8 BCFE51AA BD95FC7E BCE9A6F8 BD9F9039 BE17507F BC3DA1B7 BE27F38C BD8B0C89 3D8B395C BD7E9F93 BDA8EA6F BE179075 BDF31C22 3D0FE048 BD46417D BDA08213 BD64AB96 BE11A08C 3C6E7F3A BE736D65 BDCB390C B98CE410 BD140B6B BC12F855 BD7A87A0 BDD8AB93 BD561DE4 3D0420C1 BDB33B61 BD6460D3 3BBB0D47 BD82835B BC52736A 3CF77AF6 3CC421CE 3D003793 BDEB9D3D 3DA6F31E BDF1B930 3C4BD988 3D00FE48 BDD57BC8 BD1CA298 3BFAA8E9 BE0EB207 BDF437C5 3D559A4B BC8DF0EF BCDC8FEE BDB2300B 3D5B352B BC2EF622 BD401F0A BCB1DCBC BD2AA5E1 BDEEA290 BDFA9FBE BDAFD106 BE2D43D0 BDDCFA27 BC8D9077 BDDC2CA1 3E15BEA1 B9E427EE BDA884E1 3BFD49ED 3C589F69 BD9F6D84 3AD8A015 BCFAF7B8 3BB06578 BD9B3073 BD2F18A2 3BD0C52A 3D29D734 BB9190B7 BD1A1449 3D5F74A5 BD57F33C 3BE4265B 3D1CC6AA BE1751CE 3DB00EBC BD750672 BDA4EE1E BD858F21 3D7DDD61 BB4116B6 BCF462DE 3DBF38B8 BBA15DC9 BD10EFF7 BD0D07A0 BDC5242C 3D49B53B BE00C38F BDDE2E6F 3BAC4848 BDAF6F24 BDF0F495 3DD4FE7A BB0CB2AB BD8629BD BE0B1C00 BBF8D43D BC6B52CA BD37B635 BDAB9DA8 3D61C2FE BE13CBC5 BD9E841A BDF9CAE2 BDACBBA8 3D6078B1 BE05D788 BDAEB837 3B5DB6AA BE32D6ED 3D5E5A79 3E2682B6 BD3814CA 3DB1610E 3D356F33 3D9862E8 3D5A331D BE09A027 BC0FAAC3 BE174FF8 3CDA33F3 BDE04428 3C2CC4F0 3D61F6CB BC8801C2 3C9E8E2B BBC68E19 3DBC054F BD8E1F1F 3D524562 BDA251EA BCDF5093 BDC6EAD6 3C86D24C 3E10CC79 3E00B9DC 3C50FEF6 BDEF598A BD8FD007 3DB81F46 BB81050E 3C835CAC BCFA1280 3CAE1120 BE78DF7A BE0CBF2B BD1848CC BD3B1DE3 BE0F01B8 BBFFAF8E 3D3802A6 3CAC6E88 3C55673B 3D9E8B56 BD776E10 BDB0B1A1 BDC44C96 BCEDDBDB BD81AE8C BDA382C9 BDFFE64F BD118F5A 3CBE4947 BDE2ABAC BD8D679F BDB85115 BD85F83F BCF7CCF6 BE25FDCE 3D8B7267 BDC0E977 3B26C902 3D60E56E BDE13900 3CA52E8E BE0799E5 BDCBCBE6 BD6CEFD3 BDB89606 BD3E46C2 BD50786E BE170197 3D88DEBE 3CFAC0FC 3DC8B66D BD74AC0F BCC23D27 BC8C3639 3D96554F 3ABE3382 BC82DAA6 3DD85597 3D13532E 3D0570EE BD11CA7D BD639A54 BDEBFA8F 3D652701 3D78B538 3DC77F43 3D0BAF46 3D3CD6EB BCD337B5 BD999A2D 3C92E00C 3CD3118A BDA29EC6 3D281A9C BE284CAD 3D6403B6 BCFF1BD4 BE0EBB34 BD4B5A57 BCD62A0E BD96B859 3D8EC1EA 3C39FD52 3C925065 BD9385B9 BD1A02E1 BC27A7E5 BCBFE777 3DDB4F61 BCF434BB BD752B25 BDEB80ED 3D78D27A 3D8B3347 BCE4BBD7 BDAEF3AB BDDB24EA BD42258F BD85CB0E BCBC0ADE BC8CC002 3D401960 BCD76C99 3C8A70D2 BDA4B39C BD7A5CA3 3D6B3299 3D0CCB04 BC6A861B 3D8EFD36 3D14BE33 3D8562B8 BD577999 BE26B8B7 BDDF22C0 3CB4F2F1 3DC5456A BE16C7A8 3DE4EC63 BCFA295C BD605C11 3DF00ABF BDD9F55A BD245E9F BCD2A51E BCA565EB BE1E9F27 3CF07076 BDB6E994 BD61A551 3DB06855 3DB23CA1 BB170697 3DB7BD2E 3D1CEE32 BE222920 3D4D4DE1 3C8EBF81 BD21D87D BC726289 BDEE05CD 3DE8AAC9 BC00E3CB 3B272721 BD8319E0 3C748005 3B23377D 3BDF15D0 3AA430F7 3DFEA24D BC915CEA 3D1043CA BD63A5DD BDA42536 3C5101E6 3C90B9F7 BDB57174 BE154DE8 BDBA6BE4 3D71EA79 BDE5A4F0 BD4822AF 3ABA4F9D BDE6F588 3C9D9069 BE0E99E9 3CC838B4 BB87D50C BDBB37D7 3D3DE3FC BE2C154D 3CBB67B5 BBE4685F BE0A9AC3 3DBC3FDF 3B711B8C BDB32E2B BDB06ADA BD79D8EF BD41919B 3D173C77 3C9C08E0 BE4AAA7E BDCF5771 BE264389 3DDFC86D 3C8CF2C2 3C9D6C22 3DDC829D BD6945DF 3DA1380E 3D80A867 BDCED677 BDC1AE8C BCDDF366 BDFAB64A 3CD2FE3F 3CB56283 BE2813CB 3DE85A0C 3D134309 BD7CBD05 BCBF921C 3D9E8394 BE081062 BE5C2268 3D98065F BD00143D BDD40EE0 BD0AEEF7 398554A4 BD24261A 3DCFB3B7 BD87F77B 3D9D63BE 3D4A4D61 BB9B2103 BD9229E9 3D8B8115 BE1F0889 BE078290 3DE6DF83 3DE72B88 BC9A1AFF 3C40852B BDB2AB91 3D91C920 3CA9A0AE BCCB7330 3CD157E1 3DEB5ED9 3C97AB17 3E27620F BD836EC2 3D1AED8C BD443A72 BE16D04E 3C8A73C2 3D87AD66 3C59190B BDEF07C0 BC97A1A8 3D500AA5 BCD0B377 BE63193F B98E3E58 BCFE992D BE1E4A38 3C31D133 BD2F4CBF BD86C2E2 3CA08836 3D5EBDC6 3DD20F2C 3DE42203 BE04C448 BDFC25D0 3D1019BE BDFC126A 3BDC9643 BE05204B BD9096A1 3D25F93E BD2F9011 3DC156C8 BC36A7C7 3D8EE2BC 3DA99476 3DCE3EF3 BD8FB3ED 3D8E137C BD05A200 3D3C6AEA 3D67E09F 3C8BA875 BD4E1A75 BDCC1AA6 3C098423 BD0CDB96 3D83AB1B 3D812CAE 3C821625 3DC780E3 BC9211B0 BD7F11A9 BC682CA5 BC26B3C9 BD45FFA4 3DBB0C89 3DE83DBC BDCA27E4 BDF14D2F BD54EFE7 3CDC7516 3CBA6D19 BC93638A BB9DDC8A 3D0006EC 3D3A5D94 BDF527E5 BDD4AA11 BC0026D7 BDFBA1B2 3DB50721 3D95C9E6 3D8C2077 BD068789 3DA75F8B BD400EAE 3D3A406E BDDBB1F2 3E00CF5B 3D1B2280 BDD73C92 3E06D7E9 3B648A59 BDA47065 BB3E0F70 3D5FFD2B 3D043102 3DA3D542 3D60C019 3DEC94B4 3D6055AB BD1E576E 3D89B5B4 BD9252B3 BD7C99FF BDFE0A42 3B14B2D5 BBC69C06 3DB7E3AA 3DDD4281 3DA381D8 3D12D0D8 3DBE3659 BD8C24D1 BE77AEDE BBE72680 BDE95960 3CDC9F08 BDD197A2 3DA87817 BE01EABC 3DE141EA BD341ED1 BE02990F BCC62117 3D7E9E6C BD9CA171 3E253155 BCE195E7 3DED38CE 3D8B4A31 3D97957E BD67DF93 3DF7B95A 3D0716FB 3CC4F88D 3DFC371E 3CCBD29C 3DF3775C BD2363CD 3D43585F 39FDF530 BD054229 BD993DE7 BC71800A 3DFB25F6 BD8B6574 BD16AC7F BCDCD8B4 BDB99CF5 BDF402D1 3B452AC2 BD8BB6AA BDA441BC 3D5669CF BE0A4CA5 3D3B814B BD9D5AEF 3D13A889 BDA3528D 3C572AF5 BDD14B9D 3D90B051 BE19C12F 3C954FF3 3DB2B9E1 BDC71CDA 3D0B46BB BD96BB99 3D330C31 BCB1CB1E 3D868B4F BCDE5E24 BDE3CF2D BD1911CF BD684FE0 BDA8C360 BD5BAAD1 3DC5092C BD95FEE8 BC1CBC84 BE1423D9 3CD078BE BDFC19C1 3D67FE67 BB60E533 BD8ED70B BD3F6216 BE7E1262 3D4D8DF3 BD5E1B23 BDFAF102 BD7D45C1 BE0C1A48 BE005921 BD91A529 BD8B84B3 BDF0728F 3D42D044 3D476CDC 3D378614 3C106553 BDCA0AD9 3BCAB9B8 BD85FF10 BBDE2981 BD93DB2F BD1EDB58 BCC05FA1 BD0A87FE 3CDED7C7 3DB0F550 BCB5F5BB BBBDA7C1 BDBC372B BD0ABD5E BCDDE0F1 BD3FAADB BDBFB38F BDDAF9EC BC87F81C BDA77999 BD53C7AE 3D7C5A09 BDB468D8 BCB3B5A5 3CF614C5 BD34B43D BE631D2E 3D235D4D BDE7FBAD BD724ED2 3D343E61 3D3B3FC2 BE26277C 3CE75D72 BBA3B38E 3D864488 BE0A9718 3B7B849B BCDAC548 BC33863F BE198D04 BE524074 3D8E2F89 3E0FE543 3D5C9F22 3BE05311 BBEBF029 BCDE96C4 BD89136F BD8ADF57 3CC6E0C5 BE1C76D1 BDA6C00E BD2AAACE BE17481B 3CBCB6D5 BE00B0F2 3CE2C1CC 3E1B2E5A 3DAAE9FC BAA008F4 3CF4D5CB BDB28CE5 3DB9CED1 3DCE7818 BDD8622C 3DF4E7EF BDB7D849 3CE02F4A 3CDC1F1A 3D246F15 BDF73EAB 3D743831 BDBCC1CA BE40C73B 3D0DF6E9 BDCCCC97 3DE7032A BD3587BC 3D22BD9A 3DB184B5 BC2464CF BE0609DD 3D6677E9 3CFB0051 3D45A2D7 BD11EB85 3CC0233B 3C9D11BE BCEB40F6 BE0EBE9D BE017ACC 3C472A61 BDCDED29 BE05B9A6 3D4CFBAC BD901996 BDDE1006 BDB7AE9B 3C80D61F 3D43155E BBA81A66 BDB7FCEF 3CC63A77 BDB82137 3C67253E BD099E95 3D6818D3 BD0061BA BDA97F12 3C99062C BDA465A5 BDAF5EBB BDE2BA5A 3CF2B199 3DD7507F BDE141EA BDDD2AE9 3C8DEF0C BD9CB1E7 BD708DED BDF0CCBC 3CA32640 BCF81F97 BDD2F7F5 BD078C00 BDACB070 BE1558A7 BE0702A3 BDDE0EFA BC21B364 3DC964E9 BC011F65 3DD7FA5D 3D5E5C77 BC659CA7 BE2090F7 BD54E60B BD84D212 3AB6177F BD3CE4DD 3C177669 3D4BF501 BD591C16 BDBE4580 BD35D87A BD9D5E58 3C8CEFD3 BDB9C688 3BB4AA2C 3B6EE44F 3C9E71A5 BBD8A6A0 3D01F7A2 BDE7BEDB BDD94424 BBE4A383 BD52E39D BD85B8B4 3D3A311F BDB9D22C 3D2E3C1E BD463CC6 BB87A3CE BCEEBBD5 3D909FB3 BDB8D27A BD3492AF BD07EEAC BD268CFD 3C928218 3CA3FEE3 3D4A93BD BD6F7D81 BCCB9489 BD4CE0D4 3D25535C BCFCC8DE 3DCDEA03 BC6E4771 3D94CC90 BD51A1E9 BDACBAA9 BD981C7F 3DAF8940 3D5BD7CD BC44588A 3CDD8EF2 BDD3482C BD4FF709 BDD4128C BCC53B3E BC8DE4FB 3C757D5B BCB99659 3DA09E05 3CDB6806 3D49A63C 3C6CB1DA 3B5C2B0F BC1401CA 3D6F1AA0 3DF61F5C BC17B2FA 3D08D577 BBDFECE5 3DA6ACF8 BC75FA58 3DA15B07 BDAE979B BC18DF8A BD926CDD BCF5BDBD 3DB0ADA5 3D6ED139 3D7ACCF0 BD5DD8F9 3E55B3E1 3D82357F BCB57563 BD8E0646 BB32DDE3 BDF61A1E BD8CFEC4 3D56DE69 BE12E1EF 3C1DD45C 3D8CD87E 3CF4114A 3D1F3A58 BD10A188 3CFDA72A BEAAAE4B BB46088D BBFF865D 3DE54AC3 BE3A3055 3DD0110A 3D392967 3D3E1600 3CC315CA BBE6013C BC6956DC 3C1AA0C0 3D46FFE9 3DC666DF BDEA7C5B BD011B1E 3CF72530 BDAC63D6 3DBFD3E8 3C17440A BE1682B6 3B46E730 3CCC49F0 BDC57222 3D4F4A05 3DE8AEFB BCE4840E BC21B3BA BD5EC3A5 3E0C3C9F 3E4168F9 3CE08FF8 BCD19DED BBCCAA28 BC85663C 3DE204F3 BDC0976A BD7E612F 3CD9E625 3CED57BC BCDF9E96 BD17A7BC 3D43FF69 3DB91E14 BD9495E1 3BE88377 3DDC2E34 3E191299 BCE15260 3E059360 3D23E2E4 BCC528FF 3D113A50 BDC2D3D5 3D8319FB BE202FB6 BD266CCC BE2FF477 3D7B16C2 3D330D3E 3E2B6BB1 3E2E5A79 3DFD7FD8 BCFBD889 BE1D71F3 3D613D4D BDB3F218 3D80659B BE40A56A 3DEB020C BE0070FC 3D5E3667 3DAD66E3 BC964551 3D4B6A97 BD2543F2 3D271583 3E09DF98 3D8586B0 3D1E1976 3DB3604A 3D964643 BE227675 3D8FCC33 3D41C715 3E115400 BDBCB769 3D7EFD00 BA23C292 BE29D40F BD8E99DC BB8B31B7 BE377C89 3D614F56 3D535456 3E07F0ED 3C1F4001 BD257CAC BD37522C 3DB3BFD0 BC56BE53 BE185511 BDDDDC1E BD93EB04 3C4DAA42 3CAEFFFD BE18C79F BD508696 3D7B2D32 BD8E3AF6 3D633285 3D3CD2EF 3CD4533E BDC947C2 3E193815 BDBB53BB BDC224FB BD927CDA 3C20C319 3D4FA21A BCCFD4F5 3D0012E0 BCF01B51 BCFA7D75 3C9E1F3A 3D23943F 3BF6B28F BCCC3C4E 3BB84EFC BD43A9A3 BD9C0D6F BD2846F6 3A6DCEAE BAAA6315 BC25F2D9 3D4C8D77 BDC37436 BD04AE86 3C21BBC7 3D8B12D3 3C313D24 BD107025 BDE636B1 BCF614C5 BCEBC72E 3D99C33A BDC4B44A BCE9BC27 BCB6C086 3CE36885 3CC50050 BCF095CA 3CCFBC6B BDAED7EF BE016F87 BE19E40D 3C76541A BDCCC781 BD43B0DF 3C9A3DCF 3B750220 3D03A8B1 BD084B28 3C083543 BD23DB21 BD7745CD BE000E6B BC5829F8 BD69B7DA 3D1F17A3 BBECA1A9 BC9E9F5D BD001996 3D99AA7B 3D22D68F 3D847CDF 3D0781EF BDC6D656 3D8C0DC0 BD9D58FF 3D7C5B15 BD6E6B32 BD95C4EB 3D49493A BC6B045B BDD41B76 BD618F4C 3CDD561C 3D4C98E5 BDD425F2 3DE84B5E 3DA408E6 3ABD799E 3D966EBC BE6948DC BD86290F BDBF5134 BD5F5423 BD3D0438 3DAB5ECB 3C51F1D0 3C31A600 3D9BD902 BC4DABF0 3CE057FA 3DBC2F69 3D1538FD 3DC20F62 3C6EA5D0 3D56D224 BE050CA2 BCEC45D9 BD6D4929 3DC01EB9 38AB089D BD0D1F53 BDD29E4D 3D66D359 BDD13E81 3D4EF1BB BDC00998 BE52F6A5 BC26669C 3D9CB6F0 3DD17DF2 3C5C0E1E 3BD99C69 3D36FFDC 3D5FE6D6 BDA751A6 BD3AA6C5 BCD3E69D BD7068B3 3D9FD61C BDFAC1D3 3D043FB0 BB11E3C3 3D24CD24 3D030D66 BDC8051D 3DAAAD60 BDC19E23 BE044E0E 3D6A12C3 BCFC85C2 BDFF88FD BDF065F9 3D931D71 BDA4CAA0 3CA5222E BDB308A1 3C930561 BDE7429A 3B6EEC87 BDCB3E72 3C442BA9 3D0C6A06 BDEDB1EA BCAE65D9 3D5807C9 BDDCAB82 BCF64E71 BD40907E 3ACD8559 3D66C277 BCD14679 BDC92139 BCD09727 BD69B2B7 3D54ACB0 BD549858 3DD88440 3D909C8D BCB5B1C8 BBE01EA4 BD54C081 BDE26890 BBD96AD5 BDC9018E BD0C88DA BD5029E4 3E0B1F25 BB755125 3C0D5F4F BD5221F1 BD0E0C4D BDBD1966 3D1ED685 3C641B33 BD03C877 BD9D4FC4 BD38F367 3D1093E7 BC83646E BDFC9A35 3C9629D8 BCC3F98A BBF41998 3D6D4AA1 3CAB635B BC99BD76 3D421F95 BDD98FA3 3E237048 BD928DF2 BD88A182 3E2B14EC 3D808DAA 3E1F255F BDE3B795 3D12FAC9 3C2A4AC2 BDBDC825 BDF2031D 3DD1AA82 BD8F0091 3C2A03E0 BC4A50F2 3DF8B1DD BCB4A630 BB36C2CA BDB67D35 BD9283EE BCDDA207 BD4C9697 BD334699 BD22D426 BC9CF4CE 3D085E8E 3C2744E8 BC8C7849 BDF5104D BD12AA42 3D020FF5 3DC7BCC3 BE0E5E68 BC023F8B 3D2E7360 BD3F4F51 BD69EF88 BDC158EE BC757994 3DAA5B1D 3C6DAD17 BC147502 BDA33432 BE49A5A9 BD86223E BC8F7305 3DC73D91 BD5B73FA BE17789A 3E02C98E 3D1025CD BC3FF188 BD2AC033 3A24ED7A BE16EDEE BDD69985 BE539BCC BDFB9735 BE4099E1 3D3DE5A9 BD861EBB BCC78961 BD7DA32E BC131C27 3B7104E5 3C504593 BE61F4B2 3D45FE7C BCA1D53D BDC474BF 3DA3B737 BCBB69CE BE0B1D93 3D07A800 BD6B8321 3BA4E0E0 3D820162 BC444B1E 3E162068 BDD30AD4 BD5D3423 BCEFB92B BC5CFB18 3CDBF990 3DE12BE5 BC5A6755 3D88978C BCEE5D76 BD453DF8 3C7F9287 3A8B489E BD69F97E BE02FFD2 3CA6E1B6 3C9ACA87 BE3EC02F BE157082 3C58AC69 3CDFE005 3D838B3A 3D50408A BD117035 BD0E383D BDA997FA 3D2D4273 3D9CD622 BCAAC571 BD66A47A BE2E6E65 BE094C01 BCAA9E39 BCD5C854 BDCD1F1D BDA58299 BDDBDB5E 3AFD0EDF BBBC57E0 3D26CE1B BDD31D2E BCF69DB6 BD810A7F 3D44CE4B BD18A68A 3D2CBDE9 BBEF435A BC607DEF BD91B054 3D36FA83 BC78BEC3 BD8E6A4E BCAB0AA5 BC85366B 3DA56D27 3C183119 BD5935E1 BDCA247C BCB59F1E 3D1F93E4 3D9D5660 3D6D77D3 BBAB3B02 3D81E357 3DA8B835 BDFED634 3BA81182 3D5A88FD 3CC3E8C3 BD2E8386 3D0842DF BDB6F94E 3D12B70C BD86FA25 BDBD71A3 BD31366E 3C65ADDA BDFD5FDD BDA64F98 BCA52843 BD8264BC BD76C87F BDCB7B0E 3C715909 3DD1A21F 3BD9A233 3D229BF1 BDB4D786 BCBD2052 3D82ACC6 BD3D6CDD BDE51C19 BD3FA7D1 BDA77B39 3CE37A23 3DDD9EC7 BCE61FBA 3C13049F BD1377AC BD10351C 3D37A4CD BC389AE7 3B361B05 BD624B9F BDC11905 3DBB89D7 BBF9B9AA 3CBDD0E6 3C9E3433 3BA95E73 BD7E5D9E BD2CCBF6 3CA72F19 3D112E91 B8192C84 BE341E9B BC4665AA BD0BC607 BD1D8D95 3B21D882 3C8478A0 3D0F271A 3DC31104 BCC15F10 BD296BD4 3CBE0448 3D8EF11A BE221251 3D60C1E2 BD0467D9 BDEBA494 BDFD40EE 3D44559A 3D72E6C2 3E0D60E9 BDDB5E0F 3A4686F4 3CD16B62 3D8F369F BCC38419 3D395FEE 3D92665C BD815868 3DF589F0 BCF2BDC2 BC3F7C17 BCAA7FD1 BBC69880 BC916FFF 3DB4EE39 3D6D6AB7 BCC17D0D 3DF733A9 BDDBEC25 BBE5146C 3E08D089 3E047560 BCB12AB0 3D628820 BDB14B9D 3DA25CDF BCCF902B BDB0F12C BB60FC5A BD9A4441 BC620A4C 3D417D79 BD55CBE4 BE6AB8A6 BDB7929B BD09F278 BD5B3398 BDEA6D26 BD372093 BD4F091D BD83B180 3C9FB466 3DB40888 BDBDC5C9 BE330CAA BDD47CFA BD761D94 3DD4E981 3C58B60F BE33B2DD 3DB4A142 3D4277C4 3D3CDC7A 3D061467 3E261FE2 3BF15583 BD728467 BD87E903 3D9A9400 B9DB0643 3CF360EB BD72A249 BE1C4D23 3E05082D BD4E1DEB BBF7036D BD6C1440 BDC2CD12 BD4364A4 BDC66326 BC608221 BD30A4FE 3E03C537 3C94240F BD220D3B BD9AE47A 3D44C928 3D954110 BD62CA4A BD250C44 BD50A22A BB356F0D BDDEE808 BC3F989C 3D5412DC 3D274829 BC749279 BD938B20 BC85F909 BDD86983 BE2B76B4 3C07C836 BDB9B3F9 BCB78034 BD10E398 BCB1D0C8 BCB369BA BDC5D3F7 BDE7AE9B BD927D7B BCB1C06C 3D211DA2 3CD2150B 3DAB3878 BDA9DA59 3CA8E4C6 BC25B59C 3D0A1AD6 BC2D5EDE BE0EEA64 BE6290AC BDCC6576 BD644864 BDE24463 BDB766E2 BE154973 3DAFCF59 3CDA5043 BDE5681F BD15A1A2 3CEF13B4 3D836984 BDD65669 BD663BD4 3C6CE571 BE12F48C BBC02FB0 BE12E59B BDDCD2D4 3C8BA1BF 3D01ECF0 3E1CE7CD 3C9C601D 3CCC7C0F BD753891 BCA1484F BD17B4F3 3C8264FF BD15C209 BDD75FB3 3D0AE826 BD549D7C BD12BC30 BD8A47FA 3C310774 BBB19C2F 3D0E8859 3D197552 BCD20C07 BBEDDDA9 3D3E3E0E BDEF2303 BD9F255F BE3F648C BDFC05D5 BCBC5A8F 3E05F5F1 BCDEE2AF 3D44BB00 3DBF5085 BDB52AF0 3D6F2BED 3DFFE197 3B7413E4 BCD5AEBE 3DAFE593 BD065981 BD22A0A9 3C1475D9 3D491263 BD623366 3DFD20F3 3DBF632F BC89854F BE37635E 3D84667C 3D7ABA2B BE115B14 3D7AE6A1 BCF90900 BDC7EE84 BD85A3A1 3D3BDF74 BBACB7D9 3DAE7A3F 3D91C2F1 BCFE96A9 BDA9A67F BE43547E BE66A93F BCEE4233 3C409D14 3BB6F285 3DF94D94 BC0CC1AF 3DDD872F BB16F753 B98B9B5D BCC9D389 3D59FEFF BDA6ABF9 3DDECBB8 3CF03262 BD9CBF1E BD36DA37 BE36CB10 3DEB72C5 BA18A90C BDA95F32 BD3B3D3D BE0FAC1D BDD24313 3DEF1FDE BE388723 BC4991AF BD396B91 3E1230FD BD829E4D 3D434E4E BCAA7702 BE1DB984 BD45DD75 BD726F03 BD0674C4 BB974079 BD2E93FD 3D0B5D10 BC7BCA10 3DA962C2 BDC28BD9 BE0B6AA5 BDF7E564 BDBA1DD3 BD86403B 3D2C2FD4 BDBCB01F BC457703 BDDE7EA6 BBD13EF7 BBC79E65 BD33E418 3CC68413 3D678FC7 BE48F041 BCCE6122 3DE3E07A 3DCE6EA8 BE12A023 BD92E7CF 3C6D0E20 BDA2D8A8 BCF84018 3D38AE32 3DC09445 3C72A1DE BE39D5A2 BCF7E407 BDC04966 BDC82ACF BD86FC59 3D34B132 3AD5532E BDEB6A62 BC81F8C9 BDA84DE2 BD4EF490 BD2F63D1 BBA18BAB BDA68406 BB24E9DA BD1B5922 BD6D806C 3C396801 38CFEF05 BDACAE64 BE13914F BD97EBE5 BDE2D1F2 BE1ADABA BC0E6096 BD666DD8 BD69CE65 BCF8070D 3D329380 3D20B949 3D90035B BD5AC86E BD2F628E 3D92A3DC BBDB831E BC799C39 3D7AAF79 BD917614 BC7195DA BD393BC1 BCD6E371 BD9ED4D7 3D92B155 BD982BDB BD42EB1C 3D1F7BFC BDBA3FE7 3D096B69 BD1E2EDA 3D222A98 BBD92184 3CB4ED48 3D20C705 BC10C494 BE096702 3D39C503 BBE5FF23 BE1AAA7E 3CF22333 3D2EB51F 3C1F1829 3DB4BFEE BD9B3299 BDC97E71 3DBECA5B 3E01B003 BD93A92A 3D99C157 BD81D225 BDE5B8DC BCDEB08F BD7A563D 3C82C110 3D201FAB BD817D86 BDE0EC74 3CFCCE52 3CC94F6A 3DA164D5 3D152638 BC2E91E4 3D20A039 BB33674B 3D689B2A 3C611772 BD59CFB5 BDB96412 3D4CEA29 3D3025CD 3DD11E00 BD939673 3DB525BF BE025205 BD8526A3 3C4BA5F1 BD61C491 BBBD32BB 3CE6F27D BD36352B BCC3B745 BCDC0F96 BD12F281 BD15A823 BCCB1E41 BC11213B BBEFD072 BD8BCDC9 3C4A812E BDD92C8C BCE3E8DE 3D45CC0D BD0F6E9D BE1574B4 3D81886E 3D0494D5 BD956283 BDA2FA00 BD8CD998 BCC9E160 BD74672B 3D0829D0 BD5BC6D0 BDB08C90 3C3F6647 BD9C168F 3CE45331 BDEB34E7 3CDE9AF6 3A9902C6 BCF01FB8 BDB0BAC0 BD561A53 3C925DD1 BD574FA8 BD8EBFD1 3D87B56C BDD49BE9 BE3ABABF BE04DDB5 3D889AF4 BBE49C77 BCE8324E BE1CAD9B BD417FFD BA8278B8 BE1A747E 3CA729DB 3D106954 BE1615A9 BDA67BD8 BD51FBFC BDCFC0D3 BD7A71EC 3C953A24 3DA98E1E 3CE2859C BD537253 BDE7D135 BCE751E9 3D833F42 BE03A9F4 3CF1AB08 3D9817D4 BBB11105 3D718EEE BD6DAC5B 3D3CB4D7 3C6D3812 3D5C779A 3E061ED6 3D3FA242 BD947728 BDE3419E BC1A5805 BD04609D 3D133384 BDD64E8B 3D5495D4 3B95B5F5 BE0D6F54 3D1756AE 3C890745 3D7FB847 BDAC4F2E BDAD3E77 BCF34217 3CF6B9D0 BD8991FF BDE4CE81 BDB79797 BDFB4246 3CD302A7 BDBC2F69 BDE723AB 3D8479C7 BDC75A9D BD693E6D BCA68C26 BBE60909 BC562D33 3CDDF117 3D3B5A64 BD6CDD94 BC97E0C7 3D9CA18C 3D4AAC11 BD03F33F BD4DEC6D 3D387004 BD0134CE BC066AD3 BC5F4A7E BD5AEFF6 BB459723 3D7F2778 BDD789A4 3D258CB7 3D300226 BDCF7CAA BD8E817B BD23DD04 3B552561 3D7063C6 3C2BDA79 BDAC49D5 3AA5BC3D 3D2F375B 3C53A605 3DFD7D39 BD147934 3C423026 3D27971E BD3DCA15 3C948DF7 3D871B3A 3D1CD000 3CF99FC9 BD18B828 3D36AF6F BC905624 3D92116D 3D10162D BBF40C57 BDF3A8A4 3D3EB979 3C9CD771 BE408BFC BD0281F0 BC836EEB BC4186B3 BCC952FA 3D1F42F1 3D508EF9 BE094F6A BD4F6CF0 BDAA60EF BC6675EB BD48FDBB 3DF8E864 BDB7EBBC BDBA39FB BC977278 BDB824F0 3DE01FFB BD956DC8 3DDBCEC8 3BE4F563 BDC09452 BD485DED BD66A261 BDA4CD4C 3DCC3512 3DC09600 BDC24986 BBD8B147 BE161954 BDC3FF69 BD1D9C28 3A1AD2A1 BC4C3D5B 3DB6C391 3D32801A BDE09785 3E32599F 3CDDC909 3B4790A3 3C0A69C6 3D83C6F2 3C8A72EB BD9601A2 3DCE746D 3CAB2A1B BD9108FA 3DE66DBD 3E0E1EB4 3E08C6D6 BC51D9E7 BC85E8E3 BD61F751 BC8D1C7E 3E590F30 3E39D66B BD1D7724 BD89E8C4 3CA398C1 3CC8C8FC BD6306B0 3D828086 BE12A348 BD71BC56 BE431594 3DAFD02F 3D5AB614 BDBEF54B 3A928FE5 3D9B81F9 3D5B709F BE266235 3D052447 3D78DC70 39C8284D BDE08744 3E00EA9E BD7FA0AF 3E0A93AF 3DA3325C BCD20F97 BBC52107 3D0E581D 3E24180D 3E261998 BDAE31AF 3E370974 3DB73BBC BD1B0EFF BD65B516 BC97ADD1 3D96BADD 3DFC72E2 BD32A8AF 3E31CC96 3DB721D5 BD736552 3E0152B1 BCB6CBDA 3C7AB2B9 3D7891C7 3C9EB3B5 3E070FBF BD9457CE BDE28912 3D88D2F3 BCCA1DC6 3C2E7635 BC55E2F6 3CDAC39B BE085122 3D211559 BDBBE14A BD4220F2 BD43D725 3D3EA557 3C7BD8BE BCEC805C BD2674DF 3CEBD78A BE1976FF BE041E58 BDB1FAD4 BCB60D02 BE07BE12 3C1505D6 BDD08FEB 3BD219D3 BDB248CA 3CE38251 BD4898F6 BD22EC0E 3D831586 BD3FFE53 3D319447 BE1AEFB3 BD2F2DD0 BBFCB94F 3D2CEA29 BE1E6B40 3CE5FDC1 BCD32973 3AE06632 BBBD187A BD632046 BCE56EBA BD7D97A6 BD18D350 3DC8BA69 BDD4AC2A 3DD03C8E BD34C702 BCFEB654 BCE34077 BC673F3F 3D4FF30D BCEE9BF5 BD15EECF 3D64647E 3DFEB639 3C0F2BF8 3D3C7D5F BDEC1659 BC965831 BDB7DAE8 3DF72E6A 3DA7F547 3CA9E50C 3CFCBBDE 3DE09353 BCA6DC43 BDA86636 BDF3DC8C BE3D46F6 BC10D26B 3DCF5DBC 3C2C273B BD273AA2 BC0BF064 3D60569D 3CD27731 3D9059EA 3E1E963E BD5E9B11 3D0AA3E3 BD86371C 3D5D5E15 3E2E596D BE55F80A 3DDF7058 BC1CFE73 3C34EC71 BC8FEF2C 3D4382A1 BD94945C BD9C43A5 BCFB36D8 BC2FE60C BA289876 3D0E2C63 BD8283EE BE87878B BD55F8E0 3CD2D44E 3D031E48 BC94FA99 3D7385EF 3DC67C00 3DA4BD34 3D1C4403 BD498E54 BC8DB70D 3DFA4DF4 3D53508F 3E273ABD BC339630 BDCEF998 BC9D15F0 BBB466FA BC670A66 3D22A7CB BD703FB3 BC3BFD72 3E074BC7 3BE09BE2 BC25DDE0 3D1BB1F2 BDAAAA56 BE2F2C73 BE29E519 3DE57C91 3DDE4C51 BD016C46 BDBACA1B 3DAE9F50 BC91E896 BE09C23B BD9BE399 BD6531E9 BE1ED289 3CBCB98F BC89C652 BCEEB80F BD83BAD5 3D1734B5 BE1D56F3 BCB88DB0 BE0C0CE9 BE15D0B7 3A6A9E08 BBE9808D 3D26A8FC BDF7C0B1 3D7F2163 3D03E7B6 BC44DB67 3B95DE23 BD416972 BC922DCA 3DAD477C 3C06CAF5 BD6B6C0F 3CAD7BCF 3CB912A6 BD2A4427 BD247B75 BE001B00 BB97FEBA 3CCD31E2 BD0DA33C BDA63511 3DB9905F 3DE98AA8 BD26D15B 3BEB8778 3C61A968 3D32FB1A BD5FBE5C BD2ADCB8 3E01B60B 3DA41ED1 BA896066 BD09E816 3D1B742F BD323C28 3DA10774 BC41AEF7 3D809DDD BD23FD6B 3C1E1199 3D4DD617 BDD56A7B BDDEC67A BD7F79E3 3CC698A0 3C4D5B68 BDC8FA88 BD23A140 BD7EF234 BD4C1EBD BAC8889A BC5B4C57 3DB5EE9A BCCA6E18 3D07D871 3E1465E9 BCDAB58E BCFE400C 3DFDE1E3 BBC36113 BC447652 BA5AECA0 BD9EF4B8 3D8AB8C1 3D7B3FC2 3E481388 BDA7D029 3DB2B31E BE0386D3 BD9237C0 BD7C8A7A 3BC6390A BD0B583E 3D0094B0 BD092817 3E113405 3DA076F6 3D1BA7FC 3D8CEA94 BD5DFF5A BD4E8A8D BE25F41B BC50261E BCD838DC 3DA34996 3C358370 3CD3795A BCEFD1EA BE073D5C 3D7B1133 3D3FAC89 3D77DEAE 3D2E0023 3D07AC31 3D8C2CBC BD80B483 BD4888EB 3DE8D541 BCCFEF61 BD8F1B41 3D367614 BD279F31 3DB68F9C BD676EF5 BC0D6229 3DA30B4D 3B328274 BDAAF12A 3CAD9DFE 3C143826 3DD96D8F BD8822E4 3CA4AD5E 3CBBA6D5 BC648DB4 BDEF54D2 BCA65534 3C980EB5 BD20B623 3A882AB1 BC68C47A 3D89B63A BDFA4DF4 BD0AE31D 3DB3D619 3C615F96 BD94BC85 3D83CB09 3C474B84 BD89A1D5 3D924B19 BD34103D BD859162 3D4A5127 BE0E35C6 3E051117 3AEB2EB8 BDF24E9C 3D51FAEF 3C025301 3CDA4957 3DA88DA3 3D319610 BBD5FDE3 3C967D85 3C2A3B3D BDCF911D 3D8405B4 3BEAB429 BDA3C8E2 BD093D46 BCA173EE 3B1F0AC8 BBF2B930 BDD9B802 3D624A0D BB54740B BD5C6C12 BD4C2C5E BD92D9DC 3C4CC972 BD6A3395 BC514064 3D5F2926 3C3233C4 BD2C76EC 3C2104E8 BD068BA0 BE0876E2 BE1AB820 BCE4B5F8 BC1926E3 3D1CEED4 BC1A9537 3DBCF23C 3C0B9E24 3D02DDB0 3D54EFE7 BD2876C7 BBCCBD48 BA96DA22 BC91CA98 BDD0CD42 BA5B6A0D BC07CD3E BC886742 3D0A218C 3D2E8CF6 BCCED5BC BDA06E4F BD9F4D6D BDCA3395 BD881718 BD594A8A 3D9086A3 BD7F04C3 BC9366E5 B9F952D7 BDB253A5 3D1A95AD BCFE5AAF BDE6088D 3DD47842 BD31C8B5 BD4600B0 3CA5515E BD84F609 BD38A797 BC5F29C7 BC87DA54 BDA78F0B BDB384BA 3CCB4E12 BCACA17E BD4172E2 BCB10236 BDD31FCD BD98031F BC64D56D BD19053A 3CACA8A0 BD29B896 BC3A8E06 3B4FECE8 3DA111A0 BE10BE51 3D743F02 BC2B5584 3BBEF3DC BCB6C30B 3D8B45F1 BE0E09FF 3D6E523E 3CDE7E05 BDADFB43 3D8B5C3A BC8FCB4F BCD4DF20 3CD46405 BE147F56 3C15A650 BD8C8506 BCC5D95E B9F60476 BD5511C5 BDBF5225 BD4F1A4F BD81229D BCD42F2C BD53070E BD31ABA9 BD7537BB BDCDBDF9 BDBD1D8A 3D27B0CE 3C2C8748 BCA6E1B6 BDA5BC95 BD7EC67A 3C1C2E34 3DAF00EF 3CDACA87 BD22F1B7 BD5D6B9B 3D1D8A55 BDA850C4 3D029175 BCE08363 BDB6895F BE1A5482 BE1AA088 BDD0D62C BC2E50E1 BD74FC11 BD9822F2 BD9F9859 BD33B04C BDB269ED BD7AA8C3 BC77E5EB 3DB814AF 3D2AB911 BC8D29EA 3CE1E48C 3D8B178B BD3BBC39 3C0C49DB 3C495041 BDEEC311 3C89BF67 3D825BC5 BAF2D8A5 3D910E10 BDE59D13 BD6FFE60 BBB75948 BD43E2FE BD4105EF 3DAE926A 3C46EB77 BE6CE63A BDE26A23 3CDE9F27 3C956019 BD8DB8F0 BD09F440 BE25DE59 BD6F4DB1 BBC8C211 BD26B830 BDDAEEE9 3DB89416 BD1C461C 3D8910B5 BBB31DE5 BCF8671A BDB1423A 3C1ACBA9 BCA0B4E1 3CA6135A BD71F007 BD619470 BD1419FE 3CF717FA BDD52EB6 3D8E54DD 3B50B9C1 BC5429B8 BCCA1FDF BC809DEA 3D98964A 3D8C2CCA BC0BBD58 3D1C67E0 BD967C1B BDC54110 BC7BF0A7 BD8373BD 3ABEEA61 BD8A4F01 BD09543D BD830D74 BD82E5EC BD9C20A0 3DAD6551 3DBFAEA1 3D6754F3 BDA91977 BCD1DB95 3D023996 3D60E8C9 3CEE51ED BD9ADFA8 BD08BB25 3CA0CBF3 BB942A84 3CEB5625 BD745232 3DC75B59 BD76D275 3D0F34F1 3C1395F4 BD8C37BF BD8E2E03 3BC62F8F BDE9AF5C 3CFAFC8B 3DA7442C 3B489C66 BD9838C1 BDEE8AF8 BE3404EA BDF86B16 BE10C459 3CD531C0 3D29ED54 BDB69589 3D1FDEF8 BCF6460D BD1A2FC2 3C4D9408 BDDF548F BD816807 BCF89862 3DACAA25 BDA57C4E 3C25E064 BDB1606D BD9D7E10 BD8FAECA 3DA6C468 3D90955F BCD45232 BD6C8FAB 3BAA0CEF BD4B7C50 3D926FF5 BC72BBDF BE12F33D BDDE6E65 BAFE8806 BDB260DB 3DB61A10 3CEFF69E 3DB14D15 3D79161C BD50BCE7 BD4BE165 3AC71324 BC5CB146 BD242F8A 3C378034 BD7123C4 BD6CD028 BC24BE25 BD77E63B 3D0F1993 BC78AB78 3D1A22F7 BDA83142 3E34DF05 3CC6C871 3D2293A9 BC89ED54 BD081055 3A24DF95 BE8ABF77 BC523770 BC372317 3CB6B59F 3DF99F5E BD521D54 BDAEF10C 3CA9CBE1 BBDE14C9 3D80AA80 3DE8DD1E BDD54196 3D90A56A 3D808DAA 3D69505B BBC244F4 3D626AA9 BDB76486 3C3C8557 3D80D5B3 3C409A8F BCB96180 BD1A9EB2 3CC01F75 BDA3A6E9 3D4765D5 BDC3458D BD9E283F BDC31005 3D28B744 BB65E044 BD73A274 BE181CB4 BD29C7CA BB834E69 BD439947 BDE8A71E BE0CE960 BD772E1A 3CF403A8 3CEE0993 BD8F1C25 3C163785 3C1C34D4 BDAF46C5 3D9A6506 3DB567CE 3CF0E75E 3DFE2718 BC11B18E 3CDB427C 3D92E8A5 BD15C48D 3DF5DBBA BE1154CA BD0FD220 3B7B935F BD0B24F7 3D981103 3DBACCC8 BD990017 3E001EAC 3DF0F6AD BE096C83 BDC1975F BBBB329C 3D3AE90A 3D36DAA2 BD61252F BC469D73 BD46D87C 3DB08F7F 3D3B8313 BE14B018 BDD5E8D5 3D467D27 BD7A04C4 BDA50368 BC086C76 BCC89EA0 BE114DF9 BD0BB3C8 BD597C3D BD719B83 BE11FD9C BD8D7B05 BCF37F54 BD268230 3D7AEC9B BCC3533C BC905F5E BDA25EDD 3BBFFAD7 3D5E7338 3DBAFF1D 3CBAB508 3CC53C4A BA56066E 3B3C4EA5 BDB04C20 BD84F6AA BDAF5093 BD2E142A 3D424C25 BC8AB3EE BE0E4D5E BE045953 BCC82D2B 3D80FEB3 BE131DF7 BBBCC502 BDAE900E BDA7DE6B BDABA9DF BDC574C1 BD0730E1 BC74FEB0 3E43A190 BDAEEA21 BE412663 3D66EC4E 3DF8FB44 BDA38F0E BD1F1B33 BD292B07 BE113D32 BD4F72EA 3DD5219B 3DBCAED0 BC1EDAAC BDCC61CB 3CAB6899 3DDC853C BD3391C8 BC82A206 3B98ED0C BDBCC16C 3DB5A541 3E29C90C BD016ECB BC80CF69 3CBDECCB 3CC56240 BD7080EC 3CFB95D8 BDD1CFBC BD3D9649 3C84464B BD981619 3DEF87AD BD21EA86 BD98949C 3D3AC365 3D93D351 3CC651BE 3C758411 BCE99052 3D3896EB 3BAE81DE BCABAFE7 BCD3F2C6 3D6F08E7 BD8AFBC2 3D8FFF29 3DCFB331 3D64435C BDAC2CF2 BD5D2708 BD1C84B6 BD92E9B2 3DF72CD8 BC50F40E BD8C919C 3AEFD896 BCC0B2E3 BB62605D BDEDC11E 3D424B4F BB6318BF BD09048B 3BB5292D BDED3B6D BD986B59 3E207DD4 3CCD1D8A 3B059124 BCE2679E 3ACA6717 3DA9E0DA BE0C91D1 3D797AAB BD7E7693 3C8E24F1 BD88C650 BD8ED31C BD0329EC BD8CEC34 BD8F4E6C BE080735 BDC4CA85 3DB17F0B 3D8D7E6E BD4CC830 BAA816E0 BB903B4C 3DBA7F80 BD16D8DA 3CD7788D BD0D10A5 3D4E7975 BD36EF9B 3DAD53F6 3DCA61C6 3C7BA37A BD01D15C 3BCADA59 3C9D8440 3C740D18 3DE07D4E 3DC7D178 3C199ADC BDD97BB7 BD59677A 3D0ED6FE BDDE3C97 BDBBCC1C 3C3212A2 3CDA063C 3C8ECB3F 3CCF6A36 3D778BD8 BD9861DC 3D32DE0E BDEE2D1F 3DA32881 3D1CC441 BD2F657E BC972409 BD8BA981 BD940315 BE2A79BC BDCC5E7D 3D59C935 BD5713C8 BB16E9BC BC110C0C BDEF10AA BD067A6E 3B83D639 BD09568B 3D2BB50A BDDE2E6F BC99582B BCE5D511 3D123480 3D104923 BCD0B4B9 BD768FFA 3C7BD2DF BE00F239 3DF974E6 3D94A4FB BCDBC523 BD910AA7 3CE797F4 3D93686A 3DA03FB3 3C9117EB 3D900F42 3D3453AA BDBBE470 3BD5340F BCE6AA8F BE431E7E BD25F923 BD1A568E BC766C6E 3C9785F9 3D7FB085 3C8BAF61 3D87B9FB BE0E1C58 3D40456A BE150A46 3DD70825 BE5381D8 BDA00C0F BDB367A1 BD7CF4B3 3DB0678C BB4638B4 BDFCFA27 3DA21D61 BC886FA6 3B3DA76B BDB87054 BC988F0D BBE595C6 BDA23910 3CD2F3C3 BDC6649E BD4816F0 3D51A4F3 BDECE465 BD983F27 3C2A1D75 BD859E7D 3D2FA3E2 3D863879 BCB7083F 3CA88708 3DF3FAF4 BE195209 3DA06DFF BD79C13C 3CE51167 38C6E054 BD4A51FE BCD0B98C 3DC29A87 BD26097F BD00B2C8 BC8F0B6B 3CEF0465 3DCCBAA9 BCF40266 BCE18E25 BC3F9CCE BC23F0A0 3D20E589 3E266C6E BD494178 BCA5AD6E 3DBB2032 BD506F34 3DDEBE9D BD6F756E BDA55715 3D2DF938 3DBAC0D4 3DC0C1C7 BAC8E333 BADC5E65 3D7828B6 BD89FD37 3D821D89 BDDF2E49 BE27DB6E BD93F3EE 3BD2CD82 3C14EF7B BCF6F595 BCCD03F5 3D3243EA 3D4A86A1 BD118E32 BDA98740 BD8EAC6B BC6154AF BDEE453D BC31D0C8 3D6258A0 3D1388DE BC828F5C 3D27B917 3DC8E9F7 BD59D6BB 3DBD67F0 3D182DD9 BD1784D2 BBB95A6A BD03E609 3B342C17 BDD3A81E BDF6AC64 3C4E12B3 3DC9CCB8 3D3C711A BD07AB0A 3DB52D66 3B7E6043 3D4082F8 3DFA37EF BE05C0BA BDEA5508 3DA6097F BCA3EEF3 3E013B9F 3CA26B65 BD4B1F9E 3D38EC45 3D79BBFE 3DE1C2E3 3E29E9D1 3DCB8844 3DD24AF1 BCA88773 3D1FDB82 3C63DA30 3E1B8CB9 3DC32FCB BDB6F0D0 3DFE5322 BD1D65BC BDB420C1 BD103C73 3C86917F 3DF34C5E 3BE53DC7 3CE25D58 BE02E33F BDC5AA13 3BC680AD BCFCF2D0 3D86FC66 BD4995FB BDE55C10 BE148388 BD962698 BD23B2DD BCCFBABE BBFE14D9 3D6A4AC2 BC45FFBF 3D8479C7 3D63B43A 3E01E18F BDCF2410 BD8322BD 3B96199D 3E02D0A2 3E1C49FD 3DD8B7A2 BC8175EC BD399FC9 3DB6DA6D BDC0FB80 BC3D5D59 BDF2599F BBB69D76 3E0FC04D 3BB69FCF BCAA8D07 3D68D866 BD9BF7A0 3E249F0E BCBDC528 BE1E2691 3D1214A0 BDDA1449 BDE15769 BC702ED2 BDC1CB2C BDEEBE59 BD6E5182 BDA27FD7 BDA1ECE2 BE155326 BD22C831 BDECA4F4 BE4E353F BD9A1EE0 BDCE0EB6 3CA15012 BDA46F9C BCA21F0F 3D673FAA BDD462C3 BE798C3B BDDABC0E 3D345D1A BCF5243A 3D411A7D BE2D4E4D BE3BCA10 3D1614AA BD495F90 3D3290FC 3DA45D27 3DB88B1F 3CA4E98F BD3D9084 BDD8E2A0 BE020AFA BE536934 BCB06127 3CA32493 BD35E2C0 BD2BFB31 BE1AEAB8 BE03A2E0 BD84898F 3D24978F 3D5D746A 3CAE1A90 BD897636 3DE1B196 BD9845EA BE275297 BD8598D4 BDD2D667 3D62AFC3 BC916E52 BDF1EF31 BD629A94 BDB24D24 3E187768 3DC8ADEF 3A875D01 3D989042 BE6CFE9B BDB8DEA4 3D902306 3D21C1BC BDA43E46 3D6A168A BE129457 3D8381BD 3D312BA1 3DA5EB67 BD2F2877 BDD0BB6F BC8E39EA BC82D4C7 BDB95D84 3DE6FAC6 BD7767FC BB9D14E4 3D0B7FC6 3CE5EAAB 3DCA4E52 BDB6A0A6 BD97253E BE0BD6A6 3E03DFB1 3E1DB37D BBC5CBD2 BD60F9AA BC453884 3D56FDC3 BDE43AA8 3D4EB413 BD3732B7 BDABB79C BE157EAA 3DA782FC BD3F19A1 3C9D88DD BDB32790 BE6F3FD9 3DBD6579 BCCF5FEF 3C82253E 3D65C1FC 3C370916 BCE01183 3DCDFACA 3DA31AC5 BCF69DB6 BB025FEC 3E74024B 3DDD08D5 3E1E2542 3D540230 BD7EAD85 BC455F86 BDF4A340 BC6AC2EC 3DACC327 BD84DE7F 3C39F630 3E03F9E8 BCD8ED37 3DE98B2F 3C377F5E 3DB50848 BE3DBC66 BE70AAEB 3B687575 BD0390AE 3C28DF1C BCED259D 3A49D656 BCA2EFB9 BDD753A4 3CE1AD2F BD3B3F71 BD2F39FA BCDA9832 BD992E2C BD7B7BBC BE1EA316 3D89150F BD6E62B4 BCE1B201 BCDA8A90 BE032618 BDE50481 3D8F9732 BE298FE7 BD773E25 3DCDA76E BDAECFEA 3BE6B658 3D48A1FB 3D4ADF21 BD3E39C2 BCE7CFF3 3D8E850B 3D12F937 3C9677A6 3D3B2109 BB84DA45 BE00A73F BCC93279 3AE3F98F BE1A82E8 BBB369CF BE29289E BD9C9CEF BD04FFAF BCB6F52A 3D18561D BDB9E0B2 BA004978 BD8C47AF BD827F94 BD68D485 BDD3929F 3D70E6F3 3DAA4101 3CEEB2D1 BDBDC37A 3CEE8F95 BD373BF1 3CFB4982 3DCAE239 BCB363DB BE3607C4 BDF3ABC9 BE076DDB 3CEF05A7 BC7F7FA8 3D454FCB BD729889 3B994246 BDC1929A 3C56CE43 BD2699E3 3C0DEDB4 3C4536D6 BE35EC3E BCB41C32 3D8C942D 3D56A6D6 BC880304 BCF4DCB6 BD7561E2 3DB595BC BD2DD9F8 3D32632A BE2FA82F BD83602F BDD08AAD 3CE16B8B 3D5E3ACE 3D18A380 BCCD324D BD57919C 3DDDA37F 3DF398E9 3D246C5B 3D50880E BD1AE4F3 BAF91E8F BDDEBE9D 3D367572 BDF539B9 3D4703B0 BDC2C55D 3D81909C BD41626B 3DD0520D BD07BF47 3DCF398F 3D8E6BB9 BDB13405 BCE99CB1 39958A85 3DCCC0D9 BB964AC5 BD8396B6 3C055AD3 3E1A35D6 3D079C92 BDA4AACD 3DCF8CEB BD11C21A 3E0DB164 3E23300E BDF0385C 3B94A020 BDAC0003 BB803920 BDE0168B 3AE94E38 BDFF8DB5 3BB84D8F 3D983CD8 BD81D7E9 3C7B92B3 BD1B5CE8 BC162A03 BC918CBB BA17804B 3E11A650 BE17C73F BBBF9582 BDAE8EB1 BD6B13AA 3C256FFC BD708737 3D1009B3 3C8F5C29 3C4D97CE BCB27781 BC02C0C5 3CED2CF4 BD0DA42D BCBE7D49 BD46714E 3C78E69C BDA78CF2 3DA4EF38 BD967C36 3D144475 BDCF4517 BC95DB9F BDC41E65 3D985B26 3DBE20B2 BD865E1E 3C7AC604 3DAE2592 BD253B23 BDC3E83D 3D3ECCFA BCB57456 BC86B84B BDA960C4 BDC9C09B BD7DE9C0 BD961269 3BB4ABAE BE09FE87 BDA4CF3D 3D064ECF BBF913BD 3A3B68CC BE02830A 3DB46796 BD94A086 BDC7EC6B BCEECEB5 BD0337DE BE4E6B83 BD4FCC41 BD44807D 3C9BE249 BD2FACE6 BD88F565 BC928573 3B6FC245 3D236F71 BD3ED619 BD4F1F8D BE003255 3D9571DF BDD6C7A8 3D5E448F 3D230FD0 BD963729 BD8D4FDF BD6086D9 BD8F5947 3D1CBC13 BD568365 3C037AB4 BD171BA5 BDD0489D BDDABC94 3D22B1A6 3D6165E1 3DB9F1FF 3DD9988D BCFB04EE 3D4AD48A BCA2E24D 3C184343 BC0A95BB BC0185A7 3D76F403 3D7727EA BDC7198D 3D9694E8 BCB13FA9 3CA88FA1 3D63641E 3D5894D2 BDC94F19 3D820ADF BDA8E01B BA879CC2 BE1EFBB1 BDBD304F 3D8001BB BD92EA7B 3CCE3913 3C7F2A83 BD83D237 3DA330FF 3D714786 3D6B67F8 BDCE642C 3CD2245A 3D9AD554 3C396EB7 BDFC08FA 3D9E4AA4 BD301140 BD595084 3D2C924A BBE60706 3CFFB268 BDA6CFAD BC33C6D7 3C8D423E 3D902B0B BDE192A7 BAC5E72A BC1D3794 3DAB535D 3A3C2774 BDEA4EBE BD1481B2 BDD529FE BD6B42A4 3D1A90C0 BC2C753E BE1A0D35 BAAAAD3D BD9834FB 3DB7AB32 3CC9DAE0 BD069E2F BDBCD043 3CD35F58 BE6DB7F1 BCB0C423 3D6BED59 3DC927AC 3D86F255 BD06C150 BDBE6221 BDEA77A3 BD7E5F9C 3C893ADC 3D64F949 BD49D22C BDF28E93 BD99A7F7 3DBFA69C BCF05491 BCC11000 3DB91FEA 3D48ECBE 3B609353 3CF8B04B 3D9115B7 3CD9A29E 3CCBF826 3D7477D7 3CA02108 BCE8EFE3 BD4A7F9B BDC4AF4F BD972E85 3CD6D81E BC7B9B82 3C2FC33C BD07778E BD6E25C8 3D45BF5D BDBE1B4C 3D88844E BD29336B 3C8FA193 BD6A3055 BDFAEB3E BD8CBD7E 3DA4CEEC 3B86363A BCEBB194 BE012C6B BDA7AFEA 3DF753A4 3D9EDA23 BDB30B5B 3CC824C7 BE54723B 3DB5412A BE69EF95 BDA9B33D BDCC793A BD15B3C6 3C6E7884 BBE6AC72 BD158F99 BDDD93C4 BD62EB6D BD383EF1 3C573F17 BDB2EC1B BD84B267 BD59BD0B BE29AF19 BD6045BB BDEF5BA3 3CBAC4F8 BD09AAA4 BD001A6D 3DAEC13C BCCF4476 3977FA92 3DABFCDE 3D4F98AA 3CCEFC52 BB9E9831 BD849279 BDF64CF9 BCE557A8 BE0A77E6 BCF2763F 3DDB9496 BD73A14D 3D0B403B BD19BF09 3D8D7618 BD894EFE 3D6DC0B3 3E07570C BC8E5F3E BDF203A3 BD089184 3DD37436 3D94F3A0 BE2AAB8A 3D990CB9 3DCDD053 3C2863CC BCA86793 3D660A71 BD4F8FC0 BDBE3327 BC3E0D82 BD8A6670 3CDAB30A 3D01094A BDFE9100 BD2C163E 3D8CB7B9 BD44586F BDA2ED78 3CF08D9C 3CB2A610 3DA7051A 3D89FA12 3DC9B944 BCBB341E BCD6F834 BD8F8254 3BB62393 BCB64CF9 3DBF321D BDE21859 BB294589 3C2B0715 3DC51A0E BC0D3C49 3B94D793 3D0828A9 3C41AFCE BC97B5C9 BDE922D9 BDA0D230 BBCACA3E BC4CD749 BE21B153 BDC419D6 BD00BE1B 3DBBA967 BBACC200 BE039219 3DC53FB3 3DAE563A BCA6D58D 3DF76DDB 3DAAE6C9 BD860914 3D908DAA BDC0860F 3D0BEC32 3D50079A BDD3CFF6 BE011383 BB446EAF 3D23A5F7 BE1DAD75 BE247F99 BCD4A142 BC91848D BCAC58EF 3C50DA79 3D429E25 BE15E5F3 BDB0F7E2 3E09B90F 3C1F9963 BE177681 BE055326 3D860921 3DB6B60A BD1C01D9 3D3C599D BE72467C BBA07F26 3BCD980E 3E21C6D2 BBD68AD1 3E29C172 BCA8BB76 3DD59EE9 3D5BBD60 BD067A02 BDF81494 3D75D2EB 3D869736 BD24A622 BC91F4BF BCAD853F BD01C40B BDD1E322 BD16A289 3BDFB9FA BD268F66 BD9E84AD BD7CB37A 3D715197 3D61F121 3D4B7EB9 3D85E65E 3DAEA87D BDEC6EF4 3C32D250 BC5EB66F BDD7F413 3E06134D 3E15B9E9 BCAAE1C0 3B9B2184 BDAB6E5E BDB3CDDD 3DE36FC1 3D94704A 3D1FBA45 BD0A758A BD9A2E65 BE0F44D4 BDBCAF56 3C4A1562 3D6C9900 BDE6E222 3D913702 BE01E4F7 BE513448 BD327D46 BC602067 BC8334D3 BD434671 BC5EDA81 3CCEE17A 3C9394D3 BDA5FF2B 3C9B5236 BDFE6C4C BE0EBF23 3CFD5271 BDECB7D4 BCF6CFA0 BDF4EFCC 3DB724AA B8580207 3DAC470E BD011C0F 3D4EB1DF BD687428 BDFB9B67 BDFB6806 BE132379 BD284366 BC1AA1A2 BD149CA5 BE42A800 BD1BAE62 3DB9CB25 3D0AA4BA BC1D1499 3D1D2AB3 BD9B7D92 3B9A4DDF BE171B48 3D799E1C 3D800F0C BCE1D6EA BCBC1FD6 BE147E4A BE4CA7D6 BD6B11AC BCB23DA0 BD9EA52F BE04AEC9 3DCB0235 3D23326A BD0B8A78 3BA1F096 3CB43D8A BCEC397A BDBBCBBE BDCAD61D 3D89DF04 3E068F08 BD32C930 BD441893 3D95CF25 BC3B1BCA BDB6D183 3E16D374 3DCC9357 BD927B7D BD4ACF67 BD44E867 3D825694 BD969EA8 BE3E136E BDA7EB51 BCC7B8FC 3E147022 BCF49386 BC93F8A6 3D71DE34 BC6A0705 3C80105C BDA7B61A BC920E1F BDC64E8B BCD0DB4F BD8FCE8F 3A55C623 BD010477 3D0C3802 BDA324D6 BC8853C1 BC9208AC BE83178B BE0418D7 BDC18945 3E0E13B2 BBCD9FB1 3D919928 BA8AD028 3DC5D42D BD45C71F BD1DBD15 BE16CBDA BC70FD99 BBC5A48F 3BCDF95D 3D87F697 BE102470 3E1A31A5 3CD4C47D 3D4DDF36 3DB336D1 BD068A0D 3D4CADF9 3C301A0F BDA966E7 BDF40B35 3D1C5AFA 3DE01FFB 3CE1C2C8 3CBDC01F 3DEAF35E BD717A7C BE0F17BE 3DB8496D BC4B5716 3DF57364 3D087732 BDDCC8DE BE0275AB 3D85A60A 3DE65519 3E0FED63 BDF3CCD1 BE0E6C4C BDE406C0 3D7CB161 3CB43E96 3D3B2017 BDE72218 BE019008 3D833999 BCD14106 3C5ABEFE 3DDDE3FC BBF9B1F3 BBE51025 BDCB021A BCB407A4 BB270944 BC92CEA4 3D9617DD 3D99316D 3DBAB6C3 BD88D816 BD28279C BD4C4B32 BC212E79 3DE4EF89 3D96B668 BC60C3FB 3D1CFB33 BD96F636 BD191601 3D268082 3DCD349C 3C75ABE9 3D945191 BDBD0918 BBB7B44C BD8AC190 BB75D98B 3D865F2A BD1CC8C3 BDF22F27 BDA8D618 BDC623DE 3D11EB6A 3DB7E910 BD02066A BB234C20 3DFD3CBC BCE7107B 3D650233 BE0BCF4F BDBA1207 3B7D514F 3CAC0252 3D3A1C5C BD2D55A4 BDEAAC11 3D6470A8 3A108027 BE256F76 BAD526E3 BDA727B4 BC762739 BDF0A1BE BE2069E8 3CC48CC2 BDD070FC 3D762D33 BC4A530A BD8CC675 BD88305E 3D30B509 3C44651F 3D07F222 3D754FF3 BD63B745 3D1110E4 BB512C2D BDAD235C BD63364B 3DC1DCAF 3DA6C630 BC8B277B 3CEB243B 3DE3161A BD3537F0 BD855DF3 BDA2B199 3C57CEF4 BDA2BF55 3D8C6FE5 3D73E10E BE13721D BDC11F5D BD92101E BD89F1E4 3D3F83A4 3D3F9196 BD14087B BDEC0BDD BC310485 BD65D6DA 3C892726 BDBF9450 BC91D0AD BDBEBBD5 3C084A9D BD028D94 3D6AA8B6 BDBF32CB BC4596E3 3D82E35A BDA5FFB1 BDCB0575 BE085165 3ACB4CF0 BDA64198 BD6B5675 3CE384D5 BDD7B17D BD0E19D4 BD2E47A7 BDB39CF3 BDC78283 BCB43922 BDA5171E BD013371 BDC71B7D 3D82305C 3D453B8E 3D5726C3 3D851A87 BDE45B29 3E047E07 BDBB4BF9 3D73CBDF BDFB6BB1 BB481A60 3E11A32B BC284D26 3D93ED60 3D9B6142 3D967F9E BE0B98C8 BD4DF5A7 3D4A94E4 3AA5D10A 3E091D15 3DDEFF19 BDC0EB17 3CF562B8 BE023209 3CA604AC 3CF96F8D 3D2EF88C BDDED9E0 BDFF4129 3D0E651E BD1FFE6D BDB7576A BDF738E7 3C57F371 3CAD5107 BC713272 BE4F9DB2 BD2654FE 3CE0B2FE BD10E977 BDE5BE1B 3D89CF9A BD7EE2CA 3DC2F7B1 3DCCDB7B BDC90DEE BE039ABF BD9093E7 BE398E11 3B888636 BDFB62C7 3DB15DE9 BC08D90D 3DA7D82E BDF8F1D4 3D4D3705 3D692B72 3D45A485 BD321236 BCD7AE72 3D09DF11 BE0DFBD7 BD8B0B39 BBC367F4 BD1E8BDC 3B50B9C1 3CEC3DE1 BD02EE5C BE3E66CB BC029A59 BCB037A1 3E12D6AA 3D2C0775 BD2AA616 BD90BC46 3D26C8DC BD940845 BD4A3832 3E2BEFD0 3DC06269 BD072E27 3D5E0F80 BDA25205 BD9EEB2D BDBED685 3D72ACFB 3D505D10 BDFD82FD BE33226C BCB818E1 3DFB99D4 BE133EBC BDCE71CE BD0CE4D0 BD910427 BE37DE0D 3DA9061E BD0B1F18 BE045A60 BD3EEAA7 BE253261 3DDD8384 3D8A6656 3DE69CED BE38B8F1 3D4D9A37 BD58BFD0 3D11E753 3C196AAA 3B2ED99D BDE663C7 BD46E0E0 BDA250D0 3CBDAC9E 3CF7288B BD02BF63 BD815FDA BC44E3CA 3D7A7207 3BDE7F3C BD978C5E 3D68CEC1 BE0D17C6 3E0E2930 3B844016 BCA59AFA 3D97C831 3A628B36 3B01C898 3C368852 BD34A3E1 BCD3C32B BD96957B 3D4F8FA5 3D45C572 BCBFD644 BCD9186A BE0C8473 BD924173 BDBB6531 BE5605AB 3D621980 BDED7519 BB5125A2 3D0213BC 3D9B2C77 3E110A13 BE066A55 BE216C1E BCA90BC8 3DA29754 3D5377C7 BDB4167B BDA68CE2 BDCCE033 3E081494 BD05F8B8 3CDBECC6 BDDE9F27 BE38EDA2 3D806C51 3BEA0BF8 BC5C725C BD0EEB55 BD6CE44A 3DC49EF3 BE3F062D 3C9DEB38 BE22B735 BC6F0EAC BBD9E666 BD578F84 3B3D90C5 3BD87BC2 3C4FD52A BD277483 BC9578D8 3DED2913 3DA44659 3DEBC59C BDEDE8F7 3E2DA61E BE2D188F BCB7D1C9 3D6B95E6 3D7E419F 3D0E3426 BC5C92A8 3D531536 BE110E45 BE272E27 3D509FDB 3DACCDBE 3C5B6292 3D5ED17C BD901ABD BE1CDDD7 3DBBE0DF 3BBBEF19 3D91A3F4 BD6CB641 BDBDF28F BD401026 3D09A0E3 BDECE13F 3CE2B5A2 3DB4EC49 3D81FA18 BD00C9A4 3D87B2B2 3D6BCADA 3E20C0F0 BD6835C4 BDC84549 3CC4AE1A BCC6F629 3D1D6D64 BD51BFB1 3D929330 BC1DD741 3D35F189 BE083516 BDA7D780 BCCC872D 3D67892C BDAB7140 BCED2E36 BD7D1E1E BD073960 3D51611C BDADAEB7 BC883340 BD87BFCD BAF6D80E 3D7906E7 3D4C8910 3E3BD556 3D93D196 BD052447 3D0BC16A BD84EDE9 3DC4A508 BDFD4739 3AC4AFC8 BDF49625 BE06B2AF BD7A22A6 BDECCAB4 3DCCDD0E 3E3E5604 BDF2E7B4 3DCA7498 3DC7C94A BD9A604E BD1391E3 BCD6BE1D BE4CCE5F BE0716D3 3B7C24A9 BDE7BAAA 3C4CD6DE BDD3FC01 3DBC408E 3B8EE083 3D5D6FE8 BC2287EA BE1F2389 3BD1E479 3DD252CE 3DC06409 3C7689CA 3DCF30A5 3C9F46B7 3CF22BCC BC4ED6FE BD8C7920 BD4470C3 BC86F4B1 BB509DE8 BD71A488 3CF0BDA3 BDB3CBFA 3D529209 3D061C29 BD3B262C 3D750474 3B0252AB BDB0CE19 BDD2C83F BD0F2389 3CA7ACED 3D5B8074 3CF34FEE 3D2E17A0 BD1A7E4B 3D1A559C 3DA6C150 3CDD97C0 BD82F97A BD99998C 3DA21676 BD1D5729 BDFFF716 BD531968 3D3D5BAB 3BB46D30 3C60A84C 3DDC7043 3D3AE9FC 3D819E81 BB087D3D 3D39F2D5 3DBFDFA7 BC8FDC4C 3B7EB14B 3D26BEE6 BD09BEFB 3DE9D7BA 3C779208 BDDB1184 3E1800A8 BDDF0889 BAA3171C BD9B6567 3DE34224 3DC07E40 BD9AE8E2 3C426641 3D041E3D BC371469 3DDBC127 3D601ED4 3D072523 BDC2BB16 BDAE7E48 3D71C956 BE0CB967 3B6739B6 BE2060BB BB54D2AB BCD6BD46 3D1FDAE1 BD8C046B BD2AC1FB 3DD948DC 3CA68C5C 3DD52C17 BD975B4C 3DA7CEBE 3BFE320A BD697BAA BDF4C1A9 BCEADA34 BD0CF5B2 BD4AD348 BD1F22DB BC362DB9 BD3EC47C 3D8BBF29 BD1FA8DD 3D439B7B BC33DD7D BA995B05 BE0C1052 3D1C0F60 3DA427BA BD8B7190 BC89D2E8 BD23EAF7 3DD891E2 BBFA93DA BDF9AF9F 3D71F8D6 3D0D00CF 3D4D2F43 3B3FBA40 BE27E910 BA9191E3 BCD76D3A 3DB141CF BDF73861 BDE66E44 3CEE44ED 3DE72192 BDDC2657 3DE05EE5 3D893CA5 BC4CA6A2 3CD41FDD BD09B5C1 BB81B913 BDC9C22E 3D89DA82 BE12D1AF 3B01397B BCBE6B76 3D1A99AA BD7D235C 3D28FA7B 3CDB3652 BD9C0816 BCA8F268 BDE8A266 BD2072ED BD8E39F7 BE76BC62 BDAFAF6B 3D00E842 BD8FB415 BE5F0132 3D9C2507 BE01C9B4 3D748EB3 BAB14BBD BCD7B26E BE073605 BDC0936E BD7A49DE BC9AEDF8 3D3E869E 3D95C0E2 3D5262F4 BDEDD1E5 3B8D11B6 3DBB1954 BD9726DE 3D52466E BD415443 BD149690 BD44A0C9 BD1625A7 BE062952 3D8DAAFE 3DBF832B BDA301C2 BD88DFA3 3DC39848 3C23DF02 3DA26487 3D5A77CB BD1BD132 BA41E727 BD3A23E8 3DD2BC30 3D0F9D11 BBF5232D 3DE18DEF BDCB21FA 3CAB6574 3B81E3F0 3D6A890B BE13F1C7 BDF9EE89 3CCEB067 3D31BB7F 3D4DC260 BC5C6A64 BD8F228A BD09BD4E 3D1280D6 BDDF4FD7 BE0797CC BDA4DE21 3C4962B5 BE3B1423 BDC21102 BE24B76F 3D67AFDD BD02116D BDB43B06 BD87C236 3CAB9DA8 3D2537AD BCCE45DE 3BEFA2E6 BC556A96 BDB2B595 3D9AD015 BE11882B BD7EED10 BE058687 3CBFA100 BE1251C2 3CC9FC38 BCEC30E0 3D8E59D8 BC0FE261 BD4F7249 BCA2BCC3 BDF94318 3BFA020F BDA44178 BDBC0201 BCB6D25A BD69D0B4 BD07BD13 BC15C8D5 BDD47CFA 3D26B434 BD726C64 BD9E6934 3D2698BB BC14F44E 3D71C44E BE0ED95A 3C913257 3D29790B 3CDCC279 BDCF2171 BCC5E7A1 BBD3924E 3D62E0D6 BD2D4DFC BDAB8CD4 3D7B9700 BE0342AB BD26E6A4 3DAA186D BDE13986 BD966150 BD9F629C 3B560BBB 3D85CB79 3C0C9732 3D90A6EF BE00739B BC67F32E 3D401564 BA18338A 3D647CB7 3D9AA441 BE0334C6 3DBD0544 BDA4EC56 BDF05D96 3D8012D2 BD71CB8A BD34F10E BDD7CE53 3CFB0E94 BD30D159 BC822F4F BD32BD8D BD62487A BDDC1509 3CBE0D16 BD0E2633 BCD1E032 BD20EEF8 BD3B8562 BDE45671 3C873FC5 BDCEFA1E 3DA41C3F BDD2D6ED BD53194D BD6B6C60 3D6AAE44 BDA2C4D6 BCAA1471 3D489997 BC873AF2 3BD8ABD3 3D0E69BB 3C370479 3D84CA42 BD9D94C3 3D835C4E BD91D24D 3D06EB0B BCA62A36 BCF383BB 3D788FE4 BDA95E4E BC9A667E BDE0CF18 3B576D65 BCE6FB82 3D917EC8 3C98DA57 BE2E9C88 BD165F88 3DDA0382 3C68F87C BD64A948 BD9172D4 3D79C33A 3DA4685F 3C209079 BCB69E22 BDD5E743 3CC06474 BDFB6DCA BDD60F1B BBC41CE5 3D4E3D96 3D2F31E7 BC7339B3 BD8A9EBF BDA3C26F 3D6AB4DF BE29D90A BDC3B122 3D3B8FC3 BC41D309 BD9EA24D BDEC7219 BE4373B0 BDACF455 BDD04B3C 3DBC21E2 BAF0EBBB BD0B2E4C BE057215 BDF57E67 BAB803BD 3DA3C5A2 BCDC8FB8 BD22BC8E BD6E70F7 BD31CF50 3BE37240 BDC03595 BDA124B6 3D0F0F67 3D7F9ECC 3DDF4D38 BD828B7B 3E05A640 3D42DD45 BD4166ED 3DAA6839 BDCDC337 BDB3AE91 3C230C4A BE02B9D4 3BC6D4E6 BE082E45 BCD5C2AA 3DDE96C4 3D92AEEC BC5C1FBC 3DD61459 BCC3A5A7 3C8F7AFD BE213E3E BE09741D 3C9A6A0F 3C5E44C4 BC7F0C50 BDE92A30 3D52FF81 3D6E444C BBAA2CCF 3B228526 3D12FB85 BC71857E BD985C17 3DE956C1 BC4FF06E BCC34169 BD669C16 BE2DFB50 3C81EDAB BD54F667 BE668406 BD8175EC BB7905E6 BDFAD081 BC11041F BDA8221B BD25AF87 BC9B3114 BD58FD42 3D82F96C 3DA62937 3D94B81E BE1F6D33 BDE308FF BDF9F905 BDD07E9E 3D8D9C43 3D48E79B BE35BFF0 BD053635 3D1354F7 3DAA5D51 BCECB890 3D31E124 3DBEFBE7 3DBA0C79 3CF91489 BD0BC4FA BC102BC7 BDFB8FDE BE02B4D9 BD26D770 BB943BB7 BD74A325 BBCDBE24 3C8D869C 3C9D4159 BC2E3CBF BD7E7261 BD68EE86 BE1CF074 BDB1CA48 3AFA3BC6 BA9E073D BDFD6CF8 3D492E47 3DCF2B67 BCD682F9 3E302321 3DB4519E BD90D7BF 3C6D1252 BDA62BBB BD6732AA BD42E7A6 3E116E7A BD114502 3D239B7B 3D2FEC06 BDCDFDF0 BE1820A3 BE398FE7 3D396D8F 3D253346 3CDEDB58 3D78640F 3D368BAD 3CA8F6CF 3D620056 BD905766 BE052DED BCA9D013 BDA2E54A 3C69D445 BDBE1A68 BCF588E3 BE07C4A0 BD187379 BD625BC5 3C016C92 3D087732 3DB3751A BD91F058 BC316BB3 BCDB7E0B BDA400C6 3CD80FF7 BDF60179 3DA36263 3CFBD563 3D6D9F90 BD8F6FAA 3D907505 BDD85AD5 BE0610F1 BCE95CF1 3C628383 BE86E7E6 BE0AB863 BDD987C6 BE3B5BB4 BD2B77B3 BD52CEBF 3C841462 BE85FD26 3D412F90 3CF7670A BD81BFB1 3DBB28A3 3BEB10C5 3C4B75B5 3D621FCB BDD5E84F BDA67408 BD15E7E4 BDCC77C3 BD2976D7 BE7CCF6C BD14954E BDA1FBB8 BDC17614 3DACB4CA BBF30937 BD71105E 3D075C30 3C939899 BCD43B20 BD448E55 BDFCCFAF BD77DBF5 BC951FB7 BC7D5886 BE051330 BE14ECA7 BC27CCCE 3D982C6F BD8A8311 3DBD7F1C BC59AEC8 3BFC809A BCEB5F95 BDCB6C7A BD238A64 BD12F845 3E05553F BD55CEEF BE152935 3CD14F7E 3D3BAD55 BC066FE6 BCF520DF 3D7AA8F9 3D6825B9 3D684132 3D23DC7E 3DE939EB 3DD07E17 BE09D495 3C646F81 3DD7F6B2 3DE282C7 3B8732E5 BD0F4715 BDAFFBA6 3DF1F256 BE0BC409 3D8614AA BC7F8BD1 3CB24DFB BD5040F6 BCE0D994 BD3F63A8 BD131297 BB7DAF43 BDB4F682 BCA8D2F3 3DBBEF07 3DBED65D BDA95C35 3C9C981C BCB422B2 BDADDBCE 3C81B4A1 3D3959BE BDFB64E0 BE07A4E8 3E176BC2 BD009A09 BDC5A200 BDD4B381 BDBFB05C BD8A9139 BD55597E 3B69DE80 BC9D1691 BDB1F0A8 3E3F0521 BE095D92 3D378664 BD1DCF39 BDF56B87 BE19F2BB 3C83BBAC 3DA3D527 BCFDC4F2 BD93EEA2 BDAEA183 3DD9A49C BDADB446 3D157B0C BE0678C0 BE148627 3CF04542 BD9E5570 3D5326EF BD44EC99 BD4FB81F BD806035 BDAEEC04 3C98B9D5 3D1FA384 3E0B29E5 BD0EAA37 BD38665E 3AFEA2DE 3D67D0E5 BD9569CC BDBA6EE1 3B765054 BC196FFE 3DA200CE 3DE7CD03 BCFF8CDE 3CA1AA09 BC360D02 3A954B2B BC48CBB6 BE0F76A3 3DCD7A57 3D11A2F5 BCC797DA 3DEB4BF9 3C51372A 3D6D5E3D BDE93D10 3CA2976F 3C8766FD BC98C55E BDCFCE74 3D61BB06 3DB190A9 BD6B16B4 BD03905E BD1205BC BC6D400A BCF20495 3DA1CC7B 3C3F68CC BDC05088 3D497793 3D5E8541 3BC23B23 BD856748 BD2589AD 3C75FA58 3D895274 3D3B010D BCE6B5AC 3D07A510 3DFB1C86 BDB92528 BD758AAC BD9811E8 BDE855DA 3D02A7CB 3D54434E BCB6F926 3D976478 BCFA02FB BE321FF3 3DD2D3C8 BE12EA96 BDE691EA BDDBDBE4 BD8D480F 3C077DA3 BB5F3834 3D9B2AE4 3D30D6CD 3B093C29 BDD0FF97 BDC5C019 BD5B6185 BDCD3177 3CA3A33E BDC54A14 BE08ECD9 BD45AE2A BCD1CF00 3C5F1173 BCA7CFBD BDE38E2A 3C0EDDBE BD4BBDBE BD895E33 BD9518A3 3D7C3AE4 BD8C93EA BC2C0B21 3C183429 BE1AB29E BD244C45 3CCF6A6C BDCE05CD 3D739DF2 3DDC0C20 BCDF8C58 BDDA0169 BDB96E9C BBB66456 BDBA4F01 3CF3C8F0 BC234412 BDCA3818 3CF4D3B2 BDAC0669 3C7F8F98 3DBE02F8 BCE0D4C2 BDE4EDF6 BD87DAC0 BDBC60E7 BD8F2C73 3D415FCC BE007F24 BC1E7A94 3D234C50 3BB8B4E8 3CB44DB0 BD8E070F BD9C41B5 BD5D541E 3CABA5A0 BE4950FC BC273A01 BB9A956D BDA7D88C BD922333 BE05629E BD8BB0BE BDA6D7E9 BD946E67 3BA80AA1 BB8181F6 BDB49E60 BD14181B BDBB24CF BAD66B5C BD8FD38A BD705CA4 3D676CF7 BC72F04D 3D60E0D1 3CA8BF3C 3CEF067E 3D2440BD 3DF8DDE8 3CFB971A 3D1EDBC3 3E02D01C BD23E187 3E160286 BD1CD62F 3DA07C92 BCB00912 3D7109C3 BD2E21E7 BBFD0D5C 3DBD4372 3E63B4F6 BB0D2166 BE7FEB8E BD980D30 3DA4921B BBFE2BBF 3D521E2B BE10F3CB BDA28665 3CC22574 BC81F6E6 3D4F087C BD29789F BCC720F1 3D74398E BDCACA6C BDC1E7E7 BDCBCBA3 BD7F7073 3DAEE1CB 3CFD1D62 BCF5019F BC35D463 BCDF856C BD4BEBC7 BDFB2DD3 BC86887B 3DBE3BB2 BDE0DBAD 3C817515 BDAE378E 3D500C88 BD459B65 3A1A03CD BDA533B1 BDDC5EF6 BD3DF183 BD3C7029 BE05069A BB30C153 BD8B9BFB BE0D2392 3C895AF3 BD5F5947 BCFF59B2 BE53C07F 3D284381 BCF67649 BD11EC77 BC3A21CF 3B9EA014 3E0404A7 BD88EC45 3BA916FB BCCA7F80 BD007EFC 3DFE3433 3D177A70 3DD4AC2A 3CEC4248 3D925AFC 3D7D735E 3C887F2B BDD0CC36 BC82D822 3CDF29C7 BDEDAFD1 3D71E80F BE1BBCF5 3D5082CF 3DD9F1AE 3D48A5A6 BDB59197 BDDCDB38 BCDC8DD5 BE3EAFEE BD69ECB3 BDC57DC6 BE14BDFD BD876831 BCFCA502 3D9C1FBC 3BACA20A BA9A67CB BD72E169 BD7B58EC BD0AE18B 3DFDAA50 BDCBD14D BDE8FC0D BE315769 BDD1F256 BC65E2B3 3D809155 3D612B94 3D72992A BD0EAE4E BB54ACC0 3D1F7800 3D4D513C 3C713B41 3D1D48B0 BE5E8251 BD0BBC7C BDFADE22 BE096851 3CAB0A3A BB2174AF BD8B2AE4 BE3309C8 3D4E1049 3B912BA1 BCF4B43D 3DECEC42 BD101D6A 3D231289 BC72FF66 BCD016CE 3CF8A563 BD8FE84D BD3AB9F5 BD643DE8 3D5511C5 3D182D89 3D4BF064 BB3223A9 3DA747B0 BC6B66EC BCF208FC BDE7B4E5 BD4A5340 3D846D83 BD9C0FD9 BC7317BA BDDBD61F BC987F1D BCE8A5A6 BE35B963 BDA61904 BDB1D324 BD58E82E 3E055E6C BC4E94B9 BD0213A1 3D0B4CB5 3CB5469E BDBD1478 3DA33EAF BDF76BC2 3E0A3B15 3CF0CE9F BCC46EC5 3D895183 BD3E0016 BE3EC1C2 BC3C3895 3E1FAACE 3E027C39 3CE48A59 3DDD5D3E BBDF1956 3DA1494E BD42CB21 3DC2B636 3D683127 3E0E5F74 BDAB6391 3CB3F05D 3D3AD9F1 BD057647 BD9C37B1 BD1E5B6B 3CA9717E BD9F096D 3B47EFEE 3A90CF46 BD467F5B 3E279B35 BE025E14 3E396638 3D19C411 BE1C069E 3D857032 BD62CF88 3D67942E 3D879797 3E67B45F BDDC59B8 3DA0FD49 3DC95FB8 3D8FAC10 BD1E41BA BE401217 BC3AB283 3D28FC5E BC414EEA BD95E778 BE2761CC BC86CCD9 BDE62ED3 3CEA7016 3C85974E BDDE8145 BC62BDD0 BDB6D86F BD8440AF BDDB8455 3D9C612A BD899235 BD2D760A BE6F3882 3CD06141 3DAABC5F 3CEBFA5A BCB4B4DE 3D6A1E9D 3E2208E1 3D52243F BD8C60CC BDDBB59E BD8EFC0F 3DC1B7C6 BD352A4F 3E197BB7 3D7A9436 BDBF20B5 BE0CD078 3D8DD6EE 3DE4D339 3E3111F1 BD593378 3DD48A16 BD33EAE9 3D334953 3D822516 BC5C684B BE29EE89 BE06C376 3DA8DFBD 3D269C67 BD3F322A BE5AB580 BD33C90B 3C3214BB 3D45C6B4 3D55842B 3ADC9770 BACD7B9E BDD2A066 3CDA3A3E 3D7E8160 3D5E6DDF 3D7F75B1 3C99CAAC BD8CDD28 BC77806A BE39884C BD52AF14 3CB99293 3C86DD6A BD15097D BDEC447C 3B28B870 3DFA80D0 BDF1654D 3D879357 BDCCC1F2 BCD3D4C9 BD173A29 3D72362E BD18EDA2 BCB35888 3E1E3C53 BC2C2F9E BE2A4CE8 BD65134A 3C65A287 BD616DD9 BD436560 BCAA3818 392BFAA3 3D9787F7 BD8AA334 3DFD944B 3C20CA9B 3DAC4EEB BD3BCBF4 BC284315 3DA6CBCC 3DB23E76 BCC86D21 3DD8609A 3C84DC73 BCB7B437 3DB259C7 3D0445AA 3D78CFC0 3C58F712 3DCF28C8 BD45B4FB 3C42FE82 BCB494C8 3C947786 3DAF1EFA BD645F25 BD08DFD8 3CE7E5F8 3CDA020A 3DD7D06C BDAF2A32 3CD6A0F7 3D6E3DE6 BE08BF7F 3D2CFBC7 3CBE21D9 BD283D1B 3CA23331 BD83023B 3D55E6D7 BD2E67F2 BC600813 3E01101B 3E3A6224 BD54F484 BC77DD1C BDE9A2C6 BD24AEBB 3D87B685 3DC08D3E 3C278A89 BCEDFD9F BDE8CBD1 BCF1A884 BD31064D 3D017291 3D5471F8 3DA00C95 3C885A42 BDD5DB34 BD07F5B3 3D10F495 BCB6FB75 3D9C7C52 BD70B4B9 BDCB093B BD81126A 3C343C48 BD96A6AD 3C9E8A9A BC9A2D3D 3CC7C30D BD3A5D0E 3DCDC6E3 3C2292D2 BE399F5E BD6B2563 3C6887A9 BDF2DECA BDC63879 BCDE2C71 3C8FBF25 BE421816 BCE41F2F BD248C57 3CB769C4 BD2CFE15 3E03E07A 3E19E493 3C300A1E BDC62AAF 3D348634 BDEA7C5B 3C1E285F BC9BE503 3D344029 3D3235F8 BE01BE6E 3D288667 BCAE019B BD93B3EA BD52F4CF BD7C099C 3D4328DF 3B821833 BDC8D808 BCB87817 BBC46C16 3D42C3E5 3CA3E7D1 BE340182 3D335AD6 BDE92AB7 3D875E7E BD985FDE BD2C2232 BD0F4766 BD933C02 3C63E00F 3CDE4317 BCFE8E7B BD35FD48 BD6949DB BD43D959 BC470070 3D01C34F BC05902D BD6F9B99 3D3597FD BD848ECE 3C1F3733 BDDCE9E6 3D50F2E7 3D974F2F 3DD975F3 3D2F9C70 BA02D9BA BC819597 3E0828C3 3D53840C 3C373A29 BE0250F8 BC0D347C BD4AC754 BD1B7648 3DB80B90 BD09EB71 3D9A4965 3DBBCCA2 3DACF14A BDBF2E99 BD79B6A5 BD2610F1 BD9185CF 3D8311CE BD330DDF 3DA855CD BC84BEE1 BDB7887D 3BB07DA1 3CF3467E 3CD5DF65 BDD6A8B9 BE13EEE5 3DE0B2C8 BD2231B9 BE57CF1C 3D0BCFC7 BDAFF49F BDBDE530 BCEA3C14 3C3AE975 3C77B17D BDA612E2 BDE203E6 3DA0D654 BC9B6079 3CC8EB2B 3DA01FFB BC9FF1A2 BD8AE460 3C2E7BA9 BD19D0A6 BC01DEB2 3D340FB7 3D664254 3D4B5518 BBC39DA4 3BD991ED 3D1C252F BDC4F3E3 BD4E3D45 BDC70494 3D8B0EE5 B9052385 BDD3E0BD BDED8772 BCA25E9A BDFED4A2 3CA72863 3C9909BC 3D73AE9E 3C68661B BDB2685A 3D88793E BB0EF378 3C935F8E 3C82B6C9 BD91D903 BDA0D38D 3CAFE388 3D1A8877 3DBFAE5E 3D0BE7B0 BABF3331 BD61FEC3 BD4C0740 BB57A518 3D270E62 BD7635B2 BD9C8EC7 BDBA1789 BDA05FFF 3C9A58DC 3C351810 3D93A76F 3D2CC906 3BD70F86 BD37DE43 BD591FDC 3DA9C23B 39B3E734 BD34D7C9 3D7D57E5 3D6C3258 BE1BE015 3D9FB6F7 BD1B517A BD333EF2 BE022E5E BCFC5769 BD403A32 BD568FA9 BDABD8D9 3B95F408 3CF97750 BD579B5D BDBF8C9B 3D1FA4C6 BD6391F0 BE31AB8F 3C610DCC 3D51FFF8 BD30AD47 3D213280 3CB3D07D 3BD4C702 BD3F06A6 BDB851EC 3D11323D BCBC3BBB 3CFD1641 BC9B72ED 3CF5F550 BDB34953 BD757009 3C9E2AF9 3D803FA6 3D1B4982 BDF9CCFB BC6AF831 BDCD4B27 BD444956 BD0727A7 3C17DFC6 BB2EF826 BD5A2149 3DE6D480 BC213D92 BC1AD9D6 BE15E52A BE21DABE 3E04AC2A 3DD1D367 3D167DD6 BD444E0E BD51C5C5 BB8E6CEB 3D9FEEDB 3D2F93D7 3DC64E71 BE0DCCA7 BD50EE65 BC621B13 BD40F4A2 BC99301D BB1D5F4C 3D5D3119 3D8B7D4F 3BE31A2C 3C85B39E 3D6173D3 3D9341C6 3D19A954 3D111E1B BD094BF4 BDDE8D54 BE4C4263 BE173B43 BDB967BD BD8CB0B3 3D8F2F63 BD8E9956 3D116A20 BD2FA06C 3B61856C BC66A627 3DA110D7 3D20A46B BCD9EB64 BE0C6D1E BC109F60 BCC3067A BD59817C BDCA24DA BDD131EC 3DB558D0 3D8B7854 3DCC1128 3CD5E9E2 3E017A46 BE4FF7E0 BC9F7795 3C1A00BD 3DC9FFBB 3D7F7BFC 3B9B48DC BD687B14 BDEA148C BDB3F0AD 3C2A23C0 3DA8E8C2 BE1A7265 3A593AB3 3C3A7FC3 3BC2A267 3C07C856 3D80EF3C BDB44DE5 BD8520D1 BD090E4C BE567F91 BD658B0A 3BED0F38 3ACAC60C 3D7636A3 3D7ADB68 3D4FA920 3D923B51 BD4770A2 BE2C9214 BDFC7608 BDC4BCBB BD2E8351 3D80FDDC 3D56ABDE BDE1BB8C 3D734466 3CA176DE BD819BB9 BBEDB5E6 BC20B2BE BD84CFC3 BD85D653 BA60080A BB0D7472 3D114B16 3DC3358F BC06882F BE2093D9 BCE9109B BE1F7510 BCAF6EEE BC8278B6 BE1F316E BD244B39 3D926487 BD7A2941 BC32F159 3D727766 BCABA1DA 3D584190 3AA8E490 BD056092 BDD233DF 3C999CBF BD94D4F4 BE369D30 BE04AF92 BE041E9B 3C9211E6 BB896AA2 BC469C9D 3C495BFF BDBA9B4A BD6F4187 BDFAE3E7 BD8C0981 3C5646C9 3C14DEAA BDCC3789 3D79FE79 BAA0EB72 3D82C062 3DA79FD2 3C3531A6 BD9D4F16 BD7E4A38 BD357710 BDA81BF9 3D30309A 3D2E3136 BCBA5820 BD07590A 3D25F9C4 BD21D309 BDB732B7 BE2CD899 3CAAC7BF 3CB64D64 BE39AE0C BD4FEC8D 3CD0C68C BD9978FD 3E025FE9 BE2B7996 BE273648 3D949A2E BE3C419A 3CB6ED32 3BA8CB7B 3DB889C2 BE4703F3 BE1EF912 BD2FA036 3DB0020B BD976DC0 BC393EE6 3CAF9C05 BD3179A5 BB8CDCB2 3B71D6F2 3D78AC9F 3D3DF39B 3D6F08B1 3D31F12F BD2EA077 BE22AA5C 3C8E61C3 3D9740B7 BDCF1F58 3B3B13E8 3CDE11CE BE5D188F 3B660400 BD9E0547 BDCC84A8 3D8719EB BB434DC8 BCD8BE73 BDB58489 3C1D5A2E 3E12BD7F 3D8C40A8 3BC456C7 3DCD3283 3DBEC94F 3D7BD040 3D9F4AA6 BCD4C47D BDC5B49D BD9FFC11 BDD0E7FF BDF01D9F BDB7C54E BE2CA0C3 BD8B386B 3DEEB895 BB5659E9 3D0938C4 BDFDE615 BC106ABC 3D8A6E76 BD445290 3D11A9E1 3D70A768 3DE9DCF9 BBD7FF45 BD13111F BD22D3BA 3DB56939 BDA6872B 3E2B4289 BD5AC68B BDA1E499 BD94E64E 3DC00C37 3D271045 3D8D7F37 BDC6937D 3D9621FB 3CC7C089 BD2B58FA 3DA639FE 3C697006 BE2FEB8E BDCFB54A 3D22B064 3C8E5599 3DA03C58 BD10ECD2 BDAD4C4F BD84D8E3 3D73DCA6 3D00CB87 3D68A6E8 BD082DE7 3D180022 3D943BC1 BD02FEEE 3DD82A13 BDF51A43 BCCE0C9E 3DC70F6E BCD0B44D 3D6257C9 3DDD51B5 3D72E2AB 3DDDC055 BD5E90E5 BD657413 BDD23AB0 3D91D290 3CDCAD15 BD18C529 BDAF0557 BE1AD96A BCE10386 3D7C1037 3D98D64D BDA41A77 BE48B8F1 3DB201F6 3D331CA8 BB839F87 3E0E3001 3D982C11 BDA37E47 BB8501DD BDDE5AFF 3DA96180 BD6F4F0E 3DC99144 BD27EFEE BDCF1887 BDFA07B3 BE23CCD1 3DCB8A6A BC718C34 3DB2ED6B 3C9FFCF6 BC5AD172 BD40EFCF 3E061998 BD6B96A2 BD9C3456 3D8C101C BB0C11F2 BDF95CC8 BE014984 3B65113C BDA9A1D5 BB09702C 3D503049 BCCB93B2 BD83B7CB 3D888E87 BCC236DC BDA963F7 BD395F32 BDE9BA5E 3D3CA94E BDF024F6 3BBE227A 3C019643 BD42CBC2 3DA58DD1 3E1747D8 BC64DAE1 BDF72474 BC8562E1 3D934A37 BCB21C7D BE2333FD 3C5DFD0B 3BBA3358 3CA75D72 3BF0FA54 BDB43C48 BD7E7E20 BE3301EB 3DB58D23 BD3D66FE 3D8F1696 3D29CF72 BE269AD4 3D6E69BB BCEB8FD1 BCB8AF3E 3D818132 BD0C9F15 BD9114AB 3D6011B9 3DE0F239 3D8252DB BCE95E33 BD2952C5 3DDF4129 3D06E7B0 BD13E143 BDB269D2 3D8AD80D BDC86C08 BD3B9679 3E032DB2 3C6A7696 3BC01051 3C883C0F BDD276FB BD7A500D 3E15E41D BD9BAB22 3D99EC55 BDBF821E BDB9AB02 BDEFE8AB BCC94417 BD44D049 BD1C58C6 BE00D0EE 3C1AFAAD BB5FBA65 BCD90A28 3C6014A8 BD764D49 3C280354 3DD4CF4A BD328757 BD97679E BD296D82 BD4D8143 BDE68449 BD7EF9A5 BD6696D8 3DDBD167 BD48D2A2 3D6F09A3 BD9C8AF3 BDB3D252 BD8E3BF5 BCA72AB2 3D062CA0 3B2B58DF 3D07199A BDBFF152 BD0CC723 BE08198F 3CAE7DC2 BD3B38F1 BE313C68 3D222A62 BB8DD56B BD2FFDF5 BC24CE16 BD96C5C5 BCB11333 3D96CA1F 3D81016D 3DE6A982 BE2FBB0E 3D29FB97 3D1E0CAB 3DAF0D69 BB239571 BDD96AF0 BD22E3FB 3D3FDDB6 BE0B4528 BD995EFC 3D5D5B40 3BC18A24 BD910492 BD0456A7 BD1A7A4F BD1D1A58 3D560921 3BA2C6BF 3D81B20F BE00D66F BCF90CC7 BD23C36E BDC51746 3D3606B8 3B018982 BE012232 BDA09AD2 BE1014B6 3D8838B4 BD6EFCF3 3D94D2CE 3D8FE5A1 BD86C666 3D21C476 BD19898F 3D91977A BD71EB85 BDB67D0D BE229AA2 BDA7FE09 3D1B9B16 BCCFDF3B 3DA3B3F7 BDC0FA66 BBC59449 BD3C8897 3E4E1544 3E0E3B04 BD1C838F 3DFA3B9B 3CADCF7C 3D8C4F49 3DF9103D 3D7354A6 BD471A56 3E125397 3D5424CB BCC98479 BB6EB7D9 BC8F5720 3E17060C BD4ED1BF 3DA0450C BDDF18CA BBD7F097 3DDB1C86 BD029810 BC4CA489 BD184ACA BE4DB0DE BC524405 BC6AB657 BC7F2148 BCAABABF BD2354CF 3D46DE41 3E10A45D BD9EEBC1 3D03B603 3DC7E24D BD221AF8 3D0050F3 BD96A89E 3D8C6102 BE1AD57C BD5C5967 BD1BFDF8 BDC155AE BD98C063 3D31B0B2 BD807D9F BE1E73E7 BE263498 3CC6E994 3C14BB43 BE0F1349 3D854089 BE15436C 3D73FAA4 BDC5F479 3CBF8CDE BE84C33B BE195D92 3D46C9E9 BD0FA8EA 3DD0ACC1 3C9C1E79 BD280014 BCD992E4 3E18FF76 3DA7996C 3D81D5EB 3E07C30D BD6D477C BD2E06BE 3CEF9AC3 3E0C0CE9 3C8891D5 BD4009DB 3C5B5591 3CF0CF0B 39424B36 BE124BBA 3D623DAD BCC39332 3DDF63C3 BD497BAA 3CA38002 BDB7BAAA 3D1A624C 3D34FF36 BC08B093 BDA9FAE8 BE158CD2 BC72B0F8 3C834CF1 3DA76E10 BE4F5D79 3D2E8767 BD859CEB BD98B4F5 BD5743B4 3BAEDBE1 BD7985C8 BD1A3CC2 BCD62571 BD2DC444 3D5E846A 3D0DF6CE 3DECB296 3C91CCB1 3CA78657 3ADD03D2 3CF10CE8 BDAAFB56 BD72FA5E BC87E9D9 BDC646D6 BE0647BB BE1B1E5C BE0FBE77 BE0F9097 3D9CFB5B 3D891BE0 BE042C3D BE8433B5 3D2E1F48 3D97B75C 3D10ECB7 3CD6FA4D 3D347919 BA92507A BCB5540A BCD8680C BD8F9A4A BE061134 BE152FC2 3D80BA1F BD780601 BE0BFCA8 BDB3FE34 BCD59593 3CCAAD02 BD2C4E57 BDBDF267 BC2985A0 BE22339C 3DC9DB3E 3CAA4CDB 3C8B36CB BDD6B1A3 BD72047A BE0D0F62 BE144524 BE245F5B BBE3D1A1 BDAE6A77 3DB267EF BB3C169C BD05C73A 3B8A181C BDF4256C 3D194ADA 3E1152F4 BD9103FF BC21D2EE BCEE9DD8 BE14AE43 BC88A7A4 3D195897 BDDAB6D0 3CA05C61 3E1EDF61 3DC3A71F 3BE41A71 3DD18223 BDBACC34 3CA54F7B BD191560 BCC7B246 BD13906B 3B3DB04F BE417614 3DC73FAA BDA07F24 3CF74FF8 3C84DDB5 BDA5B028 BDD1A75D BDB896B5 3C8259AC BD828771 3D868B42 BD55CE84 BDAEBEED BD1B569E 3D03294A 3D06DBF2 BC9519D8 3D809A3F 3D8929D2 BC29478D 3D9124A8 BD98631E 3D622920 3DC06383 3DC0819B BE234B0E BD1FD588 3D85AC1F BE13DE1E 3DEA619E 3A78B3ED BDF3F423 BD9D4555 BB206ECB BC5DB5BE BE112557 BB7C6292 BDE5186E BD8BF32B BE094BBE BDADACFC 3D52452C BD84F2A1 BDFC8191 BDA5F197 BCF87161 BCAB6DD7 BC016256 BD1AACF5 3DDA5658 3D5B96E5 3D930BAB BD699F86 3D6826AB 3DB9C836 3DBB971A 3CD61799 3D8241C4 3DD2DF50 BCCEEC97 BDBDE9B3 3DC15E1F 3DFD9D34 3E5535CA 3D425C81 3D79CE07 BDD9053A 3D7D9699 3CFE4C36 3D0153F3 BE308A26 BD659E8B 3D984C35 3DE0A17B BCFBDDFD BCF612E2 3C9ADB18 3DB658ED BD95F161 BE288C1E BDA41462 BD12A752 BD8599ED 3E0C0B9A BDDDE050 3D918281 BDD17508 BCB69D4B BE2E9292 BD2CE571 BD94AA6F BD1F9618 BD9D0A3F BD9A091E BC89A3B8 BDF12125 3D8DB984 BD002158 BD27BB9B 3DAF4682 BC905AC1 3DAEFF0C BD3B93BF BDA38B98 BC501557 BC829D9F 3D913412 3CEFECF8 3D2ED3A3 BD3381F3 3D84B076 BDA6EC40 3DCD41B7 BE180D80 3CB31CC3 3DDCD35B BC1569CA 3D7EAEFD BD8FF7ED BD945A7B BD28E1F1 BD871C03 BB6697FA BD72A76D BDB2E01A BC19BE0C BCBC63C9 BD4C1A55 BC6BED24 BC05A73F BDC0407D BD2E2E46 BD82E3C5 BE16F21F BD48DC62 BE3FA440 3D9ACEEE 3C298EDA BC55B5AA 3D2D2913 3D5C641A BD73DE39 3CF271D8 BC624357 3B7E2F9B 3C934084 BD21BE46 BBE7EBE2 3D9C8A0F BD8634C0 3D08C9EE 3DB1FCB7 BD506085 3D876A9B BDB3B7BD 3C298F46 3D1BF8EF 3E001E26 BD678408 3D8AC8CC 3C2D24FC BCC783ED BD3CDD36 BCBB7A2A BD8A2A91 BE04AF4F 3DF64AE0 3C9FE975 BC8C4121 BD844178 3D00709E 3E3C52E7 BC342B81 BD511F42 BDDD1138 3D34DC30 3C1A63B9 BD380CEC BC371759 BCD20F2C BE3E132B BD2D30D6 3D5E925D 3CCE7833 3CF7CB48 BDA41589 3D79AC29 3CAB5F5F BD7A3C57 BB32A2D5 BCA613C6 3D85425F BE135EB7 BD2ED27B 3C7F5CD7 BDEB4741 BBE815E9 3B8D7DED 3BB8A929 3D150764 3E2E6080 3E07D8CF 3D23661C BCB35598 BD9A880C 3DC38D6E BDC9DE7E BDF30271 3D830C3F 3C3A6A5F BDAC4CB7 3BABA6B7 3CADA2D0 3D5604BA BDCA196C BE02F017 3C7CB7E2 3BFD1123 BD0EBBD5 BDD8AFC4 3D61F172 3D814651 3CDA55B7 BD9B0193 BD92FA00 BDDDC26E BD0F59DA BCE6DA95 BD728F19 3D917904 BCDBC4ED BC6C303F 3DA136DA BD1A0AD9 3DEA36A0 3E0841EE BD9FF40C BD042D06 BD2AA144 3C378177 3D87B1DB BD942E63 BD5D08F0 BDF29889 BE592A30 BE050269 3C9D55B1 3DA14FC1 3C0B593A BDE12620 3CB3DBD0 3D8BD076 3D0ACFD2 BD52AA77 BDD7D285 BDA5F20F 3D9F2CF9 BE0677B4 3D130B0A BCAFE719 BD3AF809 BC27F512 3D01BFA3 BD85D5C0 3CD08B68 BC4EA514 3D5F4F36 3D83F0F1 3CBB1367 3C1ED96A BDED7BEA BD99F765 3C2C4213 BB8824BD 3C96D7E9 3CEEF1BB BDEFA2F0 3D96D4D1 BD95B72F BDA58FF7 3D5C5C57 3C75E12E BDBDA357 BDF8F9B1 3D5D026F BDB8BF14 BDCFC3F8 BD3CED77 3D53EC2B 3D75072E 3D42A32E 3DB7CC98 BDBBCDC9 3D5BC6D0 3C4E4141 3D419E81 BD920BEC BD687295 3BA5C247 BDA103AE BDD07747 3D890265 BCC5C1AB 3DA7A835 BDBC8712 BD659AFA 3D1E6596 BC8B025D BDBB6318 BE108DD2 BDCB7854 BC732816 BD818457 BD67710E BDF24D0A 3D025362 3D489F41 3DBD1691 3D0A0232 BDD7D285 BDB76A9B BDBC20F0 BDF53D64 BBB15DF1 BDE897EA 3D034381 3D5CB2F4 3D1D3580 BD3589BA 3BED5AB7 BD46F496 3E101FFB BD7CBCB4 BD8507CF BD272E0D BD830FA7 3DB2481C 3DF75D14 BE1AF428 3D04B069 BDA1CAE9 BD52F647 BCAF95BA BD8B9941 BE0C6B05 BC14EA93 3DBB9C23 3DB66758 BC3F61AA BCA486FE BDD321E6 BD76B0CC 3C873F8F BCC6E420 BE0F66A5 3C7D70DA BDB0EEF8 BD214941 BDF121AB BDCF00EF BD1C6BDC BD68C826 BD969439 BD2305BF BDD295EA BD1D517F BD0B60A1 BD62D9B4 3C82DB7D BD760129 3CB3B1DE BD317A10 3D9EC8C8 BD602E3E 3D35F0CD 3D280FB4 BDD70718 BD471B2D 3D7AFF95 BC64388F BE19FE00 BDDD5A9F 3DC37B07 3C4E647D 3CBADDED BD7CDC29 BD41F263 3DC71FD7 3D39E980 BDC120D5 BD79776B BD0B1E41 BD42FDE1 BE135EFA 