BE073B43 BD82F0AB BDD26E98 3DF33CA3 BE343394 3E02CF10 BE225AAB 3DF13837 BD330688 3D9C859A BCE0762D BD811CD8 BE20F239 3D91D38F 3DD64170 3DDE8E61 BE2FD157 BDF810E9 3D8B0128 3AA2923C BD0B2AD6 3DD85943 BDFCB253 3CF1F510 BD3C867E BE22A0A9 BD915BF8 BD374D09 BE244FA0 3CCD41D2 BE0AFE61 3DA3F05D BDEDF612 3D922376 BE22AF9B BD9F80B4 BD8C17C3 3DE7C17B 3CE014DE 3DDB213E 3CF51373 3DDC193B BD16AB8E BD55B69B 3DD0B0F2 BC928B53 3E291AB9 BDEC0BDD BCDD1C05 BE2F06B3 BE19F16B 3CAF08CC BD95CE69 3D80D365 BD2F9717 BDC7621C BD8FF101 3D412BFF 3DAA2BEE BDCA6620 BE005F29 3CC4EFF4 BDC210A4 3E0CC78F 3E180E06 3DF972CD BB1D6A34 BD29473C BDC2A412 BDADAA0D 3E000A39 3DB2AC4D BE0AF20F BDCB1898 BCA43E6E BD720104 3E0DE2EF BDED1AEB BCEB0384 BE13F1C7 3DB8221B 3D56A685 3E6B738E BE297BB7 3DC42162 BE017870 BDDC9603 BC672614 3E37FBF0 BD2E6A91 BD9BBD2B 3D9AC2A9 3B2C8605 3DC4752A BD4FFE7B BCB48EB3 BDB45B29 BD000665 BDEE874D 3DE784A9 BE1DF938 BDD19696 BE120D99 BD686884 3D5A2977 BE095076 BE91A62F 3DF12E41 BC0443FD BE05692B 3D813CEF BB724C8E 3D4A285D 3DC76816 BE4C8A7A 3B0FD5A1 3E2C300A 3DF5475A BD104CB4 3E043AA8 BE617B53 3DB59BA8 3DFDADFB 3CE36A68 BD4977FE BDC901B7 BD658347 BD66F877 BCEDE622 BE0AEA74 3DF3CEEA 3E283BA3 BC1F19D6 BE02EC29 BDC08879 3C263AFD 3DC9B182 BD8E5406 BC6326AB 3D27E09F 3E3D0636 3DBBC49C 3B9F6271 3DB111E3 BC8F3B72 BE4E0C9E 3E0CB1CD 3D99A4AA BC7FFC3A BBBF4109 BD17EC1A BDAE31CA BD12BDF8 3C651ED3 3DCEB1C4 BD752C32 BE19E3C9 BE02FC26 BE0E336A 3D565145 BDE56EF0 3DB74B9E BDCD373B BE0E0E30 BE33415B BDE8BDA9 BB6D0958 3D57A787 BD9A4BB3 BDC86E8C BD84BC85 3DA042A3 BD007E75 BDE02AFE BC49A5D1 BE47AE58 3D8F7C17 3E167382 BDB5F5F1 BD857166 BE04944F 3D3149BA BD82AD67 BDFFD502 BC9DBB67 BDBB1019 3DA43B06 3D0E99C1 BD486163 3DDB7176 BDF6FEB5 3DC28848 BCD2E43E 3E42D16C 3CAB0D5F 3E3350D3 3D6CCD53 3DEBC05D 3E10BD45 3D97B147 3D164E56 BDBA86A1 BE2419A0 3E228B6E BD82FF81 BDF0F94D BCED76FC 3E1B866E BE4DA986 3E2059A7 3D28675D BD879208 3E1A2403 3D601EB9 3CB62662 3CB74EB6 BCE6F0D0 3CE4DD65 3D57E39C 3C0432AA BD701770 BBCE197E 3DFB4BB6 BD707025 3E53B2DD 3DA7FDB8 3DD4FCE7 3C11EEA0 BC3ED1CD BCDDA5CE 3CCA2FCF 3C9C7369 BD8224FB BC57FEC5 3DFD712A 3DCA2B0A 3E3CE5B4 BCC8CFE8 BDB55722 BCBCAA76 BE0C92DE BE1F60E1 BCEC29BF 3E0CC20D 3DA9C37E 3D00E695 3D9F6FC5 3E07E34C 3CBE1E7E BDE204F3 BB5C908F BDFF45E1 3D845656 BDA2C69F BDF1BE6E 3E2AB14F 3DAEEC6F BAD1ED73 3D01385F 3DE6A769 BDA481F5 BC2885C6 3DE135DB 3E364734 3E2F9229 3CA3076C 3D8D8D0E BCE11D1C 3D95CE0B 3D7691DD 3D1F26A1 3DA9557F BE153D64 3E209CC3 3D7EC969 3E28B47C BDC563FA 3DAB3878 BCEB2406 3DDF4906 BE326289 3DF0AEDA BD9834ED BC9C7516 BD996CC6 BCAF9732 BD22179D 3E06F71A 3E38216C BD670528 3D163F57 3CB87A2F 3C68ED29 BCE70924 3DE97D07 BDAA8D4A 3E0B1E9F BE0D68C7 BCA540CC BD816D02 3DB3C006 3E514877 3E0E7C4A 3D5CAA0A 3D695ABD 3D2339A6 3E38EFBB BD3B3779 BDBD5E22 3C79AFEF BDD306A3 3D821BC1 BD985F57 3D82F754 BD45332B 3DEC7B03 3D51A544 3E173216 3DE7A850 3BC5CB3B 3D8F3BB5 BCA05723 3E1CAC8E 3D89E6D4 3D248E1F 3D52986E 3E43CD9A 3D5A1CAC BCC5CA44 BE3CC9A7 3D950580 3CB6EA78 3E25FEDA BDBE8C05 BDE9E2BD 3BA7F780 3C54B63B BD1802C1 BCEFCC76 BCEB44F2 3D9A00F0 BE0236C1 3E368BA0 BCC2B22C BDE4A59C BD8FAEBC 3E51D430 3A6C75CE 3E33571D BB796BBC 3E17A4E8 3D89B3EB 3E3F709B BDF70585 BD9291E0 BD981AB6 3E1470A8 3DDC03BC 3D190067 3DDA9DA6 3D802752 3E03A323 BE316590 3DB995D3 BDB3132A 3DA28233 3D535A6B 3DD6FE2E 3CC9D643 BE4702A3 BE340421 BDBA33CB BDE764AE 3E5C55C9 BDECFB76 BE1D9D34 BE2DCC21 3D3A1A28 3E5CC6C5 3DE4D120 BE42717A BE016441 3C778430 3D4AEA24 3E145CBC BD1C8CE4 BE4A7115 BDB9D112 3DC66C10 3C318472 BDBABFBA 3DB70146 BE51A976 BC31267E 3CF449B4 3D976BA7 3D9BCD86 3E38A2EC BB308F7F 3DBA5D87 BDEBFEC1 BE25F0F6 BC7A6B6C 3E46C7A8 3D9ED1BF 3D40FA4C 3C90C43E 3DF4BF90 3DF692B4 3D88944B 3D90ECFA BC5A1EC5 3CFD49D8 3D292A9C 3D807025 3D16B8C4 BB7566F5 BE357860 3DAC0B7F BE7FCC5C 3E3131A9 3DE4C7B0 3DA52C75 3D977708 BDE80496 BE5CD9A5 3DCBC390 3B594B60 3D547E8D BDDEE350 3DCBD33D BDD1AC15 3E130FD0 3C873549 3E2C8F32 3BD594F2 BC286438 BE58A86D 3D4734A8 3D9D7F45 3E223CC9 BE1BA16E BCBFAD5F BE88507A BCDAE70C 3D72E2C6 BDEDC65C 3C4E91C9 BD86D996 BE21F70E 