3D763257 BDD461B7 3D0947A7 3E223748 BD8AF46B 3D6A1F23 3DE05A2D BD705949 3D119950 3D0D50D1 3D459642 BC5D447F BC8F8071 BD9019BE 3D7B70EF 3D84901D 39B899EE BC1EA3DA BE2FDB0A BDA49BB3 BD35F5A0 BCCE3A55 BD959A31 BD9CE8E7 3D30034E 3B3FC3FB 3C6D12BD 3D8B46E3 3C85B5ED BE1D655E 3BB400E3 BD87D524 BCB08752 BDEB484D 3D6B000E 3D9B0659 BD8ABA46 BC7B58D1 3D94F1BC 3D5E9659 BD6B30B6 3D48720F BE43D0C0 3C005F0B 3D546AD6 BD2D86B6 3CD0AA3C 3D36A147 3E09A522 BDB49731 3D1C711A BDA94848 BDA32D7C BCFA3F61 BDDBB949 3D095315 BD0D1D1F 3DD1F794 BD7A6613 3E080CFA 3CDFE436 3D275C80 BC42070C BC66673D BC8838B4 3B6FDA18 BE53EB7D 3E33E532 BDBCD30A BD0D60F7 BD30EC82 BB2ADFE8 BD906035 3CA09D9A BC308AE2 3D3A9B57 BD02BBB7 3D3865A2 3E013986 3D3B0F50 3DD53501 BD784DD5 BCFEDB73 3C32C9EC BDA50AB1 3B9B8ED2 BE25AA71 BD8EE4AD BDF9D777 3E0B024F 3DB511D3 BDB7F639 BC9B0758 BE068273 3D999590 3D6534D8 3DBA3E70 BDD95C42 39874026 3E0B3E57 BC58C9C6 3B9F132B 3D2D736B 3DAC7178 BB96AAD2 BCB810E9 BCF16EA2 BCEC01B1 BAD62942 BE00285F BCCFC357 3D595480 3DB38D53 BC4EB936 BD67753F BE07F8CB 3C8DFEC6 3D54FBC0 3DB8B6D8 BE470260 3D20DABC BBAB3E72 3B268895 3D9C64C8 BD89E5E2 BD7ECCFA 3D08BF21 BCC2359A 3CBDD228 BD557F3E 3CE79DD4 3DD276FB BE19AB6D 3DB1E604 3DAE1D72 3E4CCAB4 3DAF6E5A 3E1B8A5D 3DEC4E72 BE07A41E BC760179 BDD10236 3D01A247 3C522A6F BC2C6915 BDF2A498 3DBDE9E8 3AC42A92 BCFBB293 BD2EAB29 BDE8A47F 3D8A7A78 BBC3F93F 3DC5DB5C 3D5599C5 BD95F967 3C929315 3D8E0115 3DCF11B6 3C91F0C3 3D440563 3D15F718 BE334CE4 3E5C319C BC6366D8 BACE0384 3D0F47EC BE3B955F BDF5D9A1 3DE3D70A BD18FC00 BC86F9EF 3D8D0496 BC350AA4 3E3E22E6 3D8B440E 3E2B9CB7 BDB09CF9 BE40EB25 BE28EB03 3C978375 3C1937B4 3CF216D4 3D5CCFE5 BE5B4246 3D3A48D1 3DB99B2C BD66F27D BD972863 3DC695A3 BB6BC0D9 3CA49C97 BD456804 BD876039 3D30498F 3DECD0FF BDCB42E7 3E02EE85 BCE25DC3 BD53EF36 3D4FBDC8 3D3658ED 3DFB024F BC7F21B4 3DA14CA9 BD78C26F 3D4366BD 3D95B028 3E0BBB1F 3CDCA22D BDDB9F12 BDF2D4D4 BD3E2E54 3DB46845 3D63D0F5 BE181BA8 3D2BA65C BCCF2F12 BCD9FA47 3CCFC280 BD99B19D BC89CFF8 3C63B547 3D84F101 BE0EC8D6 3C2061B5 BDF4EDB3 BD82EF0B BD2361CF BD27008A 3DD00714 3DF5842B 3DD92642 3CC2A561 3D152561 BD68FC79 BDAD637B BE0AF2D8 BDCA5E86 3D26BF1C 3DB44D87 BD87C907 3B031823 3E05479D BD7EC299 BDA739B0 BD38E58F BDC5BBF4 BDAF20DD 3D2413F6 3D268CAC 3BEB2491 BDDE492C 3DACA270 3DDC4A84 BD335181 BDFB4678 3E0E53A8 BDC62F8F 3DABF07F 3E00FFDA BD8823FE 3D19934F 3D0543D7 3E1CA793 BD52D10E BD3216D4 BD67B2B2 BDCD538B BD9EE7B7 3D741596 3D8F53FB 3CF8FEBA 3A1DCCFC BD5092C0 BDBFC570 BC86CB2B BDEE032E 3DB00F27 3E0E807C BDA102CA 3D3DB065 3D1CC5EF 3D86FB9D BDA49632 3C1FC872 3D5F82CD 3DC3C925 BDC06706 3D6398A6 BC8BC093 BCE6CAA5 BCDF7363 3D8BFD64 BC8A7539 BC80A541 3DECDEA0 3D077B6F BDA4CEB7 BDC87B3C 3DF2E05D BE7594AF BD968951 3E1ECF20 3D2240B8 3D8ABE27 3C7538FD 3D412DAD BD186A0A 3E0362E9 BDA42155 BD83F2D4 3CC9F6C4 3DC07040 BC5081F9 3CE49724 BD340A5E 3DBF2636 BD833E43 3D96D747 3D840853 3E186402 BCE3AA29 BCB30C67 3E1A28FE 3DE36F3B 3892A53C 3C6A2CC5 BD18E5E0 3DCF8F04 3DD28955 3D79ACCA 3D0F12C2 3D3A4BDC BCF5257C 3D906A89 3DCDCCA7 BE1209EE BB3DDC9A 3DEDDBDB 3D6A8C66 3CDAFEBF BCD30B0A 3D9632F8 3C191D88 3DC1769B 3DE2BA5A BE1AD18D BD971D02 3DDFDCDF 3D9C8BFF 3CFC8CE4 3D7FD51D 3E272713 BDAEE7B7 3DE7A8D6 3DCA1DD3 BE0AF31B 3DA7ED85 BDFFC5CE BDD14B16 3BC0ED5B 3D6B9976 3C7EE0B1 BD914E49 BE2EA9E7 BDCC7036 3E13A9F4 3E1E2C99 BDE299D9 BD09325E BD315C7F BCB1CC2B BD2764C9 3D10C0AD 3D91EB27 BC8A2AC6 BD92F703 3C85209C 3CE2CAD0 3CB1CD37 3E6B7D41 3D243442 BDAC3D76 3C36163D BD57BD71 BC9A0E69 BD0FE02D 3E0EE393 BD055EFF BD9BAD70 3D691461 3D318365 3DC24D5A BDAED8E1 BBC8F801 BD2DE043 BD543C63 BCA74C0A 3DF5C6C1 3C18073E BDD208E1 BCEDE947 3E064BEC BDDECAAC 3DDD3997 3AA55EF5 3D54794F BD0711F2 BBE60949 3D0D1450 BD8FE4A2 3D50D91C BD38C0DC 3C9E92FE 3DDCD0BB BDBD99BF 3E25247D BD52B9AC 3BE2343D 3D0AE6FF BD0DF018 3E0B441C BDE72EAE BC0C6F2F 3E21611C BD984076 BBB1BD27 3D3BFD21 3D17C88E 3CB18365 3D7BEB69 BDC46E31 BDBFF4FD BD8AFB21 3E325BFB 3DF380CB 39760E42 3DB39475 3DE5AF6C 3DA1BCCE 3D968BAD BD72626E BDC5EBD2 3D86ADEA 3DBD4322 BDBC197E BD8E1255 BCFE28FB 3DA52D81 BD9D6BA9 BDCCD5B7 3DBC5594 BD5F19F1 BDA1084B BE670EF5 3D51C681 BD8774EF BD77BDC2 3D059B15 BE179E17 BD9E7056 BDB6EAFE 3DD12232 3DE82060 BC0391D0 BDAC2D6B 3E5C1DF3 3DABACF7 3E27BBB6 3D882A49 BC5E6794 BD4D7CF6 3A36489E 3C00ED10 BDBCBA23 3CD43E10 3E3FEF7C BC8738A4 3C107833 3E326E54 3C12389C BE30D5A6 3DC23B51 BD339A61 3D574546 3E152008 3D9F6F74 3C6AA44E BE4FC8B0 BE0BA494 BDAC7F42 3D87BE63 BE04A7B5 BB121B76 3C0F5D8B 3D452935 3DBB3743 BE28AF81 BE5F6CF0 BC8ABE35 BDFFD7A1 BE251EB8 BD9C278B BD8C2DF1 BE49B49A BD86D712 3D87FBAD BB688FCC BE350A03 BDA85F72 BD81BF1D 3DDF58C1 BD29D968 BB522ADB 3E176C8B BD9AFB64 3E0AE968 BD11947D 3D34C9D6 BDE40421 3AE1495C 3D00A1CC 3CC4FD60 3DF4A7F8 3C714E21 BD309E63 BDDC9A35 3CF15C64 BD9DB27E 3D6F97EE 3D34FD88 BC13ABC4 BD56C1C9 3C6096AE 3C9C90FB BD581388 BCCC3DFC 3CDE1CEC 3C958C8F 3DA66B04 3DF574F7 3D3E5952 3D9E68FF BD0D4471 BCE1F0B6 BC9BC9C0 3E4BE597 BE048733 BC2BA2B1 3E0BD902 3D5EDDA6 BE345AA3 BD5CF38B BE3034F4 BD448261 BD5C19F7 BD4C6BB4 3CB302F7 BD3B001C 3D7014B6 3DA2AE58 BD48EE6C BDA2AC68 BDA0D6B2 3D230701 3DA7D483 3DC0A3A1 BBB0F845 BB96AB7E 3E1C1377 3E10F5A1 BBA278FC BDF0EA18 BD63547E 3D12B071 3DF525CC BD8BC9F6 BE74DC23 3D036A83 BDFE69AD 3E195A6C 3C8EEB55 BE37381D 3D2E44D2 BDB9AB7A BE0CF56F BDF8D046 3DD9BF59 BE6E3EAF 3D14AB02 3DC147AE 3D038632 3D2D99CC BEAC4263 BE3A493D 3D97AD30 BCDEAE0B 3C846413 BD64DE71 3D5CB197 BE9506DD BDC0338A BD2344F9 BDE0E0EB BDE8A04D BDCF6838 3D7124D1 BD42319E 3CA45839 3BF9B2F4 3D84F715 BDA496C6 BD6E0130 3CB9F69C BD464FDB 3D28477D BE11BF7B 3D0F515C BE052935 3DD5F245 BD9DF15A BD86D041 BE03A9B0 BDA6729E BDEC93A7 3D9FC87A 3D602BBA BD48299A BD308E58 BDA95EEF BCE2618A 3D85DC0A 3D3D2235 BCD21F88 3D423A6D BD663FB5 3DE285EC 3DC18D5C 3D8BBAB4 BE136CDF BC4DE6A8 BD984315 3E4E2974 BE0BF76A 3CE185F7 3C4F34F1 3C0D4D9B BE84BBA1 3D6BDE75 BD0467BE BDDA5094 3DA7E9B1 BD7D9EFD 3DF92EA5 BD8D8EA1 BD42769D 3DAEF8DC 3C7078A3 BD739417 3D4789CD BD818B86 3D877FFF 3E520360 3D50FD63 BC8F326D 3DB4E238 BD3876D4 3D4D779D BD8D199C 3D04C66E BD520891 3E2F4E01 3DC3F01A BE08E7DE BCAB1847 BCD9A812 3E1D2A63 3D39A5C3 BE49EF95 3ABB575A BE28DF7A 3C984BF1 BE053006 3D983F6A BDC407F5 BDEDA448 3DCC1A7D 3E13953E 3C1FD121 BE93A754 BD406672 3D4B8E08 3D630C8F 3C122B06 3DB7B1DB BD72CDB3 BDF45AE6 BDA56CAE 3E0A5615 3BEC6874 3D303D9B 3C7D566D 3DF4D728 3C835CAC 3CD5E438 3D3E6850 3D0C3BC8 3DDAB085 3D6F718D 3DD6F199 3D0E8E6E 3D1B4FE8 BC59FF50 3D76D381 BDE10F95 3D38CA67 BD9D28DD BD8FC09D BD326726 BD478E9F BE38A04D 3CAEBE24 BD678FC7 3CAF1851 BD8F5F0B BD94A20B 3CB191DE 3DC86778 3CED736B BCAEE053 BC63AC0C BC92F464 3DC628D9 3DD35009 BD9D7F2A 3D83F43E 3C479D4E BDF93815 3D5F3768 BC261898 3DAE5B78 BD02532C 3C6AD348 BDC7B2E7 3CD6C468 3BEE7E78 BDADE706 BD86DEE2 BDABF792 BCDF4FBC BD5691C2 3CF5019F BD62D54D BCC99037 BCBFD31F 3E1CE209 3D648388 3D3ACEEE 3E2F3238 3D2CBE54 BDB2B9B9 3D80FCB5 3E0242D0 3CF2E169 3D2BAF2B BD3603AD 3D8C6102 3D4ADA34 BD0194C0 BD86B0D9 3DB0A79D BD70178A BC4F9A72 3D287F2B BCC3ACC8 BDC28714 BC50A244 BD2447A8 BE2CA8E3 3D6C4015 BDD5BA2C BD2D3E42 3CD3DC56 3E104791 3D9354DC BE653E2D BE131013 BDEE325D 3D2A69E6 3E446801 BDDAFAF8 BC5ECB67 BE2E82D8 BDAB2A00 3DCF3B21 3D67EBD7 3DABF76A BC9A8120 3E275AFB BC3BCAB1 3DC6DFB8 3DAF2D3C 3CD8F5D0 BC842818 3D55088B 3AE9005F BD797247 BC6A8687 BDF8ED1C 3D80C7DC 3BFA6AAA 3D7DB76B BD0CF2C2 3D0A8F55 3E04BDFD BC1BFA5C BDC82350 3DD9A283 3E086D2F 3DAD78A9 3CC65FCB BD44B5DD BD2FA9C1 3D224E09 3DBC5EDB 3C3F9039 BDAE0FD0 3D611C95 3D2A6A87 BD846979 BA0A5243 BD6E915E BBEEE44F BD2CD2E2 3DFD65A1 3E2CA106 3D9A9718 BCE6CC52 3D8B5B48 BE074363 3E2A87A0 BC673380 BD5CB2D9 BDCF0A5F BDDD3911 3CBA8247 3E2B1359 3DA8C884 3BA7B1CB BCBC9A50 3D9ECD08 3E15BCCB 3D8AD058 BDDC475E 3D9D7D2C BC9471DD BD4F2A90 3E0606B8 BBFB6F0C 3D5FD893 3D882CDA 3CFE3A99 3D488DBE 3D50E32D BD95B4FB BD464544 BE3048E0 BDBB90A8 BC25CE5B 3D3006A9 3CD43973 BC4F1A1A BE1FF541 BD2668EB BB9261ED BD8D618A BD2184D0 BB2F40F6 3E21526E 3BB32DEA 3CBE3377 3C7E4F26 BCF970CF BE5B2A6B 3DDFA4C6 3D9D41ED BAB751E6 3C633772 BDEA4C1F 3C3C2ABE 3D967D42 BD8ED6A0 3E374EA9 BD53CE99 3DD97AAB 3DAF3CB4 3D991398 BDACEE5B BDAAC42F 3E746067 3D47DFE3 BC0C74C3 BDADB984 BD1A2BFB BBB923CE BCF5B9C1 3E1A2403 B9A304DB BDB5907E 3C9E6B25 3CAB07EC 3D1D87B5 BD2F08B1 3DF1FF71 3C532FBD 3E2698FE 3C4DA829 BD8AFD54 3D3615D1 BD6DAAFE 3DCE53EB 3DC29323 BCC4534C 3D8265FE BC844285 3DB88BE8 BDAA5E0D 3E1D4E09 3DA4C71D BDFA9110 BC738BE9 3DA214FE 3CAFC123 3E179A6B BCD6D381 BE16FF7E BD29DA8F 3D601AD8 BD48A2B6 BE0EFD00 BCDC0300 BE086B9C 3D9F0091 3E13ED0F 3B974A09 3E1A708F 3DD0563F 3E0B2C41 3CCF9859 BD3269C5 BD30DA79 BD480F63 BD999525 BC14308F 3D5F5E34 3E32ABAC 3DD5AC04 BC32477B BDA1C64C BDED7BEA 3E176EE7 3B6F3F13 BDB58652 BC8655BA 3DA64204 BD1B4B4B BAFF6EE1 BD5A1D17 BC6000F2 BE881238 BCB1FEEB BDF41BFC BD1A1DB8 BE3103C9 BD14BCF1 BDAEF871 3D684330 3CE5B383 BE04A904 BD9635DA BDBD1FA3 BD545126 BC02763C BDE3D70A BDEBE37E BDEB5C3A BD42FE67 BE33C255 BE301FFB 3B844CAB 3D25D4DC 3D83A308 3C972622 3DD35DAB 3D31FD3E BDA45699 BC662AD7 BDDD7A9A BDCD9C6B BCE6A47A BD9372D9 BBF90E74 BE0F7447 BD57E092 BBDEBAE1 BDD24074 BDDBA344 3D7BBD45 3CF5C330 3B41A653 BDBF776C 3DE7DD44 BDB32CF6 3D2E0928 3D19DBC4 3DE9C66D BDE88A48 BD1BD2FA BCB5D788 3D96A40E 3D559BDE 3D6834B8 BC24ADCA 3D84BDC7 BCF2B310 3CFE77D5 3E3C59FB BE34D76B 3DA4F609 3D96995C 3D9E08CA BE7A94FF 3DDF6901 BCC2EF69 3DE2E33F BDF6616B BE164303 BBD2B79D 3DCEDA23 3D678E6A 3E21F70E BD3344EC BE114984 BE3424E6 3DEBA9D2 BE387DF6 BE0300DE 3D61D507 BD6CC286 3D559437 3CFDE0A1 BDD3C3E7 BE20D23D BDC2D9A7 BCA12E4E BCA7CE45 3E06E0D2 BDBF4D96 BDA6A50D BD2F524E 3D0013B7 3D9E582A BD85F20F BE957647 3CC0247E BDCBCB7B BAB04E67 BE69756D BDA1C89A BDC0256F BE14AB60 3D2F6223 3E129DC7 BDA79BE3 BD3BE1C3 3DE94D51 BDB3E2F1 BB89CE8B 3E13B14B BE0B7DC8 BC84F319 BE0C054F 3BB0AC70 BE5C868C BB7E2991 3C6BB2D7 BCC3EC53 3C0C2486 3DA3B844 BDA52795 3D0FDF21 BC371DA3 BDB3E20D BDDCCC03 BE26D43D 3DB38101 BD618AE5 BDA6DF75 BE035009 3D0B7AF3 BE2F8E7E BE0ABEAD BC8B5533 3DEFD114 3D835E24 3D46D38F 3D6A7FB6 3CB824D5 BD1ABC29 BDA6AA66 BD4C386D 3D87E62E BD10FC72 3D6FF724 3D270F03 3D83146D 3DABC4FA 3DA2FF31 3D5DF183 395A1286 3DE708EE 3CB01FB8 3D93A861 BD59D2A4 3DD4F93C BDA244B4 BD80F02D BE55E84F 3C5F0041 3CF36FCF B89A30D8 BD5052C9 BDFA6B51 BD2A46E1 3C833219 3E0FC505 BCA02B19 3DD274E2 BE17739F 3B46C6CE 3D91F27E BE16D00B BE15CE5B 3E07A41E BDB7CEF4 3D964983 3CA06A03 3D37A1F8 BDDB8130 BE38E9F7 3D381CA7 3D9BAB9A 3DCC779A BE5E96C4 3D0B7AD8 BD443C70 3D849EA3 3CE299BE 3CD27CA5 BE0630EC BD2CC9F8 BE11AB8F BD9C8605 BC0377EF BD40B9EA 3C4611C8 BE040E5A 3D809A75 3DE12839 3CAF9C3A BDAD6A8F 3E1BB1AF BC7578BE 3D92FC69 3D4832D4 BE731594 BDBC0831 BDD9CE8E BD11278B BDAFBA45 BD25F238 3D1DB171 BDF9C8C9 BD8EC057 3CA8349D 3C7914BF BDB0E75E 3DACDBE6 3DC8D859 BE25BD51 BDC5A3D6 BD8E8295 BC986049 BDAAEA24 BD5AABE8 3D237062 BE26B50B BD5AA5B9 BD8A643D 3DF21816 BE09289E 3DA903A7 BD88442F BD8430BF 3D422955 BD664DDD BDBEECDB BD6CCDBE BC94979C BD848593 BB3AD2CF 3C518C4F 3DA77FF1 3DAF9DDA 3B0BEBDC BDA6DFE1 3DC03F12 BD3A48EC BB970CE2 BD6F010A BD958CDF BE02FB1A BD80F3B0 BDCB2E3F 3D826004 3DF8F9B1 3D8BD810 BE0B0B39 BE209F1F BE470B07 BD6F7B4D 3DABEDFA 3DAF5D0D 3D552348 BDE174C5 3E30941D 3CAD8FBB BDD478C8 BE3D25AB 3D4A3A66 3D052FB5 3DA37578 3D21A297 BCD3A4F8 BCD49A8C BC46C912 BDA18506 BD6F5A46 3D4697AF BE1913A5 BDBBC467 BDE391D5 BDD7EBAF BD91DA53 3DC4D5E5 BE0F5A96 BDA8DDF5 BE088F86 BD123D85 BE0B078E BBB075D4 BC80A8D2 BDBAE2CD BD98C7E3 3D3358D8 BE0D78C4 BB82796C 3DCA99C4 3D7EECDB 3DCA8976 3D9827FA BE36EE74 BE6EFC37 3D17B401 3DDB3AEF 3D997CB6 3D79F920 3C58BFB5 BD387790 3CD5EAB8 3D15302E BDA10640 BE61D085 3CE8B2A7 BD880B24 BDE1437C BD5D2433 3D9000C9 3B7AEA6C BCAB4FDA BD424A78 BD44C130 3CAE7C80 3CD73AAF BC884472 3D109C4A 3C1B7587 3B270ECD BC8A9550 BD963B4E BDBECC09 BAE6D4B6 BD225347 BCFD02F5 3DE20AB7 BDDA7C18 3BA8C358 3DCCBA9B BD2CB139 3DA7FE3E BCDF0076 BD9FD842 3D8AEF12 3DE0C9DA 3D4619DB 3E02D9CF 39DA7C04 3DAD81C9 3D0EE342 BD9FD22D 3DD5831F 3E15CBBC 3A0EE492 BE28A86D BE781CF8 BE17B353 3DAC2D0D 3D829889 3CC17FC7 3D48AC5C 3C8CB443 3E62E6A7 3E141EDE 3C846CAC BD867459 BC133F02 BDA4A1C8 BD0463F8 3E13061C 3D8FFC3A BD1E1727 BDEBC0E4 3D89A367 BD381012 3D980969 BCF888DE BD9A168A BDB3CA9D 3DD816AD BD021E38 3D2D9A52 BDFE5FB7 BE00BE0E BE092BC3 3BA91750 BD3FDAC7 BC505A20 3C976867 3CBA3627 BDB54C7E BD4783ED BD4580F9 BD1A385B 3CA03743 3E1EE914 3E0B7308 3D82A305 BD5F64EA BE9149C7 BDC7A27E BC5807FF 3D8A5F27 3CE81883 3D31CEE5 3C066930 3E581062 BE22A7BD BDE3EE1C BD864112 BE0919F0 BD5C7384 BC8E20F5 3BA675A0 BD8FFB55 BE7595BC 3D189E77 3D8121D4 BDBA44FD 3D700028 3D604692 3E37E564 BD53F276 BD8239B1 3D0A59F6 3DB80C31 BD27C958 BD15E347 3D69BA94 3CD4D976 3D9667C3 3D8B6DF2 3DAEFEC9 BDF74B40 BDB226F9 BDE589AD BCD6A0C1 3D246951 BE19702E 3D38548B 3DA43295 3D076A72 3DDEF1FE BDEB9A9E 3D046987 3D277326 BE1DCC64 BD001C85 3C0BEFB8 3DA9D8E2 BE73048A BE407E5A BE53C57A BC52E2FC 3D855B39 BCE6EB92 3D8B7D6A 3DB20917 3D8EB90E 3D63C841 3B90375B BE007571 BCAA4B63 3D97AA5C 3D147B9D BD7D7F52 3C774D3E BCBF4052 3DAB0631 BE16DC1A BE073472 BCA3C71A BD120A23 BD6E0D74 BE048F11 3E281A58 3DF34E77 3BA72BD3 BDE05DD9 3E1932D7 3D1DA8F3 BDE16C61 BCA884B9 BDFBE3C1 BCEFBB44 3DBCF829 BE04ECEA 3E0ED677 3D3C3C41 BD745C28 BE4C026D 3DAD2D95 3D3442E3 3BD06E57 3C9CD233 3DCEBC41 3D7DFDAC BCA15A8E BE0FED63 BD9B7D0C BDC7D5FA 3D3D183F BDF374BC 3D9AAB8A 3D8D369A 3C9234EC BDB5E5B0 BBD72B75 3D0A9DB3 BD1B704E 3D12AEC4 3D2B5914 BC55E57A 3CEEFB2B BDD9FC2B BC3CC07B BDA59CB5 BD01CDE6 3DFF9BDC 3D4B3644 BCF688F3 BBD2610B 3DA0AC2D BCCFCD9E 3D0E5C84 BC0183EE 3DFDF00B BDC95513 BE3FF328 3CD547FB 3CA14A68 3A474B50 BD2D596A 3D65DE31 BCD31155 3E3A4A49 BB1E6530 BCCC88A4 BE47DC7B 3DBA4E45 BCF42D2E BD9CCF1B BE10EA9E 3DAE5DD4 3E61D218 BDC4984B 3D1F642E BE42BBAA BD9F12DD 3D87E97B BDD9A62F 3DE03687 BD7D3459 BD98576D BE047BAB BAE26CF2 3D245804 BDBBA8C6 3E42D6AA BDA7F2DE BD949FF2 3D6000A1 BE0476B0 3D90A973 BE39AD86 BDDC7582 BCCA3147 3DD78A2B 3DA5B91F 3CBE5D9E BD9057B7 3C0D8976 3DF3EA2D 3DCA5E78 BE418ACA 3D218A79 3CD37FA4 3D697F3A 3D1BCE0C BCD28C5F 3D240DE1 BD955FD6 3BBEC40B 3C75F3A2 3E53FB37 3C4DD576 BD8D6246 3E0D349C 3D6BF5F2 3DCF29D4 BD0366F2 BC6E44ED 3D5DF28F BD02BEC1 BDCEFED6 BDA59098 BD6DA47E 3D4FCF30 BE6F1844 3D0A8D72 BD3137E6 3C9B12E1 3B2C83AC BD3C8125 3C88B008 3C90BACE 3CEDBE14 3CB313BE 3CE565EB 3BCE3C0E BDDE12A5 BE2604E2 BD2551C9 BCDE2B2F 3DB0F917 BD1403DE 3AA49449 BDBA7EB7 3D1A2510 BD1FFD7C 3D81D5F9 3D3FD497 BC935C9E 3C27C393 BDA3B9D6 3CCE15D8 BCF4C13D 3CC3F87D 3D4CC98D 3D97244C BD9382F2 3DA6A95A 3DA3B3EA BCCB9FA6 BE2B224B BC5E8196 3D95832C BB790DC8 BC9A4FA2 3C4F0231 3E0BAF96 BCBD18FB 3C271151 BE8F314D BE013B5C 3D694E0D BE0AADA3 3D46EBE2 BD5F8CA8 BE1E5471 3B477B7F BDEAB0C9 BD25501C 3CACBE6F 3C9FF060 BDB8C104 BCA43AA8 BDA3259F 3D2DDD38 BBD7CE48 BDAAC810 3E0423D9 BBFC3BFB 3C9341FC 3DFEB9E5 BD9F9160 3B595F2C 3DE983D8 3DA516B3 395E01F6 3D93D153 BCC12D27 BD766E6C BD168116 3D87D0FF BBF7B85E 3DD60D02 3D835067 BD005377 3DA19C32 3E4E1199 BDDBBF94 3CE58743 3E40891A BDF5FDCE 3E003298 BD8481CD 3C0D778D BDA6F0B5 3D5E641F BDF0520D BCE94142 3CC0A5E2 BD36A452 BE632B56 BB65D587 BE00E454 3D671B48 3D972870 BD9C0684 BD5B5EE6 3E31BD1F BCC08E9B BDDE3758 BC42F471 BC119CA0 BDDB3398 3C5A37EF 3CB95C42 3D9A8778 BCFF4525 3DAF469D BDFE9318 3DB7FFDE 3D3B4BB6 3D214A4D BB35C31B 3DA32EBE 3D5E7D2E 3C478133 BE485CAB 3C6C4E72 BDDB16C2 3D2C3DC6 BD80672E BD7B677F BD874D3E BC5B3BFB 3D2B2548 BD32BBC4 3C751845 3C81C029 3DD4983D 3DE215BA 3E55AA2E BDE9424E 3E0C28F6 3D8AF06F 3E08FA37 BD19E010 BE58216C 3C09F313 BE00928A 3D442AED BE138088 BD95E8F0 3DEEA63B BE300F77 3DD42BB6 3D9DCFCC BD5F7795 3CEF45D3 3DB3C23A 3DAE444C BDCE3822 3C251C85 BE0213A1 BCDB4D63 BE19E55C 3D4F4B7D 3DE8DFBD BDE6BBDC 3DFF316E 3B0D599A BDA6BF44 3DDEC893 BD9DB6BD BD04A409 3D401ED4 3C7CA6AF BD30D82A 3CDE112D 3CF9BE32 BD62BDB5 BE0713F0 BD1F2F8B 3D2DEDE4 BDF3AABD 3E4C11A1 3E1F0132 3D6652B0 3D71C341 3CE539E1 BD9E671C BDB11FBB 3D17F3A7 3D3CDE93 BC554908 BC0C35AE BD581EC0 BCA605B9 BDBD44B4 BABDFA77 BCDDBA25 3D25E1A6 BC3F500D 3D95D2D0 3C9F7F21 BDA7452C B9978916 BBFDBAEC 3D7DCDF7 3DC7349A 3DC817B9 BD4C3F59 3D46E95E 3D865A57 3D595938 BC4B1BF3 3BC4DA50 BD94F609 BCA36ED0 3E0845DD 3D05BE86 BD0F36F0 3D95AB3B 3CFE1F55 BD4FD32C BC985BAC 3C351C41 BBE2488A BAB3994A BC946F8E 3CFE8FF3 3E448063 BBE60268 3CAD74AD BDB035F3 3DD15D70 3E362670 3D1A219A 3D22AE4B 3D41D862 3D85BC1C 3DE9A88B BDF30C67 BE3F69CB BC67381D BD12BF05 BD3CC385 BBB25B07 BD8E8FE6 3DDA9974 BE147CFA 3CFE7587 BD759451 BCF0AFCB BCAA8E13 3D3B71FC 3D79ABF3 BBEEED1E BCAD9D27 BD1C2D28 BDE805A3 3D2BC474 BD665B7F BBAB827A BDA09CDE 3E16559F 3D630249 BBDA6511 3DC45514 BBB22D4F BE0C0E7C 3D1BFCB6 3D295B43 3BEDA4DF 3DA012C5 3DC86DA8 BDEB9991 BDBCE117 BC897163 BD74207E BCAAF2BD 3DA67367 3E32F449 3DF3A14D BDD7D630 3DF8BB4D BE59FE43 BC56C142 3D7A5F42 3DCD6239 3DE81DC1 BD358B9D BE117050 3E1AF640 BCA4B699 BD540C77 BBB7DA21 3D79A126 BA20D508 BD57C36B BB0D23BF 3C9A26F3 BDDC46D8 BD832EE7 BD1504AA 3DF56E26 3DA85978 3DF084E8 3E21A21F BDD7BBF9 3D12DA2D BDEC3F3E 3D184480 BD548BA8 BE047065 3DD8B2EA BC2A4690 3D4FBC6B 3DD034B1 BD53ADC7 BD154F1D 3BF6F9B2 BD0CCEE6 3CDB17E9 BD6A4ADD 3C2DC74E 3D16BAF8 3E167A53 BE0346DC 3D3265E4 BD2A4BCE 3B63E13B 3DF738E7 3D975D8D 3CCAF30E B9D088F8 3DC10060 BDD2923E BD279BF1 BE307810 3C1C294C BD9D7478 BE13BD9D 389D165F BD173571 BDE62AA2 3CAACD69 BC80837E 3CEEE200 BD6A2D9B BCFC17DE 3C5D4FD2 3D103105 BE066F93 3E14C1A9 3D0F0704 BD05A8B6 BE30DF59 3D27F90E 3D13D1F4 3E242635 3C180A63 3DC45DD6 3CC3463B 3D3FF823 BDF47A5B BAB3D5B0 3CC67961 BD9D3CE5 BBCC74CE BD12BAD3 BDD7EC35 3D853B08 BE2D0E13 BD272E27 3C1A7B56 3E0FCD68 BDA9CAE2 BD922658 BD816C8A 3CAC7D01 3E45A7D2 3DA7D7DE 3E0B951C 3BC1382F BD6A0466 3D5ACC19 3CC00EAE 3D64D3F5 3B0038A0 BCC9BEC6 3CA21C8A 3E2293D1 3CCEBA43 3D83F0A0 3DC3FC44 BD560A13 BC814EB5 3E2D66F1 BAFB4FED BBF7A4E8 3D851B35 3D7F86FF 3E0A25D9 BCD33C1D BD17B203 3D94D61B BCDDDB48 BACDE2A1 3D5EE31A 3DB5CBE4 3D78C70C BD8EBCE2 BD9E96FA BD5C3F31 BE690ABB 3D7F2EEA BDF52978 3C975735 3C677B39 BD915B72 BCF39482 3D8A76E7 3DBAD836 3C191317 BD7062D4 BDEF7660 3DCE7CD0 3DA6B188 3DC041B1 3BC690B3 3E4AE4F3 BD905052 3D3CE4A8 BE5388EC BDC24D17 BD724207 BDF90646 3D9A195E 3DC434FE 3D20BCBE BCBA1FB6 BD222AE8 BDC5AE6D BD1D622B 3D225199 3E20D9D7 BDEEC6BD 3C43F01A BD30EC82 3CDB09DC 3DB6B0D9 3D36A08B BE599AA6 3DC5B97D BD9A15CE 3E0ABABF BE10C73B 3D60F6BB BDD7FA5D 3CFCB30F 3CD0B920 3DBF42D6 BD2ED875 3DE2B0EA 3DCDF71F 3DBEDC57 3D39AFD4 BDBA61FC BC9ECC74 BD56B386 3DA717B7 3D61EBC8 BC7675A8 3DAAA7A9 3D569263 BDA04776 3C350DFF 3D74E1BF 3D4A1116 BDA02CAB BDACB718 3DC68796 3DAB61AE 3D5AFDCD BE2B1FAC BD11EE24 BC02E75B 3D861E93 BDBAC9CB BD1038AD BD9C8F0A BCE35E3E BB250761 3DC10CC0 3D9E3377 BCCCE7DA BDDBB491 BBB5B559 3DAA6B0E BDC64460 3C562896 3D62B552 3B8559C7 BD6A8544 3DA12514 BD1DA2F9 3DAB2C19 BDBF25B0 BDFDED6C BD1D1E89 BE857300 3D52FA79 3D838830 BD8915BE BBC015AF BCA3B0DF BE4F6838 3D233C0F BDC368A0 BD7416D9 BD9C21FD BB5F51B5 3E13D295 3CE205E4 3E9EFCDF 3C9A360C 3DB644B0 3D4B0369 BE15F740 BE7EC67A BDA874BC BDF54541 BA53A91B BD9CA786 3DA72E93 3DC10294 BB264B03 BDA09DC2 BD674F2F 3D24AE00 BE0A265F 3DAD7A3C BCEF21F7 BD2A3D05 3CDED578 BD6E29DF 3CBEF1E3 3E1ECC3E BE502EA9 BDA32A14 3CD63851 3D04FEA2 BDA6635C 3D37B75C BE03FE19 3D2EC637 3E0594AF BDDD1EDA BD880D15 3DF1476B BCBAA2FF 3DC9D8D4 3C9FA333 BDA34D92 BE3B94D9 3D3C62BD 3DCF15E8 BD6AC5DC BCAC1242 3D042FA5 BB41D248 BDD008A7 BC22807E 3E0F99C4 3D51863A 3CB6FDF9 BD5B9D65 BD8020FA BDA35E31 3B3CBA05 BD4078B1 BDC07307 3DB20EE9 3D0EABE5 BDDBBE01 BCA4AC1C BD0F53FB 3C8DC8AB BDDF70DF BC389CFF BDFE7EA6 3C96B010 BD1098EF 3C93D8FB 3E1FC7E7 3C6F317C BDE76189 BD9869C6 BD8CE124 3DBEAFFC 3C836E14 BD0CF61D 3DA81550 BB370794 BDEA1598 BD2E090D BDA78A45 3CA6040B BD55124B BD1C027A BC1D1F15 3D5BA9C5 BE0D1245 3C9D5439 BDBAE071 BDD71FBC BE02A9D6 BDADD129 3D96D069 BD0D4FAA 3E96E393 BE0B167F BBC26DF9 BD3541CB BD00BAF6 BE206291 BE654930 BD2D1450 BC8000D7 3CB6A437 3C9C6E2B 3D7F0996 3DC471EA 3D9AE0A7 3DE3419E 3C31C06C BDD10FD8 BD1617CF 3E527286 3DCBBF79 3BC4EDC6 3DA42246 BCB917AE 3D47843E BD4D3A7B 3D6E7C65 3DE67275 BD9DFA95 BD70B21A BD533292 BD1CB01F BCD7ED27 3D1DCA4B BDE3AD9F 3D0AD37E BD17E6C1 3D3A6846 BB94CF2F BD28CE05 3B9303FE BD098A3D BD85AB99 3D07537C BE0B4F1E BC7701BF 3DD22D95 BCA6083D BCFBE737 BCCED94C 3C5FC34A 3CAD0735 BD80E3F6 BCCFB83A BD9AB01A BDE8E608 BBB55C58 BD9A7448 BE0AC9B0 BCC38419 BC98A68A 3DDA3012 BCE7E15B BB70F018 3C980E7F BC0ABF97 BCAC80FD BC69028D 3CBF27C9 BD0FC5C0 3DBCFD67 3DCBD8F4 3E3DBDB6 BDA2AFF9 BD92947F BD0D92AB 3CC643B1 B94CD13B 3CC21152 3B516F49 BD9BA02C BE07AF21 3D867F40 BD440DC7 BD9C8041 BD386AFB BB2D91F4 3D8B909A 3C121866 BDBB0E44 3CC2D7EC 3D843244 BCC8D0BF BCDC33DD BCA3D486 BC0509AA BD06653F 3E377AF6 BC9F72F7 3E0CA70D 3D3B4F97 3DAF6D18 BD7152BE BDC66ADB BE1E58A3 3D90F1F5 BBE3DE8C 3DBD467D 3D885E3E 3DA32039 3D827568 3DA8C628 3E02A6B1 3C87C236 BD6342C5 3D08A42E 3C7BFE7E 3DB43BA7 BCA3B3CF BCF18945 3D67093E BD801316 BE05A0BE BD9BC614 3DB10C62 3C86511D 3E039BCC BDB61D86 BE1C89F4 BD430F14 BE651EB8 3D011BF4 3DDFC6DA 3E0BEB18 3DE4B018 BE0634DB 3D7E2D7D BD8BE66E 3D99326C BB677E7F BDECA793 3D42084E 3CC3D684 BDB2338F BD042940 3C24F228 BDA411C3 BDA40711 3DE556D2 BD041D16 3DA86F2D BD8A4CF5 BDF5F4E4 3DCC72BA BDB766AC 3D61585A BCD1C087 3C81574E BE18BB90 3E33B363 3DFF38C5 3C77963A 3CC5F004 BBC8B3CE 3BEFDEB5 3CA2FBE3 3E3A8156 BD4F43D5 3C34889E BBC6FB52 3D66C34E BDC34514 BC9CBB57 BC669850 BCBE509E BD6EFFAD BD8938A9 3DADBFF7 BD522B7C BB2A2D91 BDDF4880 BDD462C3 3C0B16BF 3C7794F7 3C93AB79 BD36A777 BCEAE7A0 3CED74AD BE1B966C BDAC7425 3CE78EBA 3BCD1A65 BE40CAA3 3E6DD2F2 3C11B57F 3E123BBC 3D22764D BDF0867B BD853841 BE059967 3D0C0FA3 BE120429 BD16323C BC28FE91 BBC5D8A7 BCAF80C1 3BF95292 3C62AB5B 3D3ACA36 3E51EFFA BDBE21E7 3D895BFF 3DAB55FD BD8564C4 3D875A82 BDEAD256 BDAE4A89 