3DA11B03 BCDE6ABA BD7F03B6 BDDDBA0A BC5111D6 3B868641 BCF45A7B BD6C42B4 BCCB95CB BD930398 BD98462D 3AC984EF BCD41312 3C53C9AC 3D8A5566 BDBAD737 BD42942F 3AFB43D9 3D73A7B2 3DF65DC0 BC789E77 BC859A74 BB686BE5 3DC6EFDE 3DA77D7A 3DA514D0 BD83A670 3D80430E 3E2EB032 3CAA0A96 BC523A5F BCF64679 3D87E5D0 3DF7B6BB BBE489C2 BD036BC5 3CFA3444 BD91E0E1 BCE7967D BB977C33 BD0AD4F6 3CF46929 BB22ACBE BCD68ABC BDA30121 3C9EA324 BC5EA034 BD324009 BD1CE995 3D3FD3DB BD4576B2 3DE1F6CB 3C4E4A10 BDD1E5C1 3C386892 BD2063B8 3CA8E821 BD23529B 3C89B1C5 BCB3F59B 3DA95B5E 3D61CD0F BC1D2514 BC590EFA 