3CB86BED 3C00FCB5 3CE94035 3CD13E4C 3D204E39 3CD6D605 3DEC7EAE 3C893FAF 3BA9C662 BA6A4946 3D66AB9B BB4CD302 3CDBB101 3D891149 BD7DD45C BD06F120 BDAF5225 BCAEF00D 3D242162 3DC22B7C 3DEF9B13 BDD0813D BD89771A 3D61223F 3DE894C4 BD245763 3CD90082 3BE0C801 BBB45FEE BAA82BAE 3D194A54 3D570EF5 BD6C4695 3CCAAFBC 3CB28BA3 3D4EA580 3C65F08A 3C439A1E 3D55E08D 3D5D15F0 3D53DE1E BD36DD0C BB3C103C 3D12C930 BCBD9191 3DD578A3 BC993F6C BB744EC7 BDB71BF6 3DCCC88E BCE25022 BC6F9C70 BCDB965E 3D8CD332 3D82C196 3C673091 BD21599C 3CEB5625 3D9D5D66 3CE7CC2D 3DEC1B11 3D144BB2 3D1BC6D0 BD734069 3DA11A2C 3D93028C 3CD4A0A1 3E04C836 BD9559CF 3C2972C0 3A29A8FE 3D44B506 BD5100BE BDB7E946 3DB9FDD8 3D9E548C 3DF8C198 3D139AE7 3D9A79BC BC5E4DFF 3C824C0B BD4567E9 BD073B43 3DC65527 BD77F6CC 3DF99AA6 BB5D4F51 3D5AA964 BC297834 3E19A954 3B0B96A2 3CA598E1 3E2032DB 3C92601F 3DBFF632 3D0FEB4A BD53FCF2 3D896371 3D32CB64 BD1E5810 BD7B3007 3E05903A 3D96D217 BC267B29 3D7B6424 BD3306A3 3C98D36B BD4174C5 3BB147E1 BD27B338 3DB80164 3D07D16B BD17E25A 3AB65F4D BD28F7A6 3C3E49E8 3DDA14CF 3D54FD6D BD813A35 3C5D7668 3DDFEC14 BCC994D4 3D548B73 3D575CC3 3CABCCD8 3CFB71FC 3D073274 BDB6A825 3CAAD4F6 3D271D96 3D1C6B20 3B24D811 BCA72EE3 3D969C09 3CB38A06 3D16C44D BC269B75 3CFC7FE3 3D51503A 3AED8E63 3D5863F5 3C9C1A12 3D24F45C 3C475B74 3B082528 BDB490A3 BB929ACD 3E0E9A70 3D5307CA BDCDF1E1 BAAEA3ED 3E058AB9 3B3BE97B BD39CB18 BC7496AB 3CD1CD52 BC47ABFC 3D9032B3 BCB32816 BBBD90C5 3CDFCAA1 3D8B10D5 BCD2E515 3D97E290 3DBA9875 3D13B3A7 3D1FA715 3D99392F BD8142B3 BB7EF00B BD174B40 3C9B0905 BD2A524F 3C9D2F50 BD5BA527 BC9D5EB6 3D0A573C 3D8AAB7D BCD4DB59 3C7CE1D3 BCAA58CF 3D9998D0 BCC76732 BD66099A BC0414CD 3DC86438 3C82FC9F 3C04AC8D 3D7EB852 3D370585 3B71D26B 3CC6BA9A BC712359 BC90792A 3CC954DE 3C532618 BC7B26E8 3C49935C 3CFF6A43 3DA8C1A5 BD16D3B7 BD08F176 BCB65D8A 3CF5DE74 3D0E8859 3CFD046D 3D6FC6E8 3BC5894C 3D3A9BC2 3C12EF1B BC9A964F 3D01F919 3C3B1F91 3E316B55 3C44E4A1 3C812A37 BC8C04F1 3E3646AE 3C306F9F BD73775C 3E05A427 3CE4946A 3DEB34E7 3C98FB7A BCE44CE6 3C9C2A6E 3D33DE6F 3D5A47C5 BD3201C0 3D9C8B5E 3DC0FA31 BD419115 3C8D0A3F BB171607 3D8B055A 3DCFDD23 BCBE9ADB BCD5DBD5 3D3499EB BD4B92C0 3D40FB07 3C86D78B 3C4A18BD BC71E5F6 3D50D017 3D52A660 BC869E80 BACDAEF5 3E0A8544 BCE454A9 BBC4C6EF 3DAAFA80 BCEDA738 BC67EEFD BBDF2B49 3B5294E3 BB3235F3 BD38854D BD437890 BD45AC7D BD2DE962 3B8C7544 3D99F7B6 3D42C669 BD8A4287 BCE5CD19 BD002B34 3B2989FD 3D9A79F1 3CA240D2 3D22557B BBAD826F 3D00881B BCA3DB3C BB2B4CCA 3D45EC3E 3D8AB33F BD135405 3D47343C 3CEFA468 3D3B7861 3D235EE0 3D7C8649 3D115B22 3D33B51E 3C3D116E BC07FE51 BC76F1CF BD9FD08D 3C67685A BCF0F210 3D39751C 3D42A795 BD1751DC 3CA31579 BC419F07 3DB57639 BCB7080A BDA8650E 3CCAF7AB BDCEE17A BD8A0F9E 3D0CF399 BD1F162B 3CCF5DD6 BB316D4B BD3D2BC0 3CF0531A BD07744E 3CC8AF67 BC1842ED 3C506F19 BCB7B90A 3C92E39D 3D9F0A29 3BF82D8E 3DB10B63 3D16C574 3D1103C9 BCD236CF BD460716 3CCB1283 BAD8A822 3D99F135 BD38E8EA BD6E3964 BB1FD41B 3B818BB1 BD88C693 BE012BA1 3D7DBA5B BB357FA9 3D165FD9 BD526FBF 3C173942 BD9D85AA BD3C4779 3B56327C 3A9F9E40 3D09482E BD5D9A95 3D1FA567 BCB6B965 3B8637D2 3D0040B2 3CFBDFAA BB9986BA 3D617CF3 3CE089AE BD53FDE4 3BD4073E 3DB64396 BC4FA2D6 3D2CDF77 3D17CDE7 BC3645A2 BDA3D1BF 3D35A54E BD0262B1 3CC4C2DD BCE35499 3C991C9C 3CAF335F BCC3661C 3CF730B9 BCC1AD14 BCE6CAA5 3BFAD472 BD38AEB8 3D0F1978 3D7E2493 3D5A252A 3D0F3486 3C97C94A 3CAEA92B BCDB9A25 3C12D301 3DB6173C 3D72060D 3D6E7C4A BCA205E4 BC49D9D3 BCC60781 BC3BFC30 BD315882 3CEBD6E9 3D6C36DB 3D5AB8B3 3DBD04CB 3DAF950C 3D4582F7 3D4E2A80 3DAE1E56 BD547A76 3D034D27 3B2A4563 3D7ED070 BD1090A7 3D2BB540 3D046A5D BD4FEE3A BD38CF54 BD0871F4 3D8A81CF 3D5DD060 BD8A7F15 3CB04329 BC9C5F47 BCE29F32 3D1BF006 3D83F119 BD31F12F 3D6C2862 3E173366 3C1808EB 3DA9D13A 3DAD779D 3DA92CCF 3E05903A 3D8982A3 3D8E112D BCF37F89 3C1E9745 3C14A90F 3DD0EB25 3C437D99 3D9757BB BD57B579 3DCACEEE BB8B9103 3CD458E8 3C2EFB96 3C54393D 3DC22E1B 3C59BFFA 3D694AE8 BCC01ED4 3D9DA207 3D0FEC57 3D282781 3D5AB8B3 BDB95889 3D9F3F10 3D4CB2E6 BD210BB4 3D21D324 3CD8EC60 BCB94673 BD13DF10 3DA17515 BB58AD2B BC8C012B 3C67BD13 BC050CF0 BD3254CC 3C798ECD BC13B351 BCA9EEE7 3D78CA67 3DEA7AC8 3DC57D18 BB554394 3D45A64D 3DD94C01 3C2D07A0 BDA93B8B BCA88631 3D8E7D71 3B4B53D1 3BBDCE01 3D34082A 3D1A08F5 3DB2DE5F BCEFFD89 3DD3A14D BCD86049 3E108FA8 BCD56A60 BCE0E695 3D4B2314 BCD25DD1 3C2FADD8 3CB5BACD BD31814D BDB03064 3E1C5B4B 3D388A05 BC7966F4 BC2B579D 3DF0ABB4 BD33B462 BBC8CA8A 3DBF32B0 3C11F4D5 3C9F4C97 BD35604F BD48231A 3CBC7714 3B52A326 BC9333EF 3D8D6A3E BC892578 BCF6F311 3D9104FE 3D93BF72 BD9D4BE3 3E014CA9 3C0BC6F3 3E13A7DB 3D2E6B4D 3C91A9E1 BDFB45F1 3D1A74A6 3D41248D 3BD440CA 3D4F1166 3B7E2C6B 3DBFEA16 3CDFB9A4 3D03E92E 3D515111 3D13622D 3D66083D BC61268C 3D6DCAFA BD545430 BD557D40 BCBB3743 3C885610 3DB823E3 3D02552A 3D33C12D 3CE089AE 3D6E2923 3D635FEC BC1B25D6 3DF5475A BD4E118B 3DA96158 BCE4F293 3B1F69BD BD020726 3D315DA6 BB7CA5D8 3DC1DDAE 3CE7B5F2 3B652D41 3B30A900 3D810B99 3D673F3F 3BC9B79A 3DBE7D06 3C07692B BCE50EAD 3C8EBF15 3D09B38D 3D18E58F BD671FAF BC5CA014 BC99542F 3D8C0DDB 3CF0B2BB 3B02BD34 3D959AA9 3D632336 3D5DF762 3D0EC41E BCB93F87 3CA8EC53 BC9A9C2E BC780636 3D388278 BD49FAA5 3CD41271 BCB2D6ED BD524C4E 3B8F8849 3C61DAE6 BC768090 BB313064 BB2B9A78 39B1E164 3D90187C BCB7F5A5 BCC9C4A5 3D98EE1B BC01863D BC105E52 3D7B7C42 3D19FAB3 3DCDBA4D BC72AEDF 3D95BB46 BD2F7081 3BC14EBF 3D18AFAA BC76B427 BC4F4DB1 3CDBE214 BBB55B41 3D6FD545 3CF4C539 3CA30660 3CB92296 3D8E9772 3C447652 3D08C60D 3D225D8D 3BB020F0 3CAEAFAB 3BCC6F04 BD7C7BB1 BDB0C3FB BCEC55FF BC0C222D BD58A0AB 3C14BA77 BCBB758C 3BA3561B BB96C6D6 3D43E34F BC77E077 3D14B224 BD2915A3 BCE0ECE0 BCF3CFDB 3CB660AF 3D23FAE7 3CA35108 3C9A6E40 3D2D7A72 BCE91750 3D0254A4 BCE25AD4 3CE2764D 3D82DFD7 BC65FBDD 3DB75D4A 3DC4B67E BD393880 3CF68A6B 3D12F09E 3D37085A BCB089A0 BC3E70E9 3B813EDA BCF293D1 BDA3E2AE BDB05B98 3B69D7CB 3DFE4D5E BD30D413 BDA26B57 BD90A65B 3C8D4AA1 3D2DC784 BD96C292 BCD49441 BC05DC99 3D52DA63 BC364A3F 3C2A7EC4 BD2B7E4E BBB0DB55 3D5DFA1C 3D0313E6 3C656042 BD11F23B 3BBD8485 BDDBE4CD 3D198A9B 3D07BF62 3CC54046 3DA48C3C BD43EADC 3D912BBC 3DA553EF BD02517E BD6BC276 3C98DAF8 3C79364D BB661D81 BB9D1FCB BD0807F1 3A26096A BC19CD87 BD322D0E 3CD54AEB BD9CF059 BD000D01 3C98A90F BC9F0839 3C56521C 3CD1120C BD437210 BD172424 3D65EB16 BC808A9F 3D62590B 3D9FAED7 BB8BC79F BD85AD54 3C71B4E4 BB3548A2 BCCB35BE 3D5778C3 BCFA124B 3DC9B1FB 3CFED162 BDB62FFB 3D6EC41E 3D963F21 3D153917 3DEE1E71 BE0D5B68 BD81A785 BCDD320A BC1FA1FC 3E1BACB4 3DAAD737 3D8A7943 3D539C0F 3C1BF6D7 BC793AEA BAD45786 BDC63356 BB88F0BF BD07EF17 3D91C4FC BCA230AC 3D0AC96D 3D160002 BD3BEF4A 3C964E20 BD1E515A 3C6877B9 BD69F74A 3D0B0B61 BDBBF3B1 3A78D880 3CE1309C BCB80C16 BD513E66 3D1B6C52 3DAAA2FF BDA83962 BCEBD82B 3C965A80 BCA017CD BDBD1867 BD0B0A04 BD727101 BD54D1E9 3CDD5C67 BD0DCCF8 3E10E66D BCBD9B36 BD1029AE BBFEE11C BDDF97AB 3D67165A BD018DEF 3DB8623A 3D95D795 3D9B6CF3 3DC4ED70 3E020A31 3D11BBCF BD711A1F 3DBCC92F BD596638 3C50F769 3D8A20EB 3DA6FFE9 BD9E7D8C 3D8E9094 3E0718A8 BCE6A769 3D9693F6 BD242EE9 3C205E9A 3D9B3886 BD3EE16D BCB7CC1F BD22622B 3DADF132 3D135314 3DC5F684 BCFB46FE 3DA09BEC BD677FBC 3E16A93F BB522A04 3B3F1600 3E2CD899 3C9F5C87 BD1A4A9A 3D2660BD 3C805D88 3CC7E8CD BC283970 3CE710B0 BD26A734 BCCC0B71 3D482B98 BD29FE1B 3DAF8A67 3C956232 3D0228CF 3B8DBCD7 3D890D0A BD12CADE 3DD816AD 3DC3B7BD BD81927F BC3CB01F BCB54D1F 3D9D96C1 BD25078C 3D985F3D BD503F7E 3A2D3DD5 3D575303 3D6E66B0 3D2B9651 BDA55AB3 3D6D6E63 BC714700 BCB6ED9D 3DE5436C BD6AAA13 BD1996AA 3C5FBAE6 3D77DE0D BD2888EB BD985FB5 BD51436F 3D23299B 3CFC3032 3DD151E7 BD5278C3 3DB13689 3C40C558 3E34723B BC2DA123 3B518112 3DD86C22 3D23E659 BD033376 BDEEFFE3 BBAF62DA 3DC5CC93 BC76A579 3D816AEA 3D390C76 BC171708 3C10EFE7 BD8590DC 3D45C0D4 BCE67118 3D071675 BC01FAA1 BD7426AE 3D637D99 BD4922F4 3D3D888C 3DF94AF5 BC384698 3B45525A 3E1F7D31 3D0523A6 3D0BEDC5 3DAB8A4F 3E21650A 3A43D388 BC6A231F 3DD0E347 BD488C46 3E14C1EC BB52F937 BD517508 BD340266 3E0393AB 3DACC45C 3CE4E5C8 3CD581DD 3C150ADF 3DE92D56 3D5B03AC BD682808 3CF1377B BD32DD52 3D99B00A 3D700475 3D6F5BD8 3D12873C BCE43930 3E2FED20 BCE29B00 3DAAD5CC 3DAC3598 BD0870E8 BCA3AF67 BD2441E4 3C64ABE7 3D9ACEE1 3E060FE4 3D879B35 BD1440E5 BC919950 BD0F8148 BD709EB4 BD8B55AC 3C9B1CF2 3D2BBB8B 3DCAC5DC 3C750CF2 BD860CF5 3CBDC9FB 3E0C66D3 3DC8A6E8 BBC8FAF1 3D8113E1 BD51413B BC0EFEF6 BB533343 3D4ABD0D BCFAA65A 3B276C15 3CE8D039 3C659876 3E01F8E4 3D27D871 BCC66AB3 BA99B2EF 3C5FAE51 39EF190E BD1EEC6F 3D4CE8CC 3D8A7610 3DACD0FF BD130F72 BD2CF257 BD85D28D BC86D902 BC29D917 3CE1272D 3DBBB235 3B970C8C 3D3BDDAC 3D630CE0 3D42FD40 3D4711BD BB5895AE 3D9D2964 3D5601E5 BC1483B0 3C00CD50 3B2ABD58 3D10C0C8 BD4EF92D 3CA7D999 BD635BF0 3D6B78F5 BB28FC38 3CBB3E9A 3C2284FB 3DF3F7CF BCF7B396 3CE5F84D 3D3917E4 3D96AA8F 3C329BC9 BD407DB9 3D21C6AA 3D9A5DAF BC6B5625 3BDB4206 3E0B380D 3CBBF6F1 BBFD6A79 3DE90929 BD4F3202 3E1204F3 3D38032C 3DD99913 3DFD2179 3BDD4947 3E0293D1 3C124470 3BC303A0 BC362414 3D533AC0 3E1D48CB 3D6B4685 3CFBA9FA 3CE386EE 3DB7DD95 BCF0B468 BD80100B 3E06E2EB 3DD76A2F 3D180BAA 3C289621 3DA2512E BD65E3A4 3DA021D1 BD868D4D BB511F17 BC8F1B5C 3DA02F9B 3D39EBB4 3DBAD172 3922529D BC54335E BC6513EB 3DB9C539 3D0EC5CB 3D9D44B4 3DC3D817 3DD20F2C 3E2FE75C 3E3F30A5 3D4F875D BD2D3705 3C0BE008 3D2656AC BA853660 BB1D46A2 3D48B8F1 3CA8F415 3CA72EE3 3D06F65F BDBC5DC1 3DEC197E 3CE9EA7F 3DE0C49C 3DCF2629 BD1CB726 3B842264 3D3CB98F BDBB7190 3D50DBD5 3D497CEC 3CE6F7F1 3C83A53C BBD51200 3D83E1AF 3D550E1A 3C1F40D8 BC98B828 BD2E2329 3D97D3C7 3D9759B9 BA971B90 BBBF3B14 3BE9D053 3CEB6D01 BD9D4B6A 3D1A84CC 3D7F3A3D BCE4ABE7 3DA2B40F 3CE4A3EF 3DF6049F BD055AB3 3D37D06C 3BC19536 BDB8F3AA 3B672FFA BD7AAB2C BD7912F6 BDAA1AAE 3BE57C06 BC018028 BCB3C204 3D1C0859 3CDFB2B8 BC3BBDB1 BCF9FF35 BCBE9242 39FF75B9 BC642975 3BFE6B2A BCEC5F04 BCA0AC7E BCCD621E BD169157 BD98F39C BC13DE84 BD768406 3D7040F6 BCA639F1 BD4C8910 BC941CB8 3CEBE2DD BD8553AC 3CCA86D7 3DA7D681 3D368710 3D0A756F 3C96D7E9 3C30ACDC 3D1ED818 3D69FF93 BD62DD0F 3D12DAE9 3BA0DC03 BD87B2DA BD562A44 BD3A17D9 3CE3DB06 3D96162F 3D08EDCA 3D9DF457 BC8BB576 3DEA582E 3D6CB784 3D917BBE BCB55EBC BD7AFB13 3C911E35 3D10C5EB 3CDB81D1 3D1297CD 3CAA7B69 3D875F48 3C40B857 3D4DBBFB 3DB17DAF 3C816667 BC6EDF46 BCC097D5 BCBA2D22 3D53929F BD1DD152 BC6FFBA6 3D18A548 BD41371D 3D5F4327 3D26990C 3D25812E BA26B5E2 3C815BEB 3DB179B2 3D30F338 3D754DDA 3DA0494C 3D21A013 3DD3B96B 3DC0D72B 3AFFBA0A BC924979 3DF0025C 3D1E3F36 BDBF3EE8 3D8F7E15 3C666E5F 3D85961A 3DB20AED BD99B15A 3D8D6792 BD6DB057 3D2DA844 BDA80FDC 3D0F0E76 BD87B4BD BD93E4B9 3CCE0FC3 BD383368 BD4EDD48 3DAC2F18 3B7E8582 3C98DCDB 3D197171 3D5F1DD2 3D89E683 BC993B70 BC01E426 3D1469FF BD6F5756 3DC21859 BCBACA6C 3BABB5E6 3AC36C51 3C5EE858 3D76EE09 3D9EFBB1 3C5C655C 3CB9E88F BB7ED508 3DAE41C7 3D0A038F 3C23DC13 BC05D130 BC7DC6D5 3D3A539E 3CCDE530 3CEB53A1 3C176582 BC9886AA BD03F0A0 BD1D1BCF 3D559B22 BD1990CB BCD8EC60 BDBC85C2 BCB4CCC6 BC0AEDA5 3D52E027 3D076D47 BDD11948 3C2375E6 3BFCA99F BD2CB9D2 3CC9E958 3D4B1C28 BCC4F4FD BB3349C4 3BAF07AA BD3F399C BD9379FB 3CAE5FFA BCB3AA51 3D407D33 BD30B418 3D783AF5 3DA1120C 3DAA1B4F BD2F0953 BD49E01E 3DE7296F 3D9BDFED BCE784DF BD451FAA 3D728FBA BD34F2F1 3DD1D9B2 BD1DC7C7 3D196D5A 3D42AF8D 3D1191F9 BD3F0F3F BD17CB48 3DB8CFDB 3D0BAE39 BCD369D5 3D513A50 BCF090C2 BD568DE1 3D68FBA2 BD156141 BD0FA78D 3B7C9817 3DF7D524 3CFA62D2 3D7B52D7 BD3AF60B 3C55B82E 3D03CEDC 3CD59CB5 3D545F68 3DE46413 BD431F6F BBF60D78 BD399278 BCF86FE9 BD8B33DB 3D9829EB 3C882CF5 BD467DE3 3D37DB89 BCA956A6 3CC9AA6E 3D4AC281 BD41C913 3C281D55 BD061BBE BCBCED91 3D5F728C 3CD81EDB 3A90CE44 3CE5F1CC 3C0CCDE4 BC258BAB 3D70AE89 BC0B0C58 3DC2A5CD 3D2D239F BB4896DD BD89A9A5 3CC93E6D 3C8EFFAD 3D936F3B BB8D72DA BD144765 BC39A177 BCAFA391 BCCBE6BE BCDAF25F 3C8CB07D BCA48012 BCB946DE 3D920FCD 3C9D348E BC53D4FF BCF45E41 3D15658D 3CAF02ED 3D92B3CC 3D03BB5C 3DA96943 3DD2F5DC BC9DD45C BCCF5C5F 3D88E468 3D6D81C9 3D120E1F 3CF7106D 3AE854E9 3D4623B6 BD454D11 3D33FA38 3CBBEC75 BD195084 3D590570 3D13DEF5 BD5170A0 B9DB211B BCA08653 BD56F9E2 BD3681D2 3D40F41C BD03443D 3C95FBEB 3CCAFBA7 3D14A9A6 BCFDE93A 3CC4CAA0 BDA27327 3D74294D BB4F0D19 3D38BD81 3B450BB8 3DCFC58B 3D0770F3 3D019ABA 3A5753E4 BCB8964A 3C562CC8 BDC3D691 BD1401C5 BD54CA27 BC710591 3C2065D1 3D8E45C3 BCF97EA7 BCD3293D BD48E714 3CBBD889 3CE810C0 BCFF385A BC110C78 BD154D54 BD83826B 3DB88B6F 3DAD008C 3A3A7AA1 3BFE8D24 BC9C46BD BD139FF0 3C75507A 3DF620EF 3D65195F BBC06560 BD630CAA 3D522E6B BDA6C849 3C896EDF 3D3C099C 3DBE1021 3D41D085 3D785978 BD50876C BD85F07D 3C8B394F 3D0DD129 3D261EE3 3CA9E9DE 3DD0F8C6 BC5AC8A3 3C4E4720 3D0FEA59 3C0CE434 3D37F215 BD548D20 3C8021C4 3D016BC0 BCD9D84E 3D3BC050 BDBA28AE 3C0CE658 3C6E7020 BD841BB9 3D323E0B BD4942BA BDEB5B2D BC29102F 39840ABC 3D9B4D49 BD1BEEDE 3D8FBF40 BBDCDDD2 3CC26245 3D0B54E3 3B3AD020 3CF5187B 3D2F9E38 3D8FA391 3BCFF9BD 3D8463F8 3D5428C7 BCFF613F 3D37FF4B BD6BC4AA BCA58DC4 3D604EA5 39ED5993 3D559792 BCC1B039 BD2E487D 3AC0A851 3D141165 3D136FCF 3C7A7A1A BC819348 3D6802CE 3CBFDD66 BC1C1097 3D27721A BCEA8687 3D9D1F45 BC78B879 BCD6DBE5 BCAB0E6C 3D157DC6 3D5BB1BD BC30B971 3CC711A2 BC175069 3A1E696B BD123084 3D700EA1 3CF92D48 3D65DA35 BD43FB1C 3D0027A3 3C73F530 3D02D730 BD77B8B9 3C6F73C1 3CC74F80 3CE941AD 3B80DAC6 3D793576 BCABC43F BB5D27E4 3D22AF3D 3D129380 BC624EAA 3D54152B 3D045514 3D349D61 3CACD368 3C7A6D19 3CBD4464 BD1FDEF8 3D8ECEEB BC977821 BC3A0ABE 3D5D0BC4 3DC1E4DD BBB9D4E3 3CCA218C 3DA09819 3BE548C5 3D32E225 3B877641 BD3B8511 3AE4A053 3CA4F2FF 3D46EF3D 3CA909AF BC4B923A BD4C02BD BC3601AF 3D4FB184 3DD8D2E5 3CC32046 BBAAA113 BD062853 3D5D89B3 BC76EB84 3D8C5C3C 3B045CF1 3D46F552 3D7C5CF8 3D3BF1E9 3D49519E 3DBDC7FD BD229033 3C9B61BB 3C89500B 3CDDAB77 3D8F817D BA88C8BC 3D1A9B07 3D853C4A 3D40AAEB 3D212FFB BCE8D831 BC613895 3D532790 BCA3F1AD 3D462B93 3CD8651C 3B66EB87 3C8EEA13 3D24E197 BC8EED38 3D29A291 3D1967CB 3DAAE2DA 3D93DC63 3DF26959 BB89D455 BD2076B3 BC74BE18 3D1E52EC BCBAD29A BD898DDB BC360A13 BCABD9D8 3DD28AE7 3C211EF4 3C1296B1 BD5CDCB0 3D1E091A 3CB228DD 3C0D0B16 BD266DA3 BB9A4815 3CACC9C2 BAAA27B1 3D012B29 3D9CDEA0 BBC8DEC1 3CF44A8A BD00F0C1 BBEC7041 BD8499A8 3CD7184A 3D3FD1DD 3D1BC269 3D4BFEF7 3E030165 BD796DE0 3C94907B 3CC9DE05 BD992062 3D413D9D BD25F329 3D9C8D5C 3C5F9B71 3CA3022E 3DA70E54 BD5E889C BC9B3CD2 3D940F3E BD6A0140 BCD63851 BBA51EDE BD01225A 3D3BAD8B 3DAAAC54 BD0340C7 BC7992FE 3D3684C2 BD71D63C 3D9FC62C 3C7BA6D5 BD1F5870 BD365923 3C2C5FDA 3D6F9A3C BCC9D719 3C96C864 3D878B52 BD5CD8E9 BD095D41 3DB7165A 3D628CF3 3C284ED4 B991C850 BDD1D042 3D497793 BCB8AFDF 3D574023 BD496C25 BD861035 3C4650B2 3D59893E BCBB7231 BD77D6D1 3CBE77D5 3DCCDC87 3CFB2E3F 3C08443C 3BAB1F7E BCA10965 BD71B336 3A94898F 3B380265 BD7D354A 3CD21683 BCDA5185 3D23E11B BC993F36 3E0BF834 BAF338F2 BD3AD7A2 3D526634 BCD8478A 3C605B8A BD552023 3C6663E2 3A5245A1 3CAF15CD 3DC490B1 BC4864F4 BCA0F03B 3DD91FF7 BCA21279 BCEA5467 3B3A227B 3D6247A3 3C29E328 BCCC985F BCB81C3C BD786F48 3DBA91B1 3D53EC61 3DA77906 3D67A850 BD863172 3D9836C3 3D902D32 BDAB79BE 3D3AEA9D 3CE6EEB7 3DAA9301 3DB7FE24 3D669729 BCF1C2BB 3D1F9C7D 3DDA6613 3C3B913B 3DBDF81E 3D21BFBE 3E015832 3DB09891 BD99405E 3DA9BBC9 3C9D5942 3D894DE5 3E0D9EC7 3DCB39F0 3CCE4283 3C099BEB 3D235031 BD6BE313 BD439C52 3AC86EC4 3E38DB49 3DCA0EBA BD8DB61C 3C7A1789 3E08C155 3D6CD566 3D061B88 3D2111E3 BB8AAC2B BD1EF1C8 3D88A215 3A9DCAD7 3DD5104D 3C80E213 3DCACFED 3A300C6F BC86B4BB 3D83094F BD78C239 BCA2976F 3B0651BE 3D98A97A 3D2623D1 3CE8E5D2 BD7A9252 3D5DA7B1 3CEEAB44 BD331E55 BCF9CCE0 3D535FA9 3C58F996 3D5900B8 3C27F943 BD56DDE3 3D90EF7F BD13F68D BD42E375 BBC1BCCE BB86E334 3D536700 3D86191F 3D87D3D4 3E27D45A 3C64D3BF 3C082E2D 3CD2BB23 3B3F261B BCB5D38C 3DE9B0EE BC072360 BD5E13E7 3CC64D21 3D2DDB70 3D0D5F14 3CFAD4E8 3E1E4042 3E003600 3D8371A5 BB828038 3D872B2A 3CCA46E1 3D47AC67 BD89BBE3 BCE4671D 3DE75148 3D2FE0B3 3D5EBE16 3D8C343B BAAD59C0 3D6F8162 3CD10038 3D6984C9 3D8183EC 3E20F451 3D5C1906 3D064E13 3D90CC28 3BF4508A 3E24399B BC69629A 3D5C8897 BD3634C0 3DFFC19C 3CBF32E6 BD43FFD4 BDA2FFFA 3DCB575A 3CDD6F7D BC952927 BCE6574D 3D377B11 3D38EAE8 BC9B45D7 BCE43C8B BC4BE61D BA3D7EA6 3DA70DB3 3E282A56 BCEFADA2 BD53F7B4 BCE4C14B 3DEFA69C BC86FB31 3D814F99 3D73F621 3DF2FA0D 3DC744A5 3DB467BE 3C085C45 3D3EA613 BD1B1855 3CB53063 3C8A5A61 3B154B2B 3DEAD57C 3D217CBD 3DC13760 3DBBC3AB 3BD96E30 3DF90108 3D3FBC94 3DA3C7C9 3C452320 3CDDC89E 3D4BA783 3B6B237A 3DD3B214 3CA33E5E 3C61594C BD2BB419 BC06B256 3C92B4A3 3DC77469 3D8AE8BA BC0AF430 BBFBFE53 3CB21B3B 3D75F2CB 3D38CC2F BC280934 3D21F304 3DA39970 BD2D9041 3DC8F1FC 3D432336 BC4C4695 3D118091 3D26A2B1 BD68E6FA 3BB57CE5 BD8CEED4 BBB28C04 BD494BD9 3DE540CC 3D635159 3D493EBE BC7C13E2 BCA3F24E 3DA66722 3C8938C4 3CF64389 3CE65534 3E0B395C 3DABF064 BD689317 3BCAF9A3 BCD10E45 BABBD32A 3C92E184 3D92E0FE BA1EDF31 3D2DCC8C 3D112A44 BDDDF7E8 BB7FE6D6 3D2F51FD BD87DDE5 BD980D58 3D0DA5A5 BC6BE66E 3DAB9FC1 3D2F6B28 3D3FF152 3E18C79F 3D6F3974 3D5E84A0 3D1EF325 3D668017 BC222955 BC9121FC BD2EF277 3DB7DBF5 3C9DE269 3C351449 3DB8037D BB780B3F BBA89ABE BCC3B7B0 3D1D3D93 3A937568 3D0ACC42 3DD270B0 3D36A0F7 BA999ECD 3D4A1364 BC9DF6F6 3D026B65 BC203C6B 3C65C125 BDDD7B20 3DF05FAF 3CE6C74A 3CD77821 3D70C2E1 3D545F33 BDC55029 BD08362F 3C823A02 BE068D76 3C5D1585 3D1F7348 BBDE77B0 BC83884B 3B9A1225 3DBFC6BF 3D0E72BF BD69ADFF BCD42C07 BC02A394 3B3157FC 3CBB2CFD 3E421188 3D0E827A 3E3F505D 3E09C348 3DC8D4AD 3C3BF7FE 3BE2AE20 3DCEC17F BD029B1B 3D826CA7 BCC852B5 38D6608E 3C2A3634 38128AB7 3DDD9557 3D72B0A7 3DC1F4B2 3D6BFE05 3D2496B8 BD4E1064 3CA47885 3CEF6C6A BCB48F54 3D14D61B 3D32367E 3D2C29F5 BC2DFE40 3C3DD83D BD3195BF 3B22D908 BBBDD6D0 BD8AF56A 3DAE1552 BC9F1BEF 3D995CA0 BB888CEC 3C4D9B94 3D7E4F76 3DED05F3 3BF6FF50 3D53AFE0 3BCC6DED 3D3903DD BD127609 BC096417 3D952950 3CD853B4 BD53750D 3DC08A26 BD81BB21 BC3E3E29 BCDC9024 3D2186E9 BC92A6CC 3AF9C803 3CE8EF0D BC307CA0 3D95D38C BCBB7699 BD122821 3D666C96 3CD044BC 393BBCF4 BCBD1B7F 3C8FF866 BD9305BF BC82A19B 3C98A040 3D3D1809 BD5A7AD6 3D18FA1D BC605179 3BB26E92 BC9C8506 3C0E4E77 3D17C4AD BCF9AE77 3D711F78 3CE726EB 3D9A9D3A 3DBFA971 3C6DEB96 BCC57BD5 BD611666 3DD32F88 3E0A964F 3D122F42 BDB92BC3 BC01E141 3DDD41FA BD766A3A BC4F821E 3D914D9B BD8A3B30 3E0551D7 BD6C2F4E BCFDA258 3CADB86A 3D7935C7 3D42FFDF BCBA02FB BD20CC28 3BC3C882 3D703EF8 3D875198 BB6957C8 3D67933D 3CFD92D3 3D22159F 3D096CAB 3C8104AD 3DA9D628 BC3692CF BA9062E4 3C1D55FC BD1CDB02 3DB82B2D BD5029E4 3B42DD0A 3D2DB5B0 3D766095 3DDEDE98 BC12A452 3C17949C BC181621 3D963DC5 3A2B2B45 3C99D95A 3D68AEFB 3D0324AD 3DD51A43 3D5FBD6A 3DD2AAE3 BDAE9F0D 3C070DF1 3DF3F0FE 3D49DCF9 BDBD69C6 BBB97699 BC28A322 3CB18D41 3CFA6018 BBD01353 3D3DB5F3 3E19AD43 3C7FD02F 3C4FD08D 3D40E213 3D141023 BC9EED61 3CE26550 3C839CD8 BC75331D 3D998436 3D055616 3D0BB2D7 BD8E56B3 3DFA5E35 3D9A096E BD423DE3 3D74CC25 3C6BB342 3B2CCD53 3DCBAE11 BCBFC5B3 BB1AF8EA 3C4D30A0 3E24430B 3D18E0BC 3D991446 3D633BF5 3B867CC7 3D8AB00D 3DFE6EEB 3D255849 BD8E17FE BCCC0B06 3D9C387B 3D142C72 BC0A2DF7 BB8C17E6 BC98BEA8 3D943ED9 3B3CDAE7 BC254B13 3E0816AD 3D3A545A 3D1F77AF 3D0A677D BD821CA5 BD9713F0 3DAAF70A 3D247637 BC85C861 3CC576CD 3D053594 3CB30398 3D334B1C BD4FADBD 3DD039EF BD055418 3CA755E5 3D666143 BD65F6D5 3AF26187 3DEAFBC2 BC2610A0 3D18F4DE 3DFD4413 3E26F1DC 3D567141 BD1A13DD 3E17DED7 3D1E4240 BB7C5F8D BD5B3B90 3D4A242B 3DFE4ABE BC513B5C 3E1DAEC5 3BDC3B55 3D6C8E18 BCA3CCC4 3D7B7572 3DB56755 3D4F866B 3E22F09E 3CB074DD BCC648EF BD3A097C 3B9F7E35 3E1660A2 3CFD9811 3D1900B8 BD2AF252 3DD225B7 BCA10137 3D1259EF 3D67C973 3DA9195C 3D382E60 3B761D7E BCB2CB2E BC9F8C22 3DE02214 BC12A076 3CD334FC 3CC714C7 BC176CE4 3D56CD01 3DE2A561 BB4B33C5 BBD9DE99 3D56C29F 3E21E4B4 3D0FE048 3C7EC212 3D72BF1F 3DB33EC9 3D5067C2 3DB99342 BD1E1FF6 BA4E39BD 3ACEC41E 3CB93907 BC86AA3E 3DE5A2D7 3CDEB05A BD769BEE BAB1470A BD239ABF 3CD914A4 BD2736C1 3CF93866 BD852BAB BC250939 3D2EECE8 3D2692C1 BBD9AF1E 3E22F944 3C7AA25E BC89BC0C 3DA4B549 3E235DEE BB25627B 3D8BE313 BD6A1E31 3CB51124 3DD56B87 BD828B2A 3BF4ED93 3DBFBB95 BC17AAAC 3C678A53 3BFA17B4 BBB6A2D4 3BA37611 3CC108A9 3CBB3BAB BCA85B9F 3B9384C2 3D920B4B BCB1F4DA 3D145557 BCE2AC68 BCBA2164 3DDB224B 3D1662C8 BC97B4BD BD5B4840 3D9A0034 BDB46CEF 3B8D2CFA 3CB6848C 3D1197D8 BC694DA1 BD293D10 3CC6A967 BDD18B0D 3B927A16 BDB3E05F BD91F9D5 3C714918 BD69FFC9 BD1F9E46 3C8EF3B9 3C37824D 3CF773D5 BC644B6F 3CBDBBEE 3D1EC299 3E201861 BD9A3012 BD609B16 BCAA36A0 3D4B0B11 3D8833E1 3E07BE98 BDE2FDFC BD2769D1 3D569B4D 3D64944F 3DC8A7A4 BD56276F BD6583CD BD3B5F6C 3D01198B 3D187400 BD28B794 BC405E2A BCE7F3CF BD8D5A84 3DADFA29 3D514786 BD7BFB23 BDA06AE7 BD9C18EB 3B55B47D BD1809C7 BD243D11 3D4CD7B5 3D16B4E3 3D1BDD76 3DE9A5EC 39F63A48 3D1205A1 BD4086D9 3DBC646A BD6CEB35 3E047454 3D96CC95 3D20256F BC360A13 3C1A2A58 BD84A3B9 BCD14C8E 3E006184 BD9359FF 3D216C11 3C4F8005 BC8E8CF6 3DF61A1E 3CF8EA98 3CBF2402 BD366D7A BD8F8D8C BDEAD688 BDB4D156 3BB88F69 3DADA13E 3D236794 BC4D37C1 3D47EB1B BD44B0EF 3E1F34D7 3D2533E7 BC903105 BC47DC38 BD805B70 3D90BAC0 3C919660 BC9BFB74 3D2854B3 BCA69164 BCDAD355 BC490A35 BD3FADB0 3E1D4AA1 3D38B18D 3DA6FF2D BC43E3F0 3D74C0B7 BD46BC2C 3DE38E2A 3C20EF8F 3C9D1E89 3DEA8199 3D076493 BD8B6E50 BD3A97C6 BC987577 BBF51454 3D80A343 BC042A47 3D6D6BA9 BDB39FD5 BC1FE4C2 BD75E2A5 3D7695D9 3D63BBC7 3CA34041 BD6EE881 BD9B4635 3BD1AF35 3D22AB0B 3CDF3585 BA4EBA52 BB8E5873 3DE0AB71 3D90B440 BD69090E 3DA6DE33 BD75743B BC0AAAFF 3D8BEA9F 3CBFA780 BCE27250 3D777A05 BDA2BBDF 3D275D8D 3D6005FA BACA5147 BD5BB293 3D44F2AE BDDA8049 3C980072 BD558553 BD5CEFAA BD13BE3E 3DB614FA BDD3FC01 3D9A3395 BD863660 3E072581 3CB8F763 3E301861 BD8BB194 BBB636F4 3D86FC16 3D401A87 3D147695 3D13BD82 BD165592 3D024371 BC0CFDD5 3DDA98EE BD037C8C BD508645 3DC47489 BD0D5EDE 3DD22292 3D1A8247 3CF4BABD 3B49CCBD BDB67B29 BCFE83FF 3D25E014 3DDF1173 3D44A39E BCC724B7 3C33EA7E 3D7349A4 BC05E14B 3D2F40E6 BD823671 3D265A3D BD7A7D5A 3D215F2B 3D60F635 BD8F6ABC 3CAED74E BD4E789E BD0ED11E BD7C8E5B 3DEB3893 3D3F8BD1 3E0E21D9 BD4810A5 3C8D0E05 3D8C55F2 3DBEFA03 BD2395B7 3DA15C49 BD71E33C 3D98AE9D BD66EFC3 3D0BB8B6 3DBA99AA 3C9B7359 3CDE73F4 3CB631EB BD3B0418 3D01DF69 3DC8D618 3E17310A 3D475FF6 BC3F8CDE BC21891C 3C1B0758 3CB78A10 BB9CD29F BA6AE29E 3C4CF43A 3C5F8891 3CC346A7 BD9C0C99 BD65F8EE 3DEBDA0E 3D0CDF77 3C31A819 BD7B317F 3CF99CDA BD19AB6D 3D50FA59 BD0D6310 BD13CECF 3DC951D3 3DC1579E 3D030D66 3D749690 3D075402 BCCF07DB BBF25242 3C3B6C52 3D7B0B03 BC91FA9F 3D802A92 3CC02CAB BC14A284 3D31BFE6 3D74F4B9 3CE0C649 3DF8D046 BC8B2604 3D036D3D BB4BE6C9 BCCB00AF 3DCFB656 3C6A890B 3C05A98D 3C97AF13 3D41D38F BD3E3D02 3C0F3491 3C9B52D7 3D0C47F2 3D5875C8 3D0407E7 3B7213AE 3D875A75 3A0B0A24 3C579802 BD545862 BC26F461 3CEB8CAB BAA159D7 BCCB281C 3D264D8C 3D00D9E5 BD1F3103 BD863D23 3BC911ED 3CC10D11 3DA86BAA 3DB2862F BCED9DFE 3D4E1A24 3D9ABD28 3C91B534 3B82B5E8 3C392E1F 3DA17BD9 3C51A9AB 3E04BFD3 3D057CC7 3C7B1B29 BADA3266 3D2C3BAD BBBAEAB8 3AA22B8E 3DBAFF0F BD3510EE 3DF64CF9 3D9854C0 BD65C033 3AA0D3F6 3CE94C5F BCE449C1 BDB676DD 3DCE92D5 3D1B7FB8 BCBCD0A1 3CAD2964 3C0F05ED 3C42B0EA 3DB5A60A 3CD66CF4 3D858106 BCD1724E 3D1A478F BCDDC89E 3CD59528 3C74821D BC9CD375 3CBD59C8 BD361EBB 3D3AD5F5 BD0FA35C BCC97453 3D1E5F4C 3D2B0150 3CE0747F 3D2EC205 3CAA73DC BD3E7C07 3D87E78B BD6852EB 3CD0F8AB BD299D02 3CAE02A7 BCB389D0 3D52C387 BD89FA47 BD22769D BC12F8B6 3C6A209B 3DC3DD2D BD5B8E31 BC9CE838 3C9161F2 3C96BD7C 3D3BC24E BCEA6315 BB09097F BD6EE972 3D83B257 BC47F19C BC5A4FD8 BD9212D7 BD0735CF BD21ABED 3C712140 3D87764C BD05A26C BC7456EA BCC47113 3D5441A1 3CCBF02E 3DAE1D14 BDF32A49 3CF50C87 3D230751 3C85E303 BC90795F 3CE4F97F BCD92F46 3C7BEE8E 3D3772FE 3D767019 3CB2BD57 3DC439DE BD8F7F14 BD6626F6 3D3CD49D BC9D4CE2 3D0E8102 3D1CAC3E 3D120536 BC78AAA1 BD7FEBC3 3C07DFFE 3D03D1B1 BC072685 3CCC744D BD98CEC1 3CCAEC8D BD5D9572 BD90F16F 3C0BE0DF 3C9ED436 BD80191D BCC37E3A BD2E74A2 3D485DED 3C9EF086 BC8A5ACD BD481C49 3DE1248D BD775D4A 3DCBAD8B 3C848B4A 3C36B31A BDC1EA50 3D5559EA 3DA5C05C 3C19BC5F 3D31CA98 BD73AE18 3DF80CB7 BC3B03E2 BD0961DE BDA36FB4 BD3AFBB4 BD9DD8C3 3DD9BFDF BD2ECEB5 BB477DAD BC1371B7 3CCAD4A5 3CBD397C 3C82C17B BD78622C BD6B13FB 3D2FF485 BD0FA93B 3CB59685 3A6C4C66 3D72E459 3D54D453 BD0EC52A 3C533F42 375FB2F2 BD5213AE 3CEA7AC8 3DEB380D BD79B7B2 BD49C008 BD35FBD0 BD3C5CC2 BBAB98A0 3D8AFFBE 3C6C6808 BC4D4D91 3CAA821F BB821B8E 3D8226C4 3D938DBF BCA9A2FC 3E034613 BC881FBF 3D63A902 3DFB749B 3DCEAA6D BD1DA3CF 3CC23BE5 3C41A5BD BC3C40F9 3D25AB56 3E03D428 BC57E606 BD89B018 3DB3B206 3CF4E047 3D8E28FB BD730B90 BB756319 BCD07D91 3DC5F8AB 3CAE3609 BB48D9CE BD3BCACC 3DDC73EF BCF148AD 3D1FE883 BD08CFE8 3D846471 BC038362 3DDC0097 BDC230F0 3D68C338 3D7103E4 BCA70528 3D894178 3E079D4E 3BA86B44 3AF828F1 3E0650E7 3DAAAFFF 3D07154D BC005ACF BBBCFD0C BD142AAA 3D015D63 3CC8C719 3C8A47B7 3C76FD8D 3D8DF0D4 3B316FA4 3C539F4F 3BCF2D24 3B404179 3CBEE187 3DED666B BD551216 BD2F96C7 3DA7DE51 BD4700C0 3D379314 3D0F37C6 3C1D64F5 3D674AFD 3DEF0B6B 3BB0D7A4 BD8C9E4C 3AFC47E5 3D742E55 3C85B97D BC48B28C 3CA8650E 3D5465CE BD3751DC BDA2E862 3D63686A 3D0FB027 3C34FE0F BDB81B8D BD5D8608 3DD67A96 3C5341C6 3D3E024A BCC885AB 3D0B16B4 3D337B58 3DAC4F7F 3C1AD086 BCFC646A BA5175FF BAEFA391 BC1D7DCA 3DAE4408 3BCC1E3C BCE65D62 3DAA35FF 3D8B3637 BD0D27D1 BC362F67 3DD17050 3C9C5500 3D276301 BD31D1EF 3C716609 BCEB06DF 3D96E56F BD2B53BB 393CEB7B 3DA73D4E 3D8B77F6 3D393AEA 3C89572C 3DB3CC73 3D7B07F9 3E13E9EA 3D9668EB 3DC61BA3 3BCD8B39 3B9E0DB2 BD6612D4 3CF872A3 3DB69497 BC6E8295 BBEF8965 3C6507C2 3B6C336F 3DB26982 3DA73DE2 3D8C7376 B9B8946D BD1D2575 BCF11369 BD84723B 3D027F6C BC0F7640 3D7C0534 BD805EB0 BD6D504B BC5C182F 3C395B6B 3DA54201 3D23D5FE 3DB97B8F 3DF736CE BCAC3B27 3D5001BB 3D773FD2 BD623A88 3C5E0EA9 3C675F1F BCF62CE3 BD093D7C 3C83211D 3B80439D 3E05E41D BD842CA8 3C9D0E2E BBA26860 3DF799E5 3D09A6C2 3D50DEFB B9D5AF1F BD707FAA 3DA73599 3D950D1B BC45E410 3DEB5ED9 3DA203A3 B9B5C2DF BCDBE0D1 3C8DA829 BD32EFAC BC5F5276 BD0236C1 BD67471C 3D289E19 3CB62E90 3D49A4DF BCEFDF56 BD0C7864 3D22EB88 BD20DFA9 3CEA5574 3C419A6A 3CDEA0D5 BD31FAEF 3D97EBA2 3C4EC637 3D28BDDF 3D2C42EA BBD00C1C 3DA4A29F BD36D59A 3D911B96 3D4390AE 3BD73C11 3D829323 BC912267 3D0EFD44 BD9A15E9 3C9C03D7 BD461508 BD53899A BC4727DD 3D03C156 BB7BB8F3 3B92E535 BD243ADD 3CCC48E4 3A2FC7EA 3DAFA68E BCD5615B BD3AB192 BDB0059C 3D28756A 3DB4DF70 3D2D7534 BB028F11 3D28AD69 BAE02FD6 BB82F741 3D6F63EB BDA8D89C 3CF9B4C2 3D0078B1 3AB9A3D0 3CC1CBB2 3DB21E89 3D5FB38F 3D43AE76 3BA23371 3D4CC6D3 BC82E375 3DBAA7C4 BC1C28E0 BCDA20A8 3DB7C01E 3DA623EC 3AA78845 3D0E76A0 3D8ED0F6 3D32E6C2 BBE99E95 3C0DCCFD 3CC71A05 3D945F25 3CEDA29B 3C4C1C38 3BC846AB 3D3E17FE 3C890852 3C92CD2C 3D662853 BD5EFFD5 3C652737 3CD82DF4 BC9698FE 3DD06F69 3D6CDB10 3E17AFEA 3C962AE5 3AA2B77B BBCAE226 BD2AA037 3DE0A633 B983F3A6 3D98C65D 3D3AA766 3A84BB91 3DAED726 BC91A5E5 3CD97D4A BD95A145 3DB8C3A3 3D669362 3D2A5E0D BC91922E BD22C64E BD0BB815 3C9BE7BD 3D4A4EF4 3CFA57EB 3DCE4FB9 3D426677 BD6371DA BC04B6B4 BB41B415 3DEE6A77 BABAA0D0 3D910859 3C4D5EC3 BD9C396C 3D36B6E1 3C5B6292 3D353E8B 3DA91ED0 3DBAACDA BD1B5BF7 3D41B592 3D179314 BCAECB5A 3DC1A4E6 3D13019A 3D70EFF7 B9538B3E 3B215651 3B615D7E 3CC00EE4 3C892BF9 3D11A2DB BD22F28E 3C147786 3D5DF6A6 3C91749D BCD0F734 BC176476 3DC1D01A 3D191ED0 BCF27F44 3DE95D92 BBC32849 3D7193A6 3D56C722 BD2BB98C 3DE58C4C BAB48F3E 3D2A38B9 3D8A4EB0 3D825687 BD112AE6 3DC30B75 BD47721A 3A3DC765 3D09ED04 3E1BD2B7 BD22EBF3 3C6D4365 3D4B29CA 3D9BD896 3D1B247E 3C6E7CB5 3D025926 3D154A2F BCF1938B BDC023DC 3DB62C92 3C1DDDCC 3C575B31 BD34751D 3CB6D290 BD3EF06B 3CB4BF5A 3D6F573B 3DC046FD BABEF26F 3D411ACD 3DFD2179 3D4809D5 BD110E45 BC916518 3D98FBD7 3CBDA8A2 BD7953A9 3D55A0B1 3D965966 BD94B747 BD85970B 3C104466 3D9F6315 3D1FF492 3B8CC372 3D6A6ED4 BD7A901F 3E06D9BE 3C87E6EA BD74E07D 3B34F89B BD251CF0 3D413031 3D0E3C1E 3CC35CAC 3D3C36B2 3D54F7DF 3DD1A6D7 3C78F041 3CC3BE66 3DBE9857 3DAD5744 3D7D111D 3E246D83 BD2DF1AB 3D7E25BB BB6CCA6E 3D5E58CB BD229083 3DB769B6 3DBE1C66 3CF08752 3D803AD3 3D69CB5B 3E00CD42 3DA269FA BD8D647A 3DA60DCC 3D2BD96D 3D0D33E0 BB62E263 3D448FB2 3D6CFB91 3D044BF5 3D88BDEC BCE544C9 BB58D417 3CA41879 3E298BF8 3CE02788 BC96FBC5 BC13920E 3C94A391 3D781840 3C72184B 3D10928A 3D385F57 3D1F57CF BCF1D1D4 3CE5F776 BD826CF7 BC800F19 BCFB8BFD BAAB4899 3D8B7811 BD8652A2 3D2CD998 3CC70DA6 3D06AB65 3E1033E8 3C9830E4 BCCA4675 BD6900FB 3D84B7C0 3DFC1C61 3D023C50 3D800D5F BD2FBA1D BB64D730 3D5E89DE BD5E98A7 BC375F7D 3DC6DCFE 3DC3F83A 3CA16AB4 3DFAAF79 3D9DD525 BD1D319F BD1DA05A BD9FAA7D 3D2C1949 BD276443 BD8A281A 3C6F8F6F 3D3C2B44 BD84BFEE 3DB2B6AE BBE4E06A 3D4254D9 3DBB436D 3E17CAEA 3C9E504D 3B956659 3D078799 3B756F02 BC7C61E6 BC1664F1 3D3A6BBC BD0FABF5 3BC2AD0E 3DA6A55E BB42A683 BDA1C913 3DBE8B63 3D220BF9 3C9E56CD 3CB16FAF 3D6EC560 BD5F7F21 BD57C99B 3CC520D1 BC8209FB 3DDE61D0 3BB9B81D BB1717DF BCB81DE9 3D8432CA 3C78B22E BD02EB88 BDA78A60 3E18F3AA BDF7C88E 3DE08AF0 BD62183E BDB4E479 3DE9B0EE BD089C51 BCBE90CA BC77F9A1 3D6CDD5E 3D702547 3D439226 3BBAA497 3C084C55 39A29846 3D679A94 3D9B8E74 3D1C09D1 BD833864 3D90C705 3DF91B3F BBA2232B 3DA1DBF3 BDD8E4B8 3D811F85 3D438ECB 3E1E39F7 BC987AB6 3D8E31D7 3DA6C4EE BD8B6899 3D9277ED BBAAC4A5 3DADB637 3DD0ADCD BD6D51C2 BC9DA852 BC8F8F55 3CAAF21C BD93F939 BDB519F3 BC262889 3DA526D9 3E18F8A5 BDC6715C BD07F8F3 3DEC069E 3E08D435 BD9295C2 3BB80B4A 3CC9696B B8F9CA28 BDA50F33 3D4F58CE 3CBB89E4 BCE36DF9 3DD8AB93 BD165BA7 3DF25919 3D841FC2 BD5C8B51 3D2A8C66 BD8B3538 3DD620EF BD5FD42B 3DFE9318 BD45D024 BBAC1405 3D7A970A BD325E72 BD5CC533 BDAF3F10 BC8025C0 3D3F138C BB469550 BD71BD62 3D8FA384 3D34821D BCB6C772 3DCB95F3 BD2F15B2 3DC756BC 3BCB4CB0 3BBBBC2E 3C96DE9F BD2730AC BD3EADBB 3B09BD2E BCDE6F57 3C955094 3E4A7E74 BB538954 BD9BDC77 3DA7452C 3E14D552 3CDDA349 3DD8DDE8 BC37B1B3 3DEC471B 3D19C4E8 BCF06233 3D716AC1 3D2683DD 3CE0B0E5 BD4C4B17 3E0F826F 3D8E9A70 BBE44666 3D028D94 BCF280F1 3D640223 3D99F00E 3DB2DDA3 3DADE9F6 3C80053E 3DCCD962 3DB9751C 3D4594CA 3DAE1D21 3D10B4EF 3E0DD0D9 BCF75B4C BC5D660D BCD0092D 3D8CF206 BD8CA021 BC5C44A4 3DF7574F 3D676B64 3DE8DD1E BD0F37C6 3C0280AE BDAA3E55 3E36B50B 3D564BD2 3B723FCE 3D41E314 BCD600F3 3DBEBF23 3D1C2DFE 3D16163D 3C7AC670 BCCAD114 3DC6AFA5 3CC04B14 3D8AE8E2 3DDF3BEB 3DAF7B25 3DC88BE8 3DF03D9B BDAE1686 BCB0DA28 BC7FC2C3 3C1185CF 3CD2AAC8 3DF96FA8 3C1F0FA5 BD99BD4E BC183622 3DA37776 BD675A82 3CD113EF BD70D520 BD318B0D 3D21BE46 3D2361EA BD76A726 3D1163F0 3DBBCC6C 3D19FD87 BB4679A2 BD923613 3C2CD9E8 BB915E37 BCB8B553 BE025FA6 3D728035 3D4D887F BCBA95FE 3A414DE0 3DA44FD6 BCE15981 3BBF5037 3D601854 BDA6B7B8 3BFCA2E9 BD67F760 BCB52114 3D23E2AE BD1868E2 BCD53155 BCD5237E 3CDFD0B6 3CF41546 BCD8DDB2 3C27476D 3CC7C84B BD7CFE3E BC7FBB37 3DC9E5BA 3BE0F955 3BA810D6 3DC09F8A 3CC73D41 3D304791 3B23FEF8 3C02EBEE BD37B924 BD942162 BD8512D2 BDBA5FAD 3D9BAF10 3C0159F2 BCB1E951 BD3E5307 BCB23DA0 BD6B8B69 BD87B56C BDCD8905 BC8F71F8 BD62EBD8 BD568852 BD8D56A3 BD4CCAEA 3C93289C BD6D3F4E 3B6CE318 BDCAA667 BD7C0428 BD4117C3 3D10B87F BC9112AD 3C5E211E 3D4193E9 BD8B960E BD420F6F BC0D61C8 BD2D8DD8 3CFBF544 3B430FE0 BD78FF40 BD5976E4 3D41B7FC BD3B9629 BD1DDAC2 3C91D4A9 3C767B1C 3D13703A BD707F24 3D77A7BC 3D31FA18 3D0E874D BD30430E 3D234CBC BD2761D9 3D241AAC 3D0037AE BD90C2B8 3D464C80 3D8FDC16 3D0E057C BC556E5C BD8EBCC7 3D00ECAA BCDD0C4B 3D5DE863 3CDE4BE6 BC26D191 3CF09A31 3D396B26 3D93C3A4 BD5A000C BBD7CE73 3D5F3677 BD84B3D1 3DA8B271 3D6D824F BDBA30B3 3DDCE853 BC248F97 3DF79208 BCEE289D 3D3D16AC 3D11688E 3DD8476F 3D6DBE14 BD03F268 3D9599FB BCFE033B BCBA516A 3D624265 3D8F2C66 3D09D587 3D4384F0 BD5401FB BD50A874 BDCBDDC7 3C2FB4F9 3C31C9A7 3D1E0A42 3BC7D3EA 3CC5E446 BCDA6938 3E03F6C2 BBEA10EB BD834374 BCDE3AE9 3C84F92E BDAB32B4 3A78054F 3D43F507 3D64FA8B 3D733780 BD39D3CC 3DC52C82 BC9D7775 3CA5BFAD 3DA13115 BCB6D946 3E2C0D6F 3C2B47AC 3DE09E56 3CDBDEEE BCF79BE3 3DDCC187 BC8D11CC 3D35D0B7 BDCAF59F 3D2F5C0E 3D13F0E3 BD8AFF95 BD2A605C 3DEA8B8F 3D133029 3CA6F171 3D5054E2 BD30CFE1 3DAC1B6F BC81FEDE BCCB0C38 3D442AB7 3CB1C82F BD05D9E4 3D99C828 BDCE7925 3BDF7F97 3DF0E454 3C18D894 BC520A8F 3D222B53 3D4BDE5B BD54B762 BBA49724 BDB32ADD 3C7A1504 3DD1E9F2 3CAD93ED BBF2960A 3D02EEC8 BD0F7E58 BD98B8E4 3DD02689 3DBBBB12 BD37BFC0 BD9E0FB5 BCB02059 3C975918 3C9725EC 3E150F41 3DE21859 BDBACA44 3BCD2B41 3D639028 3D182F51 3C8FD7E4 3D23117D 3D9EE279 3CBDE284 3D3FFA71 3D09B018 3DA97346 BD990067 BB5D0783 3E135265 BCF84A5F 3DD80A9E BD5A8CA9 3BBDA20D BD432386 3DF23CC9 BD3F5423 BD21CD60 BD2BA2CB BE0C14C6 3DFD0F1F BD982BE9 BBC4D80C BD8B46D6 BC16F092 3DE36FC1 BDB3A05B 3DA1FDFA 3D8E742A 3E2326E1 3CB3B8CA 3E5E846A BD22C8D2 3DEFE8AB 3DC13738 BCDECB67 BA8CA43E 3E09E519 BCB787F7 BE2AC81D 3CFB677F BD414885 3E34E161 BDEFCE74 3B8D1D8A BE1130E0 3CE34E84 BD18717B 3C28D35E 3CE3BBC7 3E27DB2B BC907AD7 BB3ACE48 BC891446 3E2DB9C7 BD425E64 3E68A8B1 BDFCC6C5 BBA669E2 3E575EA6 BC8FE9B8 BE00D3D0 3D929605 BCE37769 BD553D14 3E01611C BE6A42F2 3D9B83EA BE2660A2 BD10B377 BD9455EB BD4006EC 3D99F40A BD702D09 3C27590A BCF666C4 BC877143 3E8C1637 BD9D3847 3D409303 BD68C65D 3E109AAA BD8C035E BCFAF60B 3D8F8AD2 BB195983 BDDA93AF BDF4FE7A BD77EDAD BD6A3D56 3CA6F42B BDF69985 BDDDFCA0 3D157796 BC9BA46C 3D1A410F 3CCE82AF BD99AF33 BC6879D1 3D32AD82 BE085836 3CCF7CAA 3E2D523B BDD0E0A8 BE381CF8 BD1348E8 3E288D6D 3D8757F1 3E007703 BE4107B8 BD1C05D5 3E4A68F5 3E414BE0 3E802DBE BDB69ED0 BD59A64A BE1EF6F9 BD22D1D7 3DB62FB7 BC397A75 BD67361F 3E00ECB7 BE23F91E BD879F9C 3DAB370E BB98C863 BD87ABD3 BDC1D331 BE18AD69 BCFC678F BDD4FC61 BD0C7559 BD011B6E BC9CB9E0 3E1F57F7 3D6EC41E BD16654D 3AD8975B 3CFFD7F2 BDEE02A7 3EABF35A BCBD24EF 3D4E0059 BD5A92F4 BCA48A23 BBB83134 3C88018C 3E67A073 BE03FD50 3DF8BC5A 3D192A08 BCCEDE55 3E49142B 3D8E1DDD 3D9D9712 BD0BBC7C BE7BDB5E BD2A920F BD453594 BE0AE792 3E3E08AF BD584EC6 3C344806 3C5F8170 3C599385 3DEF8E7E 3D67D871 3DC74C83 3CC3B272 3E270BD0 BD49B3A8 3D583276 BD2D62F5 3D8EFC45 3CBB407E BD612168 3CAFC123 BD44A5B7 3D97A3DB 3C96ADC1 3DAC7856 BDBA8DDE 3D93C7C9 3C938152 BC5DFEB9 BCF7B0DC 3D381C06 3D8B3878 3C294000 3D9F72A7 BB9AF7FE 3D5539B9 BBA29785 BD0BF6E4 BBAC6C2F BD9CE68B BD5A3D99 3CF3E392 BD10475B 3DD2CBEA BD85B523 3D0CE937 BD43AAE5 3D99761B 3C362266 3D8272F2 3DEE1A3F BA641A4F 3C4442BB BC25B318 3DC21BB4 BCEDDBDB BA700CA9 BC73BFEB 3DD25CC4 3D4DDDBF BD1F5ABF BC063D92 BD9167EC 3DB352A8 BD849683 3D133DE5 3D8388DE BD3D17EE BCF828D1 BC99D635 BD2EB895 3CAF8E99 BCC35123 BD8089A0 3D8FF21B BD955758 BC87DE51 3D05CE5B 3DB8AE68 BCB84A29 3D0D9748 3D098C20 BD0F93A1 3D1539B9 3D490222 BDD3F5B6 3C1879DF 3DD3D7D4 3DA7645D BD68C11F BDAE047D 3D36D1D4 3B854C70 BC9CA263 3DA5D3CF 3D8C9D68 BD3CF29A 3E083559 3DB31DF7 3DAD6353 3E379CC7 B9B9A2BD 3D926619 3DB8DA8D 3C496894 3DD3B96B 3E00CE92 BE2608D1 3CA06672 3D8AFA9A 3DD34613 BD830C4C BDA47BAB 3E274D59 BE21DE6A BCBDFFAA BD5FBFB9 3CDB0AB3 BD4FA5C5 3D2FD03D 3DDEDF1E BD283D36 3D119447 BCE6A40E 3D311490 3CCEE3FE BD4671D4 3E0CA362 3DDFD8AE 3E05CD92 3B1695D9 3DF082CF BDE2C1B1 3CC0AE46 BC399187 3B70E607 BD27854A 3C287D62 3D86B6EE 3BA77108 3D4CFE9B BC01258F BCC02EC4 3D1CF503 BCE8A174 3C98BAE2 3D797735 BD8D0679 BC928EAE 3D4455B5 BDBA7498 BC524E81 3D0297C0 BCB1F8A1 BC4B739C BD917BA3 BD4FA78D B90B5E90 3CCE270A 3D887684 BD2C3F3E BD107761 3CF2C260 BCFE2EDA 3C4BC77F BB48D4C6 3D0C433A BD7B1712 BCD48818 3C848B4A BC93F6C2 BD33B173 BD14CAAD 3C8B9DC3 BD2B0806 3D6C8B0E BD9CE9D8 3D5DC147 BCAC34DD 3CF291EE 3CF7F8CB 3D04E69F BC169314 3D26B972 BD4BF5F2 BD5EAA60 BCC8BFC2 3C371540 BAC293E4 3CC304CD 3D33EE44 3D663498 3B8EE520 BD3AD18D BA1AA645 BD05CB1B BD8AE3CC 3CF2CAF9 BB4737B7 BB53D758 BCF2060D 3CD49A21 3C0AB1E0 BD7F3B4A 3CA5E827 BD2F6E32 3D03CCA9 3C94AD6C BD31B22A BC2578CB BC604C06 3DB2D8EB BD775CC3 3B44946F BC389BBD BC879987 3D8C24D1 BD8A54D3 3C3ED95A BD06115C 3C131A19 3D9D3F84 BBF7A0CB 3D3D37E9 3D1915CB 3D9DBDDE 3C506B52 BD4ADEB6 3D0A823A 3D1C29E7 BC868E5A 3CA505DE 3D1F592C BC955D95 3D9D34B7 3CA20111 BD5451C7 3D979B0C 3DA88A8B BD933369 BD5563AA 3D5A7C33 3D793907 3D82C06F BC4AEC8D BD866CE7 3CCD9473 3D1A4D1E 3C202173 BCE24B19 3CD40C26 BD3A59E9 3BE512FF 3CB0B616 3CA7E6CF 3D3DB51D BD032F95 3D5C908F BC196658 BB9E09AB BC5894ED BCD53445 3D00C939 BCA65A3D 3D87F3CF 3CB8A380 3D47D0AF 3D807747 BD063030 3D0C640C 3D091299 BD565A4A BD201FAB 3A9336A9 BB97CF95 BD385DAA 3D6E97F9 3C7BD34B 3CE7B693 BCC983A2 3D89C927 3C644BDA 3CF99C6E BC9B12E1 3D30E0F9 BB75989E BD13BB18 BC953F98 BD4CFD59 3D5A3917 BB2FF4FB 3D08E475 3D8A0F33 3D998CB4 BCC21690 BD4009C0 3D5DD3D6 BC9A8F63 3C125892 3C0F82E0 3D3E5E24 BCBE747A 3C054AD8 3D54D361 BD6DEFC8 BCAFE5A1 BD286DDD BD39FEE4 BCD9E3D7 BCB672EE 3CF9C0B6 BC1AE117 3C22312D BD13667A BBA172D7 BCF1ACEC 3D4F8239 3D16C574 3CE878FB BCAFB4C4 BCA7224E 3D65B475 3D6C7036 BD36ADA7 BD03434C 3D551BF1 BD2A67B3 BCF0DF9C 3CDB6871 BB4E9BAF 3D7B8B92 3CCB417D BCADC784 3D13EA48 BD19F193 3D21D283 3D8340AD 3CD741D1 BD599D7B BD005921 BC3BE660 3D4FE246 3CD74206 3CB87E61 3DAADF64 3D1F4A99 BCBB5724 BD3D35D1 3D7FEC14 BC950515 BC628C52 3D5E4FC7 BD7C77B5 3D928D6C BD3BBA20 BCDC1D37 BD2923E6 BD296CAB BCADC60C 3D5FFFE5 BCEF7B83 BD0139A1 BC180C3B 3D5BB807 BD189233 BB8B51EE 3CA70A9B BCC57FD1 BD2BC5EC BD100C88 3BFCCA16 3CFC5840 BC60FF1E 3D3A5F5D 3D3A2D8E 3CB19DD2 3C9050E6 3D8EBCEF 3CB56DA0 BB114CC4 3CDF84CB B9462126 3D317086 3D1A97FC BD80F203 BB443D06 3D8E7EB3 BD68E999 BD7D0925 3C0F9CF6 3C24327A BD3D9664 BD8F676F B967E593 3B0BE2CD 3D80CC28 3C65E38A 3C49879E 3D170C06 3E35B707 3C099EA5 3D9AB82D 3CA0E65F 3C5C054F BCAD022C BD0C6BE9 3D41E4DD 3D054ADD 3E06FE72 3D5E7536 BC17ECA6 BCF61C51 3D8DD9DD 3D8B5808 3D3BAF89 BD4ED6C8 3CBF5657 3DD1361E 3D8C3167 BD32AA92 BD2F62A9 3CB323AE 3CBED741 BDB711E5 BD65E2E9 3CCD8524 BD79681B 3D1599AA BD23BBC7 BCC85EA9 BD6F95D5 3CDE6E15 3D680304 3D858106 BA9093E1 3D46CE00 BD491E72 BD3CAB9D 3D0435D5 3BB89761 3D37074E BD40C034 3DF758E2 3DC9E94B 3D15261D 3D3E8C2D 3D799517 3DDC8861 3DE331E4 3BC8EF88 39D3DEDC BD182BF6 BBDC2169 BCA9761B BD88815E BD8312E7 3D7DEDF2 3C388659 BD5D20BD BCB61AA4 3E1FDB4D 3CE3850B 3D188BE8 3DCB93CD 3D5CE5CF 3CEA07A6 3C267A53 3D6681DF BB1EDD7B BCEC53E6 3D69AE1A 3E13369C 3C28C155 BCF824D5 3D9BF70C 3C6DB86A BCE03163 3DEBF8FD 3DDE731D 3C30502A BD7BD711 3D44EF6E 3C7C1E5F 3DF87619 3D00F1CD BCACEA7A 3D9FB085 3DC92BD0 3D05EC3E BE02C0A5 3D4E208A BBC8AF06 BC3B8FF9 3D92D9C2 3D8EDE3A BDC23D5D 3D83DE03 BBCD47F2 BCF61F0B 3CE1BD55 3AA1C334 3D051E32 3C4EC41E 3D0F37FC 3D9881FF 3DE50B52 3D100241 BC5959A3 BD1BEEA9 3E130A4E BD24572D 3CF5D7BE BC4BA07D 3D9A50FF 3E3D6302 3DF8E7DE BC8E4D35 3DEAC083 3D39B1D2 3C1C39A7 BDC59388 3E2F66E8 3D1017DB BD83C6D7 3D597643 BD205F1B 3E109635 3DD0D62C 3D8C7C95 BCBBF21F 3C450F69 BC959D56 BD001ABD 3D614FA6 3DE95C85 BD2199C9 3D71BB64 BD278946 3D083F4F BBE3736D 3E4280AE BC8D5D4B 3C2B2F59 3DA10393 BC285AFD BC957A50 3DC0BCCC BD297A32 3C091781 3D5C6EB1 BCFB59DE 3DC15776 BD28AAAF BBD1184B BC1E1905 3E18476F 3E0C7EF1 BDA7C2AF 3C12A965 BD73F382 BCD1D119 3DA2D74B 3CE3E3D5 3C797B82 390DF5DE 3E271CDA 3CA69560 3C44CB0B 3E195EE1 3D079499 BC90EFA7 BD80E6A2 BAAF891A BD6DD286 3CC014C3 3C57B487 3D0DF810 3DA56D35 3CCF3C7E BD16386C BD76E3F8 BDF61240 3DD2BE49 BCA13B4F BC3B8EB7 BCE7D029 3D43D12B BCB767E1 BCC976D7 BC5F92A2 3CD5545B 3E2F0521 3DF9AE92 BD8C2B1C 3C92FFB7 3DA1D19F 3C60E51D 3DA57D0A 3D60128F 3BD13780 BD40A6B9 3C10BD47 3E0C3266 BD8B44D8 BD1D3E6A 3DB371CD BD847D80 3D814298 BCCAB240 3D8EA4C4 BD370890 BD2F8884 3BD728DC BC127BAE 3D9D3A38 3DE6EF3D BB9F13EC BDB4C90D 3DA75B08 3D51C0F3 BD09FE6C BC17EC45 3E199956 BCE9DAC5 3E1EB24A BD892ECD BD3DD4FD 3D3DB121 3CD22673 3C280F13 BD3BCACC 3DC80D73 3C7E42FC 3E37863C 3C0F4DB1 3CC985BB 3DD30A4E 3E02A6F4 3CD39DD7 BD146DFC 3BBB96DA 3C45B9B3 BC2EF2C7 3CBB8F22 3D054478 BD181047 3DAF67E7 BD81B45D BDE6876E 3D3020AA BCD596D6 BDAC27C1 3D8C27C1 BD805ADC 3D94C24A 3C519950 BC752ABA BD013AC8 3D82126C 3D151703 3D56E697 BC49E7AB 3DD21F6D 3CF44F5D 3D085DD2 3D49FCF4 BD27E140 3C0A50B1 BA97BDA1 3D0FE8C6 BD3729CD 3CC49BA6 BC018800 BD7F7800 3D77BCB5 3D3F24D9 BDAB1B37 3E0F41AF 3D195373 3D8B4A23 3CCE5C4F BD087CA6 3B62333B BCC88758 3D067DE3 3CB8AE9D BC81842F BCDB4104 3D0BD464 3D074B33 BAC2BCD4 BCC26F10 3D1A6846 3CDBFDF8 BD23472D 3CE175D1 3D5D2BDA BD034224 BD790F15 3C2A172B 3D0AF30E 3D456EBA 3C719DD2 3CAAEDEA 3CBEEE1D BC39E351 BD35F7B9 3C93667A BCBE9673 B9CB7CB8 3BF860A4 3D3B506E 3C8CDE6B 3CE65351 3CF180AC 3C855E0E 39CE4C20 BD101FB8 3DF5219B 3C8B16B4 3D79B1B8 BD2397D0 BCE37E1F 3DC270E6 3D3FC86D 3DB9389B BC1C35B6 3D9A9626 3D439424 3C6CBD2D 3D8AF0BF BD4E1FB3 BA17F1FA 3E015E39 BD04FC39 3D4976F2 3D8913E8 3DDF83BE 3C9245B3 BD901F9D BD45C572 BB8CB79E 3D82A90D 3D1A79FF BC9F2CB6 BD1F3245 3DB5BA04 3BFC540E 3D043DCD 3C0290DF BBCC6762 3DBD0B23 3E22D5E0 BA6BC7FE 3C4B87BE 3C8D67FD BA6F6FD4 BD83E293 BCE78CA1 BC6541A3 3CABAF10 3D8320A4 3CDC57F0 3D3630FA 3DCDE6DE 3DAD9B79 3D989177 3DBE642C BD4CF8D7 3DC60037 3C1B8EF2 3DB55334 3D28905D BD989CF2 3D3D6CA8 3B38C482 3D44C562 3CA66F6B 3C5BC15C 3D23F7A7 3DA0D43B 3D29E30E BC88292F 3D5FE436 3C231813 3D2AC7F5 3D1FA6DF BCEEBA93 BC82503C 3D01E9E5 3D63B561 BC9F8F47 BC7BFC65 BD638484 3DAAD96A BBA61E4D BC64E5C8 BC26C8C2 BD44E4BC 3DA4B19E 3D183EF1 BB971BE6 3CD7E4F9 3A1E5198 3C868B6A 3D8254D9 3D8F718D BB951550 3C541454 3CDBF310 BD8334FC BB792C26 BD1AAB7D 3D9D794A BC8290D4 3C9BF2DA BCB47A91 3D23D2A3 3C9E3327 3CA92D56 3D3FDD66 BCDC036C 3D153E20 BD52B3B1 BCEC3E82 BCB5290C 3D5B319A BC8163AD BBA09FB3 BB3DD73C BD59A4D2 BD293A56 BB8F4C79 3D627CB2 3CFAD7D8 3C38B7D7 3C634B94 BDD2A173 BD14CF9B BC416D89 3D3EE5B9 3A80E78B 3DA2D971 BD80CDC8 BD779929 3A45B977 3DB85A27 3D1C9181 3CD4A899 BCB74EB6 3C00EAD7 BB5F91CB BD093C6F BBA93E68 BCF56862 3C9DA8BD BC26D8B2 BD4F3725 3B9F181E 3C9CB5E3 BCCA8600 3D015890 3D198400 BA084545 3D76134D 3DFFAC1D BCD2B89F 3D61B867 3DFF077D 3BDA822D BD068753 3D5889CF BD2A634B 3D0832EF 3E192147 BC5C783B BD79B8A3 3CC5ED14 3B3C3F61 BD9146A2 BD120A59 3D8257A1 3C4744CE BD29935C 3B4A488E 3D381890 3D485EA9 3DC41A84 3C64D27D 3C4BD91C BD4930B1 3D401514 3DD9A30A BD98C40F 3C500C88 3DD17F84 3DC13009 3DB80121 BC2864A3 3C9F6988 BD8F5F0B BDCAD645 BB13CAF9 BD7831A0 BAE09831 3CB465CE BC9A0D93 3CD62033 3CD8F52F BD51EBA0 BD2C5F54 3D824C91 3DC3DA9B BC48C1A5 3CEAB54B 3D04E776 BD88497B BC8275FC BD7D52C1 BD2F227D 3D21C07A 3CC9C398 BD31174A 3CC482E7 3DB342EE 3D4B7458 3C1CDCBA 3ABDFED4 BD35365E BD414778 3D5A4BA6 BD515CEA BD2DA3A7 3C1DA2C8 3DC4713C BD04DCC4 3DC2220C 3D5391E3 BD11D276 BBDD4845 BD3042A3 3DE0B3D5 3C3603C8 3DB93B3A 3CC8FFB9 BB1AD833 3D0596C8 B7CD93F4 BD479017 BB2EF4F6 3D9096C9 BC56A8EF 3D070055 3D22B0CF 3D5611BA BCDF072C BD41CF28 3DB758E2 3B47E22C 3D968895 3D1E5AC9 3D7485E4 3AC3770E BC56352B BD2F0140 3C2CE82B BD9CD749 BC503E71 3DC99DBE BD534BF2 3D76B690 3DB07190 3C78E8B5 BD6C575C 3D1F70F9 3C769736 BC29C48A 3BE6FFD4 BD7F525B 3D95F890 3D6EAE84 3CBBADC1 BC966CBE 3D0FF30D 3D4401D2 3C964C73 BDA148A0 BC094C44 3CA5E171 BB7E8A8A 3D81EBA0 3E1F4517 3BDFA66E 3D7BBCF5 3C846C0B 3D44CBE2 3D5371CD BD4FE210 3D31001D 3C97D1E4 3C7DDB63 BD6C460F 3D99685F BD370931 BD2694A4 3E08C500 BCF19752 3E072FFD 3DA1C2C8 3D9566A7 3C9405A6 3DF60B70 3C565A80 BC9C0CA6 3D237535 3D77FA0D 3D961F84 3E09E7FB BCF84DEF 3CA61863 BD669F8C 3D90758C 3BD58AB6 3C7B2BF0 3D88E2BA 3DDB035C 3DBBEE30 3DF7481B BB5D2BC0 3D958205 BC4EC057 3D277D52 BD9183A9 3CF8012E BD787882 3D81A884 3E45E4A4 3D777186 BA743377 BDA8112C 3D0C79F6 3DDA3876 3E178034 BC2EFF5C BD4019E6 BD17C519 3D2AE968 BD644920 BDE2AA19 3CED7E53 3D521BDC 3CC0C1FD 3CD2292D BD5393C6 3CA8533B BCE7CCCE BCD67B6D 3C8D1D8A 3DF5AF29 3C3B546A BC911FE3 3D3AD447 BCFB23C2 3BF5FE8A 3CAB7747 3CCC14AC BC6AE18B 3D0B7803 BD77B2BF BCB064ED BC5A1951 BD24D47B 3D25DA4F 3B0A64C8 3D5A6E40 3C1517B4 3C3F40F3 3DAD645F 3C373C42 BAD8FC5B 3D8BE14A 3D09AEF0 3DA850FA BC09EA24 3CBAA25E BD851B5D 3D27971E BC4F1FF9 3CAFC0B8 3CD4F377 3D5A790D 3D1CEE18 BD8AA418 3DB1516F BD417DFF 3CCD155D 3D80A02C 3C9DDF0E 3C7BF4D9 BD3E0CFC BDC7429A BA608B93 BD555F28 BBB38EE3 3D010010 3D76EF15 3CE57895 BD3713E3 3DBC4F7F BD1F0FAB 3D1E6B0A BCE683F8 3D3942E2 3D64EC63 3DBE56E8 3D4DC60C 3C13D84F BD00F345 3CE5CC42 BE008AF0 BAE712C9 BC9B683B BDC8607F 3E20281C 3D99FBE7 3D64D6FF BD82A074 3E32E3C5 BD0A0F83 3BF993AA 3C1B1B24 3DFA3F46 BD06CB10 BD27451E B8EB5944 3CA993AD BD970D8B 3DC4D544 3DEDE1A0 BC6FF200 BD2634B3 3D0194DB 3C6E0887 3D62491B BDAD6F54 BCB6DC35 BCA3DF38 BD3610FE 3C7DD8DE 3CCF48DE 3C35CF5A BBE7ED24 BC839DAF 3C5E83AE BD272904 BDFCCAF7 3BED0EA1 3D38548B 3D07F0FB 3D0E8D2C BD973BF1 3DE2645E 3DF2788E 3D961093 3DB00424 3D423CF1 BD182E2A 3D9CAB75 3B25EE11 3C1A3185 3D6514DD 3D473117 BD533CA3 3D1FE685 3D577872 3D35E8BA 3CD7495D BC413EFA 3D88F309 BD3D6063 3DDC8430 3D7C5D64 BC934084 BCAC9844 3D23E7D1 3D6F7828 3D9AB9F5 BD0E4A10 3D47DBB1 3D732F6D 3D445910 3CE47347 3D3744F6 BCFEF78D 3A2F390B 3D77B437 BD5F1D17 BD539E42 3D593709 3C3DDEF3 3D0E06A4 3C3A8827 BB49AD33 3CBA5673 BD3F51BA 3D9EB174 3CDBA868 3C962CC8 BC667657 3D06BDBF 38714F29 3C5E77F0 BCEC9AC8 3D5198AF BC99780C BD1D6A24 3D565A2F BB6AC200 3D0C0450 BCF59E47 3D0EDDE9 BDB670BA BD05F7FC BB1DCE32 3BE8B449 BAFBC7B7 3D2CE1C6 BC86169A 3DA5F07D 3D75FC20 3DC490BE 3C944D95 3E05B3E1 3D6036F2 3C3B15EB BD267E19 3D3BB63F 3D6C2898 BD2FB6A7 3DB25212 3CBA04DF 3D33E50A 3D373231 3D70CA02 BD11A819 3D8B3941 3D8323F1 3D3DD9D0 BD09BC92 3DB2DEAF 3D2087CA 3D28C063 3D7ED1E8 3D6CA3B2 BCA6D7A5 3D5104BA 3CBF1C0A 3D2633C1 BCEB5B63 3DAF82F5 BD78E417 BD59E7EE 3DB47446 BCF8462D 3D97FB19 3D33F2E1 BD195323 3CC5161F BD2CF57C 3D1D595D 3D2FB1EF BB0DE586 3CD77ED7 3DD3775C BD137528 3C9232D3 BC8961A9 3D32E19F 3DA9DF3A 3DE4191A BC611127 3DA4013F BC947F49 3D32F1FB BD2008EA BD78471F 3D2D83AC BD1ADE3D 3D9E1826 3DE5FD05 3DC5CC5D BD364B16 3C3A04DF 3A9A8EB7 3CB24A35 3D25CC5D BCBA831E BD3E49E8 3DB90603 BCBC9BFD BC513D75 BCD52C17 3DA827ED 3CF59543 BCE3CBED BD05F75B 3DFC9D5A 3D0D3283 3D69003F 3CFD97A6 BD495E68 3D30A02C 3D1DBA5B BD272192 3DC6228F 3C542297 3D5903F8 3E201CD6 BC863610 3ABC8FBE BC1F2702 3D3AABCD 3C860060 BC4104AD 3CF0DB34 3D33973C BD6EB0B8 3CAB2512 3C4F6C4F 3DACFAD5 BC1A7440 BC29F16B BC74FB55 3D546CD4 3C4F8B59 3CD42C72 3D38C401 3D0418C9 3D15C8F5 3C6ABA89 BD5ABC5F 3D268A28 BC3FFE88 BC6C006F 3BA23737 3D6EF714 3D52F1E0 BD4AF379 3D54936B 3D0E1877 3DCCEFED BA573132 BD984274 3C154AC0 3D8053A0 BD8F895B BD42F7CC BCAEC0DE 3D8E1B3E 3DE79AAE 3DB1A099 BD2BA337 BCA758D5 3B17CC90 3DEF0A5F 3C75CCA0 BC8E3E1C 3D1AE4F3 BC81FEA8 BCFDDC39 3DA1A5F2 3D839D00 3CCC4D15 3D9AB523 3C8E11DC 3CB3CFA6 BC487691 3CFCD35B BCB2CCDC 3C8DEA6F BCBBAF03 3D349A21 BD07B3A3 BC1F5109 3C88C4CB 3DD932D7 3D6A41D8 BC9D58D6 BBCA76B1 BC5F4723 3E0733EC BD63CEA7 3DB523B3 3DC28C5F 3C5B7217 BC8CD0FF 3D8A7DD3 3B49FE3B BD1BF239 3DF55F78 BCAD2491 3D32B6D7 3D4A2893 BCBA4DDA 3E10F840 BCC2179D 3D64F3A0 3DB331BB BD068DD4 3D8844C3 3D2B0D2A 3D9F0358 3D39E0B2 3BB31079 3DF2495E BD03B8D7 3D033A62 BD2F024C BC400F4F 3C0E2694 BD005194 BBBF0869 BD30C997 BE0DC3BD 3D8F817D 3D4971B4 3D14CFB6 3D0FA326 3C8E0653 BD61871E BE0378AB BCBC254A BADF1650 3D6097F0 BD6D0AAA 3CE467BE BDC58B3F BC8F1B91 3D328A97 BD6C67D2 3C261390 3D1D0925 3D352FA8 BD510A13 BD84237B BD995F9D 3C4A8204 BE062AA2 3E0FA333 BD0DA62B BD630843 BDB2AAD5 B9FD9E59 3DDE2718 BD03378D BBD7854D BD6EEA49 BD41CC53 3DC2FAE4 BD4601D7 3CF5EFA6 BC86ABB6 BB890FC9 3AB7AA26 BD7B6765 BD7DFEB9 BC0D62EA 3CA85EFA 3A903FFF 3D0EAFFC 3C199410 3D3B8653 BD454BCF BD8CAF71 3D58BCFB BD1C8C5D 3CD59F03 3D985795 BD59315F 3CD5BDA2 3D7B0D6D 3C528D00 3C5EA176 3DD70F7C BD16DA37 BD36B767 BCD08370 3C035D62 BB0191E6 3BB44DE5 3D074E58 BDB74C5A 3C576E10 BD43B1B6 3D03CD14 3D1BC44C 3C12C179 3C3EEC39 3C839E86 3D8CB875 3DAA0FE1 3D04EE97 3CCFD992 BD3E801E 3C8DBD8E 3C921A14 3C2D7152 3C0F6828 3D750ED6 BD887260 BDC1B40D BD783B60 BD63D7C6 3C91A976 B9299A5C 3CAC607B 3C3600D8 3CBEE94A BDD1CC10 3D010EBE 3BD855ED 3D5DCEE8 3DE7CE10 BCC5DFDE 3CB4596E 3B635AAE BD88E0AF BD58BA26 BC9E1991 BD9EDB73 BD4CB352 3D23CB16 BD814C08 BD193576 3CE563D2 3D201BE4 3B944257 3CA40599 3CBBD995 BCC99327 BDA66CD9 3DEF8BDF 3D1F6D4E 3CFB36A2 BD27CA2F BCE951D3 3CFDE325 3DA881E4 BD8A43D6 BCD33BE7 3B3FBB6C 3D89037F 3E128F19 BD1908CB 3D4F4EA2 BCFC84B6 3D5AF1F4 BC1EE101 3D8F8D21 3D24A805 3E277B7C 3D8E59CA 3BFEFECE 3C8CA743 3C6B95E6 3D8E6D23 3D020E98 3C0E3126 BCC65DB2 BCB01CFE 3CC3D8D3 BD0979FC 3D794DE5 3D838DBF 3CD61291 3DEA1944 3D983CE5 3DE5260F BC063AAD BD46E024 3D9EEF44 3D0ACCFD BB976CEF BCE79CC7 BCFBDA6C BA97A0C6 BD2B2B42 BD4CF511 3D4FBDC8 3C8257C9 BC0ECFD2 BD28FCAE BD8E73F4 BD618520 BC725A90 BD053C9B 3B91473B 3B2D6C34 3DA0E1C2 3C9B9EC2 3C7865D8 3D55014F 3CCE6736 BC9F0656 3D335364 3DB22A04 BC31296E 3C84EF1D 3DAD1351 3CD055EE BD80182B 3D93C983 3DF10907 3D2E0B5B 3D40C7C1 3D05E014 3DF416BE 3D3DB4B1 BCF7C88E 3C323B51 3A05C291 3CF795CE BC7ACBE4 3BDDF970 3DADD7AA 3CA3FD6B 3C835BD5 BBEBC002 3CDB6B61 3DF1F4F5 3DB0A336 3DB7D813 3CA01620 3E0F6CF0 3B274350 3D4E761A BD2B3E57 3CCF832B 3DD53A3F 3D4E32FE 3D4B3EA8 BD922391 BD84DC08 3D949038 3C1D72ED BB82C770 3CB29472 3D9A2212 3D6568F6 BC1A86F5 3CE3DF38 3C0F7AF2 3CA396A8 BCC800EB BD8B7861 BCB75537 3D175E3B 3DC93419 3D0DFB86 3C2FF2A1 BCA217ED 3CEE9BF5 3D1FFC3A 3E0EBDD3 3D0B9199 3CAFA35C 3C9DB080 3C73A803 3DD8ADAC BC93897F 3CE5361A BC996D24 3DBC48AE 3DF55E6C 3D207B6B BDD5C209 3B93FE7A 3DA36489 3D45A5FC 3D56778B 3D1C2225 BD022468 B91BC862 3CB1BF2A 3CD354DC BD6C9829 3B885BEF BCDF3479 BD4F2354 3C9C2855 BCABE602 BCA44F6B 3DA08ABA 3C966F43 BC8F271A 3E03A81E BB1AA7E2 3C1231BC BDA51698 BD843145 BA80328D 3D3FE03A 3D118DC7 BD74841C 3DB61AF4 3D695457 3B3B5023 BD85F677 BDB48550 3CD10A49 BCD075CF 3D466B8A BB6EFD79 3D18C3CC 3DF1DCD7 3D0B5294 BD38A5E9 3D9A0AB0 BDA6961C 39A051C5 BDAAC124 BD72BE2E BD8633A6 BC9A20DE BD83E151 3B55C010 BBF7F027 3C3DADE0 BC25FB3C BC95AEF4 3D7B8130 BD8984AE BD7F5042 3B3E53E3 BC956ACB BCD65D6F 3D7E09F1 BCFED162 BC89FA1F 3D4E04A6 3AAE45F9 BD467B29 3DDF0BAF 3D1183EC 3D250F19 BC855971 BCCE43FB 3DCFDA83 3CDC234C 3C2F5A61 3CAEC1EA 3D10B616 3D273D0B 3D0442A0 3C28657A BD1B1290 BC3EC538 3CEF4EA2 3C7B5434 BD01882B 3D2C8D92 3D95BBE7 3D165D54 BBEB8AA8 BD95EFC1 3C24DE71 3D3B082F 3B9C2F61 BC949045 3CBCC045 3E2DCAD1 BC8E1EDC BD5B0433 3CE16830 3CF1073F 3DF2C732 3D20D34A 3D7ECF99 3BC35743 38464AC1 3D5D915B BD81362B 3CF31BEC 3DA952D2 3D0A1929 BCEAB911 BD1F9039 BD0EFF5C 3DC96165 BCC88179 BCEB8C40 BBF5AF85 BDBEF234 3D9BC1F0 3D945D6A 3E05FDCE BD014021 BD63FDD6 3D6D3C29 BCBFA674 BD28FE26 3D93AFC5 3D8BDF4C BD1DAB77 BCB2DBF5 3E08826B BDB0248B 3DF2D7F9 3D7AE37B 3E0780BB 3BE05179 BCCBCD5E BD5A9791 3CC11DD8 BD027419 BCDD0600 3C8659B6 3D1AE2A5 3DCFE1DA BD28DD6F BC452107 3D21173C 3C9DDED8 3D8D42DF BD060228 3DE3CC08 3CAF393E 3D3E9CD9 3D8EB273 3D8B5A49 BCCB4E48 3D97ED5D 3D3EE3A0 BD0679B2 BC8EDE55 3D6A4D46 BD170931 BC529132 3D3C68B7 3C6EDAA9 BD87580B BD1EECA5 BB0B7844 BD428ADA BC3F4C46 3D902265 3BA3BA85 BD188A8B 3DA1DAB1 BC25276C 3DC21C7D 3C676641 3C200792 BA830B63 3BAFB1DF 3D0355C0 3DB46B85 3C992500 BB069607 3CCB1324 BD525933 3C54A7F8 3D18E10D 3D2BC241 3DE30EC3 3C313ED2 BD5DFCBB 3D721251 3D9F54FA BD84906E BD9E1B4C 3C845382 BC0501C8 BD0749D6 BA8B2F74 3B866B29 BCEF95F0 BD874A41 3CEED16F 3DD4F7A9 3D140CE2 BC5AAC1E 3CBC8557 3D123B01 BDA79F08 3CE9D1F6 3D40E7A1 BAD7DAC8 BC09AE75 3CAB1D85 BDB7CBF7 3CD34D85 BB605DA3 3BD96CAE BC78F331 3D18C727 3AC08ACA 3C7DCB07 3DB44A7D BD31E109 BD4E732B BD2A44E3 BC043396 BC4CCF51 3C7B05C5 3DBD20B0 BB867220 BD0C616D 3C60D3EB BB8F4151 BC9B7CC9 BB465DC8 3DB76717 BDA238DA BD418E90 BD293137 BC8CBDB3 3D015301 BD69D07E 3D26ACF8 3CE2E8CE 3D9BCFD5 BD06367B 3DA84861 BD1CFE8E 3C411C95 3E074D59 3D38AAF2 BC6ABA1E 3D9F33D8 3D30115B BCDC7806 3DFA7A85 BD96D091 3DC620FC 3C1B7160 3C31CC2B 3DBF6612 3B4EB0D3 3D60980B BD7FEFDA BD58B5F4 3D398C99 BD415733 3DA83F92 3AB144B1 3D5CCF5E BC9C1C2B 3D9C9745 3D5E1204 BC3B59DE 3DB9E485 3CF7376F BB20A450 3DE5B531 3D3E9318 3D380C9C 3CFD0148 3D564501 3DC9EBF7 3C8DB601 BBCE62CF BC34D0C2 3D29ECCE 3DAEBE74 3D9DFA37 BD19D21E BD76C6EC 3CC8CBEC 3D057662 BD291263 BD3C57BA BD82FFC4 3DC38A56 3D8C10AF 3C963E9B 3D8884AC BCF99334 3DA6A528 3D4DBF3B BD4B70E2 BD15E3E8 3DDA12B6 3DF4BB5E BD743ECC 3B2B0A04 3CAA7081 3CC11C95 3CD8BD66 BDBC17EC 3D6C72BA 3C786C22 BB2C0DBA 3CC80EF8 BCAA6422 3BFAB781 3D47E2D3 BCC2FF23 3C5E5C41 3DD456B4 3DA583A5 3C2D835B BD6EBC91 3E0493C9 3D9AE452 3DFB37CA BC4A7C25 3B707DD7 BD02095A 3D62872E 3D8F63F9 BC7FE528 3D4CBFCC 3DC5EF12 3D483D86 3D9344F9 3D5FEA31 3E061134 BD792ADF 3C2F98DF BC4E3DE6 3C3C5B66 3D81E471 3D7FF914 3CAEA05C BCD32A14 3DFE1006 3DBC417F 3C76BD61 BD327B7D 3D5B512A BBF16C69 3DA08950 3D457DD3 3B9A62AD 3D35C05C BCFAC6A5 BD773F9D BCF5DB4E BCE8324E 3CB42968 3DE554B9 3C42E2D4 38F36F70 3D8B59D0 3DBD8FC8 3D8A4EB0 3D81D0BB BC9FF060 BC30D449 3D5E1FC1 BCF8A8F4 3BDBD8AE BD825B82 BCA2C55D 3D038E60 3CB42785 3DC3452F 3DBD7CF6 3C8E2E61 BC80BF43 3D807C85 BE0C857F 3C3E8F88 3C95142F BD3B2D32 3D6E2D8A BD6F6A51 BD61F893 BCE9FA3A BD684026 3D055905 3C029B05 BCA2AC68 BD8CC2AE 3AB50200 3C4D83AC 3D22485F 3AB2B5CA BCD1933B 3C60715A 3D288AB3 3D793907 3C1BF346 3E0FABDA 3DB1E7BF 3C58DDE8 3C399187 BB06E0AF BD30CCD7 BC97FC0B 3B7CFFC5 3D32EDFE 3D9F7EA8 3C322A8A 3DADC1A4 3C33E001 3D850E78 3C9DF1B8 3D256FAC BBBFDFFF BD540D4E 3DFB5200 3ACA986A 3C9430A4 3CD38187 3CE4E450 3C9BAE11 BD73111F 3C09873D BD35DCAB 3D1E6835 3BC148F6 3D01CDB0 3D37BAED 3D438540 BD0DEB45 3A85147C BD49E17B 3A730398 3B0DA545 BDBD2136 BD53F7EA 3D2D3F4E 3E0D2E0E 3C33311A BCDBB2E4 3D10A519 3D9B3F8C 3CC81EB2 3C1BA395 3D1BC6B5 BD2CBE8A BD49EDF5 3C0B1E41 3C187E31 3E0FF4FD 3D399781 3C4ACF9D 3D77CFCB 3BFF6627 BBA15220 BD0271E5 3D831E98 BD357CBA 3E2C43B3 3D0B8844 3D58BCC5 3D945FC6 3C3B1804 BC68FEC7 3C3E0660 BD6E9A2C BC17E2C0 3CA1986C 3D743BC1 BBE440C7 BD46F13B 3BC9E73F BD9688CB BC5BD8D9 3CD3E4EF BC133D29 BD3E45EC 3D5D84C6 BB8D38F9 3D119D67 3C363EEC 3D7DC6A0 BC52806B BC13CC9B 3CA94C2A BCDB7140 3B1E7B81 3C92DE5F 3DBB861E 3D786262 3E262889 3CEA6209 BB8EEC6C BDFBF8BA 3DF0257D 3D8BF31E 3CDF1FB6 BD5A6EAC 3D44F964 3D32AE8E 3D652EC3 3D93609A BCBCD5DF 3DCC2B0F 3D67BDCF 3CC245F6 3CD06035 3D38C4A2 BC9AC1ED 3D4BE7CA 3BE97768 3D98FB01 BCCD2A20 3D9890D6 3D8CAFE9 3D25A485 3CFAE5E5 3DD7ADD1 3D86DDBA 3C2B034E 3D730E65 BD319320 BAF85135 3CF2B8F0 3C4308FF 3D7FC598 3D613EFA BD891502 3DE2B40F BC5D8440 3D4524B2 BCC613E1 3CFFD8C9 3D86318D 3D8CC2C9 3CB0097D BD6AECA8 BCD3095D 3DA184B5 BDA684DC BABF7C57 3C1A0F2B 3CFF1DB8 3D393B70 BD48AAFF 3C7988ED BCB8839F BE12D880 BD88E821 BC4C7D87 BC6F6AF2 3E026E54 3C68D6EF BBF07218 BD1580B6 BC1DF5EA 3D01BDF6 BB976892 BCF8D99B 3D73888E BCA04E8A 3DA414B2 BD2240ED 3D9F9E2B BCA65B49 3DE8509C 3C4A884F 3DF57A35 3CFD7E46 3E069553 BD273259 BB7835DC 3DE23316 3D02FED3 3D869729 BCEAF4D6 BD0F7030 BC9A2835 3D1A1C76 3DE9DA59 BC86DB87 3C48F9D9 3E04B231 3CBBE447 3DC4C03E 3DD90EAA 3D821393 3B6788E6 BD9F7157 BD542338 3CEC8A6D 3DFF9160 3CD1DDAE BD195465 BC9C2672 3D801FEE 3D9F5C01 BD00DDE1 3D756E92 3DCB494C 3D2E8C8B 3DA49540 BCD927BA 3DE9C561 3D4E7CD0 3CC81DDC BD34E45E BB9EC959 BBFD787C 3C95237E 3DF3F4AA BB080CD4 BA158995 3DEE5E68 3D26A261 BC91D25B 3BC312FA 3D302D5A BD27EEC7 BCE3AB00 BD313349 3D28AE75 BD24FDCB BC108325 BCF087F3 BCC6B98D 3D82B2C0 3DA8ABF1 3E1528F2 BD4F14DB BBCFB184 BD04BB86 3D21358A 3DADBB90 BC776B06 3C258489 BD1EAC93 3D444AE8 3C838FD7 BDB470C3 3CE18308 3D1289C0 3E0BA0A5 BB9263DB BD26644E 3D889F4E 3E18BAC7 BD045C36 3B424DEE 3D03B3CF BBE7EC8E BD081E7D BCED3847 3D298783 BD7D28D0 3D88C147 BD19632E 3E2DC6A0 BD10C83A BD110A7F 3BC0879A BD1CFFEB BB2B0A04 BD392DB4 3D722D7A BC8357D9 BD280C23 3CCBF247 BC9736B3 BBE540E2 BCA974D9 3CA37586 3D247C31 BDA1D83A BD52AAFD 3D8CA4BF BC2900AA BD8406F6 3D43279D 3D64989B 3E409AED 3D359593 3C810442 3D4D9620 3CE5DB92 3B32B26F 3D224AFE BD047022 3D00F70B 3E0DC593 BCF7036D BD740A5E 3DA85FD0 3E0ACB43 BD8BF5AF 3BFA65A2 3D1D3B7A BCF6668F 3D51B047 BD0A35AE 3D3771D7 3DB3794C BCB9321B 3CD87AB6 3DAFF64D 3D5EA811 BD6D3847 3CA2A836 BC332D54 BCEB42DA 3C3A34AF 3DA7B6F1 BCB25735 3D400051 3E11D25B 3B83898D 3D94FFAF 3D3720C9 3D4ACFD2 3D5574A7 3CC8D775 3BFC08D0 BCF77DB0 3DD0F27C BD09FEF2 3A44D326 3D6E334F 3CECA17E 3CF34EE2 3B4AF3AF 3C5B0433 BD465A57 3D464DA7 3D7AAD10 BC82FB93 BD5A8A25 BC62BA09 3DBE8ADD 3E12B5E5 BC1ED208 BD3077CD BDB2A737 3E01F42C BD81CED7 3DEB4D8C 3DFC18B5 3D19B457 3D3610E3 3DF3C4F4 BD83A480 3B2B684E 3DAF8437 BCE56331 BC6DB8D6 3DDCDD51 BB659F01 3D4B4741 3DC1C766 BDB43DE8 3B2AFCEE BB34F9C7 3D292238 3CE889F7 3E01D191 3D0A93BD BCA79174 BD2B03EF 3C888BC0 BC293873 BB3B71DC 3D424AAE 3BD08F4F BD4025F5 3D35B193 3D8664FC 3C897A32 3D3C02B0 3C9C7150 3DC2C428 3DDCF2D0 3D08B596 39DEAC26 BC1B1438 3C9D59E3 3DD43E96 3D0E45C3 3D90D075 BCBCE889 3CA6EABB 3DA14DB6 BCE68611 BD90F678 BDC314BD 3B1F7048 BD2AA26B BD7A667E 3C026FC7 BC76FBE0 3DED5411 BCC80EF8 BD34F64C 3CEE68C9 3D3AE056 3C6C6874 BDA0880E BCC93716 BDABF7C8 3D822D5F 3DAF0D9F BD6F5D1B 3D29EE61 3DA99100 BD0466CD BABCB4A7 3B7495BF 3CD6FE7F 3D4725DF 3D6791C5 3D81FE14 3D2B33A5 3D3751F6 BCD8789D 3CCDB311 BD45686F BD422574 3DF18DAC 3E0D6F54 3CE22C7B 3BF7806A 3CC36CD2 3DB736DB BD1B50A4 BCE53F55 BC019806 BD20A3FF 3DF7CCC0 BC419638 3D515161 BB1C0255 3DEBE6A3 BCD4D7FE 3BABBBF1 3DA198FF BD23C983 BC25D72A 3DA33B03 BD72D327 3DD841AB 3D030B32 3C8516F6 3C4A2411 BC5C585B 3E0DF97B 3C6C56D6 3D24559A 3C0280AE 3DB6DB29 3D87E67E 3DD173FB 3C48A29C 3CACC44E BA955BF2 3C7EAC43 BD184612 BCF0EFC2 BDBEC065 BC3A039C 3BB34C9E 3D38075E 3D30286C 3D75B5DF BCB7E0AC 3B0D431F 3DADE77F 3D2BD7A5 3BF25B7D BDBA8595 3D1A3F46 BCB18B5E 3CA006D1 3CE35DD3 3D9EB844 BCA65102 BD9007F8 3DA7B1C0 3DB2C004 BC6266FD 3D95195F 3D7BBED8 BD1FFC04 3CFDC08B BCBCA9D4 BD1829A8 BB318B7E BCC5E156 3D1BDC4F BD519879 3D6ED22B BB2441BE 3CF92C71 BCC7215C BC76B859 3CBC8989 BD75B630 3D4B05ED BD0EAD42 3D893DBF 3D020147 3D18D7D3 3D1A1901 3D6C06EF 3DA1D466 BCC591A5 3BAF4700 3B981058 BD0A8D72 3D4B7DAD BBFBF3D7 3CDB1671 3C046FA6 3D7097C8 BD637CC2 BAB8AA2B 3D7A86AF 3D2A3070 3D1D2631 3DA2CF96 BC1551B6 3C36A4D8 BD1222FD 3CCF5E78 3C0B7839 BD0C1186 3C95D986 3D8F9BCF 3B85DB0B 3DBCC97F BDBA402B 3C96AD56 3D95F0E8 3C9BAA4B 3D1FF36B BD12002D 3CF82434 3D1312B2 BCA785B6 BCD77D95 3D0EDC06 3D7D04BE 3DEA7BD5 3C82C542 3D32EDC9 BC22091F 3CDD4083 3D6A1ABB BCB71BC0 3D9212D7 3A538CB8 3D4D1DF6 BC96271E 3DB50D86 3B092F94 3D41FCAA 3DAF8D7F 3C9C5EA6 3D23B470 3D93E9EA 3CF91AD4 3D51E032 3B734760 3DE53544 3D978EBA BCBC2804 3D850A38 3CA60949 3D85A873 3E0838C1 BD75E204 BCDA54AA 3D4E613C 3D61AB9C 3D009013 3E0871E7 3DE306E6 BCEEA7E9 3D8DD477 3DEDB270 3C9DF259 BCA2595C 3C1CCD40 3D3CD757 BD84718C 3CCFD4BF 3D6F9584 3DBF7A19 BC36AFBF BC8A13EB 3DBC63A1 3D8E2B14 BD89E17B 3DCC52CC 3D0163E3 3CF17EC8 3DBA6FD3 3C15B574 BC26AA23 BD42EB88 3DD5E636 3CB3F0C8 3DBF449F BD0133DD B99FEBE6 3D2E7345 3D189A96 3C5E7EA6 BC64BDF0 3E0B506E 3DB18C5D 3DEE1EF7 3D054AC3 BC3C1194 3D2651F4 BB5CAF6E BDB19FD0 BD4A936C BC22B252 3DD4DAD3 3D4E7A67 BCE5870E B96704E5 3DBBD78A BC1C13A7 3CAB1268 3CB1B1BE 3D2C42B4 3CB38ADC BC3BF28A 3DB40182 3BAFC1E5 3D921FBD BCE57B19 3AA6DB77 3CC7E96E BC8898C0 3C94ADA2 BCCECB75 3D7EEB2D BD6C3C34 3BF2F8DB BD230C24 3D809AED 3CCD6579 BD141A69 3CB18F5A BD41BB3C 3DB77A63 BD8F902B 3B34720D BC8E284C 3D76814C 3DF13511 BD82C011 3D22A19B BD053402 3C1EE8A3 3DBA80C2 3C261756 BD19231C BD171591 B8F14F0D BD3F2438 3D167F83 BD0B9AD3 3D9EBB77 3CCC0160 BC168AA6 3B6D532A 3DBC1F00 3D1AF244 BDA3B653 BD53FB95 BC76E4CE 3C77149F BD434E84 3DB3F3C5 BC382286 BD4A20D0 BDADB9AC 3D3A138D 3DA0B6FA 3D23C99E BD3D9903 BDB5E8A0 BC3530CF 3CCE5380 3C9BF021 3DC891BA 3C525D30 3D2577F4 3D068D68 3DAD48BE 3DFDA9CA 3A1C24DC 3CD36786 3C6ACFED BCDA78F2 3B1DD28E 3E072EF1 3C11F35D BCA2DCA4 3C02E50D 3C0C09D9 BCFAE90A BC876D11 3C696016 BD69DBD1 BD3B584B 3C382AEA 3D21FB32 BBF37786 3CF7BD06 3DF43D04 BD6C9321 3CA740EC 3D3552FE BBBBC655 3DBCAFDC BD019FA8 3DB28615 3E04CD31 3D3B4D7E 3AED108F 3DFBD7B2 3CB09D21 3D9288E9 3DE4C166 3C9046D5 3D8BE015 3DC5713E BD13B2B5 BB2679D2 3D13EE5F BC4B5B48 3D66B98D 3AF76801 BA4AA8EC 3C4FBFC6 BCEA5467 3D35C183 3C6EF0E4 BD2430E7 3E317F84 3CDAF809 3D5E5EAB 3CBB15EB 3CA1A31E BD36C468 3DC34B6C 3D5DAE16 3B08A5AB 3D9F1CD3 3C46AF7C 3D937EDB 3D740952 3D1455DE BDA5406F 3E2D91AC BD6EFC1C BCDA5079 3C2C7757 BCFFD171 BD47E9F4 BC851BFE B9AD977D BCA0451A 3CEF1349 BD2B1507 3D344277 3CEE20A5 BBEC6E68 BD4C0AEB BD650E78 3D4AFCCE 3C8BC530 3C863FB5 BCF6D9B1 3D5D6968 3D82012C 3C004E4F 3C8A983F 3D08036F BD16CD51 3C96EDB8 BD937931 3C16D524 3B41902E BCFECD30 3D2773E2 3B2AF084 3D01CC89 BC82DB47 BDA1A204 3DE31594 3E08487C BD1F6D33 BC86583F BC7933C9 3DA090F7 3D07AF06 3DE49CB2 3D969A84 BD629F32 3CAB9149 3DC14CFA 3D0B8DD3 BC76C772 3DAED5E4 3DBD8B61 3D674030 3D4A5849 3D0771AF BCF37FBF 3CD2B6F2 3D89B32F B9CC8C60 3ABFA74A 3E162C34 3D0355C0 3D172581 BC95EC30 3C4CE6CE BD7A0FAB BAB58080 BAA99DC9 BC92A58A 3DD60FA1 BD38C5CA BB43BF32 3D3536E4 3D21A1C1 BB59FA07 3D9B6509 3D004AF9 3D91A9AB 3C43BF72 BD7A36FE 3D42C577 3B771017 3E2BE879 BA839D03 3D906141 BC8942D5 3C18DB8E 3DEAA3AD 3DAD83FC BD205E44 3CB3FD93 BC8804B1 3D222FF1 3DEC97D9 3BC75A32 BD6F8071 BC1EB583 3D2ED154 BBA7559A 3CB90504 BD08FE41 3D83D189 3D90115B 3D5E3E0E 3D9C5A66 3DCF8DF8 BDA4B373 3D3B45BC BD2443FD 3CC1263B 3B848EC6 BC70F246 BC791B09 3BEA12D9 BD324074 BD88864C 3DBE5322 3C8F8EE9 3D188E51 BC5176EB BBB96D8A BBCB025D BC8402FA BBBED593 3CC3B7B0 3DF3708B BD0B23B5 BA1C5C4A 3D39D50E B95F4FE5 3BF1063D 3DCCD4AA 3D4941FE BC108899 3BF9BD86 3CAA48A9 BD163EEC 3CC25072 BD829B5E 3CA9B068 3CA5F3E5 3DDC475E BD6A7900 BD5DE3C6 3DB2E2D4 3C04AF27 BC1789AA 3C8B7366 3C93F042 BCCA1BAD BCDBF3B1 B9A3BFF4 BD1B2697 3D69A317 3D56E5C0 BD835F9B 3D2AE2E8 3D9B9113 BD5BD39B 3D0842DF 3D8A58C1 3DD42785 3BBEA166 BCF9434D 3C92205E 3C0DB50A BCA1705D 3CEADD8F 3CCEAC6B BD983559 BCF5B193 3D4DCA23 BC15FBAA 3CCF3669 BDAC4779 3DEB239A BC63B399 BD4FFBC1 BBAB8D0C 3D74EA8E BC8CCAB4 3CF83424 3C634620 3C68F019 BD2A3579 BADEFED4 BB4DFACA BA1397E7 3DDDC9C5 3D879EEE 3CA8F3DF 3D599187 BD4A38B9 BDB1B0DA 3DB615EC 3D157A1A BCA8E8F8 BD2440F2 3CEA10AA BCA432E5 BD139E78 3D95D9E4 3D2B295F BD4D6869 3B995E76 3D13C361 3D037494 3C8AAC97 BC531B30 BC3E483A 3D4CEE25 BD5C5586 3CC73B28 3CBC268C 3BEF9EB4 BC891CAA BD6B0CBE BBB75C0D BC4ED18A BCA13321 3C73DEF5 BCC646A1 BDF595FF BCBCD06B 3CFCF04B 3D822864 BD928813 BD811FBB 3DC163FE 3D2E9905 BC008A09 3D6D2857 3E234699 BD90F0CE BC512232 3D0046E2 3CAC6980 3D523F9E 3C0DBB54 3B7F6378 BD01F065 BCA25205 3B5A9BC2 BD437BB6 BD8172EF 3DA781FD 3D10B128 3D167F33 3B7742ED 3D14FBA5 3D681E2C BC887809 3CD237DB BBADA697 3CA6EF8E 3D5680FB BD638EE6 BDDA77E6 3D343E10 3D32AF9B 3D3124D1 3C0305AE 3C32603A 3D0A7412 3CF02DC5 BB07630B 3C6CC4BA 3D521E2B 3D101C0D 3DB0ADA5 BD40C82C 3B08BDFF 3D228D0E 3E197BFA BCF33186 3C5FBE41 BD526EB2 3DED716D 3DC05E5F 3D292ECD 3D1F4377 3B4E15CD BD008BE1 BB0DCA83 BD4EA23F 3DF35EB7 BD419206 BD6ED692 3CE33F6A BC76E6E7 BC421DB2 3C9B55FD 3CF24887 3B402BD5 BD976973 3C3AA0E6 BC939CCB 3C38FE4E 3DE45C36 3E3A72A8 BD6EBCE2 BD69BE3F 3C9CE68B 3DABD23E BE26D9BE BB546F03 BB62F126 3C1D83A9 BD6525A4 BCCC05FD 3C8D96C1 BDDFFEF4 BC0072AC BCCB6EC9 3B40AC83 3A63E872 3DEA6D26 BD8357E6 3D5FF229 3D218A94 BD117142 BD4D20E5 3DDB1077 BAD68E98 3D1A0A1D 3D8DD1A2 3CCFEA23 3D1A9329 BD5D9613 3DFAF859 BD5BC3AB BCCB4AED 3D8C9900 BDD00B46 3D5D5C82 3C8A4137 3C7E9F42 BD08EC02 3C120902 3D80489D 3D531338 3AB6C19E BCC3F375 BC16C1CE BCD918D6 3C8DA38C 3DA0A8ED 3D3E3CE7 3E0830A1 3CE529F1 3CFC56C8 BD8DD088 BDDA2510 3D6C5C4A BD071D2B 3D1E7BB6 BD1452EE 3D64A00D 3E1BE059 3D0FB799 3D6200F7 BD3AD42C 3C144E20 3D364EDC 3D4D42C4 3D8875FE BD619942 3C961AF4 BB02AC42 3A45C3BB 3D1DEEE3 3DCBAEE8 BC558497 BC41FA76 BCD10328 3C5FE2BF 3D81E18F 3CB47410 BDC7C8EC BD506085 3DBD94A9 3D678911 3D511F78 BD12C260 BDDA61E1 3E028F19 3D4FE719 3D721485 3D94C27F BD844227 3D8FF88E 3CF4BF5A 3DAA5856 3C8A7788 BD7C6F52 3D521BF7 3C3A662D 3D0727DD 3D6C9986 3C562B86 BC4FA8B5 3DFBAFD9 3CFFD106 3DD1DC51 3D2D716D 3DA94376 3E34A87E 3D0D2CF4 3C281487 BA304AC7 3D79B48C 3C0C7813 BC193749 3D0A6549 BC1B5FD8 BD441B4D 3C9FF533 3DAC5A74 BC4D2C6E 3E37A355 3D739F9F 3C149A81 3C1FCB6D 3DD28E0D BC182D53 BD1355CE BBDA9725 BCE56077 3DD4D057 BBE3E6F0 3C6E0FA8 3D9661C9 BD56DE33 3CCEB108 BDACD45A 3CE03C4B 3D0A7AE3 3DDF0E4E BD7C54CA 3D63DA4A 3D5064D2 3DC6BF1C 3DC3ABA1 3C9238E8 3CDDA929 BCEBE9C9 3DD5F80A 3D7FC405 BD647149 3DAF5CAF 3D8EDEE8 BD355821 BC948197 3DCF2A5A 3D0E4664 BB26BDC4 3BA4D0F0 3C704D05 3D4FB00C 3BEF9712 BC90FFCD 3D4EC1CF 3B6A2B02 3D122EBC 39845C79 BD155582 BDC04486 BAEEC113 3DCCB6F0 BCDCA80C BCDA03ED BD2E0DFB 3E001FFB 3D89B49A 3D9EED96 3DC4F97F 3DB09B8E BD7771D7 3D4EACF1 3D5EDC9A 3D05704D BCD4DE13 BD367D85 BB556D5A 3E2541D9 3D85D610 BD7EFBA3 3E0C6E2B 3D6424BD BBEB6B48 BC7196B1 BD83869D BC27A70E 3CF68994 BB494F95 BD00B25D BD4B0FAE 3D93B7BD 3CB874BC BD77A6B0 BE492A73 3E2959A3 BB31B4EE 3D2829B5 BE72E6A7 BC2DD0F4 3DB2EBCB BCB1F546 3DB5EE21 3DEC1B11 BD1EE4FD 3D61FB83 3E192C8C BE3A3DB4 3D43675E BE2F3CB4 BCA53C9B BD654717 3CF9CE58 3D819FC3 BD637D2D BC31D276 3D14A0BC 3B1A04A3 3E0B6D01 3D5DBD80 3D0144A4 3CEA3A30 3E0552E3 3D86A487 BD0FAB03 3C886E99 BD26040B 3CA34AF3 BD03D70A 3C8726D0 BCC1937E 3BDA2901 BD16CCCB BCE6D704 BB34184B BE056BCA BCBEE8A9 3BA8CBD1 BCCD6833 BD2284FB BD01E6F5 BDB6B675 3B80D715 3D866BBF BE4B2D4D BDC5FDF6 3C3C1BA5 3CE18846 3BACF023 3E04F97F BCC86595 3C437890 BD8DC84D 3D4D8FA0 BDB0252C 3D1F597C BDAAB4DF 3C1E5B95 BD767481 3D150B7B BD022CCB BDB779CF 3D85019F BDD5C209 BCBF66E8 3D5647BB 3D352993 BDC0CA45 3C968116 3CB3EBC0 BD514CFA BE081C2E 3D90FCEB BD2A3685 3D82A7D8 3D84861A 3C9D3C51 3CDD4307 BDAFDCFA 3DF66730 BDF85CEE BC42E69A 3E09B414 3DC2D682 BCEC8F40 3D498D62 BCA1C766 3B88C5E2 3D81E7B1 BD930CED BC6847E8 3C318A51 3D4AEC8D 3E1C5005 BDF8CF3A 39DCA837 3B1C1016 BDD197A2 3AF4F738 BDBF10ED 3C92E947 3D0EB697 BB4C758F BC31C21A BCAEDEDB BD7E4E85 3DEAB14F 3D80E941 3DB848E7 3CA8071B 3C2E26EF 3D94B3A9 3DE471B4 3CEBAEDA 3C77ACE0 3D22D872 BD165E10 BCF69370 3D4E566F BBF36629 BD3C76DF 3E0D249E BBD56C84 BD36951D BA8CE500 3CBA2ED0 3D465A8D 3CCDB2A6 3D644E0E BCEA9139 3CB0630A BC94B3B6 BB406B40 3D9DF10A 3E06188B 3D02F8A3 3C85E303 3DC4A2D5 3D808AF0 BB817ABF BC957A86 3DA29A01 3DC1FBC6 BCD6517B 3C8E8CC0 3C731104 3D439D43 BD134019 BC9C00B2 BD7E7246 3BA17419 3CD4E99C BB2A62C0 3CCC14AC 3C9C98F3 BD423C86 BD5ADC90 3D354881 3D3E33E3 3D70941D 3B7ACB63 BD201889 3D857D4D 3D86C72F 3D0E64B2 BD2D1DF6 BD9CCC97 3D73958E 3BB7DFC0 3CE69C16 BD6B1141 3DA17332 BC616D6E 3CFEB0E0 3D0E604B 3D4ACBBB 3AB8EAEE 3DBF0358 3DD27DCC BD4C0BC2 3B599A91 3D8B7704 BCD7972B BD30B35C 3B941E1A 3D1931B0 3CFA4A49 3BFD294B 3D716477 3D90475B 3D789BD8 3DD21038 3E07CD46 3CD21830 3DB3FE19 3D6623B6 3D3DCE2C 3C098565 BD3D38A5 3DAAAE95 3DB2B496 BD4C3A1B BD29D6AE 3D74B0AC 3DACA728 BC6612EF 3C6EBB9F 3DB13E08 BCAC8996 3D279D83 3DA7ED92 BCD060D6 3CEF5DBC 3D7B8BE2 3C387BDD BD1D6E55 3DC8504B BD79EB13 3CAEBC41 3D4F5EAD BC85A485 3C298966 3D41BF53 BC853E63 3DCCA7E4 3DB29620 3D6E7452 3D91C0BD BCE8CDEA BC84F674 BB34CB4E 3BDECB67 BD825F48 BDBAD5CC BD410EBE 3D27BD64 3DB4FEF3 3E0DA1EC BD12B869 BC7EA3DF BD1B88A2 3BE87183 3DEA98AB 3CFA365D BD71CD1C BD406226 3C837FB2 BDD66ADB 3D1D2143 BBCA63BC 3CFAFB7F BC9125F8 3D674DED BD1889EA 3DAB9644 3D444A47 BC0949CB BD8FC0FB 3CE048E0 3D494E5D 3CEDB6F2 BD7362CE BD193C7D 3D9F3890 3CCDB81A 3D9A7FDE BABC0C8B 3C81CDCB BCD7CD7C BCA87676 3C1697F2 BCDEC1C2 BA13F0F4 3D26C2C8 BC9D7201 3A280EC1 BB22979A 3C901C42 BD4D504B 3D57288B 3CB6962A 3CEAF252 BC218BC1 3DB3E7F9 BD0097A0 BA1C495D BDA6848C 3D6F3669 3D8AADF4 BCB5B1FE 3D312019 3D6ECE14 BACD7239 BBD29046 BC82755B BBE387CF 3B2EBCEC 3D83C56D 3DA97CB6 BD8012E0 3DCC8191 BD753B15 BD95592E BE0E542E 3D7845F7 3D26E1D1 3D3ED924 BD3A0E84 BD32D30C 3D7DC578 BDAC99C9 3D1B82A8 BDD487FD 3CF5232D BC761672 3DDAFC05 3D5703F3 3D15EE49 BDC34D4F 3DB59B8E BDBE3758 BD81A239 BAC51C7F BD17B7FD 3DE42AED 3DC1EBAD 3C5A5CD8 BD996FEB 3DCD98BF BCE09247 BC433D01 BD10EF8C 3D144F93 BC818BBC BD3C9DC5 BE0E310E 3D524AA0 BC2ED210 BCFD42B6 3DBD0884 3CACBE3A 3AFB8A4F BCB455DE BC5CA446 BDF7FAE3 BDC097F0 3C25E644 3C911ED7 BCDF28F0 BDB28B45 3D425E9A BD11564F BDB2834D 3D7506DD BDEE51D2 BD7BC9C0 BD96DBF2 3C4D3324 BD923B0E 3C5C4BC6 3CF18803 BCB09FDB 3C21C110 3C09EFEE 3CB8293C 3D9A6D92 3E05C140 BD702851 3D6DD35D 3CFA559C 3C5CB3CB 3C1EE2AF BBA6473C 3D1C486B BB149F09 3AF60250 BD37939A 3D97B4CA BD3FCF08 BD514212 3C2A787A 3D3A2743 3C532B8C BD1AAD45 3C588DCB 3D578A60 3DFE96C4 3C85F9AA BD4A296A 3D0D35A8 3D990801 BBA066D3 BD6FD17F 3D3CD78C BBD62DF5 3C4C8A1C 3DF58106 3CCB475C BD24DE56 BCB1B6C7 BBEEC0D3 BD225C31 3BC85BCF 3D077A63 BD0454C4 BB1CEE38 BD86754A 3D0A51C8 BD28C917 3CF6BE38 BC19E85E 3D0B822F BCD0DDD4 BD4A3741 BBEA15F3 BCC20C4A 3D1B6079 BD3A70AA 3C262F3F BCBB7E26 BD5A6D6A 3CA35AAE BD921541 BD4AE211 3D0C93DD BD64FC89 3C1A70E5 3D1831D5 BC979182 3D141ABA 3A39D9F8 BB72396E 3D86A85B 3D740F16 BAEB4838 BD3FAFC9 3BB00A09 3DB52CD3 3BF2B1E4 BD354DF5 BC654859 BC7935E1 BD2D1B06 3D466FA1 3D2A16BF BD3A1AE4 3D3293EC BD181E6F 3D801CC9 BD365054 3D9CA52A 3C2A2786 BC578375 BD3BAB22 BCAA6D5C 3CE78BCB 3E26C97E 3C8E76F1 3D72C79E 3D190646 BCABB2A1 BAE270F9 BDA129D9 3E346951 BD7BA8B8 BD92F76E 3CF7E86F BDD4E22A BD6F83CC 3B6CD078 BA7E4F62 3CBF3783 3DC147E4 3DD1D1D4 3B64712E BD07E82C BD2B4FBF 3CE00F6A 3D870EE8 BD9C711A 3C377A55 3CCF3776 3D56994F 3D2008CF 3D1FD2E9 BA2FBB6F 3CD3C793 3DDCC101 BD0F39FA 3D3ED055 3D1B6490 BCCC0054 3B4B63C1 3D663FB5 BCA368F1 3AFBCF6F 3D17E1EF 3D0B69F6 BD5BFD57 3D3B75C2 BD566029 3D46F065 BC1EF2EA 3DC76542 BCF1B336 3E0990B0 3D4394FB BA850208 BB910083 3D0058EB 3DB95F09 BCC5312D 3D141927 BD4ED1DA BCC8F4D1 BCACCD1D 3C1F433C BCCABB7B BB35471F 3D60D95F 3C10AFA6 3D9A3A81 3D18C5AF BC815A73 BCCE09E4 3DCD887F 3D57BC2F BCCDD7FA BC3B7084 3C90AAA8 3C2CBFE7 BC270959 3CD39721 BD367847 3B853142 3D3CB4BC 3D214793 3D27386E BD0D8EE4 BA120AE3 BD08468B 3C36CD87 3D2BA1BF 3D47C724 3D9CC243 3B7EEB58 BC39E717 3DA1135B 3CD4AF4F BC0E09CE BD475C15 BD3B69B3 3CD2896F 3E0FD08D 3D147B4D 3D3BD457 3CDE4672 3D00ED4B BD24B938 3CB82434 BD51A727 3D85E17E 3D9B3C82 3D26EF58 3E23EB7D 3DC4B366 BCD59AD2 BD0130ED BC5F5713 3D9F5B6D 3D56C417 3C545705 BDAD695A 3C835951 3CC9C9AD 3C781C06 3DB2C50C 3DA66FF1 3DFA176E 3CDC95CD BDB84F17 BCA0E736 BD5666DF 3DCA029D 3D763F72 3A2A0397 3D48D683 3D391A9E BD23F050 BC8C4411 3E023E18 3CFF13DC BB71AA52 3D1720C9 3D8AA44E 3D3E1A17 3D4E429E BD37F8E5 BCBBFF1F BD1C86B4 BC264650 3D03EF79 3BEA28D3 3C8C0B3C BD6DB37D 3D854145 3DD3A14D BBBD6221 BBE91191 3DED51F8 3DA92D3B 3DC1AB31 3D223FE1 3C295BAE 3DA8D881 3C77AB32 3D30649C 3CB92875 3DA29612 BD4F3832 3CE46499 BC8586F3 BD9565F9 3CD14D65 3D3BD3D1 3C778CFF BCCF312B BCA71D7B BD149F29 BD2BFE56 BC4677B4 3D86BFCB 3D0CA4A4 3D9EB654 3DC7C541 BD312811 3CEE0A6A 3DF5B3E1 3C05B495 B9D57636 3D8A52FD BC81DEC8 3D5BC0F1 BB53DFBC 3C946A86 3D20758C 3DD51DEF 3DE53B8E 3AF4F230 3D9042D9 3B3BC035 BD011C0F BC8D4929 3D4B69C1 3D60267C BD4FEE1F 3D801FAB BD160576 BC1FB837 BD95DD17 BB91E194 BD5C4403 BC695889 3DB44242 BCE31727 3DD63C32 3B49C0D4 3C2D7732 3CEB11C7 BD1CFBB9 3D1BC58E 3CE13067 3C20B7BB BC62E96F 3B37FD88 3B9C314F BC93B62B 3CF0E729 3D4714C7 3D03ADD5 3D3D3225 3D2C86A6 3D7643F4 3D82C718 3D47CA2F 3C5CE68B BC7CE960 3D47F166 3D7162FF 3DC2A447 3DF45BF2 BCEBC14F 3DC83C37 3DF9170D BBFB6628 3CADBBC5 3D3A795E BB489530 3D43419E 3D168B27 BB3FC0A0 BD347080 3DAF038E 3D44CE4B 3C3670D5 BD42CDC0 3D23FA2B BBC18195 3D26DD85 3CD31155 3CB6555C 3CD7BFDA 3D3DB304 BD5F638D 3C331E3A 3DE9AE4F BD2A5E0D BA9B9D80 3DC773FD 3C9555D3 3D9CA164 3D83DFCC 3CBB2C5C BD3599C5 3D4882BB BD114F13 BD001B0E 3D33A6DC 3D7EFD87 3D24FDB1 3CF91BAB 3C39FFD6 3D2C4AE2 BB3091AE 3D8317BA 3C784952 3DDBDBE4 3DA4AD00 3D140BBB 3D9E9F1A 3E05B3E1 3D419A9F 3E180885 3CF956CE 3CB21E2B BCD20CA8 3DB889F7 3CCA2EC3 BC6226D1 BDAB1E77 3D4B7747 3D94CA6A 3D8A4243 BD4C87CE 3D01D87D 3C79009D 3CFF3641 BA837A73 BD65033F 3D24FC89 3BD5AF74 BD205B3A BD3E1310 3C23BB5C BBFD8EE2 3DDF8CA8 3CA137F4 BD00F401 BCF905DB BCF911CF BD4009DB BD857C26 3D0941C8 BC8F2A75 3D0055AB BC12775C BD98E3B9 BC8F619D 3B9C9C83 3A1CF8FD BD89FC1D BBF00B2B 3CCC8FFC BD9DBB17 BC317192 3D8D7965 3D8A916E BD1C1194 BD0BF841 3CDABCAF BB4F0CC3 BD860385 BC2E500A 3C9C8323 BD41D9DA BD9B055A BDAB9D80 BD52A9A0 BAB37868 3D0EF88C BD3B6CBE BD8057EC 3D7292DF BC532E7B BD7A9882 BCE7825B BD7AD0B6 BE0AF8DF BC19C25E BD313D24 3C1EE41C 3D041497 BB0D9E64 BCD98BC2 BD523E91 3DC02B19 3D261ACC 3DC113B9 BDE5BFAD 3D2D3A96 3E146A5D 3D6528FF 3DC6088D 3C99889D BD8DC535 BC30926F BD50C9CC 3C4D8ACD BBE7F633 3C0F9386 3DA6DB29 BD84B2B7 3D06A1F6 3DD71DA3 BD11F271 3CA3C4CB BD9F9BA7 BDB6356E BD8ED154 3DC8F798 BD1261E7 3D34D75D 3C815D98 3DE03F70 BCECEE40 BCF664E1 3D8F7DD2 BD3E9EF2 BBD9D7E3 3E46B2F2 3C5A151F BD971C54 BD801953 BD09E4F1 BD6E807C BC96DD92 3D2D759F 3C3465CE 3DD3D3A2 3C62EF4E 3C08BBFC 3D89C08E 3CA0FFBF 3D0937B7 BB985536 BCB7CF44 BBA5AAB4 3CB44948 3CC958A4 3C54BC85 3B4D2969 3D049922 BCDF7256 3BB998FE 3DAE5174 BC939035 3D84389C 3DBFDB75 BD175F48 3D2F420D 3DCDEC1C BD3FB415 BBB7EE59 3C605540 BD7B0C60 3C0CA9FD BCF17812 3D60F4F3 3D3DF091 3D4DFB1B BD25E18C 3D7A4D03 BD00688B 3DE60243 3C5A6AB0 3C890FDF 3DA89042 BD734084 3D3507CF 3DA0C8F6 3C8BBC61 3C51E5A6 3D96A6AD BB3BFF75 3CE1E4F7 BC552271 3BA55A83 BCBFDC8F 3D915486 3D65D1D1 BBC09689 BD13C204 3A601554 3C974F72 3D33973C 3D2AB34D BC8277DF 3D2B7854 3CC0276D 3D8AD348 3C9F8C8D 3D82D53F BCD4B4C3 3C59D777 BD26583F 3D25F6D5 3C6493FE 3D6507DC 3C87541D BD797F7E BD0A5721 BD05CEFC BD5AF7D3 BD07AAEF BD1F45FC BCD374BC 3D5401C5 BA8CC3C8 BC00557B 3DAEC03D BD4CD8C1 3DCB65AA 3D064488 3D66A0CE 3DC75742 3D9BA337 3D777E36 3B04F649 3DAA296A 3DD09B74 3CE4EFD9 3B97D990 3CF33D44 3DB6829B BCCF94C8 3C825DA8 BD24F293 3BE6620A 3DBB2C77 BC3B7D19 3DA1E215 3D1078F4 3BCA1CC4 3D4ED4AF BC15AF14 BCF2C6FD BD3F1A77 3D8280FF 3D1DB2E9 BCCEA8A5 BD53CB59 3D4B57ED BCDE7E70 BCA05EB0 3D8F9AA8 3DD7A893 3CE29D84 BD00DD90 BD3C3EAA BD1A795E 3D443A07 BBCE8B69 3C8EC311 BD48CA09 3B07F354 3CC1C857 3D98AA5E BC2C9C40 BD4421B3 3DC908B0 3E19BAA1 BCAA0C0D BC4C38BE 3C270238 3CBA5B7B 3D8DD0F4 3DD3E5FB 3CBA8CC4 BD1FA45B BC333912 BD0A3487 BD881E1F 3D99568B 3D6D7E89 3DDD7907 3DB96EB7 BC3D8E00 3D6E61DD 3E353587 3DA12572 3D0E74A2 3BBF17EE BD87179C BD2F8C2F BD19CB68 3CAF166E BD2B24C2 3DF16873 3DB8A505 BC6F544C BD69BBA0 3D8D3A45 3DA197F3 3CE1B4F1 3D621B63 3D07AA84 BCEA07A6 3DF42246 3CA6F13B BC81FD9C BBB6BA7C 3DFFBD6A 3E023EE2 3CD67232 3DD21816 3D50BD6D 3D4F170F 3CABF51C 3D71471A 3CE5A0D9 3D471AC1 3D135405 3D8CA778 BBE1A93D BC1013F4 3CF32D54 3BCC8B89 3D5D546F 3A1A74F2 3E2AE42A 3CAA7016 39F4F3DD BCA307A2 BD3F6505 3C6E1587 3C68F3DF 3DCC164C 3D95A279 3D0E6DB7 3DDD25AB 3D2F9478 3B4A6A9D BD111567 3D89656F 3C1F66CE 3BD858B2 3CCF114B 3D7A5871 BC678763 3DC33956 3C464778 BC92A29A 3DCD96A7 3DDDB878 3DD15486 BD6719EB 3D769AFC 3DC77C61 BD40B40A BDA29988 BD2CF95D 3C34B57F BC895945 3DE8C587 3D9EE89B BBB81687 3D56A396 3E07B203 3E003750 BD2ED99D 3E47DD01 BA47241F 3D104817 BB16F44E BCA26479 3DF4A340 3D01C730 3A646F9B BDCB8405 3E3AB14F 3CD2D5C6 3C8F4D7B BD058EEB 3D52AAFD 3D121D6F BD85431B 3C0D8874 BD3E86EF 3E1F0F17 3D23F177 BC77C4C8 BD6100CC 3CA8E425 3BF46FA9 3E0062D4 B9B7DCD1 3B5492EA BC7658B7 3DD7FBF0 BCFEA91E 3D91015F 3D3A0C50 3C548B73 BD3960C4 3DAB9537 BD98C0C1 3D45D795 3D750855 BD113745 BBB69B32 3E38622C 3B9A969A 3D3CCD10 3D17AA5C BD80AB71 3DC6B7FB 3D6E7A31 3CD283FC 3C894D1B 3B7DA8B8 3D5D00F7 BD66A1F6 3D15B467 3C113A85 BC58D79D 3D9728DC 3CF45C5E BCD353D0 BD620147 3DFD5886 3D0A0DD6 BC893D61 3D4FFC11 BC5A568E 3D87D8CF 3D4D878D 3D11DC6C 3C31D0C8 BCB4C504 3C91AA82 BAED9920 3C7EE7D2 BC65082D 3C85D9C9 3DB414DB 3D533765 3CB7C1A3 BD42FAF2 BD80D1DF BB336548 3D064B08 3B7EF43C 3D3C6201 BD16640A 3D8D269C BB059BB6 BD28099F 3DE8D2A2 3C8C1D0F BB21D8D8 3D98DB56 BB2D7315 3CD9497D 3D950CAF 3DF214F0 3DAB5A06 3D1FEA81 3DC6791E BC2EDB4A 3CF220E4 BB828F11 3CB5F769 BC0487AF 3C837429 3D5E3F36 3D8B4296 BC2D893B 3DF43394 3BE74AFD 3CC35661 3DE682B6 3E1A593A 3DEFD5CB 3C233559 3E28B75F 3DDF38C5 3D5E6C9D BC31FE14 3DA6BA72 3D9A05D0 BC5853EA 3DA14D72 3C3F9908 BCB67A10 3D9FDA25 3D4EA6C2 3DD1B2E6 3D29CAD5 3DE0B1BC BCE9208B 3C5D7816 3D3414DB BB94EB34 3DD28F9F 3E3D2631 BCE4289F BD7648E2 3DB5B39E 3CF9F98B 3D54EF46 BD91AF04 3E10EBEE 3D5FBF33 3D52F739 BCC8C7F0 BD8130FA 3DD172EF 3C26BAEA 3D486F1F BBA17C3C 3D70E729 3D763A9F 3E069B5A BC1F1EC9 3CE00665 3D37B75C 3D8E66BE BCC78E9F 3D72C83F 3D413280 3C14FE14 3C84B38E 3DFF84CB 3E1163BB 3CE95853 3D13590E BCAEF79A BD99E442 BC0ABAA4 3D3FFC1F BB1B1D7D 3E03B96B BD83F8E9 3D04FC89 3DAC5833 3C69E790 3CF4ED48 3DFC1F86 BCE56580 BC8B1D35 3CCC85B5 3B1E5AF4 BC94A1E3 3D73708B 3DDFA440 3D580728 BCBB1C6B 3E00B7C3 3D05C359 3CF20099 3D3BE7BD BD19FC7B 3C5D136C 3E03CC8E BC200F14 3C9A1159 BC04CA95 3D826718 3DBD3530 3D6815E4 3D1BD5CF 3D079698 3DCF7122 3DE36EB5 BD1864E6 3CA1A353 BE3DF091 BC2A95D6 3D0B0AC0 3C18DC5A BD824D24 BD807F74 BBAE5D20 3DAA1EC5 3D2E3228 3E11322F 3D16B31A 3CCF988F BD93A282 3D41376D BD1D5C67 3E724420 3CA7D425 3B41F558 3D9545AD 3DA87FD9 BCB24F73 BB58E966 BE092C06 3D33EE0E BC8AC3DE 3E034D27 BC114E31 BD98AD69 BBA56CE1 3D25F344 BD8A563D 3CEB74C3 3D97B6F1 3D6BC6DE 3DC7E3AA 3D2D2532 3DB9EE61 BC29BF16 3D3E7063 BD4F3C49 3D6622FA 3D555150 3D6483BE 3DDEA811 BD591A4E 3BF6C56F 3DA0272A 3DAAA060 3CBDD873 BD36EBF0 3DBFC405 BCDA327B 3D093D96 3D03A699 BD3FA044 3DA7A2B4 3E076428 3D04DA75 BDD23F68 3D15D900 3D790789 BD2D0B9C BD9EB6E8 3CC69AB9 3DA40E9D 3DCD5AE2 BD5B1EBA 3DCE1E71 3DA2CF2A 3D338E37 3D1035F3 3C592104 BDD3C819 3D43FEFE 3E0E23F2 3CF12AB0 BD22D6AA BD6597D5 3E2E492C BC59B5E9 BDA3BDFB 3D6D0F48 BDC48784 BD9F40E6 BC06222E 3DC54BDC BC453A31 3D896610 BB4402FA BC761C51 3D3D651B BD322765 BC84AB96 3DA66433 BC8E3F94 3D26DAB0 3CD52058 3C592CC2 3D876C7E 3D783B45 BC4ED550 3C5747E5 3BB47CDF 3DA40698 BCE0044D BC60DBE3 3D7D24B9 3D437E8A BD73B6E7 3DF38CDA BCC0222F BD52B23A BD661706 BC8AF2D8 3DDCC63F 3D36D224 3AEC8D5C 3BB53EE7 3DA2E375 BDC744C0 3D20D81D BD892C21 BCE27E0F 3D14974C 398D19E2 3CE8A96C 3D62A059 3B4C7792 3DACE091 BD4200DC 3DF0B0F2 3CE9DA24 BD45CFB8 BD3FFFE5 3D9F50F1 3D3F19A1 BD67ED6A 3DD213E4 3C8CCA49 3D0660D8 BCAA85E6 3B8C1B6C BCF5EA68 3D85E629 3D2CA4A4 BCA2E218 BD93A938 3DAC93C2 BD867034 BBF4C564 BD999C54 3D88EEAF BC91010F BD6626A6 3B60B3B4 3C942048 3D22BD7F BC86A3F4 3D2C1F78 BBC5B3A9 3DBA8DD0 3E1B72C5 BD2EC4A4 3D281D3B 3DD0CE4F BBEED119 3D87CD1E BD3BF071 BD7D2ACE 3D7AC0AB BC994658 3DD2630F 3D6358E5 BC1C3926 3D7CE39B 3CA48C3C BC8615C4 BC5142E9 3D8A10AA BD933864 3DCA2C3E BBE80969 3BF684C2 3D240A86 3DBDD31A 3C8DB95C BCB7B726 3E37418D 3D1C9928 3CA7D7B5 3C8C38BE 3CB04329 BD292D05 3DC0BB6F 3CD352F9 3DA66491 3B8E9B64 BD5A2256 BD070B22 3D56DCF1 3DF0CF5B BD4CFA6A 3DD0BE94 3C41BB21 3CC55A47 3DE3B03E 3CAC2BA2 3DAC65BA 3D9800B5 BD6B13FB 3C31D713 3BEAF72F 3D3997EC 3A052667 BD07C73F 3CB3CB74 BD4B2C4E 3D48A67D BDCD6F54 3CEA7306 3CE75C9B BD1FC639 3D51FE14 BD708F14 BCFB521B BCC04966 3D4561D4 3D6A841D 3D239079 3CAC6584 3C9A005C 3BF25B52 BBFACCE5 3DB7AB90 3E1452C6 BDE1E365 BC0CB667 3C9869B9 3D976A8D 3D1CC690 BD9952E0 3D6CE7A5 3D8378D3 BD87AD4B 3C4A5086 3CD91728 BBC46575 3BFD83E4 3B182DDF BD25EAAB 3C8B8067 BCF73E5B 3BA2595C 3DA8C6F1 3B5AE264 BD1730B9 3D02EB01 3D792C71 BCF353EA BD8A7A42 3B19445F 3C92992A BCFD74A0 3D3213AE BD3EE9B5 BD245C86 BD51D799 3D46DF32 3DBF8EDC BD7CFBD4 3C7A7A85 3B53B41D 3D22AD3F 3D780EEA 3D1CFEA9 3AD5FEFB 38FC19CA 3CED9C50 3CB603FE 3CCEF5D2 BCDE4530 3C514D65 BC9A4236 BDDC33F8 BBAC875D 3D81564F BB831BBE BC835A93 3CEB9B5A BD7B3596 3D9A9E47 BC92919D 3D85C6E9 BD1B9EF8 BD77E6C1 3D015550 3AD98C4E 3CA8F268 BD6798E6 BC53A457 BCD39DD7 3D06C2AD 3CF5C910 3D9B445F 3D8DD419 BD189614 3D93C113 3DE6149C 3CA93CDA BD30CB95 3D0249A1 3DBE4078 BDD1F81A 3D199100 BC5DAB41 BD40BF93 3C1692E9 BC6FDFF7 3D13EF6B BDAE63B3 3C17AB58 3D790D9D BD7EABD8 BDD524C0 BCFA6414 BCB2EBB0 BCEA5970 BCD237DB 3D1E288F BD111079 BCA4E3E5 BD40EC09 3CE779C2 BD57EFAB 3D84E436 3D11418C 3D77542A 3E00BB2C 3CE17B45 BA59822C 3DA403C3 3B8A2A3B BD61D01A BC3948F7 BCD17F84 BCFAA9B5 3D65181D 39FED080 3D71145A 3DA59DA6 BBFB9334 3D21E6C0 3D438668 3CF00A8A BC5EF417 3D69C4DB 3D522135 BD6C20D5 3C8922F4 3D19AE92 3BDB45E1 3C5BA542 BCFCC0B0 3CC804E7 BD6E4F69 3D8764F1 3D3ED64F BAD01FBE 3D5E0D4C 3A9B3C31 BD14A9F6 3D9EE44F 3D0BB10E 3D1C2946 3C18B518 3C05D1BC BCF2D001 3D053C9B BD645946 BD0119C1 3D70E1EA 3CCBD04E BC065AF8 3D3D8FFE 3B986E76 3C7A489B BD393957 3D17094C 3C9D11F4 3C453C4A 3C66DD19 3D65D23C BCC9F623 BC61EFDF BD667748 3C53B081 3D1E09F1 BD36F23A BC0848EF BCD2E4A9 3C9625A7 3D58081A 3CA887A9 BCA9A4AA BD0FD6D8 BA927EC8 BD0BF9D4 3C55B757 3BFB5083 BC85296A 3D5925BB BC7D75E2 BCE6F1DC BA090816 3B94F748 3D56D407 3D399E01 3C90A6AC 3DDE29B7 3C71DE6A 3D0E2FBE 3D0FBD93 3D52CA72 3C029033 3D85FD7D 3D25C2ED BC325A5B 3AD098DF BBB7A370 3CC2D4C7 3D645A52 3D736BEE BD05FDF6 BCBF17D8 3D9B521B BC78586C 3CA84889 3DAD62E7 3CBEA1FC 3C300A1E 3D296448 BD5AC802 3CB18762 3D887062 3D2247D9 3C9E3E7A BCA4D4CC 3DA1D276 BDB26EF6 BBB7CFD0 3D5EAAB0 BD594277 3BE66EDF BD496F9B 3BD77532 3CC44758 BCD2B5AF BD3B6028 3D8D7CE9 BCA6B50B 3D5692E9 BD17A6B0 3D6B2A6B 3C9BDF5A BBFF4708 3D465E39 3C1F2D42 3D488EE5 3BEB9A58 3D055666 3DA57C76 3E110CB3 3C417A1E BCC622C4 BD828904 BD116A05 BCD5D5F5 3D3E905F BD88C734 3C60DFA9 3D77F986 BCFA33A3 BD48E582 BD31E124 BD70C72D BD162612 BD8D7676 3C68A068 BD4A75A5 3D2A5C7A 3CEBB98C BD444BBF 3CCBDE90 BCF72241 3DA862C0 BCB0CED5 BBB5539F 3BD78EC8 3D1332C8 BC43F29E 3CC46EC5 3D4F5E92 3D51C44E 3D1E87FB 3D417332 3E145ED5 3CBF06DC 3B79D066 3CB6A7C7 3D08FA45 3C45EF63 3D35FE39 3D994C6D 3D8E2493 3CB1FD73 BD87E6B4 BD642686 BD62DB97 3A11555B BDE3B470 BD705781 BC29B860 BD71A0DD BCAF170F BBA778AA BD113B92 3DCA1E67 BC375CF9 3D8946D1 BD818612 3D28603C 3CA5A8D1 3C24A7EB 3B8285D7 BD8C5E70 3D650126 3CD7E606 3DC79896 3D51AFA5 BDAE827A 3D9C3FC4 3D42F9B0 BD1D91FC 3CEEFFC8 3D060D2B 3D9E33AD BBD724EA BD33552D 3D0F5FEF 3D9B0491 3DD8409E 3D839EFE 38E49DE9 BABDC97A 3C654EA4 3D0D1E7C BD89345C BC359726 3D9A4FA2 3D0FFBF7 3D31FB75 3AE8DE25 3D634D0C 3DC2A91A 3D5FC6F5 3D1D6B30 3C6AAA99 3D951322 BD2237B3 3D4415F4 BD27BADF 3D4CA057 3CCD002E 39DADBD9 3D35BFD5 BD7CD93A 3D354B56 3DDAEEE9 BDE34DAD 3D4B3C09 3CC0CC79 3C486BAA 3CFE35C6 BB7071C3 3CEAACE7 BD29EB06 3DDED741 BBCB064E BD3D3A38 BD5ACFE0 3DBFDF8C 3DEB96F2 3D7A1845 3D6F3593 BD6477FF 3C07FD2F 3D4756BC 3D024CAC BD802D5A 3E1810E9 3C9DA6A4 3DAABB0F 3C5B6948 BC77277F BCDBAE47 3C4AF69E 3D6DAA5D BD3296C1 3C45CA0F BDAF6ED3 BD819561 BDCACC4F 3D17D73D BC815387 BC94A432 3D6BEB25 BB6136E7 BD9F2D9A BD875D8D 3DAAC604 BCE9F1A1 3DC6E895 3D09B53B 3B371500 3CBD3E4F BD2EE3E3 3BBBA4F2 BDDAD645 3C946ABB 3C09EFA3 3D15BC0F 3CC98CDC BDBF64B5 BC4E54F8 3D5F8DEA 3C9DB8AD 3CFEA989 3C25D6BF 3C0A944E BC6EC0A8 3D10EA4E BD30908C 3D885BC7 3DA06226 3CA68B4F BD190789 BCE86940 3D0E8D7C BD247F56 BD6692F7 BAF2A3F7 BC86E272 3D105B7D BCD81642 3D2178DC BB8076B3 3BF7929E 3D265915 3D165BF7 3C5993F0 3AD05ED3 3CF9FD52 3D55B615 BD16BADD 3C1F2BF5 BB5E2814 3C5A5ABF 3DC57703 3BA28A59 3DD020C5 39D7E2B3 3D6810A5 3D08AAAF 3E2C1659 BCAA605C 3C6C6F95 3DCA00FD 3D8E7BDF BBA1A75A BCEDF648 3BF055A8 3DBD5B17 BCFC71D6 BD5895A8 3BDDC974 BCD0DAE4 3DA79B42 BD89A169 3CBB9C8E BC7D1717 3C2F3FF4 3D7652A2 BD5131EC BD71A90A 3D36A5AE 3CAFD256 BC882096 3D131EA6 3D27C816 3D8D452D BDBDD469 3D165DDB 3D854519 3CF13562 3CE0D05A 3DA6D8A4 3D049C7D 3C200457 3C87075B 3C66135A BC95D702 BCB81FCC 3BA18739 3D0C1B47 BD8535A2 BD2C4106 BC0571EF 3DC715FC 3DB4F5C6 3D29ECB3 BD043061 BD467DAE 3E12BAE0 3BB6FABE 3DEA4C1F BC296122 BC34A523 3D592931 BD159055 3D025B8F 3DBBFA82 BCF10485 3C812671 399CD154 BCFA633E BD071B98 3DCCA7A1 3D9A5BB1 BD2FFA13 3C27BB30 3D276534 BD3499EB BD8F4A8B BC0771DA BD21847F 3DF8B370 3E0021D1 3D723755 BD33ABFF 3E007BBB 3E02C5E3 BCC009DB 3D86C24F 3D2AA200 BD1D66E3 3DC27815 3D3374D7 BBC781CA BD1F4FD7 3CD64B66 3D5630DF 3D873CA0 3CC4A5ED 3D4383C8 3C2FE535 3DC44574 3D47EA2A BD496752 BCF86679 3D70926F BB9ED2FF BD51967B 3D403C9C 3D131DB4 BC1DBA25 BD686A67 3C6009C0 3DCCFAF0 BB6EDFC7 3D35DB19 3D39C3C1 3B56D63B 3908E2A3 3D736827 BBFB4A39 3C1BA288 3D76C49D 3D399ADC BC750DC9 BD6F009F 3C880339 3DB97FB3 3C518E68 3DC063B8 3C07FF1D 3BD3D1B9 3D1AC43C 3E102D5A BBBF3C2B 3D380311 3DCA1661 3DF33333 3DDF3BEB BC1EECB5 3D7E8E2B BCF9544A 3D98D915 BDBFBE0B 3DBE3674 3D48D668 BCE58D23 3E097072 BDBEF219 3E030D30 3D2FBF76 3C226FB7 3DAA8AAB BB5E0300 3DD3D4AE 3CF7A5F4 3C69DA24 BDC0E941 BD64E1B1 3DB5DFD1 3DF6F545 3C0DCD12 BC01BA4A 3DD7C676 3D63EEA2 3CADCCC2 3D0A2786 3DC1E215 3DA3D974 3CB9BAA1 3CB8EA98 3CEA74B3 3DE4712E BD1E99B4 BC872A97 BD0FF5FC 3D3A6BBC 3C36E2EB 3DEE6C09 3CD4EA3D 3CC74752 3D0E4466 3E228955 3DD6DDAD 3D5F4433 3D426C71 3D3279EB 3C2E78B9 3DF2D235 3D1BA004 3C9CF503 BCD803CD 3C9F55D1 BD274D16 BD70CDC8 3D207EFC 3C8E58F4 3B9B569E 3D8B4BC3 BD65D7E6 3DAD5220 BCAC2847 3CBEF1E3 3D8F5B6D BD27D4AB 3D03A988 BD0E2669 BC9FC8F3 3CA63A26 3CCA0DD6 BCA74264 BCB82B1F 3CC71FE5 BC91244A 3DE2CB21 3BCF504A BD176577 BC77A701 BCA3E913 3DB7669F BA3B7C54 3D05C663 3DD5EFA6 3DB51B35 3B879347 3D2E0CEE 3D7BC863 3C8EDAC4 3E04F11B 3D5B08EB 3D4913F6 BD60BD5F 3D27FBE2 3BB78364 3D85A200 BCB4893F BD21D191 3CD708FB BD48BD08 3D06F0B5 BD3F7B91 3DA3CC23 BCB139C9 3D4705FE 3CA15B9A 3D0A2121 BC84336B BD077ACE 3CA9BA79 3D8F4392 3D5D0E63 3D9EAB7A BD01E710 BC38B47C 3CD42EF7 3CBDA61E BD0BF02E 3CB1249B 3CA36596 3D8DBD8E BD6385AC 3DFCC5B9 B9BDBAFB 3CECEFED 3D2B8173 BDA75262 3CEDA017 BD1E6BAB 3D4D5645 3CA9AF26 3D41182E 3D55BFD5 3DE574B4 3D464E63 BCF804F4 3C9AFDB2 BC865C70 BC831529 3E1136E7 BC32CD47 3D87A8F1 BD024AC8 3C92047A 3D84FA7E 3D4D9AF3 3DC51797 3C8F190D 3D952C9D 3DC82583 3D2B6B38 3D25D7CB 3D341A69 3B03568C 3D3C8AE6 3C63B0AA 3B7EC00F 3D001910 3C9D140D 3D058A83 BDB1C53F 3C89FEBC BD7573EB BCC76B9A 3BA807B1 BCA45B94 3CBD2E94 3DF04B3C BCFF71D0 3CD7EDC8 BD9D929D BCBE6B40 3DAC4B5A 3D63A704 3C28DA7F 3DBBD9D8 3DB79EAA 3D484620 3B06D71F 3D65BC1C 3CA38393 BBA31168 BD6E31F2 3CC39B2B BD84F9CF 3CDAB29E 3D86FC74 BCDA1C76 3D8BB532 BE0F6D33 3CE28672 BD3F8EF7 3D70A60B BD7918BB BC1DC3EB 3CC4750F BBF12821 BC5E84F1 3DCA299F 3E0A74C1 3D3154D7 BD24473D 3AC1AD09 BD0D6005 3CD8A6F6 3CC7C7AA BD45C1AB 3D42F5B3 3DF21816 3D058FC2 BD072CE5 3D997DEB BD78C289 BD153917 3CB5CC35 3CE35A0D 3C907F74 BD2828F9 3D5A8BED 3DA065DF BC01F13C BDCD245B BD54DC66 3C2167B9 3D9F0209 3D160250 BD14C554 3C728FD5 BDC0568F 3D3B2067 3D00E85D 3C8F9097 BC58496D BD88D3D7 3CEDBA4D BCC34422 3D83004B BD6CC5AB BC2CD0AE BB161327 3C817B96 BD1DBBEE BB5D22B0 BD341794 3DD2C062 BD3CD8B4 BD82FCFD BBDA620C 3C201529 3D1857E6 BCC3B603 BD4BF4CB 3D2DFBD7 3C6FB3ED 3CD8BE73 BD061431 BD6E444C 3D80AA07 3D65E629 3D2BDCFE 3D267092 BD80C847 3D169B83 BBFAD1C3 3D22F9CA 3CF3AB28 BD099001 3CC03E49 3CC43915 3BAFA3C7 3D566A8B 3DEC3B0C BC89293F BD3C8B00 BC474D31 BD1CA700 BDA731EE 3D164FE8 3C8490BE BC27E521 3D8644A3 3D68DFF3 BC33EF1B 3B837500 BD1E5901 3D9910DE BCFABBBE BD0A751F 3D10DD68 3D8680D3 BD208A84 3CC1DE92 BD1712D7 3B9A414A BD28EF27 3AA8D018 3D6B5152 3C446AFE 3CD12308 BD0AA6ED 3C3EC02F BC195938 3C97CFCB BCF0E729 BD430EC3 BDF37868 3D6262E6 BC60E80D 3D8F69A2 BD2244B4 3CF203BE 3D429E40 BDB0ADF5 BDC890A0 BD0985BB 3D3CDAE7 BDB44674 BC87F6DA BC9B8D90 3CB38C1F BC197D5F BC4DC07D BD297BFA BD3DB7F1 BB9B1789 BCC33A47 3CB04EE8 BDC45D6A BB810B18 BCA7953B BD56ABC3 BC3965E8 BD22EBBD 3CFA252A BCDBFDC2 BD3599FB BD8BD330 BBB2E606 3DA224EE 3CFA0656 BCC26F7C BD89AF91 BD0A5A2C BC624EAA BC2D5F49 3C1E8E20 BCE96E23 BD5B2A0D BD7C5F2C 3BAC8153 BD86D00B 3D0A23DB 3D7AF981 BD43085E B9A18769 BD354831 3D012F75 3C70BAE9 BC0A3065 3D28240B 3D2A27A1 BC8D26C5 BC3FC654 3D4686CD BD2EEC47 3CFFFAC2 BD83D2E6 BD19BE4D BC678F5B BD8AB947 BD816ADC BD9C49BA BCA1E23D 3D09915E 3C5F17BE BAA955A4 BC29B068 BD5FB862 3D2BE75F BCAFCFD1 3D2E0BE2 BD566A70 BB5713A3 3D15FEDA BD26C277 BD96E24A BD6C2C94 BD5E5570 BD11EBBB 3D2C0288 3CC68159 BD02CA80 3C8E4C5E BCCF6F74 BCD378B8 3CDFD2CE BD8A86E5 BD7934D5 3CC0DDE1 3C805A99 3D6D3EAD BD4F35FE BBA4D6A4 3CB84CAD BB00D37A BCD099E1 3C4A4B12 3C6903D0 3DA9C4CD BD1428AC BD05B6A9 3D0843B6 3DB092CD 3D9D9359 BB7B1A12 3C0660CD 3BF77FA9 BCD685B3 BC539178 BD1A2992 3C3F9683 3C47C44F 3D80A2B0 BD650177 3C876AF9 3B49BD4E BD4E825F BC86EFDE BD96F5B0 3DE3B81B BC96C9DC 3C8F1F22 3DEFE048 3D03EE37 3DA27C2C BC9162FF BBB0A7D3 3D20B100 BD087D62 BCA73315 3D0AB19F 3D422BDA BAD91B3A BCA1E95F BD520EDB 3D8AB1C8 3C08DF8D 3BE178D6 BC80B1A1 BCBEAA60 BD6E1694 BBE55CD1 BD32A04B 3BFF304C BC5006A9 BC94DB59 3CDA261C 3D1FE1CD BD1BAF6E 3D3366E5 3C39515A BC7BC431 3C01EF99 3CF9CD16 BC67C3C9 BD4AD546 3D6E874D BC94C9F1 3C0FEB85 3BD22856 3C267C6C 3C16030C 3D386354 3C4FFBC1 3D86D2E0 3D2E660F 3CEA3B07 3CC04BB5 3B6251EF BC97074E 3D43E1A1 3CEAC322 BD33AABD 3C192CE2 BD6199AE BD564353 3D578218 3C31A021 BD70C8F6 BD14137E 3BDEDDB1 BCBAE1E9 BD689B45 3D6C267F 3D331F7D 3CF14EC2 3B7E0905 BD6BAC56 3C07A75E 3B84B3D9 3CE67F5B BD11F7CA BD9048E0 3D0491E5 3C8E237A BC839291 3BAD8620 BD145507 BD242239 BC36B16D BB72C1D4 3CF2002D 3D4DBB24 3CA719B5 3C73C3B2 BCE89A53 3C97A56E 3C3A167C 3DB84DC7 BBA6A419 BC4D1FD9 BD372AA4 BB2B7564 BCF36A5B 3D6F6117 3CD9BBC9 BD24EE97 3CEB4E2D BC4A8199 3D27BB4B BC0EF277 BC1EF300 3C3293D1 3CE352EB BBDFE685 BD350E34 BC3D089F BD2300D1 3C7C3937 3D825F3B 3D016250 396A8FAB 3CDA4A2E BBE849C0 3CF3C3B2 BCE906F5 3D2E96EC 3D5033DA BC50401F BCA94574 3D8F8876 3B872DC7 3D0A6B5E 3D6F18BD 3D6FF830 BC895C6A 3D82E5D1 3D81EC84 3B681177 3D4D8000 3C544857 3C8F4045 3D6E424E 3D81EB85 3D345C43 BC166EAC 3DD927D4 BBCC030E 3CA3637D BDBC9F66 BC265493 3D2BC8A6 BD2F2E8C 3DABA21D 3D62C329 3B59E58F BDB90D9D 3CCE8E6E BC9BFE2E BD81C2E3 3CA8FCAE 3CE2386F 3CF6BBE9 3CAC7D37 3D3452EE BD06124E 3C21A29D BD2964CE BD290181 3D459302 BD57CE1D BC8DB779 BCCD6E12 BD3702B1 3BC7329A 3DC42BA9 BD890BBA 3D810C6F 3D217332 3DD6AD71 BCC8670C BDE71FFF 3C5F6E25 BD11DE19 3D241447 3D746F3E BB635F0A 3C999BE8 3BCE4F6E 3D221B13 3D074DD2 3D03905E BBBD032B 3D033143 BC993F36 BCD2C5D5 BD6CA651 BD5D647A BB07B1E6 BD043CDB 3D9E6370 3CD11714 BD7D66C9 3DB06CE5 3D326E98 BD2D5AC7 BD7E4D28 BD43FE27 3C130B75 BC99DB73 BCCE1F7D BD98954A 3D140174 BCD45268 3E03FFEF BC13EB19 3DC4515B BC99AB02 3DB479E2 BCC5AFA2 BD73BF9B 3D26952B 3D874E9B 3C6EB5C0 BD2574CF 3E1B124D 3A563BEA BCB6BEA3 BD900AF5 BA678241 3BE25306 3DF2ECF2 BDAC1E01 BBF323FA BD213371 3DA87C13 3C8324AD BD91C128 BD96C1AE 3C8E51D2 BCF2E748 BD98EDBD 3B885980 3D8B80C5 BB8A0B06 3D5549F9 3D21A27D 3D2E76F1 39CAB9F8 BB376FC3 3D8CD467 3D1D82FD 3D83D669 BD065809 3C80D802 3CD00424 3CFB2CFD 3D94474A 3D607F82 3BA97B64 BD61380E BAF6A05B 3E0C68A9 3C48D69E 3D680C08 BB10EAC9 BE00EF13 3D9C76A9 3DD00368 3DBB7077 BC661A10 3CD9384B BD026DE9 BD62A0FA 3DD2C626 BCC5114C 3D2A14F7 BD71C7A9 3D2A89C7 3DC425F2 3CDCAC08 3DC5BDAF 3D38868F 3CCB74DE 3D455D6D BC10F342 BCD4364E BD2CC30C 3D3D2BA5 BC3D570E 3E51B691 3D5B366D 3BD881A1 BD684620 3D0A86A1 3D8B5FF3 3CC5B40A 3DD17614 BD568471 BACE484D 3D544CBE BD305CDA BC8C3D5B BCF0A1BE 3BED6965 3D5E53C3 BD90A831 BC7B026A 3CBD3042 3D86FC16 3D5B1657 BD570585 3CC0C522 3D675204 3D4C0DF6 BCDD5835 3CBC6618 BD3F9343 BD541221 3E0A209B 3C426A08 BCE63BD4 3D9C5155 3D3F4865 3D3EA522 3CB948C1 BD28F15B BD54D728 3CAFE7BA 3B92EFDC 3CEB8F65 3DA75501 3D897E7F BC93726E BD7D6C72 3CC4DCDF 3D8FC7B1 BD355EBC 3CEA4C3A 3CF34DA0 3D63F1AD BCBD0E7E 3E05AEA3 3D2377D4 3C0714C7 3C7CC477 3D963A9F 3D4371BF BC614453 3D5FA74A 3D700CD8 3D55894F BE0654D6 3CA62B43 3DC19BD4 3D2F9E1E 3D3B5D39 3D7E7826 3AA9CE1A BC681741 3D586B9C 3D04A820 3DADC5C9 3DDE6602 BC29AC36 BD10D499 3CA6CD94 3CE2B27D BBF15771 3D9173E1 BD00D9E5 BCC650B2 3D71471A BD7C664D 3C2EA3ED 3D20FC7F 3DCDC769 BCF32775 3D4F59F5 3B1C7C78 BB86569C 3C33A2C5 3D2E5BAE BB86034F BCC96788 3DB4B8A4 3DEF3A9B 3D9895C3 3D205759 BCFE45B6 3D296752 3D919371 BDA8FB29 3E1568E8 BCE1ACC3 3E09C27F 3DA86D07 3DBBB1D7 BA09F229 BD04EB06 3DB9CCEE BD1277B7 BDE69C67 3C8C05C8 3D2622FA 3DEB74DE 3D38F712 BC2D3705 BC53AFAA 3E14A2FD 3D8FBCFF 3D4383FE 3D9E7940 BD51CACE 3D434620 3D084AD8 BCB6DCA0 BCD1CDF3 3E0DA017 3D88A017 BDC81535 3C1A9F28 3DEEE06E 3E3601BD BD7EF49D BCCD466F 3CCB8C91 3DAB48B9 3DC6FB4C 3C83C18B 3D2A6A87 3C8DFD4E 3E0BD902 3C1F2A88 3D4DBF3B 39A9B0E9 3D2F889F 3DCD8EC9 3D44AD29 3D21F447 3CF71434 BD34C76D BC0B4F34 3D1CE670 BBE0A16B 3D1A2545 3CC4A079 BB642AE2 3E1FDBD3 BC75AFB0 3DC9FD52 3C2F2587 3DBFA341 3DDC07EE BC8D18ED BD888D52 3DE4CF8D 3E17BA67 3DC07F3F BBD181A8 3CCCD34D 3D180CB7 3CC92D3B BD502257 BC796CD3 3D1E3667 3DBDB992 3D328269 BBF20F27 BC8B912E 3DBAADB1 3BB94D13 3CB6AA16 3DF843C4 3E092A73 3E10B1FF BCCDED94 3E0CA8E3 BD45B135 BD745A7B 3DAE4D86 3DD0CFE1 3E18D4FE BD00F21E 3DDCDC44 BCD46FFA 3D2BDB00 BD4A8B74 3DD70D63 3D21EB5D 3CDAF4AE 3DBD55A4 3D221F2A 3DE91538 BC87B13A 3D0B3BD3 3D839D79 3BA6F2DE BD6EF714 BDC2BFC0 3D0CC15F 3D01CD95 3D047B0A BD8BF8FD BA4B2D10 BC029E80 3B36DC20 3A7E593F 3C25D2F8 3DF2A9D6 3CFD00A7 BD0105B9 BC2C9F30 BD3F2B09 3D93B008 3E1FCA86 BCCE08D7 BC410442 BD260101 3D812521 3DD3E3E3 3DC40AE4 3E2C47E5 3D70921E 3D6A0DBB 3DB8A49A BDAE92FE BD8B6051 3CFA1E3F 3B8DC01D 3CA33EFF BD5759D4 BD48D89C 3D91C63E BB6BFA65 BC8D7102 BD81867D 3CDD47DA BDB51223 BD08E384 BDA5BE35 BCD412DC BC9EAF83 3D0477C9 BD16F687 BD22CA9B 3CEF6A87 3DE78184 BDC258E3 BBAEEF97 BCFA5B10 BD32594E BD1ABB02 3C7A8643 3C2C99BC BCC7215C BA7F0F50 3C95B7F8 3D249D03 BCA66A98 BCE4E202 3D673076 3D159401 BCAFC62C BC14D34C BD4B669B BBD9A83D 3CFF69A2 3CD9F7C3 3D28E516 3D9D8B03 BCCA76B1 BDB34BD7 BD7F7DFA BD387817 BC8932AF BD4B33F6 BCFC4637 BCFD750B BD5CDFF0 3CF430BF BD03D146 BCAF6C34 3DCF2E06 3D3423A3 3D6B5F29 3CFD2C7C BD17B50E BD5382E4 3CFDADE0 BAF90CC7 BD7C2BE5 BCE09A75 BD26412D 3DBE9A47 BC36C234 BD7257D7 BCEE3A05 3DC5A518 BD0DF62D 3DAAC4F8 BDB5469E BE00A9DF BBC51C7F 3CD3A7B2 BD66B46A 3C980FC1 BD0C8BAF BD65A972 3D99EF52 3C6E7B73 BC8F9B7E BD705045 3D310C47 3C93E0BD 3C9870DA 3D801960 BCD4DD3D BDAC8A45 BD423D27 3C4F95D5 3CB51A94 BCF6749C 3B75A12C 3D95DE9C BD9E66E6 3AA7782A BD2477FF BC803FF7 BD5019A3 3CD87EE7 3CC42056 BCA51A00 3DCD0353 3D43EB62 3D39801F 3C1A6C5D 3BCB8275 BD76DA52 BA9E83B9 BD71749D BC75E55F 3DC7C02B BD118BE4 BBE27F92 BC8AA6ED BCAB06DF BCED65FF 3CB0219B 3D8A128E 3D86EF15 3D7C387B 3DB6E364 3CBA8933 BD5DBE06 3D4F3593 3E2142B3 BD484472 BDC810CE BD4C4DD1 3D6C046B 3DAEE21B BB9F7C5D BDB30EDE 3D7B57C5 3D341E65 3DD1C8EB BDBFEBF9 BD089F76 BCC0303C BD3A2454 3D125A25 BD73AABD 3D323C78 3DD6B3BC 3DB79499 BDDB0A2D 3CCDA8CB 3CB54881 3E3EBA28 BC664A4C BCCADE4B 3C256804 BD151BA0 BD2E1EC2 BD0B4CD0 3D851901 3CE0168B 3D846738 3C348B22 3E1F6A0E 3D8F63A8 3B8029C6 BC817CA2 BC26A79F BDB0F1B2 3CC99B55 B97E27EC BCF37B8D BCEDAD17 BD4E84AD BD528BBE BBE4F73B BDED1633 3D2A7BEF 3D269794 39EE29BF 3D0F89E1 BC95A335 3D51D34C BC51A9AB 3CC2910A 3E07B6BB 3D6962D0 3D6A94E4 3CDD8DB0 3D3882AE BC643676 3D229B6B BD3699D5 BD2DEEBB 3D486EEA 3E036977 3C3DDC04 BD74434E 3D94C3A7 3E3D69D3 BD438FD7 3D97E33E 3CD914A4 3C155009 3E10431C BD64A72F 3E088228 3CBDEFBA 3DD58AFC BC2D461F 3DB5251E 3C8E3E51 BCF6D549 3D92C5AD BD931635 3DFF92F3 3E0AEAB8 3DEFEAC4 3DC2D0A2 3CC34026 3D01ED5B 3D01437C 3C72338F BD78897F BD6CDDC9 3E0AAEF3 3CBDBE06 BD1B16DD BDA07D41 3DA85F9B 3DA2259C BC8970F8 3C346562 BD9EC8AE 3D1F642E 3DC97AC6 BE153EB4 3D6CF0C4 3C0FBB29 BD9C9B5C 3D0E79C6 3CAF4D96 BD72FA94 3DB45847 3D50E403 BD1C6618 3C30630A BD8E6370 3E0DF7A5 3DB633E9 3D774455 3DE242D0 3CCD5D81 3DAB3205 3D86341F 3B6DC00C 3CAD2384 3DB8C75C BD661CCA BA105613 3DB91D73 BCFAC63A BDD6C615 3C36DD0C BD8C6B56 3D483C29 BD155C89 BD9D48A3 BB73D626 BCAB7AD8 3D345C0D 3CCD7CF6 3BE44727 3E004923 3D3D74D6 BD49354E BD88A449 3D8FD885 BD5D3961 3DB450BA BD68675D BB8F3613 3D9F8FCD BD0CF059 3C0B7702 3CC48E3A BD30A061 BBA35CBC 3B3DBA60 BC718C34 3D08DCCE 3BB2AE69 3C79E2B0 BD8661D7 3D41A7BB BD311B2B 3BE2A714 3D24C43A BD9945FA BCA0384F 3DF20968 3C1BB385 BC812F40 3CCF425D 3E1995AB BDED5411 3D31A4F3 3D8AE74F BD6F5283 BBCE3D90 BD94B216 BC9CBB22 3D445E4E BD663D9C BDB66AB3 BD954E03 3C8697FF BCFAED06 BCB450D5 3D0CF597 3D16E702 3DB47014 3C6DEB96 BDA87F2B 3C4BC34D 3D677865 BD02FF23 BDA978E2 BD05F93E 3D28126E BD36787D 3D614489 BD4A6224 BC584EE1 3DA6D77D 3CD75C07 3C7CE6DB BD0EC90B BD8643CC 3815CC42 3D4CEC5D BCA1DB1C BCCB8D32 BC2303E6 3D246E09 BD966029 3D58A6A5 BBC65463 BD901AA2 3B30C0FE BCFD8F78 BB64C034 3D1A8014 BDDFF823 3D874FA8 3D38F1B9 B9316EC5 3DEB7671 BC8A2D80 BD385B26 BADEC3C5 3CE0EE57 BCAEAD92 3D8CE7DA 3CD02BFD 3CE9B032 BC931840 BD47B784 BB8BCD53 3D2BE9E3 3DD59685 BDF24AF1 39822CC9 BD19D8B9 BD7DAF23 3E1795B3 BA92C946 BCAE0BAC BC655631 BD941180 BC8E2817 BD4D2AC1 BCA965BF 3ADE855C BB637357 3D95C8CD 3CDD3530 BD56D48E 3D764CC3 3D8D2F00 BCF5EB3F BCBE7D7F BCB5DFB6 3DA630FA 3C8116EC 3CEE40F1 3D87721A 3D987E89 3CA7550E BC893350 3C4E1105 3D06D10A 3C6BB55B 3D9E873F 3D8C5FDA 3D9059EA B9B5F353 3DB2AFEB 3C9B9694 3D315288 3CAD7336 3BB82F1B 3D53E392 3D941992 BC3B96AF 3CC20203 3C9A87A0 3D059734 3DBE2974 BD037BB6 3CAE5DE1 3C9625A7 3CBCD904 3D3630C4 3C8AC662 BB03FCCF BDC92296 BD32D906 BCB112C8 BD23C5D8 3C685844 3D250706 3D050B88 BA257740 BD5957DB 3D567EAD 3C7B6C88 BC50E0C3 3C9A1BA0 3D2F780D 3C6B16CF 3DD267C7 399773E1 3CDEC18C 3B17922D 3CCECF71 BD55A9EB BBC6538C BD08AAC9 3CE34D0C 3D12D469 3C6218FA 3D84039B 3BA19CF3 BC5C3F31 3CB7AF2E BD60A1CC BC44A5B7 3D1B9F63 3D96125B 3DA85879 3D879C19 BB7F86B3 3DB5F4BC 3D344B2B 3DD8FC50 BD8C606E 3D06DF17 3D35D214 3D16006D BD51A70C BC1AE509 3D04708D 3DA6B46A 3C0B4E48 BCA9E831 3DD4317B BD95365E 3C88CEDC 3D98DD2C BCB8FFFC 3DA403DE BD052DD2 3CBAE0A7 BD3836A8 BAAA28B3 3D9379AA BD114171 BD4F0D4F 3CBE889C 3CA5B1D6 3CFB4693 BCE309BB 3DAD8E28 3D2AC15A 3B926C7F 3C9166FB BD7CF016 3B8A8326 BDAD028A 3E0B1961 BCCF64C2 BD338F0E 3D37858D 3D886BDF 3D2F7015 BCE726EB 3CA8CD7F BC86DFEE BCC373BD BD363942 3D02AB5B BCF45DD6 BBA18C82 399BD522 3DB3F218 3E1ADEEC 3DB316E3 BD3EEEF3 3D8184C2 3DF7A3DB BD69D500 3CD9F7F9 3C40F451 3C05C897 BC3CB6D5 BCA4F3D5 3D1AA54D 3D186EF7 3DCD5065 3C9591CD 3D96DC5D BB4F5FA4 BBB60332 3D29FE36 3DA65EF5 BC7967CB BCF56507 BD03695C 3D05FF53 3D2512DF 3DD440AF BC146F63 3D79E8AA 3CE51BAE BDCAB607 3D84E84D BD8C6BC1 3C97C83E 3C7C5A59 3D79DA16 3C4B365F BD318315 3D1EEC54 BC01BF32 BC4D0A75 3DD2B021 3DB1174A 3BF0D555 BC17EDBD 3D88C891 3E3BA7B9 BC0C84A8 3DB2BD7F 3D0E8CA6 3C6B6A47 BB974313 3D367EAD 3D2F8B23 3CC7570C BBFF3AB3 BD978771 BC7B68C2 3DBB4210 3B7E377E BD67FABB BD9A03ED 3AEB88A5 BD6B4360 BE0B9C30 3A65CDC7 3D86C567 3CEBC83B 3D54F26B 3CDC99C9 3AAE9C35 3D74BAF3 3E13671B 3D2C749D 3D6600E6 BC0EB7A9 3D8F8ECE BBCABB90 3D645473 3CE7C35E 3CE4A820 3D2DDAB4 3CD4CC0A 3D93C8AD 3C8E6C09 BD3604EF 3D386CC3 3DBAFEDA BC091D20 3D04811E BCE9EB56 BC2BAD2D 3DC8A449 BD4F4DCB 3A43061C 3D9EA20A BBD3E773 3D93DADE 3D6001C8 3CD62A0E BD2F704B 3D0F3619 3E10E454 3B36388C 3D7D21C9 3D59614B BBDB3687 3CC50C0E 3D6BEB40 BD122AC0 BD26DA2A 3D9FB862 3DD6CDF2 3D9ABFEF BC246108 BC8721FE 3D925588 3A59C1FE 3D0391F0 3D81F794 3DA150F6 3D9DF7CD BD2E4A96 3CD4B2AA 3DD68AD7 BC668860 3D9F3542 BD33C41D BBB5BE28 BDAEE7C5 3CE88708 3D5A331D BD517756 3D1BB2FF BD320932 3CBDC9C5 BC88E369 3B3045D8 BD99D8FD BCD1DCA1 3D3E6794 3CAA17CC 3D355100 BCB7A157 3D601CBB BCC0A6B9 BC61D720 BCB8D717 BC661BBE 3D2D4FFA BD1494FD BD19D650 3CC165FC 3D31D5B6 BDB78C0E 3C666DF3 3DA96DB8 BC1E8F62 3D54306E 3D56F90B 3D9F61E0 BCF3EFBC 3D0B91CF 3D6EC28B 3D5D00DD 3B31DA83 3BFD7099 3BAE6B78 BB0FC52F 3C8C462A BDE95AF3 BD177A8B BBE63782 3BE3618F BB17D39C BB5FC4CC BBAE7838 BC9CBD3B BD97B40F 3D536AFC 3D30D159 BBAF4A1B BCB57CEF BD3DE431 3A0FEA6E 3CF5CDE2 BC4AF0BF 3A1E33EE 3D0F1455 BCC4CCEE 3B0DF4CB 3CB8B447 BC5343DF 3D08CAFA BC41FD66 3D2012E0 3D208836 BD2E12B3 3D4EDC72 3C538AC2 3D1B6424 3C888BF5 BBB8D041 3D40C10B 3D8BE4DB 3DE9FA55 3CE517B2 3DF66F0D BC895EEF 3CDA8014 BC97DA47 BC8717ED 3D42AD59 3E054EF4 3CA056ED 3CA4AF0C 3B61A8FD BC0041C4 3D8918C8 3DA7C73F BCCCA52A 3CB109C3 3DB6818F BC0F5283 3D38A3D0 BCB1D961 BD47F024 3D279D83 BD4B7F3F 3D68E1F1 3D468357 3D8B872A 3E012B5E BD9E58D9 BD7D76EE BD635CFC 3C4E1AAB BC21E293 BC23C455 BD0B818E 3DC94658 3DAED3CB BD6BF495 BD20E213 3C43D329 3DAC8704 BCD9F49E 3DB35EED 3D89E3D7 3D66D069 3D0FA0BD 3DE0F4D8 3CFFAF78 3D31C21A 3DBE3A2D 3C40BF0D BD19B0FC 3DC4430B 3D5E6D8E 3DA86DD0 3E1681AA 3C3CBDF6 3CDBB9D0 BD766A8B BB81C5A8 3CA8D3FF 3D612A01 3D0A9F10 BD15EB59 BB86152D 3E19A06A 3BFE57DF BC46C68E BC1A8196 3DCC11BC BD7BF03B 3D40DE82 3D2798CB 3CA19FF8 3D961E35 3CF878B8 3DB461DF 3DD883BA BD5AB508 3B70C8AA BCB4BA52 BD2D2384 3BD9532D BC4CA5CB 3BFF7CE3 BD3E62F7 3DC55E36 3DB21922 3D158DEC 3C25FB3C BDB60101 BDA98E61 BCC288DC 3DFB61BB BCBCBF03 3CFE5DD4 3E54CC68 BB55AC44 BB39C386 3D768CEF BCAA260F 3D2834ED BB9F7FCD 3C2F3578 3D18B13C 3CEDEDE4 B75FB518 BD423B79 3CBE30BD 3BFDD91F 3C84EE11 3D53AA37 BD3D491C 3DC6E123 3C78ABE3 3D8C36A5 3D4A659A 3D811DE5 BD08F62E BB06E02E BD87C27A 3C03735D 3D765669 3D6833FC 3DBED776 3C9BE645 39610A02 3DD0F5A1 BCDFD446 3DC68AFF 3BBF5515 3D69B083 BB9F10FD 3DB0BBDA 3BAF6C6A BDC9F616 3D4DBFA6 3D345126 3D90276D BB9AA5B3 3D513130 BCC62472 3DE80BED 3C3B1A1D 3CD13796 BCE628F4 3DA6DD85 3D17FC91 3D7C4403 3E635EB7 3D490FF9 BD528E0D BE153826 3DE30015 3D18DD11 3ACB758A 3DE521DE 3B685163 3D34F49F 3BF8FC6B 3C2E5BC8 3C1E86DF 3E16A61A BD9E458E 3D0AC5F7 3CCD7CC0 3C526CB4 3DC92E12 3D535AD6 3D0433F2 3D9194E8 3CE5C0EF 3D8F82CD BDDBABA8 BD0CF2F8 3D25B11A 3D1DFB79 BB14B584 BD4850ED BD0B8FEC 3D7EF69B 3D46FEF8 3DA36919 3D1327AA BD1E5C92 3D1D8E86 3D3DCD8B BCCB6559 3DB0866D BC8CD093 3CCE482D BD6A242B BBF06B8D 3BE9FA1A BC574E9B 3DE06D94 39A5F67D 3D378E92 BD14170E 3E2E1C58 3CE4500C 3A716DDB 3D67215C BCE2BCF9 3CA95C85 3C9058A8 3D44DCC4 3C0ECB8A 3D60CDD6 3D371200 3DB78BBD 3C623A88 3D429033 3C4DE6A8 3DD735C2 3C75D9A1 BBC4357A BD0E969C BD1A4540 3CDCD665 BC2A5391 3B75B046 BB3168EE BD91409A 3D5A9527 3D9C4AB9 BD0065EC BD64E01F BD3C644F BC95C6DC 3CCD240B BD4AFD04 3D0136CC 3D99DEF7 3B37DE53 BBF12EC1 3DAE7DF7 3CA45FC6 BD88CEDC 3BF69B93 BD61788B 3D6E3913 3D02958C 3CC9F0AF BB90851E 3D9F1993 BC8F15B2 3D57B396 3D0FB184 BC447D73 BC65FE62 3D07EF83 BBF0C7E9 3D3AB375 BC7CCDB1 BC60CD35 3D543145 3D00D6A5 3CAB891B 3DB74FD0 3D04568C 3C2A0EC7 BA4C8667 3C64D064 3C855036 3C0E15ED BCED4C69 3D94F858 3D7D27A9 BC473FC5 3DA82D38 3C98A944 BD155E1B 3DED8C2A 3BF2D7F9 BD1A4F1C BBA590C9 3DA25156 3D1B84A6 