3D1109DE BD227088 BC47A4DA BBACF5ED 3E0A4C1F BCBA0CA1 BD865923 BCC92F89 3D07CCCE 3C3386AB BD042AD2 BC4C5DA7 BD430CE0 BB6BF861 BCB0B78E BC6BD9D8 BC9CA8E3 3CFC5627 BC902795 BD3E0D31 BDAA3B9B 3C7358BD BC48B073 3D75BE78 BD907BA1 BC7AA9EA 3D50B433 BC8DBC16 BD58D8FA BD12E0AD BC3EA62E BCD7CB63 BBD7CF09 BD89E831 BBBE55BC BD5778A8 BBFB0499 BCAD60C1 3D459678 BC072FCA BC2D1BC2 BC908A5C BCA143E8 BC79F4B9 3E062ED3 3D31778C BC2F3EB2 BC931E20 3C8C0669 BC695315 BC3DFED4 3D1DC37A BC80AEB1 BD223F75 BD1F086E BC82125F BD28A266 BC129DD2 BD843160 BD653792 BC69DD13 BD956A38 BC97ACC5 BC6497C5 3D053FC0 BD393ACF BBCE5F5F BDFC243E BA854980 3D1AA59E BCFF86C9 BD28C56C BCB1D4FA 3C5F901E 3CF5E5CB 3D5B2A43 BDA55E00 BC7CACFA 3C51EC5C 3CEAB97D BC9BFF04 BC94DF8B BC3D45DC BC8B545C 3BA89763 3C082655 3D166857 3C86A784 BC90E37D BDC71FE5 BCB2DAE9 3C5D7881 BBEEA3E2 BD32B0F8 BD2D1D1F 3B7D8379 BC960235 BDBBC3B8 3BFF64E5 BC8FDCED 3D49CBAB 3D469312 BC73EDA3 BC91A071 3C240B0D 390BCF4E BD80ED8E BB9E3C16 3D3F9D04 BCCAF4F1 3B8FB931 3B3463CA BC4F271A BC4EBC91 3D1905A5 BD358F49 3D1AB2D4 BC26C63D BC99E5F0 3D94F377 BD86FE21 BB9DB486 BC8F902B BE152B4E 3C937D8B BC744B2B BD776973 3D0C105F 