BE866645 BE49CC32 3DDC4C16 BE3D0E56 BEC044D0 3DFE1C15 3E5D6840 3D911871 BDAD6792 3DA3107E 3DADC875 BCA2089E BE7FFDE7 BC3873E5 BE33486F BD09401B BE342BFA 3C202829 3DB0CA6D 3DE11234 BE4F2ECF 3DAB2E5A 3DA11F85 BD822DD8 3D28BE80 BED39E49 BEAB2096 BEFB8A7E 3DDCF2D0 BE17C88E BE74F7A9 BF09884C BD003FF7 BD808404 3D3EBD40 BE87E692 BE473BC9 BE1ECB75 BE5049AA 3E0D1D8A BE9C7CFA BEA1A1BA BF076E72 BEEF3A15 3D88C4B0 3D6727A7 3D4F6208 3E02DBA5 BE3E73E7 BF03A238 BEEE887B BEE13D10 BD4A98AB BD3174ED 3C316DCC 3BCFBD83 3E56A8FC 3DDD1915 BE3B6998 BEB67EC8 3D3A525C BE1389B5 BEAFA3FD BD4C8133 BD9E2400 3D08F5C3 BE726202 BEB6D139 3E809481 3E635979 BDDD7775 3E30ADCD 3DCB8C9E BDBF9FA3 3E20AE53 BEC5A3E4 BF021523 BE834CC2 BE79BBAE BCE9B612 BE1AC0C6 BE98E172 BDF2C9D1 3C376054 BE6A9E2C BDDD156A BEFB68F1 3E1F355D 3DE9613D BDE9FD7A BEABF877 BE8AFF8F BEA6F588 BEFC7970 3E0F67B2 3E02B27D BCFF6896 BD918995 BE304428 BDF8BBD4 BDB046C7 3D4B4A9C BDF97785 3E456ABE 3D8C1DA3 3E32C7B9 3DC57ED2 BE18D2E5 BC5D15F0 3CD96F07 BE5550CA BE50C9DA BE025AAB 3E32EDBB 3E3AD81B 3C8C9D9D 3D8BC4FA BDCB8D09 BDE1A155 3E00F16F 3D41B9C4 BE963D1D BF0F866E BE5995AB 3E30A138 3E24EBDD BD983B2A 3DD1B25F BDDD0397 3E419E30 BE48DF37 BE4BBCB2 BE16C4C6 BE8C4977 BDC1F66D 3D322CD9 BE41BFBE BCBCBD8B BD1341FC BC2CF9C9 BF092A0F BEA8AFE6 3DBAE5D7 3DAFCABB 3C76188B BE9429E1 BE488228 3E0BC01A BE0AC4F8 BEDF1993 BE95E376 BE82E5DE 3DAD5688 3D92D6ED BE00DE4C BDC6ADF7 3DE66128 BDD74928 BE197F20 3DED20B0 BB88E846 BE930447 BEFF6F4C BE03E4EF BE3D5736 3DAC4256 BE27835A 3E0ECF64 BE6B95E6 BE0CBB3D 3E5E5BC8 3E33FBBD 3E4B25B3 BE883F92 BEAD55E7 3D1829F8 3D23D5AD 3DC8EDCA 3BFC77A0 BE58094E 3CFDA181 3C768D90 BC9DF407 BE247E07 BEBC29E1 BF029D1F 3BD7840B 3E53EFF2 3E4B97FF 3D88DA7F 3E177EE5 BDDEB314 3DA1D232 BD17F6CC BDED7B63 BE30507A BE5FB720 BEF55B68 BEF6A93F 3E1D590C 3D8E047D BE24C87A BF07BCB2 BEF15033 BEAC1D8F BEE87E7C 3E2D2E94 3E1B3B32 3E5D9839 3E6616B5 BD9B9FE9 3E1CBD12 BDC39ED6 3E172C0E 3E278748 BB57DA72 BDC2297E BE086B16 3E112AD8 BD6BD902 BE2C27E9 3DA516E8 3DAAD1F9 BE14FB98 3D75DAFE 3DA0E030 BC9D0E99 BE5DE15D BE93F9E8 3D0E97A8 3D12AFEB BEB80B24 BE843761 3D9C4FDD 3D80DE17 3D7805B0 BE3A5FC8 BEC9815A BEC5C769 BDF8151A BF1FCBA3 BEB917F8 3C85AE96 3E2FDEB5 3DCEB80F 3BE4FA81 BE3C258D 3E4AD3A6 3E80DAE4 BCB5818C BEADFB50 BE84F9A0 BE94EBBC 3D2583CD BE929A3D BD708D81 BDCF06B3 BE832C41 BDFDF97B BD6E8EF4 BDFEC4E7 BDFF5B60 3CA27002 3D11BA57 BD90AA4A 3E3744B3 BE9922D9 BF16EAD9 BEE8BF7F BA8FE815 3E1C4652 BE8ACF10 BE5AD602 BEDD2AE9 BEB33355 BB4E02D8 BE45E5B0 BD8E7983 3DEFF972 3DE031CF 3E0CAA76 BD8C3AA1 3E008462 3E1702E6 BEF7911D BE2BF2B2 BE8932F8 BDF0AB2E BE2178B3 BD9547E0 BCC12209 BD8A4D53 3E26F827 BE1703B0 3DCBCE50 3DA1D812 3D07319D 3B027896 BF1ACB10 BE90EC74 BEBD6E05 BE6AFB7F 3C2F31B1 3E516052 BCC6B709 BE27DC38 3DE53F3A BE17AF21 3D96EC68 BD674554 BD7B3022 BEB67EE9 BE32070C BDA48FA4 3E40BF5D 3E45781C BEA79789 BE95BCA9 BD92BD72 3E3EB4A6 BD76D6C1 BC88BA4E 3D00F41C BE0E774F BD226FB1 3DB11193 BD53372F 3E1D75E2 3D566C89 BD76EC5B 3E2A36E3 BE59285B BE72A1B6 BE601DE2 3E16FC16 BC9B573F 3D4080C4 BE21DC51 BEEF396D BF019F90 BDEFE47A 3E225354 3E18BA41 BC14F7B4 BDFE4EF0 BE06CBDA BD196F72 3E3121EE 3DC4D006 BF047F88 3BBEDF23 3DEF37FC BE47589F BB69020D BE24C7F3 BBA4F04F BDCA9AF9 BEE19115 BDB37FE7 BE9C56F7 3D740B35 3E0E4ABE 3DEF1562 3E097AAB BDCEFB2B 3E03BD5A 3E0A1FD1 BD817D86 BE0192A7 3D0EDE1F BDB9F3C7 3DB674D1 BE612DFD BD9AEC80 3D3DDA71 3E049ECB 3DACFD4C BEDECC3E BE23C148 BE6BBDBE BE964D3C 3E4EFA1E 3E566C6E BE1BD018 BEE3E857 3D6F82F5 BE18433D BDD57A35 3DB84366 BE1E321A 3D89CC32 BDFFE543 3E18A7E7 3E1BF727 3DE8B008 3E1E5C4F BEE979E1 BF189BD8 BEA1FFF8 BEE911F1 BE8962AE 3E5F8F04 3D7D289A 3D4C5D06 3D937500 3E36DDAD BED41872 BE68E219 3E400970 3DF91A33 3DD932D7 3CD3037D BE901733 BE503F2D 3D9B4A08 BE002FF9 3CD41602 3DF17721 BEB77985 BF00305E BE0F32BE 3D198BA7 3B74A65B BBF59D3B 3DEC5C14 3E0E5F31 3D299392 BECD4089 BEC8B567 BE9593E6 BE3EDFA4 3CA6FF48 BE26F263 3DF6D7E9 BCF7193C BC30C2AB BE487D2C 3DC7CE6E BE20E0EB BE0DFC5D BE1B2B77 BD4DA1DF BE0CF851 BE1BA51A 3DD5043E 3DFDC93F 3D80BDF3 BE21101B 3E75A6C6 BEA183F9 BE73C31E BF212956 BED53DA7 3E015D70 BDF1EEAA BEF96788 BF11EDE1 BF4DD085 BF46BDB2 BE9C2D49 3D4BE4DB 3D7E1DC3 BE6651F4 BE0C85C2 3D2CB388 3E3DEA03 3DC3A1E1 BE1201CD BDF268D3 BE5270F4 BE4289DB 3DE811B2 3E238088 3DF0E2C1 BEA493EA BEF74E66 BE344D87 BE49A73B 3CAAEAFB 3C551F16 BE83EC25 BE54A6A8 BCC61192 3D612C1A 3C469007 BE69CC32 BF0C39CE BE2503B8 3DBB049E 3DCB8D32 BE543915 BE62339C 3E717F41 3E2AA540 BE2F89C6 BE900B89 BE9B586D BD5510D4 3E16C722 3E14A98B BDA257C9 3DE1D29E BEEE7B5F BF0E979E 3DA73315 3E115B9A BCE88C7C BDB0B0CA 3C273D5C BDD94079 BDADA603 3E562B28 3E56DEB9 3E2E0EFA 3DE8F430 BECDF97B BEC9F46F 3CC67A6E BF088861 BEB1882B BE8B5654 BD12F703 3E01E03F BD828B7B 3D01B3FF BB914AC1 BEA48323 BBBFD604 BE9522C9 3D5C594D BE1BFAD3 3E1333B9 BECFACA3 BEE145D8 3C4881E4 3C29E039 3CF48DA6 BD553F47 BEA04274 BD9493D6 BDDBE447 BD9038A0 3DD1B478 BE29F1F1 3C0E6A9C BC8315CA 3ADD50FE 3DA78C5E 3E1AE819 BD20218E 3DAEB265 BDF50EBB 3DD824D5 3E064C30 BDFB120A BC196313 BECDF19D BE67763E 3DDC5B4B 3E2BDAD7 BD30A1F4 3E05CD4F 3DB77A55 3DCABA46 BEE9D389 BEC933A0 3DCD26FA BEB64778 BDDDBFCF BF042236 3E3DB50F 3DA3A711 BC315004 BE681A9C 3E344C7B 3E53EF6B 3E2E95FB BDBA6D84 BE854413 BF16C354 BED32E38 3DB545BA BDFC6B05 3DB7E8CD BD2A2934 3D2EB9BC BC8676A7 BE2307AF 3D841299 BD900318 3B4B57D8 3E082907 BE5DD053 3DEB039F 3E13A798 BF094DF9 BE82923E BE967D9A 3DE830A1 3DE68E3F 3CEEA6DC 3D80BECA 3D266E0E BD3239D9 BE8372C5 BEC3C7F7 BE31A112 3D344475 BE01D6D0 BDAABC44 BE4A886A 3E25FE97 3DC2D341 BECD88E3 BEDE518F BE6C9CD4 3E1181E0 3E289268 3DE2003B 3D8553FD BF05EFD8 BDB00EFF 3BC4B323 BEF1C561 BE9B95A3 3E343526 3E31AC15 3E3A8262 3DCEC072 BD2EB702 BEA97B31 BE58E25D 3E29B888 BDEB69DB 3E23400C BD3593E6 BE394EE4 BB0F7E8E 3D096879 3C723034 BD014E7F BE1FC7E7 BD203EB4 3E172FFD BE74B7F6 BEF6A22B BC87372C BE1B8801 3D873DAC 3D6E3C89 3CE33417 3D719371 3DC26D05 3D758446 3DFE5D18 BF225B64 BF32FA61 BF0DED8D BF23AC0C BEE7210C BEE384BA 3E580DC3 3E4B9E06 3DD5B036 BE987E39 BECC6D40 BECF2629 BEECD877 3E1892EF 3E14CF07 3D6085B2 BE234BD7 BE1588A0 BDA2D35C 3E181D7E 3E297AEE BC2675B6 3E2D6388 BDA2274A BE5F1023 3CEEE5FC 3D9F5848 3D786DD0 3D9E2C7E BEBBCCF3 BE438088 BDEF69CB BEC269E0 BEC74928 3DAFCD32 3E03DAF9 3DFD4845 3DF796C0 BE1CF356 3E0FBD6A BDE108C4 BE172CD8 BD476EF5 3DC4B308 BD92BF55 3DFDC9C5 BDCE5040 BE57442C BF14CD31 BF022153 BDBBE90D BE3D3E92 3D66719F BEAAF4F1 BE854ED3 3D60600D 3DE4AC6D BD84421A 3DB42C3D BF10DE1A BE8FBCA1 BEBB167F 3DBA9FE7 3D4F7CAA 3E333227 3E1CC426 BCD253F5 3CB5CD0C BDA10BA6 3B49FB36 BE0F0414 3CD1512B BE411948 3D8298F4 3CFB2647 3D80DBC8 3C885752 BF2828F6 BEF3506E BEA582BA BD03A5DD BCC42D8C BE90815E BE572218 3D87B6D6 3DACE846 3CF83E6B BD1AEEB4 BE53604A 3D9D746A 3E06872B BD4473CD BF1351CE BE7D7C2D 3D46527A 3E036A83 3DB0DDB9 3DC274C7 BEC12C28 BEE31D50 3E10EE07 3E7D3BB0 BD5E9C53 BD7C939A BEDF5EA6 3C9BFE99 3D202FD1 BAE4349D BE19B5E9 BEBC43B3 BEB0AE53 BDFF22C0 BE85028A 3D8A9FBE 3D372C52 BE5BE554 BEABDC05 3E3F79C8 3CAE9864 3E14A05E BE4FF0CC BD8E1E13 BE7D0F62 BCA8D145 BE53571D 3DEB9885 BDC47A18 3E49628D BD783A6F 3E36F651 BD9CAB75 BD89519E BDDF609E BDD9B34A 3E167EC8 BD24E5C8 BE3F13CF 3E1E5259 3BC68057 BD07BC3C 3C5D9E41 3DBDD6C5 3E3FF759 3DE90FF9 3DBD41D2 BDB9637E BEBA2F6A BE84D0BB 3E118698 3E08D6D4 3D8D6833 3E1D017E 3D8D575F BCE5D405 3C13DC15 BEE15F67 BF06F199 BEF85F4A BEBFD9FD BB0D4477 BD0FE65D 3D37CE6E BD2EED6E 3DC691C2 3D64FAC1 BDAFB140 BDF09AED 3CA85EFA BE294467 BE4F1AE3 3E2BAF10 3E16C2AD 3E2F86A1 3D5BA2D9 3E009353 3B44FEA2 3D530454 BE34549B 3DF635E7 BD9673FB BE92938E BF3CA527 BE264E48 3E1BD33D 3E2052D6 BED9E6AC BE082518 3E265ADE 3E00064B 3DA58984 BE637500 BC6B356E BE81F57B BD31D672 3DB896A7 BD9D9A37 BE4DB8BB BD2A791B 3E0E718B 3DB59A3E 3E3FB15B 3D371C61 BE57DE51 3BF97105 3DEAB580 BE552E30 BDC14545 BD037352 3D942E99 3DF0EA18 3DD5C209 3D212AA2 BEF12A73 3E01AEB4 3DE14403 3C95EF20 BE859DDC BD718CD5 BD6C447C BE5A9542 3DF27A20 3DE9D628 3E006AB1 BD796A6A BF107AD1 BF20C22F BF0875C5 3E0913A5 3DD927D4 3DD778DD 3D04AF27 3D810335 BEFE24DD BEA4202E BE430A4E BC2F7462 BEAC4BB2 BDBB896B BE2975B0 BBBB45BC 3E029132 