2A 1D A5 A1 01 28 99 92 9B 8A 1B 9F 0C 9C A4 1F A2 94 08 19 19 1A A5 12 AF 29 28 A1 8E A4 22 27 9C 21 AB 9E 81 18 21 22 14 A3 08 0F 21 0F 88 8B 29 23 97 28 03 25 10 13 14 25 81 08 A4 0D A1 22 1D A0 13 19 23 25 30 18 AD A3 17 1E 96 89 16 21 01 8D 23 28 81 97 23 08 29 22 9A 1F A2 22 A8 9F 01 95 9F A1 A2 28 96 16 1F A9 A3 9B A4 13 8B 01 96 91 A2 1B 1F 9C AD 1B A0 1D 24 AB 19 19 95 31 AC A1 B0 AA 0D 1A 24 91 05 A5 1B A0 A0 A5 81 29 0E 2B 01 2D A5 19 97 8B 92 9A 10 97 9F 15 28 A5 2B A1 A1 2A 2C AD AD 9D 01 A3 25 21 12 1C A0 27 16 A9 A9 24 AE AB 25 A9 A0 81 93 A3 9D A3 2A AD 02 A3 02 9A 98 1A 99 A4 29 AD 30 81 A5 18 AB A4 18 23 9A 9B 10 AC A4 1E 87 0E A4 9B 1A 9D 9B 01 1F 81 98 AA 98 1A A0 9B 8A A3 1F 10 20 01 01 24 27 2A 9F 2C 1C 20 18 94 9C A9 21 93 1E 1F 20 A1 2F A2 9F 23 27 B1 29 15 18 A6 A5 9D 27 28 0A 1A 1B B4 09 01 AA 9D 20 AD 28 A5 81 24 1C AC 16 A0 29 22 23 21 25 92 A2 85 0A 80 9F 23 13 19 9B 91 14 9B 19 1E 24 9A 17 81 A3 A2 A1 21 12 B1 2B 1C 26 26 1E 18 87 98 A2 92 13 A0 99 11 18 20 AA 1C 99 91 28 9B 81 A7 A0 1C 25 23 93 1E 03 12 9A 8A 9A 8C A0 9C 0F 1D 9D 95 21 A6 9D 14 84 A1 92 84 27 9B 9E 23 A6 9A A4 20 26 9B A1 29 8B A6 A9 A2 19 26 21 04 18 A7 10 0D 1F 19 95 96 A0 9F 81 9C 08 A8 A5 21 24 9D B1 0D 99 A2 1F 28 2B A4 2C 2A 1C 99 9C 9D 1D 9F 01 1D A2 28 99 A1 99 22 96 80 A5 A0 23 A7 25 A4 20 A0 A6 1D 1C 16 01 14 19 99 20 A4 97 91 9B 8D 9E A1 1B 26 15 1F 81 93 13 99 01 A0 AB 98 AE A7 99 AE 81 8E A8 25 23 A0 22 A3 25 1D 25 1F 9D 11 A2 A0 18 0F 15 9D 20 9B 18 16 A1 99 8A 81 21 12 1F 28 2F 8C 16 14 8D AB 11 22 2B A0 24 9E A6 81 18 26 91 A2 A3 06 A1 22 9F 29 A3 19 10 A8 28 01 A6 A0 1B 22 8A A6 27 29 1F 96 A4 1A 20 1A 0F 0B 11 A1 32 92 2A A5 A5 AB AB 90 22 A8 1A AC 95 A9 9D A5 92 99 A2 01 09 15 20 9F 81 26 91 19 A0 16 96 A7 12 A8 9B 99 19 21 2A 10 13 1A 1F B0 95 91 2A A0 23 A0 A1 2A 21 0D A2 28 A1 A9 A1 A8 9D 1A 22 A7 19 20 A1 8D 9D 84 1D 12 11 20 A3 9E 93 0D 14 A3 8B 91 95 98 9B 10 A6 1D 9B 15 9D 95 8B 23 A8 A7 A9 20 8A 2C A3 22 12 9D 91 9C 21 1B 23 99 10 1E A1 96 9D 2C 12 A5 9F 27 24 A3 92 01 A7 20 2D A5 AA A8 9B A1 07 92 01 A7 0A 15 1B A8 AB A6 22 A3 28 9F A6 14 1F 0A 1B A3 A6 9B 94 B3 20 1E 9E 01 27 20 AD 24 1A 20 15 A6 97 21 A3 A8 A4 1E 21 A6 AF 9F 1B 99 91 A2 A3 07 A9 81 2B A3 8C 95 A8 9A A2 22 A5 24 A0 91 1B 15 A8 A0 A0 24 26 A0 1C 2C 9C 14 8F A3 99 20 A3 92 99 A3 29 15 18 1D 23 9B 24 96 20 A4 1A 81 02 AE 24 28 A6 03 19 92 2E 9F 85 87 AB 92 25 0F AB 9C A2 95 19 14 20 A3 AE 20 26 1F A4 94 98 A0 20 A0 1B 1C 1B 80 A7 05 1C 9E 1E 1F 09 9C 09 25 13 81 A0 18 30 91 A8 12 A0 94 29 23 9D 91 A2 A5 A1 A0 19 9F 19 12 8E 9E 9D 2C A4 1F A7 21 26 9E AB AB 