9B 9C 19 99 0F 83 A2 88 9F 90 86 A3 A1 97 80 11 19 A0 1A 81 A1 8B 1B 04 04 16 A3 81 81 98 1F A5 1B 93 A1 86 1E 00 A3 9E 84 96 8E 95 8A A3 A0 A2 99 95 80 9C A1 80 14 88 89 9A A3 1C 0F 90 80 0F A1 81 8D 85 88 A0 84 17 A4 04 01 A3 84 9A 88 98 A8 A0 8A 0D 9A 18 9B 86 99 18 01 9C A1 A6 9B 84 9C 0D 88 06 80 12 89 0B 9A A5 81 88 A1 9B 9B 96 1D 84 A2 93 86 1D 81 9E 83 89 9C A0 95 98 84 9F 