24 1A 9E 8F A2 98 9F 9F 22 20 28 12 9A 2A 29 AD 0B 30 35 A1 0A 24 2B AB 81 9D 01 A8 2C 9D A5 22 05 9B A1 19 A9 1F 92 23 24 28 1F A9 90 30 2D 18 28 90 29 A6 23 84 30 28 1C A8 A1 93 2C 1D 24 94 1C 20 20 98 AC 20 19 23 28 2D 03 2B A8 A0 2B 25 1B 18 11 22 2A AC 35 31 86 06 21 AB 21 09 90 8E 08 09 91 9C 21 19 A8 8F 20 25 2B 95 B2 25 1F AC 0A 1B A3 30 A4 33 20 AB 8F A1 A3 9F 9C 09 81 26 16 2A 22 26 A3 A6 96 1F 24 23 20 AF A3 28 29 98 2C 24 18 2A 1C 31 A9 A7 0C 24 A7 24 18 A2 82 95 98 9C 16 83 8B A7 95 0C 1F 15 23 23 20 A6 32 01 20 2D 2A 84 20 9B 1A 23 25 11 29 91 10 0F 9C A1 26 A1 A8 1D 88 A2 0A 8B 9D 92 8E 31 28 35 9E B0 33 A3 A3 23 25 30 81 A2 22 20 A8 27 1C A3 A4 28 A3 98 A8 28 A4 A9 8F 24 2A 9E 81 2A 1F 38 A2 AD 33 27 9A 8F 2F 21 29 A0 A9 29 AC 26 A8 02 17 92 A3 9C 29 29 A2 10 27 18 98 A5 28 2F 31 28 22 AA 2F 28 27 81 2F 9E 1D 18 A5 A7 A0 27 A9 20 1F A8 