03 A1 9F B2 9D B2 2B AB AD B2 AC A7 B0 31 25 22 B2 B1 B7 20 A3 B3 A3 B0 1B 24 A7 11 1B 17 1F 9A B6 1D 13 20 17 96 23 23 23 03 A9 B0 2A B1 1C AC 1E 03 A3 A3 16 20 9B 95 AC AD AF 18 29 A8 AB 25 A3 AA 94 99 8E AE A3 18 A2 A1 9C 13 1A 15 B1 A0 1F 19 24 B0 01 11 9C 20 20 B0 B1 B3 A7 AD 9A 1E B5 A9 92 9C 93 20 24 24 9A B3 21 AD 20 17 A5 1E A2 2B AB B3 95 B1 A3 B1 AA 95 20 24 AC A5 B0 27 B0 21 91 92 20 1A 9B B2 24 AA 92 11 18 9F 23 A7 21 B1 AF A9 A8 9F 1C 9A 1B 94 AA 08 B4 23 A6 17 A7 20 1D 9B 98 99 A3 A3 93 2D B2 B2 AD B1 29 26 27 B1 20 B1 24 01 21 9C 23 AE 1C B0 82 A3 93 A1 8E 21 03 9D B0 26 9B AE 27 B5 B1 98 AB 1A 09 A4 A8 A1 A6 23 AA 9F B0 29 1B 84 A9 20 05 11 B2 AD 26 28 B2 A8 B0 A7 AE 1B 9F 88 B0 B4 1A B3 24 B1 0F A5 A8 25 03 17 24 21 9F 9C 21 A0 B3 2C 9F A9 AD AC 99 15 20 A9 94 22 98 A2 94 AD 20 B0 21 B1 B0 28 A3 22 A5 9C AC B4 1D 9E 21 B3 B6 14 AF A5 20 A2 AB 10 B3 29 B7 95 AB 9A 1A B0 16 9D AF AF 26 A7 21 19 10 A4 88 1A 16 9F A2 A6 A9 13 1D 1E B1 0E 1D 9F 14 1C 1F A2 B2 B2 A9 1E B0 11 B1 93 AE AA 9B B1 B0 20 26 1D 9F 1A 88 B6 20 0D A4 A4 10 22 19 1E 0A B0 B1 B0 B1 AE B1 31 1D AF 1A A2 B2 16 B1 A5 08 A3 1B A4 0E A3 1C 1D 9A A6 AA 93 A8 23 A0 1F 9C 22 98 81 16 94 21 12 9B 23 A4 12 AB 03 16 B2 01 1A 1B AF A9 20 84 20 19 A7 1B B1 20 B1 24 1B AA A9 B4 81 B3 1B 08 97 14 B2 25 22 B2 A1 93 A1 A1 91 92 20 05 25 23 0A AF A8 20 B4 8A B0 12 8F B4 0B 88 89 17 AD AA 16 08 B0 1B A2 A2 A3 98 18 97 21 00 99 90 A4 01 A2 A2 01 24 1E 07 8B 9C 1F A0 12 1C A8 19 B3 81 16 93 1B 22 01 8C 9F 9F B0 1F B2 25 1C B2 AB 29 A7 24 9E 20 0E A8 A4 98 A7 A1 1B A1 21 17 84 18 1C 91 AC AB 23 B1 20 22 1A 98 A3 A1 1B A1 A3 A5 17 B0 1E AF B5 21 16 88 A4 20 19 20 0E A1 16 AE A3 A6 25 21 AD 22 AB 21 AB 25 A1 B0 A9 B4 AE B1 05 AD 2C A2 01 88 1C 18 94 A6 24 A3 AE A5 B5 26 A8 21 8D 1C 9F A8 A9 94 19 20 AA 1D 17 20 B1 A8 20 0E 20 21 B3 9C 2B 07 98 B7 AA AE B6 1E A6 21 B3 B6 19 A8 AC 21 B2 11 AD 23 24 B1 1F AD 24 23 A2 1F B0 B4 B1 8C A9 B1 2B AF AA A4 B0 30 B2 AB B0 AB 22 0C 23 16 08 B0 B3 23 1B B0 16 23 20 A1 1C A3 A2 0A 98 A7 B2 2F B7 99 A4 AB B6 29 AE A6 2A B4 A8 A5 24 A3 1E A4 9E A3 A1 24 2A B2 A1 AF AE A4 81 A1 1C 89 8F 1F B1 1F AE 1D 8C 82 99 21 21 82 25 84 85 B2 21 23 AE 21 17 1D B1 B2 9B 10 9F 0B AB AD 22 A8 24 AA 22 A8 B2 B3 20 93 24 22 B1 20 A2 16 0A 8E A2 9A 98 B4 A8 25 A9 22 A8 1A B3 B3 B3 22 AA AC 28 A8 AD 1F 23 A0 21 AA 21 AE AF B3 AE AF 2A AB 23 96 02 A6 22 A7 21 1F 98 8F 13 99 9F B1 AB 94 19 23 18 0C B1 93 A7 AA 29 9D 21 9B A1 20 23 A3 0C A1 17 1E B2 95 B4 11 1B 81 99 1A B2 B4 0A 09 B0 9A 20 20 1D AE 19 A3 1A 12 92 1A 22 18 AB AA A0 A8 23 81 AA AB A9 25 9E A1 B0 26 20 AE 14 A2 B4 21 12 22 14 26 B2 A9 A8 AB 0B AA AB 1A 1F AD A6 16 1E 9F 9A 1B 81 12 20 A8 1D B2 A8 1A AD 