B8 B0 9F 24 28 B5 8F 19 B2 21 B9 B9 1A B3 B6 B0 B2 29 B4 1C 27 A7 89 A6 20 A0 1C A0 21 9E B4 2A A7 A5 B8 B1 29 B2 B2 27 B0 1C B7 AE BB 15 B8 A3 2C 27 26 A5 A1 A4 27 A9 13 24 A4 A0 16 9B A0 B3 B3 31 A9 1C B1 94 24 9E 24 AB B8 25 21 B9 B1 B1 AA 31 C0 B3 B1 2B B9 B1 B0 92 2A A5 28 27 98 9C 23 9B AE BA AC B7 31 B9 1F 0B 28 28 B3 B9 22 27 AB B9 28 B2 9F B1 17 BB 2A B4 0E 30 BB B6 29 BA A9 B4 B7 B3 32 98 9C B2 1B B2 93 B0 BC 1C 9C 1D 1A AB 1F B1 95 A2 A6 25 B0 AA 1D AE 22 B1 BA 23 1E 1F BB 1E BA B8 A2 B9 A2 B8 B6 B5 BB B3 32 B4 B4 B2 A6 2A B7 2C A1 A1 A8 A1 9C 1D AA A8 B7 98 A5 A0 AD 22 BC 9C B9 A1 9F B6 29 26 21 27 B4 B8 21 B4 A0 AF A0 AB 90 B5 BA A2 A1 23 A6 8C A6 A8 01 27 B4 A8 BD 90 92 B3 B8 31 B0 B5 1B 1B B7 B6 BA B9 B5 B8 33 24 B9 1A B1 B9 23 B6 AA B9 B5 B8 B6 B9 36 AA B7 1F B7 28 B5 AD 20 A9 A5 85 9F A1 16 22 B2 0A 18 B4 19 AE 20 AF 20 A8 2A B6 B9 17 A9 A1 19 24 B8 B9 B1 AB 1E 24 1D 88 94 27 A7 AC 9C B1 25 B7 B9 25 9B 9F 28 BB 21 B6 B5 AB 20 8F 95 1D A2 AB 95 22 27 B5 B8 A8 B1 B6 0A B9 15 21 22 A7 A3 26 21 1E A5 A0 15 A6 90 25 A9 9D 26 BE 24 B7 B4 28 AC 21 9A B8 A5 B1 28 2A BA A9 A3 9F 81 BA A6 1D 20 94 9C 22 B0 B9 9F 0B 25 23 26 27 20 1F AE 1B AE BA 21 8E 20 BA A6 B0 30 B3 B9 17 B7 8A 14 0B 14 B1 AD 91 A2 21 23 BC B8 32 BC B4 B9 B3 1B AE 19 A3 95 A0 93 25 A6 AE A6 9D 01 17 BA B6 29 28 B7 1E B4 16 AD 28 1A 22 B1 A9 26 B8 