1F 01 17 9C 92 9F 9D 07 18 19 12 A1 A1 12 9E 01 01 9C 1A A0 A2 8D 83 1F 9F 0B 8F 90 81 16 0C 15 04 80 8A 1B 9F 14 01 9A 1D 10 21 A0 14 18 90 9E A0 0C 90 93 98 A4 01 81 08 8B 9F 87 98 17 94 9F 99 1E 10 9C 8B 20 A2 A2 09 A1 A1 95 22 A5 15 97 A7 81 9B 20 01 14 18 1B 11 1F 93 9F 94 18 9C 95 1B 22 1A 19 17 A9 A3 1B 0A A8 A6 24 A8 A0 20 88 0E 94 A7 8F 08 23 1B 13 97 0A A2 8F 19 A9 1A 86 16 A2 22 14 A0 A2 A6 18 06 94 1C 9C A6 90 A2 93 A9 96 05 9A 98 08 95 21 92 93 15 01 9F 1C A8 14 05 81 81 99 9C A7 94 A3 22 22 9E 97 14 85 95 09 18 04 15 06 19 1F 25 1B 94 0B 12 9E 19 27 1E 96 A5 A3 1C 18 8E 8D A8 A1 9F 14 13 21 9B 01 A1 9E A3 91 1B 96 94 1A 01 18 9E 92 98 A1 9D 1E 9A 99 20 26 A1 99 90 11 92 A2 1C 24 A8 19 86 18 99 16 23 19 13 8E 1D 10 20 1C 95 A1 9B 9B 1A 27 1E 93 17 0C 94 97 9B 9F 12 19 09 A0 93 92 10 01 85 20 21 A1 01 0A 12 81 17 9F A0 94 20 8B 9E 19 9B 8F 9D 1E 0A 1A 00 09 1B A8 23 18 05 9B 1F 0E 01 9B 10 0C 01 9B 1D A1 8E 10 11 A4 95 1B 14 0E 81 19 1A 9C 23 16 90 98 01 14 16 97 16 A6 01 9A A3 20 A5 A4 14 21 9B 0D 9C 83 9A 17 1F A3 A3 19 9B A1 21 18 1B 0F 19 95 9B A1 9A 15 01 14 9E 1F 08 99 9E 9A 21 0E 19 96 81 A1 9D 9C 8A 1D 1F 13 8B A4 11 81 1D 81 0E A7 1C 12 99 26 81 81 24 21 07 1F 22 10 81 98 91 81 18 8A 9D 01 9B 9C 99 01 94 01 A8 22 0F 99 95 11 A0 A0 A2 17 A1 15 05 9C 1D 16 80 99 1B 99 81 13 91 17 03 14 16 94 8D 0E A0 99 1D 21 1D 82 12 20 91 93 A1 1B 1D A5 A3 97 0B 9F 9D 03 8F 9E 9D 81 95 8C 14 20 19 17 0C 10 9D 96 A5 94 8C 1C 96 80 A2 9E 9B 89 09 18 A4 99 0C 81 1B 20 A1 9A 00 A0 20 01 8C 11 16 A2 8E 96 9D 9F 91 98 15 98 18 01 0F 0E 98 91 91 93 9A 0C 00 8D 99 9A 9A 98 8C 14 98 15 03 19 0F 9A 03 96 94 95 0D 99 12 90 1A 9B 06 88 81 10 92 9A 18 11 1A 16 13 18 1A 1A 99 92 95 16 10 0A 02 89 12 99 1B 93 81 1A 19 15 A2 12 A9 11 A2 23 8C 0B 9A 1C A0 97 81 27 93 18 18 1E 02 22 93 1B 82 19 98 21 19 17 9A 18 A7 92 98 16 A1 99 0B 8B 8E 0D 01 9A 93 9B A3 19 10 10 18 9B 20 13 A0 9A 17 98 01 01 1C 1D 1F 01 20 96 0D A3 02 1C 87 01 14 9E A0 98 0E 13 A0 A2 03 9F 95 84 0E 06 A3 20 97 A1 01 9B 81 A7 A4 1C 1E 0E 9D 91 9F 04 89 92 14 0B 9A 96 98 95 1A 8B 1E 0A 99 8C 81 21 15 11 06 A0 92 A1 95 9B 8A 9F 97 0E 8C 20 81 1C 1D 1B 80 A3 16 12 9F 8C 20 94 0A 13 89 9A 9D 01 19 25 91 24 16 23 13 10 81 20 18 97 1A 1C 92 09 9B 0B 92 21 92 8E 20 24 1A 10 82 08 1A 95 1A 81 88 81 1F 91 81 10 8E 92 A2 9A A1 18 94 1D 93 8C 13 8B A1 AA 01 19 A2 93 92 13 A0 1E 0C 01 88 13 19 14 0E 90 A0 24 1C 1E 10 1D 0D 02 0F 95 9B A1 00 91 9B 9A 12 8B 9C 10 9B 9E 91 9C 1C 0B A0 93 9E A2 08 23 9C A0 20 82 19 01 06 91 0D 0B 9F 08 A1 10 9E 9F 1B 0A A2 21 8C 8D A0 18 24 9A 81 1E 23 1D 95 1A 9A 23 0A 1C 15 1A 9C 1E 22 A8 A7 11 A2 A4 A7 98 8D A8 8E 1D 9A 08 A3 01 91 24 9A 16 A2 9C 1B 01 A2 A0 19 9A 08 19 07 16 A3 15 88 21 99 1F 99 9F 84 1F 9D 13 9D 24 10 16 95 96 18 01 8C 11 11 25 9A 19 9F 21 A0 92 84 A1 9C A3 94 A9 9D 15 9C 11 18 8A 19 9F AA 8F 0D 16 14 1D 20 1A 93 1E 28 A2 98 9C 9D 08 15 0A 01 01 0F 13 9B 97 89 0F 18 01 88 9F 81 21 23 81 18 1E 05 99 81 00 97 97 99 A3 9E 0F 1E 81 23 01 8A 12 07 21 81 1E 1E 99 1B 96 81 91 A2 01 12 05 99 99 91 1F 89 9F 18 01 9A 18 9F 9F 15 11 1D 01 A1 9B A2 8A 99 1C 89 9F 17 A0 93 A0 9A 8A A2 06 0E A0 81 83 9D 14 A1 21 22 1C 91 8E 9B 01 0E 01 1E 81 99 20 90 99 10 1D 05 9B 8F 1A 00 9D 9C 01 8C 81 88 A2 22 21 99 18 20 1E 94 90 93 8A 08 98 15 98 97 14 A1 80 A3 8D AA 12 12 9F 89 9A 9D A1 9C A5 20 1B 94 01 12 19 91 1D A0 A6 93 9F A5 20 8F 92 01 9A 18 06 15 9C A1 21 A4 A1 1A 99 1F 14 A1 9B 1F 20 94 88 A1 86 A7 A1 81 A0 8B 99 91 A8 9B 13 20 94 A3 9F 9B 9A 23 8D A8 12 9B A0 A6 13 9A 19 81 99 94 05 9E 94 21 99 8A 9C AB A1 1A 24 06 1C 94 16 19 A0 1D 92 98 18 18 1B 98 99 9F 9B 13 9B 9A 9F 23 9A 9B 98 8B 9E 18 1E 10 1A 11 AB A1 94 0E 85 A8 A3 A2 9F 81 12 83 1D 0E A5 A7 96 85 0B 91 20 98 85 8A 9C 1C 97 9A 14 A2 9E 22 28 96 18 9E 0F 1A 95 21 1F 92 25 19 96 97 03 9A A6 0D 93 86 20 1C 8B 13 98 A2 9B 00 1D 01 20 93 98 A5 11 11 98 10 13 9F 08 1B 11 11 9F 1B 0C 15 99 10 89 A1 98 8B 18 A7 01 17 A0 9B 08 1A A1 A0 19 0C 19 11 13 16 9C 16 1A 91 1B 1B 13 9B 9A 8B 81 99 94 9B 95 16 22 88 1A 01 0D 8E 15 1A 1B 20 0F 18 9A 9A 8E 9A 87 A0 A0 0D A5 92 8B A3 15 A2 92 9B 22 90 9C 95 96 96 1A 01 99 9A 18 11 A2 1C 20 23 1F 02 1C A2 A6 18 0F 1A A0 94 0B 11 98 95 A1 13 88 82 13 17 97 1A 84 1E 20 1C 81 0E 97 81 92 91 19 20 A4 9A 9F 92 0D 0B 15 1E 1D 81 9F 1B 9C 19 A2 A2 88 02 81 91 9B A0 90 01 A4 9F 8C A6 81 9B 8D 21 8F 0F 01 8A A3 91 92 99 9B 1F 9A 9F A0 98 18 9E 1F 90 21 91 90 99 AA 23 1F A3 0C 13 A2 92 0E 9A 1F 13 1F 19 9C A3 9E 0C A1 A7 8F 9E 06 8A 1D 9C 94 93 19 9B 22 8D 06 9F 1F 20 82 80 15 10 15 9F A8 8D 81 A2 04 A3 16 A1 9A 20 9A 98 0F 9F 9B 98 9F 9D 9A A5 20 17 0C 00 9D 8A A8 11 86 15 81 9A 18 8A 17 14 17 96 18 84 15 96 13 1A 98 90 85 81 19 0A 01 8E 97 92 01 90 97 16 18 19 98 92 90 19 8D 14 15 82 19 02 82 13 92 95 04 18 11 01 1A 91 86 8B 8D 13 0C 86 11 98 01 19 07 01 A5 97 91 98 A3 AA A2 0D 89 0D 92 94 20 06 94 08 22 96 94 21 81 9B 19 01 1B 9E 1E 10 81 99 1B 8E 21 9A 01 9A 96 9B A1 8F 10 16 8D 20 9A A0 19 97 A6 22 07 17 9C 18 19 99 A1 9C A3 A2 1D 1A 1B 14 A0 01 01 95 A3 14 20 01 94 98 1A 1A 11 9B 1C 97 94 93 01 A2 11 99 1C A8 81 18 06 9D 9B 1F 9B 9E 87 81 1E 95 9C A2 9D 09 9C A1 9E 8F 0E 0D 95 98 9E 18 01 A4 81 9C 10 98 9F 24 12 21 11 01 84 02 16 84 94 81 17 01 9B 0C 22 99 12 1A 21 98 10 1A 1D 09 9F 99 99 16 90 1C 23 A0 12 21 20 11 97 94 20 92 A8 21 1E 8B 81 9F 90 18 14 9B 8A 18 21 28 0A 1C 15 10 9D 9C 16 A0 01 24 8D 15 86 95 9A 1C 1A A5 81 96 15 90 9F 83 8A 9F A6 92 81 92 0E A6 8B 9B 9C 84 8C 15 A1 19 15 A0 9D 9A 99 92 9D 9D 20 81 A3 17 20 01 0A 9B 8A 20 90 92 81 9B 18 01 18 9C 15 16 16 01 15 92 11 A0 9E 90 9F 1C A1 A3 9B A0 12 14 98 A5 A2 10 1C A0 93 24 1A 8A 1C 9E 21 19 95 1C 98 08 A0 22 93 A7 18 01 09 0F 1A 04 18 12 96 23 8E 88 14 AA A8 1D 9B 96 A8 86 1F A1 0C 9E 9A 0E 81 92 21 98 18 1A 0B 86 9F 0B 0D 08 13 0A 9D 9C 88 9F 1A 97 08 9B 99 96 1E 81 91 A0 1D 0C 9E 83 98 9B 19 94 19 81 01 8F 96 A9 0E 0E 1A 8B 84 97 9E 02 99 A1 A1 20 9B 23 98 88 A0 A2 9D 99 16 15 08 A1 26 9B 1B 8F A9 1A 9C A1 01 1A 83 10 9D 8B 1A 00 19 04 81 15 0C 9E 9D 1D 0F 22 95 14 09 99 8F 99 1E 9F A3 01 9D A2 14 0B 1B 0F 05 97 94 97 06 11 89 8A 19 83 16 8A 99 10 A2 86 18 9D 9A 91 21 95 9C 06 93 9A 81 1F 99 1A 95 0B 06 9B 91 81 89 92 0E 98 9C 0A 05 9A 0A 85 10 9B 8C 08 A1 A0 A0 9D A4 A0 01 1C A3 15 0B 9F 8C 17 01 1B 9D 84 9B 85 81 01 21 1D 8A 0B 9A 10 A1 96 9D 0E 9B 0A A2 1C A5 8B 22 19 93 18 09 93 01 A2 A2 13 14 93 18 A8 97 A7 18 9D 05 93 92 19 9E 15 14 19 A0 9C 99 9E 82 A3 90 A6 18 19 95 01 A0 9D 0E 9D A2 9E 01 20 1C 15 A5 1D 20 9A A5 99 9B 1B 01 A9 10 01 A2 98 1B A3 18 16 A5 9A 81 87 9C 98 9B A7 07 97 02 A1 20 A5 0C 1C A4 A9 08 1B 9D 9F 92 1E 96 9C 21 01 A3 99 A1 22 81 8D A2 9A 9A 10 22 8C 20 95 0B 99 93 24 91 10 20 19 81 81 99 A0 A4 81 97 14 81 22 1A 81 22 81 A1 1A 01 00 88 12 92 AC 0A 8A 21 9A 99 9E 9E 98 94 95 8D 24 9A 0B 19 14 12 94 19 8C A0 8F 80 20 18 9C A4 18 97 0A 1C A0 1A 9F 01 02 13 10 90 03 24 88 A0 90 1F 9A A8 9A 94 85 22 24 98 1E 1B 89 99 19 09 1E 1E 9E 10 94 14 03 11 1B 12 20 95 04 1F 80 1C 0B 89 20 12 17 04 A9 91 18 21 A9 1E 9B 81 1B A1 22 08 9B A8 97 9D 90 A0 93 91 12 0B 81 0C 20 12 98 A0 81 1A 81 14 9E 01 13 0B 18 16 18 98 19 07 94 08 20 21 A1 9B A2 05 A0 18 A2 94 11 95 9F 95 17 11 96 1A 9F 10 96 01 17 A1 88 14 80 A3 92 11 81 06 8F 1E 91 22 18 10 10 9E 97 16 88 A1 86 97 94 0B 1F 8F 92 18 14 0D 21 8C 20 17 1F 08 05 0C 98 0F 9A 90 9B 89 24 9A 8F 8D 89 94 82 82 22 1A 12 17 20 A4 1B 9A A4 11 0C 19 9F A9 1B 11 9C A1 88 20 9A 82 16 93 23 A7 1B 9E 16 A0 01 1E 9C 9C 15 9B 94 A1 98 01 A0 0C 18 14 10 1B 9E 04 11 1C A1 82 A1 AB A3 9B 1B 0D 1F 88 18 01 9E 18 14 95 94 19 01 11 98 22 A0 00 97 95 9D 1F 9A 18 99 88 08 99 94 19 17 0C A2 95 9F A3 9B 8D 24 9E 98 9E 13 18 A0 A6 A1 01 9B A0 99 20 82 95 A4 1D A2 93 0B 16 01 11 14 9A 15 18 99 95 08 09 8E 99 06 12 8A 12 81 96 18 8A 90 93 93 16 84 98 98 16 81 94 95 09 81 9B 19 1A 96 1B 18 03 84 80 98 98 98 19 98 16 12 1B 11 18 85 98 12 03 92 8F 90 94 01 8B 01 16 96 09 A7 9B 1E 98 AA A2 0D 9A 9A A0 8F 08 1F 11 02 04 18 A3 1D 98 9A A9 1D A2 9E 1A 10 A5 9A 1F 1C 21 17 96 10 17 19 16 9E 9D 18 A5 10 0F 81 11 9F A1 23 98 16 81 81 1A 9D 20 9E 14 A1 80 8F 8D 9E A0 A4 81 1E 9C 19 1C 10 A6 1D 1A 1E 1E 96 17 01 0C 00 1A A1 81 13 01 9E 12 1D 99 98 85 16 9E 9D 08 0D 20 80 9E 07 A0 20 09 81 8F 92 14 1C 97 9D A8 18 97 A1 12 9C 94 98 9A 18 10 1E 8D 9E 81 A4 86 A0 12 01 15 A1 99 1A 28 05 1D 08 17 01 22 21 15 9B 99 12 96 1C 18 16 27 09 1E 21 8B 15 81 88 21 12 98 24 01 97 9C A0 00 1D 18 99 1B 93 27 2A 9C 0D 9B 15 82 19 1E 11 1A 25 94 0D 11 90 9A 13 22 90 16 94 19 A3 A9 0A 18 94 A6 1D 88 8E 12 05 8D 8C A1 97 9A 84 90 03 A1 A1 10 81 9A 89 9B 19 20 16 A2 0E 1A 23 0E 07 86 1C 91 81 1E 1A 18 1E 15 85 8C 14 8A 10 86 01 1B 81 A2 01 19 A0 9A A7 0B 90 81 16 13 A8 A1 A2 20 A7 A1 23 9E 1B 19 99 12 13 03 81 1D 9B A2 21 9A A4 96 92 03 9A 0D 8B 20 22 9D 13 11 21 0B AA A4 1E 89 9F A6 9B 9A 97 20 A4 95 0B 18 A4 1F 8F 0C 84 8E 19 91 9E 97 A0 9B AA 95 94 9A A5 06 1A 27 1B A2 95 9D 24 81 95 24 22 9A 9F 99 01 A0 1C 0D 0D 20 00 A8 A4 1C 1C 94 26 0A 23 96 99 94 9E 96 23 81 01 89 9E 0B 9A 15 81 08 1C 18 21 21 A1 28 28 93 99 A3 81 0D A2 17 8B 8C 1A 93 99 9B 94 8F 96 99 93 0C 16 06 10 95 01 98 98 1C 97 12 94 A3 9A 94 A0 1A 81 23 91 12 A5 82 98 A0 98 89 21 01 14 88 90 9A A1 92 1A A4 99 9A A2 1C 07 9E 0D AA A2 1E 9A 19 98 A1 9F 92 8B 81 1A 80 8F 91 89 85 99 9C 97 90 98 0E 1C 8F 98 1C 14 10 97 21 02 9E 9E 83 14 19 96 17 1A 9F 13 9D A4 80 08 0C 1D 8A 01 16 9E A0 80 81 A3 01 8A 14 08 21 10 15 8D 92 90 83 81 98 15 15 0F 21 14 11 9B 81 09 81 17 80 0C 90 18 9C 01 22 20 20 9D 1A 1A 12 93 12 99 1A 81 0D 01 88 25 1A 15 22 18 21 28 98 A6 98 99 22 9C 9A 13 94 1C 19 17 01 9A 09 03 26 8C 0B 13 1D 20 23 1B 1E 21 98 10 A6 1A 97 03 04 9B 8E 09 87 10 12 19 81 A1 81 9F A1 0D 1B 08 97 90 1A 19 16 99 98 9B 1A 1F 96 1E 01 A7 96 A3 95 90 1C 93 81 A2 99 01 8B 9A 0D 1D 23 20 9B 17 81 90 1C 02 9B A0 81 20 9B 20 18 01 89 20 10 8B 09 19 98 15 21 99 1A 23 23 81 1C 0D 23 88 0C 19 94 18 01 21 0B 98 15 A0 23 20 1A 0C 25 A9 A5 A8 9F A1 12 96 81 A1 9D 08 19 15 95 13 23 94 1A 81 9F A2 1B 92 A9 A1 1C 20 80 19 0F A0 96 14 01 19 17 20 9B 1E 18 97 90 99 92 0A 9A 94 8E 11 0B 93 98 12 0A 9A 98 8E 82 0D 9C 9E 16 81 15 1A A0 A1 95 01 0D 98 8D 19 01 90 95 12 81 97 04 A1 0F 99 9E 96 A0 16 81 A0 01 1D 13 13 1E 0F A2 1C 0F 1A 9D 8A 9C 24 97 15 9C 98 1E AB 19 1F 1A 98 10 19 9D 92 22 24 08 16 95 9E 14 26 20 0B 9F 9C 9B 05 A1 0D 1C 8C 1D 99 9A 9A 01 00 1C 8F 19 22 9A 8A 1D 1F 07 83 A8 18 18 18 01 99 9C 9F A2 9A 13 9A 17 10 A1 1E 0B 94 19 21 1C 8A A0 A3 12 8C 90 08 17 0B 1B 98 A0 9A 09 03 0B 1A 82 9F 28 9F 9C A1 22 9F 9A 94 9E 82 08 1B 1A 85 9B 81 8E 01 18 18 A8 98 20 13 A5 A0 81 1C A1 23 96 1F 22 10 12 94 90 A2 12 A0 99 19 98 1F 96 9E 17 0C 1A 1B 9B 21 81 93 89 19 84 20 1E 0A 91 8E A1 A4 1B 15 0A A2 10 9E A4 1A 18 9A 20 98 12 93 91 08 25 01 19 18 1A 19 12 A0 18 90 A2 98 8D 9D A3 0B 9C 0C 15 96 03 16 9A 99 18 94 1B 85 98 14 97 9A 1B 02 94 01 81 98 13 0F 99 97 18 18 84 94 19 91 0D 82 0C 19 99 01 09 94 94 8D 99 91 09 10 16 8C 12 9B 8E 98 86 17 15 90 99 9B 88 98 94 9B 00 98 91 8E 97 A2 90 A0 1D 8D 1E 1C 21 1B 19 03 93 81 01 93 9A 97 85 0F 1B 20 21 21 1A 14 13 13 19 8E 21 A5 A1 90 0C A1 0F 1E 13 20 A7 1D 9D 22 0E 01 21 81 0F 8A A6 1A 21 01 9A 16 1C 96 A0 88 0F 90 92 15 8A 9C 90 88 A2 21 A1 19 A2 01 18 A0 9E 9C A3 00 90 13 0F 9D 8F 99 01 0F A3 9F 0B 15 A4 A2 11 0D 99 9C 84 81 96 20 81 96 99 A0 1D 90 1D 1F 92 22 9C 96 81 82 1A 93 81 9C A5 1B 84 10 A6 8C 20 19 8E A0 A0 A6 01 96 A3 9E 1C 15 98 9F A1 96 19 98 09 9B 10 12 23 19 28 9C 24 23 98 81 24 9F 96 1B 8E 9C 13 9F 85 11 95 89 8B 86 12 91 93 81 92 84 96 06 01 22 1F 9C 1F 19 8C 15 97 A3 22 95 90 11 90 A0 A0 9B 0F 81 22 92 0E 14 20 18 9B 20 22 19 94 9D 19 8A 23 1A 93 16 20 A1 26 99 23 8B 1C 97 81 12 9A 18 85 9D 15 9B A0 08 9C 08 82 A0 91 98 92 9C 96 18 01 09 9E 01 1B A3 90 80 12 05 95 12 0A A3 A5 A4 1C A6 02 89 0A A1 95 97 A3 99 0C 01 9D 13 9C 00 11 9B 0B 0B 1B 85 0C 98 97 96 1E A1 25 1A 9A 97 A0 11 18 92 9C 97 11 12 16 06 22 1D 81 A0 89 13 08 9E 81 19 99 90 91 9E 19 97 9A 9B 86 99 9D 8D 80 16 A4 8E 20 19 9C 0E 9A 9C 0C 18 84 1B 99 9E 8D A1 9F 96 99 16 16 8B 0A A5 01 01 99 9B 9C 9D A0 9C 09 A1 A9 20 1E 19 98 A0 19 9B 8E 0B 9A 05 15 19 20 13 0D 18 9F 8B 19 90 18 09 8D 9C 90 9B 9D 90 18 11 97 81 1F 09 99 1F 86 81 01 10 8E 9F 98 01 9F 17 84 09 9C 1E 13 81 1A 85 20 1D 1F 91 80 11 9C 1B 93 9E 13 9F 10 12 20 A0 95 A2 93 0B A1 1A 0A 80 81 A3 12 90 0A 0F 9E 9E 99 92 99 9E 15 93 98 89 1E 91 1A 0F 81 1C 84 03 10 1F 98 18 0C 06 9B 11 10 11 9D 98 94 1E 81 08 A3 1D 9A 0C 0D 01 13 0A 15 A1 13 01 1E A2 01 89 93 80 1E 1D 15 15 92 19 11 81 95 13 91 09 97 12 95 A1 93 1B 9B 11 9A 16 9B 91 08 99 19 1A 13 18 1A 16 0F 01 95 8D 0C 90 10 9A 9A 9E A2 9F 20 17 21 1F 13 01 0F 82 90 95 A0 22 A0 98 86 09 1E A6 18 99 A2 01 19 16 9D 90 15 21 22 18 20 1D A2 97 89 07 11 9A 07 9A A2 9B 1E 8C 1C 20 01 9D A1 96 23 9B 98 99 8B 92 1C 9E 97 9A 8D 88 01 29 11 94 9A 0F 1C 81 18 84 01 9C 21 96 8B 12 92 12 A0 8A 91 9A 22 99 95 92 10 81 21 89 9F 88 12 1E A7 15 97 98 1A 10 12 19 9A 94 21 15 8A 14 25 9A 20 9C 1E 18 11 0A 95 8C 1A 91 21 A1 10 26 1D 1C 24 94 88 20 20 A1 17 9D 81 20 9F 15 92 95 99 99 86 23 9C 19 1E AA 20 81 A0 A1 25 20 89 24 9A 20 91 14 82 92 81 20 1B 22 99 99 10 9A 12 0B 9F 9C 98 81 95 1B 94 82 0A 92 0B 01 03 95 9E 98 9C 06 94 1A A5 98 82 08 1D 0B 86 0F 1D 9C 15 89 9B A4 81 15 01 17 8D 15 19 89 1C A1 9A 91 A1 1C 0B 9B 01 0E 91 1E 91 92 92 1E 8D 08 0A 8E 9B A2 10 08 9C 86 97 1D 1B 0F 19 19 0E 10 07 97 17 9B 18 20 17 18 99 10 1B 1A 83 20 99 04 99 A4 8C 15 81 97 A2 04 94 9D 1D 1B 1B 98 08 01 18 92 1C 90 A0 21 96 97 98 80 15 1C 9D 8E AA 0A 17 93 91 96 9E AC 1D 9A 11 1D 10 8C 99 A8 8C A2 9B 81 01 10 A7 99 27 A1 9A A5 1D 98 84 A8 0A 0A 0C 14 93 10 08 95 81 23 18 22 11 86 97 18 95 A0 14 19 9D 23 21 17 81 1E 9E 81 80 9D 1B 90 1F 0B 90 16 92 A5 22 1F 8D A1 8B 88 9F 9D 1C 89 1B 1A 1D 82 1B 1A 23 87 91 91 81 0D A9 1D A2 8A 82 92 93 1C 15 1A 9E 91 9A 97 92 1F 21 96 80 9B 0D 1A 17 1B 20 01 08 12 18 92 97 01 10 96 99 1A 19 01 0E 11 99 8F 11 81 82 19 18 99 8A 99 19 06 08 1A 98 18 01 16 16 93 00 10 12 11 96 8A 0B 0D 01 16 0F 1A 99 94 98 81 8C 91 1A 98 81 8A 01 10 08 82 90 1B 0C 8D 15 92 9A A8 96 91 14 8F 20 9C 91 81 20 0E 06 01 A0 9F 22 1B 13 91 99 99 08 19 01 03 9B 97 1A 95 90 16 1E 18 1E 96 1E 96 1E A0 14 81 03 93 02 99 0A A2 9D 17 94 86 9E 8B 81 06 11 11 12 A2 06 1E 11 1C A4 14 88 02 18 1E 9B 8D 81 1C 11 16 90 81 9F 9C A6 01 01 09 1C 12 1A A3 81 1D 97 92 10 8B 99 19 0A 9A 9D 08 90 89 07 23 93 92 1B 9D 93 06 A0 01 9A 1A 92 09 17 98 A1 82 9B 9E 89 15 01 18 9B A0 21 17 13 9F 9C AB 01 14 12 A1 01 A1 12 0B 91 9B 1D 20 92 95 85 94 1F A0 22 1F 21 1E 11 A2 1B 01 87 01 93 93 16 A5 A0 19 A0 15 9B 8D 95 9D 8B 18 10 01 09 17 1F 1D 19 15 18 1A 9A 1B 9C A5 0A 94 96 A3 05 A4 A0 A8 96 93 81 98 88 9F 19 20 A3 07 13 14 9C 22 9B 9C 10 22 95 88 0D A4 95 A5 19 99 03 21 1C 09 09 A3 1C 81 A6 1D A5 07 9C 97 20 A0 10 97 83 9A 1A 11 98 11 10 05 98 A2 95 8F 0A 94 83 A0 10 A5 A1 A0 21 A3 1A 12 9D A4 81 1D A6 01 15 12 0F 9A 9D 81 81 08 9C 8A 8D 81 1E 9B 9F 99 01 15 24 8F 19 9E 94 A2 10 81 89 13 0F 92 19 9F 9B 81 0D 0C 94 8A 16 9C 01 22 9E A0 15 A0 1C 96 90 9D 09 01 A0 99 A1 18 A2 84 10 8E 12 0B 91 A2 94 1B 0C 81 A0 14 01 A5 9B A1 1D 98 1F 99 9B 8E 9D 01 9D A8 A1 8E 0A A1 01 9C A3 25 08 8A 99 A9 17 9D 89 9A 8D 19 9C 0E 1D 9C 18 21 A1 99 20 07 19 81 96 01 88 98 8B 01 13 16 81 96 9D 98 A0 1A 96 91 81 94 12 89 88 21 9A 12 A8 9C 91 1E 8E 9C 81 14 84 0F 1C 13 99 10 90 92 9D 9B 01 A3 9A 0B 1A A2 9C A0 A3 9C A0 17 84 99 A0 01 99 A1 A3 94 11 A0 96 1E 01 95 96 99 19 92 10 0E 21 17 0D 13 82 9E 91 91 97 16 A7 82 A6 A1 A2 0C A1 9C 90 16 99 97 9D 0E 97 1F A0 81 11 97 9F 09 84 18 9D 00 A0 25 17 8D 07 98 A1 9A 90 9D 9B 93 81 9C 9A A0 94 00 18 99 A2 99 88 A1 20 89 11 97 A0 19 A2 88 20 1F 01 9A 96 9A 19 91 17 10 12 A3 89 18 0E 18 21 1B 01 99 90 1C 16 83 9C 1B A8 8D 08 A9 A6 93 13 A8 9C 92 94 20 1D 01 20 1E 23 19 15 8E 1A 1A 1B AA 12 80 21 19 0A 1B 95 01 93 1F 1A 14 1F 0A 9B 9A 13 12 1A 91 9C 18 9D 93 9A A4 A4 21 98 1B 1D 9F 10 21 10 1A 10 0C 9E 11 02 A1 8D 1E 0B A3 A2 8B 82 99 21 9B 01 1C 13 9B 0B 22 20 19 0D 1D 1D A1 17 95 1F 1B 83 16 16 94 21 21 1F 24 21 1B 19 17 0D 90 17 11 9F 16 97 12 22 0E A9 18 1B 21 26 9C 87 22 89 81 17 90 06 1C 0C 01 8E 1A 8E A4 15 10 86 92 23 A4 1F 1C 17 9A 22 17 21 19 14 13 98 A2 98 0B 09 0F 93 18 0B 94 22 83 08 0A 18 89 A4 93 A0 15 9D 98 98 A5 03 9B 93 8D 9E 93 19 1B 01 07 A8 19 89 21 01 1B 93 9F 81 20 17 1F 91 0D 18 13 0E 90 A1 9D 96 8E 13 9F A0 13 98 1B 0A 01 1F A5 9A 1D A4 93 1B 9F 19 19 9B 14 89 01 9D 10 98 14 90 8F 94 01 9B 24 A4 1E A2 92 08 9C 83 15 1D 18 1A 20 18 10 88 88 1A 00 90 8B 0D 21 99 A2 A0 1F 96 17 1B 19 0B 20 86 84 9B 20 94 9C 8D 1E 97 A0 82 0E 20 20 9B 09 1E 9D 11 81 17 21 0A 9A 85 81 21 99 18 99 90 AA 9E A2 1C 18 A0 83 17 18 12 A6 82 99 94 20 92 95 95 0A 24 8D 84 12 18 1F 8A 19 01 1C 28 9E A4 15 8A 9D 9A 83 1C 1D 89 98 AD A0 94 96 01 9A 9F A0 14 8A 8B 9E 0E 21 88 21 8E 1B 93 99 0E 9F 22 9A 09 08 18 90 01 A2 16 8D 11 1C 89 92 9F 11 8D 21 9D 1B 94 12 82 A7 06 8C A7 A7 96 99 9A 10 20 14 9A 92 1D 0F 12 95 95 1A 1A 94 9A 98 0B 89 8A 8C 9A 01 1B 0A 81 03 18 15 10 19 0C 81 01 93 82 1C 98 19 9B 0E 83 17 0C 0A 01 1A 92 14 0B 0A 81 05 0E 14 80 18 97 9A 93 16 07 8B 11 98 99 81 9B 19 8E 04 94 04 10 1A 11 12 8E AA 10 01 01 9D 16 1E 9F A0 17 91 19 22 8F 9E 16 18 0F 8B 9D 01 A6 81 A0 A1 16 89 A7 02 A0 9E 1D 9C 1D 97 18 92 20 A3 8E 97 9D 1B A3 96 1C A2 A0 92 96 1C 14 12 92 19 81 0B 90 92 81 81 14 81 A5 A5 9B 93 97 1E 03 92 17 0C 04 0F 10 25 95 14 A0 90 02 9A 0D 9A 1B A4 9F 0B 95 A3 9C 14 01 8B 1D 9A 1F 19 96 9D 14 22 02 1C 20 93 1A 98 A1 19 A1 81 04 14 98 85 A1 97 9E 9B 89 90 96 96 96 A8 22 1C 89 A1 9D A8 17 10 0F 82 0B 17 06 26 A1 88 1A 20 12 94 9F 8C 1B 09 93 15 22 18 A1 9C 9E 1F 1D 24 91 18 22 8F 92 21 82 1A 81 81 1B A0 14 04 12 96 16 92 1C 09 18 1D 28 15 1D 92 10 92 89 A2 1A 9F 99 0B 9F 9A 8A 8F 81 14 89 96 A0 99 11 8F 81 98 A1 20 94 94 AA 21 A6 93 09 A1 A4 9B 98 11 24 23 0E 0D 1C 19 1B 96 93 07 A5 0A 81 9B 9E 9A 18 09 05 18 81 02 92 99 23 1B 98 96 0C A2 81 0A 21 95 0A A7 A2 0B 1D 11 05 0B 9A 96 90 13 A1 0C 11 8A A1 9F 9D 81 9A 17 9B 01 8E 91 A2 1C 9E 93 18 8F 96 99 81 16 22 08 95 81 9C 13 9E 01 9F 9F 1D A4 82 A6 8D A2 8E 03 01 1B 83 0D 98 A4 92 87 98 A5 8B A0 9E 81 22 1E 19 9C 04 0B 19 1A 07 07 95 8E 10 A0 9B 1B 01 82 A6 9A 08 03 84 85 24 18 89 15 92 81 01 81 90 01 19 1A 8C 99 90 01 01 A1 10 98 9A A0 0B 19 1E 19 20 19 19 89 A1 88 23 8A 0A 08 9A 9B 9E 98 0F 13 13 99 19 9B 08 90 9A 08 0C 92 97 94 01 8D 19 12 0B 18 A2 0B 1A 95 92 0B A3 9E 9A A3 9C 9F 9F 01 93 9C 94 16 15 A4 0B 1B 98 9F 17 A8 0D 11 91 97 A3 A1 8E A1 9C A5 A3 A0 8F 17 01 12 20 99 99 10 13 A0 0C 8F 98 9A A2 01 16 0F 16 90 9D 81 91 1C 8E 8F 9A 98 12 96 10 9A 9D A1 8E 9F 1B 1A 0D A3 A8 9C 1A A6 9A 9C 1D 9C 81 9A 9D 13 1A A1 99 9F 9E 92 9C 95 01 11 8B 99 1A 9C 9E 9C A9 0A 81 81 10 23 8F 05 0C 8C 8B 9C 95 9A 20 A0 01 99 14 16 92 03 15 18 1E 1C 94 22 92 05 1E 91 98 97 92 88 1B 20 01 12 22 1B 89 0D 28 94 81 9F 1E 24 8C 01 1E 9F 93 29 18 16 19 0B 12 10 05 81 10 28 9B 1A 9B A1 92 1F 24 18 1D 1E 93 0E A4 95 94 98 90 1A 01 9A 20 A2 01 15 18 AA 87 A2 A1 A6 A0 92 1B 99 A4 9E 8C 80 A0 00 98 0D 16 14 97 15 98 80 13 9D A9 20 0A 94 9F 02 8E 0D 10 23 12 0F 9A 26 18 82 18 96 9B 8D 98 17 98 22 11 1A A6 0C 1B 91 1F 0E A1 1D 21 96 9F 9A 10 A1 12 A8 88 A2 9D 1D 91 0F 21 AD 9B 15 99 1C 01 01 18 86 0D 81 AA 92 95 9E AB 22 A4 09 0E 07 1A 99 12 98 9D 82 10 8A 8B 94 9D A9 A5 A2 A5 20 19 13 22 8C 20 8B 10 9A 90 88 09 87 8E 1A 9D 8E 94 16 9C 17 9C 16 0B 01 04 93 A9 94 81 9E A1 9F 9E 9C 0C A9 03 A3 84 A1 A0 88 A4 98 10 9E A7 94 98 A1 81 94 99 14 9D A0 81 A0 12 9B 81 02 19 A5 19 81 86 16 8E 98 01 18 95 15 18 01 01 98 1A 16 98 A0 92 A5 99 8D 95 1F 20 9E A0 A1 99 9A 94 98 1D 99 1D 1B 9E 98 9C 9A 0F A0 A8 18 98 90 A0 0C 9C 8E 8A 15 84 A2 10 21 1A 14 01 9A 8D 1F 94 98 09 20 2A A5 96 23 18 93 1A 9B 8E 81 9A 94 18 18 20 88 21 89 94 9B 13 9A A2 94 A3 99 9B 9B A2 10 01 01 16 01 99 87 A9 A5 9F 1D AA 19 1C 9E 9B 1F 01 13 1C 1B 9F 9E 0F 92 08 1A A2 90 08 A1 98 A0 8C 8C 91 00 95 23 96 96 A5 1C 02 96 A4 81 8F 9E A3 A4 13 81 19 16 99 A4 A5 92 11 A3 01 02 1F 81 25 15 26 06 98 81 1A 0A 8F 91 91 99 A5 1B 15 01 A4 97 17 11 9A 96 01 98 8C 95 9A 08 99 81 9C 9B 86 19 97 11 0E 93 1A 1A 01 08 1A 8C 19 89 84 9B 0B 15 88 15 95 19 8F 0E 10 12 99 94 1A 16 99 84 84 0C 1A 9B 15 19 98 19 19 81 9C 99 98 17 91 16 1B 93 24 26 0D 8F 81 13 97 88 87 0A 12 93 28 12 97 10 95 12 A6 A1 1A 96 91 1E 90 A0 1A 11 19 15 10 AB 0B 9E A8 A9 A4 9C 87 17 A0 9C 15 1C A0 20 81 22 19 9F 99 13 AA 20 12 11 11 13 9A 98 93 8C 22 20 90 20 0F 94 17 91 01 0C A4 A2 A1 A2 16 A4 8E 00 9B 91 9A 1C 1A 8C A1 81 9A 9B A3 0A 1F A1 90 09 81 9A 87 A2 1D 0B 99 A0 94 01 8C A5 92 0D 04 0C 1D 97 13 81 A0 9C A5 01 A0 9C 9A 13 98 1F A5 96 1D 92 09 A5 A5 21 96 01 9F A5 23 04 00 17 18 06 11 A6 87 1B 14 9E 16 9B 96 A9 18 1E 22 20 13 9B 95 A8 9B A3 99 93 98 1A 81 A0 AA 99 88 A6 1F 81 06 81 80 15 A1 9D 20 83 98 9F 1D 1F 8A 9A 10 98 99 17 90 17 95 8B 1F 98 1A 11 12 18 95 18 83 A3 1B 01 13 A2 1A 01 20 0A 8A 1E 11 9B 1F 1E 8B 01 17 A2 12 9D 9D 84 1C 95 0E 1B 9D 8B 18 81 18 96 14 00 94 01 1E 0B 1E 0C 99 88 1D 9C 9C 91 01 81 17 21 96 9A A0 88 8A 12 9A 1F 16 81 14 1A 20 90 A3 89 20 99 8E 16 12 11 0B 17 92 0F 17 1B 9A 9B 18 9A 1E 80 95 98 01 22 81 91 19 1B 1C 0A A6 16 1D 92 99 99 15 11 0B 0A 92 9B 81 99 9B 81 21 A0 13 99 99 A2 91 20 94 20 A3 A0 88 91 99 99 98 1F A2 A4 98 27 07 9C 99 81 9F 9A 97 0C 18 1C 22 A8 13 9D 9D A1 9F 81 9C 01 8C AA A3 80 9D 9F 24 94 92 A4 9B 1C A0 A3 A0 21 A1 A7 82 11 9F 81 18 10 17 92 94 83 8F 8D 19 9D 9A 11 A6 A1 81 8B 0C A0 16 0E 10 81 1A 12 98 21 9B 1A 98 82 A2 9C 91 0B 0A 0C 19 15 1E A2 10 8D 18 22 12 19 80 A1 99 12 97 9C 15 A3 11 08 9C 1A 05 A3 04 9B 1D 97 99 A1 0F A1 01 8E 1B 98 9E A0 03 A2 8C 96 81 01 A3 15 9C 91 99 18 97 83 90 1B 86 A0 91 98 81 81 9D 9F 95 84 1B 8E 08 16 21 A1 A8 9E 9B 90 93 98 1D 9C 1A 97 15 10 96 99 9F 9E 98 1F 99 0E 18 01 9B 81 18 94 0E 91 A8 9C 19 91 A0 25 9A 93 18 83 0D A4 90 80 23 A6 9A 14 A0 8F 18 1C 95 17 8E 1D 01 24 9A 19 24 10 92 9D 9A 0A 25 92 99 21 23 00 A8 83 1F 20 85 A6 85 81 9F 17 01 91 17 25 21 20 01 9C A5 22 99 11 13 24 9C 01 1B 9D 14 8A 1A 24 1E 1E 01 1A 9A 12 99 9A 01 18 97 9D 14 96 93 08 25 91 11 01 AB 20 16 06 23 16 AA 17 02 A3 96 12 0F 0B 91 0E 03 16 98 08 0E A3 1D 04 16 1F 08 A0 81 A0 A0 21 10 81 0F 28 A3 17 1D A1 95 98 21 1D 94 24 20 1A AF 9E 0C 19 01 9C 82 9D 22 A0 9D 9B 18 A9 0F 9A A7 A3 9D 98 19 9E A3 10 17 9C 99 01 19 1B 1B 8E 14 81 A8 21 1E 9B 1C 28 08 01 1F 90 25 93 0D 91 87 81 16 19 A4 9B 9D A9 9B 9E 8C 9A 97 9C 91 17 8D 1B 99 91 A0 01 9D 9E A0 18 9B A1 93 8D A2 94 95 09 97 16 9D 9A 9F 9D 81 97 97 A1 8C 93 1B A1 15 91 16 9C A0 98 95 0A 99 88 98 10 8A 90 15 19 8D 22 0B 14 94 81 98 94 95 17 95 8D 9C 8E 95 09 19 1C 13 8B 8E 1A 1C 9B 13 A0 1C 92 0B 19 94 94 98 9C 81 1B 11 06 A5 01 18 93 A0 0D 1C A0 A3 1C 83 9E 10 9A 09 81 96 81 10 94 91 9F 13 81 9A 15 01 A3 9C 1F 91 0B 01 9B 09 0E 9B 80 13 1D 1B A3 A1 1E 90 8D 8C 15 11 A0 93 01 A2 1E 8F 01 25 92 91 A4 90 98 19 96 A8 8A 9C 9C 8F 1F 00 A0 18 15 12 1B 92 A5 1F 13 A2 13 27 01 93 19 82 9B 01 1F 98 19 9C 89 93 19 14 92 86 91 A3 98 8D 93 94 0E 8D 9A 94 13 12 05 97 A1 85 15 23 0C 93 1E A0 81 9A 84 89 1E 93 8B 10 9D 08 20 18 12 9F 8F 12 11 92 98 9E 88 10 9E 9A 0A 9F 1A 18 8A 17 12 8A 14 9A 89 9B 19 18 92 18 05 81 89 88 91 0A 0C 0E 0D 1A 86 18 9A 13 94 99 94 1B 01 95 0B 95 15 90 94 86 81 89 90 92 15 03 12 9A 9A 12 8B 99 81 01 0D 9A 13 86 1A 91 1B 17 98 01 98 81 98 1B 91 A0 10 92 98 9D 07 20 15 0C 01 0F 1B 82 18 90 14 90 08 A1 99 0A 14 1F 1C 81 80 0B 14 81 06 1C 9A 1F 22 9C 12 19 97 8C 21 97 22 98 17 81 01 99 19 90 15 19 09 A3 95 80 8E 1E 01 05 9E 9C 82 20 95 9E 18 95 9B 8A 10 A2 1F 9A A1 99 97 98 17 98 01 96 80 9E 1C 15 9A 96 9F 01 9C 00 94 11 8C 8A 11 8F 9F 9F 9C 83 1C 01 A5 A5 9E 1B 9F 98 18 97 93 88 08 12 06 A3 0F A1 9C 11 9A A1 91 94 9C A0 9E 24 19 17 A8 9E 22 98 13 9F A3 24 12 11 26 1E 8C 81 9E 16 1B 92 9A 1F 9B A0 A8 12 22 0A 8A 92 14 92 A7 A3 8F 81 96 20 0F A3 95 A0 81 A1 99 9C 10 A2 96 9C 98 11 12 14 22 18 A1 1B 17 9B 80 19 9B 09 A7 9C 9C 0B 95 93 93 A2 94 81 98 19 0C 17 A5 1F 94 91 8F 18 89 1A 1D 16 96 01 86 A0 97 04 08 9A A1 20 09 8F 8C 8B 88 1C 19 A6 8B 84 A0 22 A1 A2 12 16 A8 1F 99 11 8E 8A 14 80 9C 95 97 1E 12 17 8C 84 9C 98 8F 1E 17 03 1B 21 9C 83 8C 8A 90 9D 95 81 A2 20 99 23 16 1E 21 17 90 09 0C 90 9B 15 8A 99 10 15 85 11 20 14 81 9F 1F 22 9D 99 A0 A6 20 9E 9F 0F 1E 1D 81 98 88 90 0D 8A 94 98 9B 94 02 94 9E 9C 1F 84 04 AA A3 1E 0D 9E 15 9B 81 9F A1 92 95 80 12 11 0B 98 99 99 87 94 13 01 8B 13 8B A2 01 9B 98 18 9C 9F 94 0D 18 95 A1 20 11 10 82 03 98 93 A0 9B 1B A1 A5 19 9D A2 93 93 1E 20 17 99 1D 98 9D 00 0A A4 0B A3 0C 09 1D 19 98 98 A1 95 13 04 99 0A 22 8D 06 96 9E 10 90 90 98 13 1C 0F 96 0D 08 95 1C 89 18 9E 22 1E 80 90 01 19 13 9E A0 04 0A 95 1C 15 A0 9A 94 1B 19 9E A1 94 A3 81 16 9A 82 81 9C 09 A0 A0 80 9D 1E 01 9B A7 99 98 91 9A 08 A6 19 01 97 A9 88 A1 01 A4 94 9F 8E 9C 91 98 1A 8A 98 9F 8C 09 83 81 9B 81 83 A0 9C 82 04 98 A7 A5 9F 9D 90 90 A6 9D 99 A0 21 20 19 91 A8 A3 11 20 21 A1 08 12 91 17 12 1B 98 81 A1 18 A3 96 91 9A 88 1F 1B 06 1E 81 8C 1C 21 9A 18 A1 86 93 08 8D 9B 21 1C A7 18 0D 22 AA 23 11 19 9D A8 1B 23 13 21 07 01 13 1A 1E 86 99 9D 19 99 9D 1F 08 24 12 99 19 07 01 15 9F 21 95 01 98 26 A4 10 99 16 19 22 A8 8D 98 9E AC 9E 0F 94 11 21 8E 1E 91 19 25 19 A7 0F 1F 8C 81 01 1A A4 10 A2 18 0B 08 98 19 A2 18 0B 0D 1A 22 A3 03 A8 1E 18 17 9C 13 22 91 1C 1A A0 93 01 90 22 A1 1C 12 1D AD 15 0B 07 1B 21 99 95 1E 81 A0 17 01 A6 20 1A 9A 98 9B 81 1B 9B 9E 1B 91 A2 0E 19 14 9C 19 92 95 01 AB 8A 94 98 1C 1A 01 19 20 8A 21 98 81 9C 98 0C 05 93 AA 95 11 99 A0 9B 00 94 9D 9B A6 9F A0 01 90 18 9E 01 9D AA A5 10 94 0B 9C 93 A5 9B 8B A3 A1 88 A3 9D 18 A0 A4 92 8C A3 8B 99 1B 10 8B 15 A6 A0 8D 9D 9F 8A A0 9B 8F 90 90 9C 18 A0 18 20 8E 0F 92 1A 92 9E 80 18 A0 19 01 01 93 8C 95 05 01 17 A0 25 9D 13 01 A3 A4 1A A1 94 85 0D 01 0A 1A 97 91 88 A2 81 19 13 9E 08 24 A0 A7 98 01 84 1A 10 81 19 0C 15 9D 16 8B A8 8B 9E 81 A0 81 90 14 8C 13 93 22 81 83 97 A0 94 12 99 0A A3 A0 8F 99 98 90 12 A2 81 99 9F 9D 0B 19 21 23 9F A0 1F A0 1A 14 9B A0 84 A5 A4 96 93 A1 91 1F 1B 9C 01 0C A9 0E 97 9F 13 0D 03 0A 97 88 90 A9 98 17 9A 91 9B 9A 90 12 01 9A 9E A0 18 85 94 91 A1 13 A0 1F 9D 24 8B 98 80 13 9C 11 92 1D 81 9A 9F 9B 96 1D 95 1A 90 0A 11 90 13 1A 98 96 18 A2 9F 84 AA 19 1E 09 99 A1 81 0D A1 9B 98 15 14 94 10 17 01 98 97 95 92 15 18 15 1A 98 86 19 99 93 17 18 81 17 19 96 93 99 8D 9A 8B 95 98 10 19 8B 10 11 98 17 8C 9B 9A 94 1A 93 97 92 1A 99 15 0E 16 96 17 00 9A 12 0A 8E 18 9A 96 17 15 0F 89 09 A3 96 A1 A1 1B 1A 13 91 10 1E 18 94 18 95 9C 97 14 95 9D 8B 8E 81 17 A3 25 01 88 A5 99 95 A0 0C 16 1F 20 01 9F 20 21 0E 91 88 9A 9B 84 9E 9D 9C 1B 0E 9A 18 9A 10 0E 1D 0B 9D A2 13 96 12 94 19 9B 84 19 1B 12 A6 95 1E A7 A4 93 A0 1A A0 8B 94 13 88 95 1F 99 0C 96 A1 A6 A2 A1 9B 16 81 12 95 A5 95 9E 01 87 19 A0 96 9C 21 8F 18 18 96 1B 8B A1 98 0B 9D 98 9E 08 92 9A 81 9D 95 9A 88 9B 1F 81 99 9F 0D 20 11 9D 08 A5 20 20 8F 21 1E 9C A1 96 A3 9D 1B 97 A0 9D A6 12 13 21 A2 1F 90 16 A2 8D 94 96 17 14 16 20 8D 99 03 A1 94 19 1C 80 18 08 89 A1 24 99 15 16 16 93 14 14 A2 A0 90 8D 1B A1 93 A0 A3 02 86 8B 9B 10 1F 1A 13 91 93 8B 91 80 9C 8D A1 9B A8 22 87 1C 93 1C A1 94 9A 9A 98 13 0C 08 12 04 1B 24 81 8B A3 1E 1B 14 1F 9E 98 84 97 A1 16 20 84 15 12 99 9B 83 95 08 18 21 25 96 96 9D A9 9B 02 19 99 1E 1B 1A 1E 8F 19 09 1B 1E 93 A6 18 96 11 18 91 20 0B 91 A0 99 16 A0 17 81 8D 19 81 1E 10 23 22 1E A1 81 1A 17 98 A2 A1 22 16 0D 96 8A 16 91 0F 9B A0 1F 1B 98 8A A0 9A 90 9A A3 99 18 9D 18 13 0C 25 17 1E 06 11 19 A2 A2 9E 0D 98 98 84 1E A8 9B 90 1E A7 98 1E 97 93 A0 9B 15 17 1D 20 19 19 18 81 A1 01 94 16 98 16 A0 8A 01 91 93 9F 1B 07 99 8E 94 81 8B 92 1C 19 12 14 11 9F 10 9E 12 98 18 92 98 81 14 22 9C 1B 98 95 9A 90 15 1B 1D 9F 18 97 81 0F 93 12 15 94 85 9A 9F 89 9B 01 1F 14 01 9E 15 1B A0 8E 15 0E 01 98 92 9D 02 10 8C 0F 9B 87 99 98 91 A2 