1E 12 0D 89 99 8B 99 23 99 96 A4 9C 1C 1F 95 11 1D A2 13 94 18 1E 1A 19 98 81 22 A3 1A 1E 12 96 A3 23 92 16 90 16 8D 1F 01 83 96 02 1B 16 91 A4 13 19 9B 01 19 10 20 A2 99 93 0E 9A 99 9E 98 08 A2 1A A9 08 0C 9C 9A 27 14 9C 94 10 10 01 1E 99 A0 0C 91 1D 90 A1 1D 01 92 24 24 24 0A 18 1C 95 13 90 05 13 92 1F 90 23 91 9D 00 A1 21 9C 9A 8A 22 A6 20 98 96 1F 8F 15 9A 0C 09 95 1B 9E 93 95 9D 17 A0 11 91 1F 17 88 8B 93 10 8D 24 22 27 A6 8A 95 81 89 1A 13 21 A1 0A 06 1C A4 9D 96 10 A0 88 21 A7 99 0D 9D 95 23 13 A4 9A 1C 21 95 21 9A A0 23 81 0E 97 99 11 21 8E 23 1C 19 91 1D 22 93 22 18 19 1C 91 1D 10 21 9E 91 8E A6 21 A1 98 92 25 91 22 1C 92 1E 89 27 96 00 1B 99 0F 9B 97 9A A2 11 09 9E 21 90 22 A0 87 90 19 01 80 22 21 9D 94 A3 1A 81 21 A0 20 97 99 81 18 99 9C 16 01 14 9A 19 A4 09 25 80 99 1C 9C 02 A5 8A 1A 12 0B 9B 9E 23 A3 81 A4 9A 19 15 19 22 27 A2 0D 18 26 98 20 20 13 20 17 19 1A 81 9D 96 82 9A 97 9C 9E 8E 1F 9B 11 01 A2 A1 89 21 08 24 10 9C A1 11 91 A5 A8 1D 19 9E 20 15 27 9C 91 20 97 99 A3 19 28 9F 1D 90 9B 9E 15 9C 22 18 99 1B 20 A7 9E 97 0C 92 0E 16 9C 01 27 9C 1D A0 9C 19 94 1E 9C 01 A0 9B 9E 20 A2 A1 AA 81 89 1B 99 96 12 9B 95 1A 1E 01 03 81 19 92 20 91 1A A0 04 98 9B A2 9D 9A A8 01 1E 98 09 8A A0 8E 20 16 99 1B 98 87 9C 1B 98 A4 A0 18 81 A1 01 0B 20 91 8E 96 11 A5 A0 1A 21 17 87 9D 19 81 81 8D 1D 14 98 80 22 A1 9D 9D 92 12 15 1D 13 9C 23 99 1B A0 8C 21 8B 85 20 96 98 1A 9A 04 A5 98 AA 11 82 9C 9C 8E 98 12 1C 28 19 08 9E 81 9B 9C AC A2 A2 27 9F A0 89 20 88 24 81 99 1F A4 8C 9B A0 86 0B 07 18 9D 23 98 01 08 12 97 A8 13 0D 0C A7 8C 9C 90 94 A2 96 A0 01 14 12 98 99 98 16 1A 8D 88 8F 9D 01 9E 1B A1 1A 0E 13 92 19 25 A2 A3 21 A6 A2 94 18 19 1D 24 10 A1 16 A3 1E A4 81 8B A2 13 1C 1E 1A 1D 21 24 A1 19 95 97 0E 1F 9B 15 A6 19 AC 23 9C A7 97 10 1F 9B 81 0E 1A 87 9A 17 9E 9A A4 22 99 95 20 10 9F A2 8A 01 9A 81 18 23 A6 29 AA 9B 18 A6 21 03 9C 96 23 A0 1B 90 19 1C 01 17 1B 9A 01 9D 99 A1 98 99 92 13 23 8B 96 9E 23 AA A9 8F 15 9B 20 1C 1F A2 26 A3 8D 9F 15 A1 A1 01 94 21 19 22 1C 27 A4 9B A0 A2 0F 23 10 8D 92 28 A8 21 9E 9A AA 20 23 91 9A 92 16 1C A1 21 8C 14 A8 29 1B A7 98 17 90 A2 8D A1 12 92 25 24 9E 2B A4 98 9A 01 05 14 81 87 88 A2 17 02 1C 92 17 01 22 1D 8C 89 9B 97 01 98 A2 1B 81 9C A2 8B 20 A4 AC 07 97 8B 21 1E 8B 99 19 9C 04 12 26 A0 9C 10 9B 10 0C 21 24 16 A4 A2 13 9C 1B 9B 93 8D 01 13 93 18 00 8E A1 11 19 10 A0 21 19 1A A1 16 91 1C A5 23 81 15 A0 98 9A 81 19 01 20 8A 21 17 18 1A 01 16 9D 21 98 28 1A 19 0F 99 1B 18 0D 18 21 19 22 20 8F 1D 97 A3 A0 9F 9D 19 21 A0 A1 8D 22 9A 92 94 1B 0C 81 25 9F 1F 0D A8 A1 1F 96 9D 8C A0 9F 90 10 20 23 1C A0 04 25 A0 93 16 A0 8D 9E 81 8D 9F 9D 8A A7 18 05 10 9D 18 9C 99 A1 9B 9B 94 A2 97 90 1E 9A 12 98 07 1A A0 86 08 20 84 15 95 10 17 88 22 A0 8B 19 97 21 99 84 9A 0A 19 87 94 85 01 99 13 8B A2 9B 9E 90 81 12 9B 81 15 25 81 14 9A 9C 24 91 23 12 0E 24 20 9D 1A A3 A2 9A 20 9E 9F 94 1A 0A 15 15 15 8F 0E A2 22 9C 9E A8 0A A1 29 99 1C 1C 22 85 23 94 99 18 07 17 14 18 20 10 22 98 09 1C 97 17 8C 95 17 0E A2 25 18 AB 24 9D 08 9C 8A 19 01 9A 9E 18 A1 8E 1C 09 17 1A 93 9A 03 94 92 96 9D 19 99 9D 81 1F A3 19 02 23 9E 13 9A 12 11 23 1E 16 0A 25 A6 1D A6 9F 11 8E 20 17 1E 09 A1 22 23 90 A9 9E 8A 93 18 9D A1 9B 9F A5 24 9A 01 09 1F 81 10 1F 9B 8F 1C 82 A5 20 21 99 28 00 0F 81 0A 18 9E 97 04 01 AB 00 21 9E 13 A8 16 81 A9 19 12 11 A3 18 A0 16 15 9A 11 1D 9F 16 81 0F 98 90 A4 1A 97 A5 8B 24 AA 19 A6 20 9B 96 A3 98 09 24 0F 91 9B 28 A7 21 A5 94 20 81 1A 17 26 9B A6 04 23 A5 A5 A7 90 1A 18 9E 9A 94 9A AA 15 9E 9C 23 20 03 1B 26 8E A0 1E 96 AB 04 A1 91 26 84 A1 26 81 06 85 21 94 26 AD 0B 14 24 23 A1 10 0B AD 0D 81 13 A7 9C A5 17 0C 07 21 93 96 9A 1A 98 01 98 94 0A 11 A4 08 05 AB 14 A2 23 92 A8 8E 9A 19 19 01 A4 94 17 A8 25 A4 1F 1A A2 11 8E 9E 15 9A A0 23 A8 A4 0F A2 27 16 9D 0C 8E 25 A1 A1 9E 96 16 19 81 1D 19 8C A0 20 9B A4 A5 91 A0 9B 15 91 24 17 93 81 21 8A 27 A2 A1 1F 29 2B 9C 94 0F A4 11 19 00 A2 9C A4 01 9D 94 13 1E 16 93 89 99 92 1A 97 81 9E A2 8E 16 A5 8F A0 1F 01 8C A1 93 1F 84 91 98 1B 14 A8 11 AB 28 8B 01 1E A3 A2 8A 1A 18 01 A6 89 11 A3 11 8F 17 94 99 00 9B A8 1B 1F 9F 1E 16 21 98 11 20 15 20 93 89 92 9C A6 81 89 9A 14 1B 81 18 9C 23 99 81 94 29 23 11 13 93 15 22 9B 94 1C 1F 17 98 99 95 0E 81 16 12 8C 98 8B 90 8F 19 9E 94 20 22 92 9C 19 01 94 01 A6 9B 81 21 81 A5 20 22 15 21 A3 1F 9D 1C 81 A7 A1 19 1E 14 1E 12 13 19 81 93 87 9B 9B A9 81 22 22 95 26 82 23 A3 0D 13 9C 12 22 99 A0 81 8D 97 1D 9A 1A 88 1C 15 14 93 1B 9B 9E 24 22 1C 24 21 19 12 94 8D 1B A2 0F 21 A1 9A 1D 91 9D 15 0E 19 17 83 15 9B 91 15 12 9E 95 21 A6 1A 0E 12 0E 28 A0 9E 1D 9C 8E 81 A4 22 AB 23 9E 8D A5 10 24 97 27 18 A6 11 05 81 A6 13 19 9B 95 21 AB AA 24 0E 0B 98 24 89 8B 13 01 1F 0F 94 1D A1 9B 9D 15 0D 11 99 01 A2 81 1C 1B 81 04 14 AB 29 8C 26 2B 98 1F 9D 93 08 09 81 9C 90 A1 01 90 9A A1 20 08 9D 01 88 81 80 9C 13 1C 8D 19 26 A9 23 20 24 12 25 10 9C 17 A0 1D 8A A4 24 AB 16 9B 9D A0 00 19 95 20 1A AA 1D 96 8D A8 00 92 18 93 29 A6 A4 21 91 A2 02 1C 0F 1E 1E 13 26 92 94 1B 26 14 98 1F 81 9B 10 81 1E 04 0D 1B 21 1C 25 A8 23 A8 22 2F 01 8F 01 A0 20 0F 24 A0 9C 8C 9B 20 9E 9B 8C 89 18 14 17 0D 13 99 86 8E 99 8A 23 9F 28 8A 24 17 11 99 8B 89 83 1B 01 A7 1C 99 18 A5 9E A0 9D 19 1B 19 03 83 26 1B A1 A2 99 0A 14 92 26 93 18 90 93 A4 81 A0 A0 01 12 92 1F 89 12 96 24 0B 9D 84 93 9D 9C A1 99 02 95 20 22 9A 28 91 27 A4 01 2D 99 A6 0C A3 22 81 2A 0A 85 A0 1B 04 A0 97 97 8C 9E 98 93 A0 88 81 21 12 98 16 24 99 25 94 19 19 99 A5 05 13 17 81 94 87 93 A1 A4 96 22 18 14 18 1B A0 0A 11 13 91 81 A4 20 A0 28 81 19 10 20 21 01 A8 9C A2 A8 14 17 0D 80 93 1A A0 23 81 1E 9F 81 A4 9B 84 99 9B 8C 13 13 98 23 18 26 9E 21 24 81 A4 11 A6 8E 88 27 23 22 1B 99 0B 9D 1C 10 8E 80 81 89 81 07 01 1E 1C 05 20 22 92 12 99 93 05 94 03 09 8B 09 A0 A1 99 8E 1F 1D 03 26 0C 21 20 A0 A2 1B 1E 9E 04 14 99 19 93 88 99 90 1B 8A 98 20 19 96 1A 19 07 9B 9E 99 09 17 15 93 8A 89 90 93 91 9E 90 1F 15 89 20 03 21 0D A1 03 01 81 15 A0 1F 01 14 04 9A 97 0F 14 A2 0A 20 07 0D 9C A1 A1 06 12 21 91 9C 13 20 0D 1D 12 97 18 23 27 1A 82 93 95 0E 95 A0 9E A2 14 A1 19 12 19 A6 18 16 1C 15 09 A1 1E 98 1D 1A 9E 11 9E A2 23 2B A1 0D 23 80 08 16 81 1C A0 81 8B 9A 8F 9D A5 06 92 0B 1C 91 90 1A 01 10 95 22 9A 1B 20 A7 17 21 18 90 8A 22 99 22 1B 81 9D 99 1D 9C 90 15 1D 81 9B 93 96 0B 8C 22 A0 03 0B 1A 19 21 09 15 91 1B 23 9D 1B 98 88 A0 A5 8E 91 8D 13 A8 27 1E 27 A0 98 21 1B 21 9A A0 1A 9E 0B 81 18 8B 9C A3 29 29 8F 12 24 93 16 23 9B 8B 8D 1B 13 95 A7 9A 1C 23 1B 9C 16 9E 17 0E 03 09 9B 1C 1F 22 24 A3 27 20 10 0E 90 18 13 22 A0 9E 81 19 1B 98 9D 1C 18 9D 9E 12 8B 15 91 20 A4 8B 1F 24 16 19 88 94 A0 19 0D 81 20 9F 19 14 A1 9D 9E 97 03 1D 26 1A 26 0D 12 1D 0E 1C 96 A8 1B 8E 11 8E 9A 94 1A 9F 29 20 1E 21 1D 9D 9C 1A 9C 1B 1B 21 08 8E A4 A8 1B 22 01 90 97 A2 9E 0F 89 1E 81 1F 17 1C 28 81 1D 1B 21 22 01 A3 9A 1C 92 96 2A 22 1A 81 99 18 9A 01 01 9C 81 A0 0F 01 A4 9B 81 24 9D 23 24 95 1B 0B 98 08 1A A1 11 97 1C A2 9D 9A 9F 19 28 9A 20 82 1A 0A 82 97 97 91 99 93 17 9E 02 8F 97 9B 94 21 1D 20 01 AA 9C 9A A0 0C 1A 1E 10 87 A2 A2 08 22 22 95 9E 9E 91 0A 95 14 95 02 18 18 2A 93 21 8D 1E 29 99 9B 99 92 14 13 24 20 11 0C 9C 9D 8F 05 01 0E A3 81 19 9A 93 9F 0F 08 90 0D 22 00 A3 95 8A 8B 19 9C 08 A3 17 81 9A 17 A1 23 0C 9D A0 88 08 12 91 A2 0D 17 83 01 20 9A 1D A1 