1F 20 20 1A 1E 94 0C 81 8B 82 12 23 01 16 81 80 93 0E 1C 17 0D 95 18 12 10 1B 01 8F 1E 98 03 1B 12 20 25 14 1B 10 1D 1A 11 1F 18 1D 10 1D 01 18 16 20 8A 08 14 01 0E 91 07 19 21 23 21 90 81 1B 24 1D 81 03 0C 20 98 17 17 81 10 20 8D 1F 01 18 21 0F 90 23 90 1C 12 19 18 23 09 23 13 20 18 91 1C 01 95 11 01 1D 8B 17 01 85 9A 93 8D 16 91 19 1C 14 16 07 0F 00 1A 11 14 97 80 1A 06 16 93 1E 0B 8F 91 01 A0 12 13 8A 18 1F 93 10 27 20 11 81 08 20 10 18 0B 99 81 10 8F 90 0E 8B 81 0A 9A 1F 81 81 8F 14 12 92 1B 1A 01 92 90 06 93 0A 20 84 91 95 8C 9C 0D 92 81 85 82 02 92 99 96 24 01 24 9A 1B 0C 13 97 20 0A 9F 04 0A 8C 9D 95 9A 01 06 1A 99 85 0E 0D 1A 21 1C 04 8B 01 99 17 17 81 03 88 16 95 18 81 11 22 1B 1A 19 11 01 16 99 03 9D 0D 08 08 85 95 10 9D 07 92 91 03 95 14 20 93 94 24 20 22 1D 94 15 05 8F 22 12 93 01 1D 20 81 1A 8A 12 8A 0A 25 8C 99 81 20 23 1A 97 23 15 91 20 17 81 22 88 92 81 18 03 9D 21 1C 1E 01 20 1E 12 84 88 90 18 17 81 8A 12 15 81 21 20 1F 20 10 1F 0F 12 8E 85 0A 93 14 9F 16 12 01 0E 83 8A 13 1E 1B 22 95 18 18 1D 1A 1E 06 18 21 22 25 18 16 81 18 24 11 81 96 21 1C 26 14 1A 23 10 09 1B 01 23 98 11 12 1B 81 19 01 19 0C 8C 1C 10 8D 12 91 98 01 17 01 0E 98 0C 12 16 01 94 04 10 07 0A 8F 06 15 90 0E 86 0D 95 12 03 81 81 8D 91 95 97 12 10 81 92 16 90 16 86 18 10 8F 05 0D 0F 96 8D 8B 82 0F 01 13 0B 13 8F 01 09 0C 05 94 8B 13 0F 15 81 01 0B 88 95 06 90 94 01 10 8E 90 8A 0B 81 95 01 97 12 81 01 81 93 92 84 8E 84 01 11 18 10 09 81 92 8A 95 0D 8B 0E 8B 81 11 94 04 81 81 0C 0D 13 12 95 90 89 11 01 95 90 90 95 0D 01 13 81 8A 86 0C 88 1B 94 24 80 20 93 8D 03 92 88 9F 8E 95 18 20 A2 1C 83 0B 10 1F 14 18 89 8B 8D 01 01 20 16 17 01 9E 8D 1A 18 11 92 22 8A 15 8B 98 93 95 1C 04 1F 0B 17 82 0E 81 01 10 12 01 22 04 94 85 24 01 19 11 96 8D 1E 11 89 81 9E 12 8D 0F 16 09 9E 90 96 98 84 11 1A 98 1C 24 18 09 13 91 8E 8D 96 1E 1B 10 1D 81 11 12 8D 1B 19 98 96 0F 96 9D 89 20 01 9B 0E 89 19 22 97 08 01 12 01 26 9C 8B 16 94 1C 9C 01 1C 92 13 96 92 98 90 14 95 81 86 0F 8A 1B 19 19 80 17 16 8B 98 19 18 94 9E 17 19 09 97 16 81 09 89 18 96 05 0B 92 12 17 81 1A 90 1C 13 1E 94 19 89 94 0C 98 94 88 81 81 13 11 98 18 20 9B 96 10 0E 18 01 01 19 98 97 13 81 1E 85 9A 81 0B 15 0C 81 95 8D 1D 0F 12 11 13 98 1C 1D 95 1D 9D 92 1B 12 14 18 96 91 91 0B 01 12 18 1B 14 19 11 1B 03 04 8A 1B 13 01 97 01 18 8B 19 13 01 15 15 A3 26 91 89 20 0D 18 19 96 1A 1B 1F 12 19 99 1F 12 21 12 88 15 8E 1A 0F 1C 80 81 1F 96 1F 99 89 89 91 92 0E 01 19 90 8D 1A 24 11 25 81 22 1A 19 01 1A 81 94 09 97 15 01 22 19 22 1C 8F 99 1D 08 0B 11 03 01 8D 03 15 09 15 1D 10 10 88 96 81 0B 01 09 01 0D 16 8B 97 9A 07 1A 19 23 1D 81 80 92 81 01 92 1A 19 9D 1C 88 20 82 24 22 20 15 96 94 28 80 14 96 8D 24 80 12 10 15 1C 18 01 91 14 19 0A 1A 1C 15 1E 91 06 15 97 17 19 22 11 14 11 22 18 95 22 14 9D 11 0E A0 26 92 0F 1E 95 25 96 0C 08 14 16 91 22 19 17 20 0C 94 91 23 18 1F 1A 94 08 10 1E 01 0A 12 13 93 8F 86 1A 94 08 10 88 13 8E 01 81 81 09 94 24 12 0D 20 98 22 98 15 1D 20 95 12 10 01 21 17 22 16 01 0A 21 24 21 91 21 1B 81 81 10 99 9B 91 20 20 18 96 21 8C 8B 1A 0E 84 1C 16 94 0C 1F 21 12 12 18 18 22 94 92 21 8E 95 96 19 99 15 8B 0A 13 9E 8C 97 11 1B 80 20 9E 1B 26 A2 91 97 20 95 A0 A0 99 86 1E 9A 1F 15 A3 0A 96 83 01 16 99 9D 12 18 1D 02 91 1D 98 1A 23 9B 97 03 9A 92 9D 99 95 9F 83 1D 23 04 96 9D 00 98 98 09 12 9D 90 1C 10 9D 91 10 0D 18 8A 81 9B 90 89 9E 98 01 25 98 14 1E 27 13 11 25 21 91 9A 22 0D 18 81 25 80 90 1B 93 29 8E 15 15 0A 06 1D 81 22 15 01 93 01 23 0C 17 16 0B 88 0E 8D 98 14 18 18 14 94 0C 8D 8E 20 9A 01 23 20 1C 8E 26 18 1E 22 17 15 1A 21 12 81 10 97 88 13 18 11 13 80 0F 1C 96 91 09 20 19 93 80 03 1A 81 23 18 1B 1A 15 10 0C 01 07 91 90 14 1B 20 21 17 1A 91 0A 22 01 13 02 81 20 81 88 13 80 15 1B 09 15 01 99 81 18 10 1F 8E 1B 1C 1B 01 1C 24 81 81 13 1F 89 11 01 95 15 01 1A 1B 1A 20 19 1E 13 12 20 16 9A 20 95 22 01 94 18 81 20 01 89 1A 15 09 01 01 01 17 1D 8D 0E 92 91 91 91 01 00 89 8E 13 0B 96 1E 04 1D 1A 12 13 8B 17 96 1C 1A 0D 0B 1A 0B 16 20 01 91 18 15 8F 1C 17 21 81 22 14 18 81 1C 19 1B 85 85 90 18 81 8D 83 0E 8C 1E 1D 18 86 21 8F 01 8C 06 08 91 0F 1C 86 88 09 0E 80 89 10 88 14 8A 17 13 81 15 8E 1C 1A 1A 92 20 20 18 1A 13 17 11 89 11 0F 97 11 1A 1E 1E 94 0B 10 0A 19 1C 98 1E 92 13 1F 19 08 24 92 0B 11 01 1A 01 0E 14 91 94 07 17 9D 8E 05 04 07 8C 94 92 0D 1B 1F 19 91 01 9D 1D 18 9D 1F 05 8E 91 98 92 02 01 20 1E 01 20 8C 01 01 01 97 17 10 18 19 98 0A 85 94 18 1A 1C 90 8B 8B 93 1D 02 13 93 91 8F 9F 15 13 1A 98 1C 19 8C 8E 81 9A 15 92 8D 17 0E 8A 90 92 85 12 1A 17 98 08 06 81 02 23 81 18 92 14 8A 81 10 8A 12 17 1A 8F 0C 92 98 1A 0B 22 17 22 11 1D 8D 20 01 1E 0D 18 05 81 A1 88 1A 89 01 8C 09 1C 1F 10 1D 15 1A 0E 25 98 93 18 83 22 16 90 1C 21 21 01 10 96 1B 01 94 20 06 99 08 18 1E 0C 13 21 06 03 1C 98 95 18 8D 9B 1F 20 8A 98 17 1B 96 15 28 12 21 14 8F 01 1D 96 11 9A 13 94 97 81 8E 13 1F 98 81 8D 90 81 80 93 94 83 01 16 01 85 16 15 0D 12 17 1A 1B 81 0F 95 91 14 8A 19 1A 20 20 21 15 91 8D 09 22 8A 18 83 24 94 16 21 18 24 11 1E 1A 86 17 01 10 22 22 89 09 90 20 95 0E 11 03 15 02 0A 81 01 1F 01 83 12 8A 13 95 94 90 13 1A 11 1D 0E 9D 8B 00 03 98 0E 85 94 07 0F A0 18 97 20 94 9B 00 8F 1D 17 96 82 12 22 18 1A 91 0A A1 8A 15 11 1F 1A 98 81 01 1C 03 9E 01 96 98 82 A1 18 9E 81 1C 81 1F 8F 93 92 06 14 88 17 11 92 18 01 81 14 20 20 11 90 8E 8F 90 16 09 19 09 8B 01 1B 21 13 81 19 11 8E 13 87 9E 0B 0B 1A 16 01 16 1B 92 90 1E 8F 90 1C 91 14 95 84 1F 99 81 1A 1D 0C 9C 93 11 9E 0A 89 1B 96 15 A1 85 19 11 82 21 13 1C 98 23 0E 23 1B 18 9F 1B 22 8E 9D 17 9A 08 99 09 12 9B 8A 8A 99 81 95 94 A4 9B 84 8B 81 22 05 96 A0 A2 19 23 8C 95 98 01 0D 11 8F 18 14 22 1E 20 93 93 14 87 0E 0D 0C 1E 81 20 93 98 81 A0 8B 91 11 98 A5 90 02 01 0F 16 15 9A 87 1F 20 01 9A 01 1B 81 95 91 82 9F 00 27 1F 25 8D A5 13 84 A1 19 1D 97 21 09 11 00 0B 08 9A 90 97 00 12 84 81 89 8C 98 89 13 1E 18 16 15 1B 0B 09 1A 96 1E 13 17 97 0A 15 94 1C 97 1C 06 93 07 19 1B 1C 98 21 18 04 91 17 80 1C 15 A1 85 19 18 17 10 18 18 81 07 11 20 21 18 13 0D 18 87 01 0C 01 01 15 92 81 0C 94 18 05 0F 84 93 85 17 81 09 1C 12 96 1B 05 16 96 0F 26 13 01 20 1E 88 10 01 0F 13 02 0D 04 1C 81 0E 01 14 00 1B 89 0F 0B 15 05 0E 15 0D 01 1C 9A 10 94 8A 19 1C 8F 1B 18 0B 98 12 81 20 16 1B 8F 17 11 17 24 01 21 90 13 81 04 82 11 9A 08 98 97 91 1C A2 06 8F 0B 0A 94 01 1C 20 16 90 1E 81 0F 01 1B 08 85 93 1B 93 1A 18 16 18 0B A6 8F 90 0D 17 A1 A0 83 18 8D 8E 05 12 81 8E 8E 01 A6 0A 84 22 A0 0E 94 14 15 91 8B 98 06 9A 03 8F 97 02 07 9D 1B 02 12 0C 14 18 97 1E 10 08 12 98 05 9B A0 8E 03 1D 10 18 12 81 1C 1C 0A 8B 12 92 92 90 9F 0A 13 06 95 19 14 20 23 01 01 8F 16 08 22 96 0C 90 19 97 20 9B 23 94 1B 0F 12 03 8D 93 08 11 8D 90 1D 8F 96 90 1B 93 9D 85 20 1C 21 92 81 20 97 20 0C 20 1D 96 14 1B 1C 20 1B 20 17 A1 91 81 1D 19 1D 12 97 1B 23 08 19 85 91 0B 81 93 A1 13 0B 27 1B 12 93 93 81 1D 85 92 21 0A 90 1C 81 15 94 8B 22 0B 97 17 1E 11 1A 18 22 95 86 8F 15 16 0C 96 20 1C 01 90 16 93 1D 0A 22 1A 08 11 10 02 1A 1D 95 8E 05 19 08 9D 19 94 08 13 1D 12 1E 1D 8F 23 1F 1E 00 21 A1 83 19 11 19 13 98 20 26 21 81 12 9A 21 0A 22 19 13 88 04 92 1E 1C 12 95 10 97 1A 8B 19 23 81 A3 08 11 23 16 15 8A 19 13 1D 21 1B 17 01 90 1C 19 0B 99 88 91 21 22 0F 18 24 94 10 81 1B 81 94 80 16 04 8D 15 05 11 83 01 82 8C 19 20 1D 03 81 1A 16 1B 21 91 18 1B 1C 1F 1F 13 94 80 81 94 A1 10 23 15 1F 10 1C 1F 89 17 1B 0E 07 88 0B 21 0E 10 17 98 20 10 93 1A 14 16 19 90 0F 24 21 02 19 09 06 23 16 23 12 11 1E 23 1D 0F 81 16 1D 88 16 20 08 9A 99 1C 91 27 80 22 8B 91 25 92 22 20 12 9A 10 25 1A 1C 22 1C 81 12 23 25 23 16 07 88 1A 16 90 97 09 8C 14 20 85 99 0C 96 18 17 1E 0D 93 12 0F 09 91 20 81 12 21 81 01 13 24 29 24 80 11 15 A2 1E 20 0C 91 01 23 2A 1C 18 85 01 13 91 9D 81 91 10 03 81 28 02 95 21 22 92 22 A2 92 23 22 10 85 19 1B 0D 01 18 1F 1B 22 94 20 1F 00 10 12 1E 94 03 80 9C 94 95 81 99 94 0A 14 85 A0 1B 92 95 11 15 0F 1B 21 99 94 98 8A 10 94 02 98 15 12 1B 91 9D 84 1B 1B 93 9D 0A 09 93 82 19 10 8F 16 10 10 07 81 81 0F 1A 21 0D 8E 01 10 1A 13 0C 12 80 81 92 1C 8E 98 15 0F 8D 18 98 99 9A 10 94 13 94 1D 99 18 03 20 11 14 9A 0D 20 14 01 08 12 1B 06 8A 12 16 90 9E 01 96 10 1C 19 09 20 97 81 01 81 17 20 00 18 91 11 15 97 88 92 91 14 18 13 8B 1B 01 8B 8E 1B 91 89 81 17 11 15 13 08 81 1C 06 81 14 13 93 02 81 92 94 0B 89 12 84 8C 81 13 16 0B 80 13 01 09 81 0E 18 0C 01 85 12 01 09 15 90 91 08 01 8C 01 03 11 1A 19 17 16 01 18 14 88 0B 8F 08 8F 14 0F 13 84 01 14 18 81 09 93 0A 16 81 80 0F 13 95 90 11 01 0C 81 81 1D 91 93 90 91 1B 8C 1F 1A 1A 0D 81 0A 8E 0C 08 0E 81 01 8C 0A 81 93 01 04 11 87 88 11 09 08 81 16 97 8A 81 81 96 94 89 01 81 01 8B 92 8F 94 0A 01 83 12 09 0B 07 8D 06 02 95 93 11 88 95 93 17 86 0F 09 8B 13 11 8E 93 92 84 01 10 91 8F 16 96 95 94 12 01 01 17 81 8E 8B 01 90 06 14 0A 81 88 01 01 82 11 8A 0F 0A 15 00 91 17 93 05 10 11 8A 8C 8B 85 17 91 81 92 01 98 13 88 16 81 05 98 0E 8A 84 11 0C 81 09 14 0F 00 83 0C 11 01 81 01 81 05 89 90 91 81 82 0B 10 92 11 92 95 87 16 84 92 01 09 0D 1B 93 21 A4 11 0F 11 24 19 97 18 1C 24 8A 14 A0 20 1D 08 07 8C 8E 14 98 04 01 01 14 0C 9B 10 8D 0C 80 05 A7 1E 0F 82 9D 81 24 22 81 19 09 8A 20 99 0F 13 12 14 98 8B 01 15 23 91 20 1B 0B 9E 90 10 88 94 01 96 81 0C 15 11 0D 14 10 97 93 1B 1B 18 0F 01 01 91 1D 10 98 18 23 19 1D 15 17 85 A0 1B 12 A3 91 18 16 17 01 9C 20 8D 88 20 07 88 9D 89 21 1E 01 95 9A 1F 8D 1E 90 08 9C 18 0C 80 81 96 24 0B 1E 01 95 94 01 15 99 09 80 9D 8C 04 19 95 20 14 81 8F 14 03 14 24 97 95 08 03 1F 01 1F 1E 92 91 16 1A 95 1D 18 8A 98 0A 80 97 12 93 88 82 94 94 90 17 10 92 07 03 01 1C 96 11 90 22 04 1A 93 95 8C 1C 92 16 9F 81 8B A0 95 93 08 94 0F 13 8E 01 15 25 A1 16 11 1F 01 12 90 9B 81 92 83 17 14 09 83 85 25 24 A0 95 8D 92 8F 81 93 9B 11 81 83 1A 14 21 11 99 12 8A 8A 90 1D 81 10 8F 91 18 25 20 04 8D 84 95 25 10 12 20 21 95 95 92 80 13 0E 20 01 1B 87 08 95 24 0C 90 8E 95 1A 0A 1F 21 29 0A A0 14 1A 19 01 17 01 1B 01 81 23 99 1B 90 94 9C 1C 90 13 0E 84 1F 29 0D 01 1A 14 28 89 24 92 87 89 25 95 16 08 88 93 08 0E 98 91 23 20 99 98 24 10 28 9E 16 17 0A 81 01 23 1D 9F 97 93 19 81 A0 12 18 20 26 9E 16 96 10 9D 98 9F 94 01 14 20 11 0E 21 01 96 01 1C 99 20 0C 21 11 23 1A 10 18 0A 19 97 11 0D 09 01 14 0F 1E 93 98 1F 18 11 19 11 13 8B 12 94 03 21 1F 09 92 19 05 1D 16 1A 15 14 95 05 13 21 01 20 0B 90 11 1D 1B 88 14 92 88 81 1B 89 08 92 93 20 20 1A 18 1B 14 1A 82 89 01 0C 10 0B 14 8C 89 06 0E 1A 13 19 0B 8C 1B 15 8A 0A 8D 1E 1D 24 0A 19 1A 19 94 85 1E 90 85 97 11 01 8B 1B 25 24 84 23 08 86 9D 90 08 95 92 91 09 9B 8A 20 15 15 8A 01 1E 19 17 19 11 93 14 98 A0 0C 89 94 92 8C 14 9D 81 23 21 22 10 9D 85 21 8F 96 20 0B 98 08 A0 99 1A 15 20 1B 9B 21 81 18 15 91 A0 01 20 19 0D 9B 01 97 13 1F 25 11 94 88 12 06 14 08 9D 0D 90 9C 91 01 8E 22 90 8C 1C 14 92 15 96 1B 87 97 1A 8B 01 18 8F 01 07 1C 20 9A 95 9D 81 14 27 04 90 93 14 93 23 1D 16 14 18 20 12 0E 97 11 11 01 24 20 1F 11 0F 01 1A A1 15 97 25 12 0C 9D 89 22 8E 1E 06 81 81 1E 96 20 0D 9C 93 9F 12 10 13 09 88 88 8F 22 24 1A 81 A2 8C 21 A0 90 1E 0E 82 8B 9F 92 23 8D 90 1A 9E 28 8C 1C 24 8F 8F 19 21 27 1E 92 9E 96 13 29 2A 12 91 92 97 82 29 0E 1A 92 13 23 85 A2 99 21 97 17 1D 0A 8E 94 97 23 8D 92 1A 81 09 93 8C 1B 89 1D 19 9F 93 9B 09 81 23 24 22 A2 A1 98 19 21 08 90 19 16 0A 91 01 98 1B 11 1D 25 19 0F 17 A2 1C 01 15 81 99 9E 0D A4 8A 1C 8C 11 1A 24 17 1B 05 25 1F 22 19 1F 9F 93 17 0A 21 01 91 1A 15 23 8D 0B 9A 17 01 08 1C 01 82 90 93 17 08 8C 8D 97 8E 10 8E 18 1F 0A A3 20 0A 9E 9C 0F 18 27 90 24 13 19 20 03 11 1F 14 12 A0 01 93 17 22 12 1F 21 11 17 1D 16 0F 94 92 1D 81 1B 16 1A 91 1B 12 89 84 21 17 1A 01 19 9C 04 11 8B 90 20 1E 1F 19 25 18 95 A1 14 94 97 89 24 15 1B 05 01 23 92 14 27 1C 19 96 96 24 21 81 8F 17 1C 0A 8D 19 19 9A 1C 02 19 0C 19 81 20 86 96 10 05 23 1F 93 13 22 17 80 13 9D 1F 0B 1D 24 1C 1E 0B 09 20 1C 90 11 8C 15 1F 89 0B 22 10 80 84 24 18 81 05 1A 22 02 27 20 1C 13 17 12 1F 0D 8C 93 11 98 26 28 1A 1B 27 95 8A 26 0F 91 97 81 89 11 83 21 14 0B 22 95 8C 0B 21 21 21 81 16 8E 0E 1B 15 09 14 22 1F 1A 22 22 11 19 84 09 A0 81 20 83 15 14 19 20 8D 1C 21 1A 20 95 14 22 00 00 0B 08 89 97 8D 10 20 0F 1A 12 1D 12 9C 9E 81 10 12 92 13 16 9B 01 1A 23 1B 8F 81 0C 10 88 9B 90 94 93 11 01 0E 19 01 1D 16 8B 1F 0C 1D 01 96 9E 83 22 20 0E 01 09 90 88 1B 15 04 91 0D 81 81 1F 01 90 8D 89 9B 9D 9B 87 1D 0F 21 8A 05 83 96 12 19 0F 82 83 91 8D 90 90 9E 81 1C 1B 9B 01 1A 01 01 23 1E 81 93 82 9E 21 11 91 12 8C 23 03 1A 91 0F 11 1D 22 1D 1A 92 92 10 19 90 81 11 21 18 94 95 15 18 13 03 01 08 20 1B 81 08 14 22 15 20 0B 09 14 94 1B 94 95 07 1B 1F 91 0C 14 00 09 94 22 02 0E 13 83 99 20 81 22 17 0D 23 9C 95 93 91 A0 18 1D 13 81 18 22 99 0E 22 84 23 24 13 93 1F 00 81 8E 81 91 81 02 13 1B 14 93 11 01 1D 09 83 81 9A 11 96 24 99 01 1D 15 16 01 86 25 23 81 9A 0B 9B 22 15 16 1A 23 18 24 21 21 01 15 1D 08 12 93 81 99 03 1B 1F 1E 0D 1B 20 01 1C 00 93 24 1D 8C 8C 1E 26 17 81 11 06 1E 23 0C 1F 19 1D 1A 13 18 94 8D 13 14 8E 90 09 96 9A 91 81 91 81 0A 1E 11 01 08 8C 13 14 81 8C 17 16 13 1D 01 1A 20 86 8A 08 07 22 0E 1A 17 15 96 05 0A 17 20 13 01 1F 19 91 07 92 91 1F 14 1C 20 01 81 0F 19 1A 8B 01 92 01 95 10 1B 99 05 1A 96 14 8F 1A 1B 14 14 1A 18 9A A0 1D 10 1C 19 17 12 14 14 98 01 90 8C 15 90 93 17 1D 80 0C 96 02 19 19 81 07 06 11 98 17 0D 1A 0F 94 8A 14 88 20 14 19 96 09 8A 19 89 22 9C 93 1F 94 23 16 08 26 24 20 01 18 A1 26 8C 18 20 12 14 81 86 03 19 14 92 1A A0 1C 8C 0A 22 03 A5 81 22 21 9B 14 1F 21 13 26 1E 0E 1D 99 13 22 22 98 A0 0E 95 20 26 06 1F 1E 95 97 20 20 92 15 97 24 0F 07 0E 84 93 06 80 01 0F 24 1E 01 13 18 96 01 1C 8A 99 01 18 0E 1B 1F 20 0B 96 11 88 89 91 1D 0D 11 81 25 23 82 1C 18 1E 81 90 86 1F 13 10 11 99 20 81 11 09 20 99 1D 81 0C 20 19 1B 12 19 01 15 94 1A 88 0E 15 20 15 8C 11 01 12 18 02 17 92 81 81 1E 18 1D 91 13 96 99 15 18 1F 1D 02 99 0E 12 1D 18 22 20 88 97 21 19 11 1E 94 95 21 1F 05 18 94 12 14 18 08 85 13 06 20 01 1D 88 81 13 88 96 8C 1A 90 97 1C 13 90 84 09 20 16 97 04 10 1B 14 1F 01 23 1A 10 1C 19 01 01 1A 15 8B 18 95 91 15 1A 10 22 1E 15 1B 18 0F 0A 92 92 16 18 13 1D 81 09 0A 1A 8A 1F 1E 9A 8F 21 1C 15 21 16 0F 0D 8C 81 17 15 09 24 1B 86 83 1D 18 09 10 8E 1E 88 21 01 21 1A 02 8B 18 9A 20 81 21 01 20 10 1E 20 19 17 04 21 19 88 10 1A 18 81 85 9F 8F 19 1C 87 1B 96 83 98 1F 23 12 1C 97 28 9F 27 98 91 97 1B 87 13 14 94 13 8F 04 92 01 1C 20 17 07 1A 9C 22 8C 01 0A 22 24 18 21 19 19 0A 9B 18 88 14 02 23 21 26 16 1A 11 93 1B 0A 93 0A 1C 91 8E 21 81 1C 89 08 94 01 08 9A 20 92 0C 18 89 0F 14 20 93 94 89 04 19 93 01 20 1F 1C 94 91 12 18 96 19 26 01 8E 0D 96 1C 28 96 21 17 9E 1B 12 01 1C 82 A5 1D 20 23 18 17 1B 98 01 19 20 1F 09 0B 10 0F 12 14 97 05 8C 01 22 0A 94 1D 93 20 8F 1F 81 94 0A 22 00 13 19 96 8E 81 95 10 00 08 25 24 0C 0D 0C 9A 22 23 0C 94 09 11 21 20 81 01 01 19 96 14 96 09 8C 01 1F 28 0F 10 1A 1C 97 09 9B 81 23 1A 01 19 80 10 81 18 11 1B 20 18 04 1C 81 19 99 09 1F 0E 1F 96 81 91 96 99 08 10 92 1D 1D 9E 19 97 1D 86 90 06 8A 94 20 0D 1A 88 93 13 8B 93 A0 03 17 04 1A 80 1E 0F 87 9B 85 95 98 12 84 19 0C 19 98 8E 81 11 04 12 81 18 13 98 01 12 0B 11 81 11 15 93 91 96 91 03 12 13 12 92 0A 01 1D 12 09 98 20 93 19 1D 0E 1A 81 0C 02 91 19 16 1C 18 0A 20 95 98 18 9A 01 1D 99 91 90 1B 9C 92 20 81 93 11 0B 81 10 18 96 07 1C 90 20 11 8C 8C 99 08 92 0E 82 10 91 81 12 20 13 06 22 1E 91 20 9F 1D 0D 0D 1B 16 18 03 9A 18 01 14 1B 1D 90 22 88 89 04 0E 96 91 13 98 0E 81 20 1A 96 0A 01 95 15 1C 91 0F 99 92 1F 89 08 03 1B 11 1A 1B 8A 09 1E 03 97 15 96 15 07 13 91 89 0D 92 01 04 81 92 14 89 81 8B 21 0D 20 21 14 20 22 16 90 1B 18 91 1F 96 94 1B 0D 22 1F 25 12 8E 21 13 20 21 19 81 01 93 22 9C 81 11 94 1C 12 0D 15 0C 1F 0F 01 1C 1F 1D 01 14 99 96 19 12 1B 81 01 0F 1F 1B 08 16 12 20 16 98 21 8C 9E 12 99 8B 24 8A 24 11 1B 23 13 8E 18 11 81 12 23 19 17 1D 1A 96 12 23 11 21 1B 19 0C 1D 8A 0C 10 12 13 9E 81 90 1E 94 91 10 13 1E 0F 04 90 09 80 8C 18 88 96 1C 90 1B 0D 1A 22 21 96 10 15 22 1A 09 1C 1D 99 09 21 23 1E 01 18 1F 8D 15 95 0A 81 81 18 20 1E 0B 18 8C 9B 94 13 01 19 23 01 17 17 19 92 18 03 13 18 03 81 1C 11 1B 15 00 19 91 20 8F 18 15 0A 93 1D 89 90 19 18 81 01 9C 12 8C 08 92 8E 11 17 94 23 18 8E 17 99 1E 1B 98 95 1C 1A 1F 20 13 1F 01 11 1B 8F 19 1F 19 13 20 19 0D 85 83 01 13 81 8A 14 00 8C 13 10 14 8C 90 12 81 81 1D 12 05 87 0F 8A 14 11 17 20 11 80 20 18 21 17 11 17 0F 17 20 22 20 21 90 09 24 90 1E 90 16 1D 14 1F 09 19 87 16 0F 95 17 13 94 11 18 0F 16 1A 19 8F 0C 92 13 11 18 10 1E 94 19 8A 26 98 90 10 01 23 0E 01 28 25 17 12 18 9C 2A 1C 17 23 0F 1A 8A 9C 09 22 98 1A 80 87 18 84 01 19 11 9C 11 1C 1C 9F 11 21 23 88 22 1A 8F 03 1D 81 1D 12 8D 06 00 81 20 26 0B 1E 22 97 A1 1F 20 81 91 08 20 08 1A 17 11 92 00 97 18 93 1A 20 87 8C 1D 1A 81 1D 1E 94 1A 24 22 21 1A 24 0F 17 91 0D A1 8B 1E 02 17 8B 1D 22 0C 15 10 20 0A 8D 0A 24 12 96 0A 00 23 02 18 14 22 8D 19 95 86 01 11 1C 1C 1B 10 96 8E 09 19 81 24 90 01 8C 08 A4 1C 1C 23 9D 0D 1F 12 9B 20 A0 86 9B 09 8C 07 9D 11 1B 91 9E 00 A0 0B 94 9A 91 26 91 17 8D 0B 0C 23 14 8B 1A 81 1F 01 01 1F 27 20 28 21 14 96 2A 09 98 0B 93 23 01 1F 92 0E 06 15 81 20 80 1A A6 98 13 1E 98 20 9B 97 18 1F 1D 16 9D 8F 21 09 01 91 08 A2 89 26 92 21 96 A0 81 8B 93 15 1C 93 17 88 13 95 11 1F 19 12 03 0C 98 22 81 81 89 01 85 0C 94 25 97 0B 95 0A 1F 81 8C 12 0E 19 8C 18 9C 12 19 17 12 11 1F 90 95 1F 95 91 84 16 1A 10 9D 19 0E 97 99 91 97 15 97 97 15 1E 96 1E 08 A1 09 19 05 0B 14 10 96 01 10 15 21 1F 22 20 13 10 19 16 90 84 97 13 91 1E 18 16 01 90 94 0D 80 1D 0B 93 10 1C 00 21 98 8E 81 23 20 19 83 17 22 84 A1 00 86 93 13 1E 1F 1D A0 9A 1A 95 A1 23 0E 89 12 90 22 15 14 15 13 81 85 80 99 8D 97 19 10 02 81 1A 18 14 1A 81 12 80 01 1C 0B 01 14 05 0E 20 9C 01 20 1D 14 88 1D 81 9C 1E 12 92 0D 90 1B 19 0F 1E 18 90 0B 21 0C 82 0E 81 12 01 97 1A 14 12 1A 22 92 13 11 90 14 09 88 25 04 23 1B 08 92 95 21 1B 0D 08 94 06 92 13 0A 85 01 08 8B 1B 01 8C 9D 13 93 17 16 1D 1B 0E 1A 16 1D 19 0F 13 21 8C 17 0C 8E 16 8A 1C 17 19 06 01 23 11 10 1D 99 0B 19 08 22 89 89 1F 1C 20 93 81 0F 21 08 1B 81 17 80 0C 0F 11 01 14 13 8D 11 94 8E 22 88 09 94 19 9A 14 21 88 9B 20 27 11 95 17 9E 10 96 8D 20 92 97 19 1C 8A A0 83 0A 85 9A 18 01 22 8B 81 95 95 1F 26 95 15 20 13 96 97 95 0D 26 25 29 0E 93 19 28 17 0E 8F 92 1C 10 24 14 8F 07 21 8D 25 08 22 99 0C 10 25 94 25 07 11 1F 22 20 20 8B 15 1E 97 81 9A 94 99 01 28 98 14 9C 94 99 98 01 1E 0D 11 23 89 1A 81 81 1A 1D 0F 09 06 9C 24 94 94 8A 91 10 90 1B 19 22 96 0C 91 16 8F 09 18 1C 18 0E 08 14 17 18 81 92 8A 23 15 85 1C 01 12 9E 19 12 91 14 87 1A 92 98 01 01 16 02 9A 96 90 13 81 20 9D 10 85 80 10 1B 8F 10 90 0D 20 1C 1A 19 1D 81 18 20 16 01 0B 11 1E 06 18 8A 0A 98 0A 14 0E 90 8E 10 0E 0F 0D 12 1A 8D 1C 06 18 11 94 15 0B 0D 01 9A 81 01 8E 93 1E 21 15 9B 83 8D 90 08 1D 10 94 18 98 13 9B 85 19 8A 94 11 8A 16 06 09 09 12 08 1C 15 20 0E 18 14 0D 04 11 92 13 01 19 1B 90 1F 1C 14 19 98 15 0B 1E 91 1F 15 22 0C 1D 1B 81 21 1A 83 23 01 22 8F 19 09 92 27 18 98 92 18 1B 21 1D 06 14 18 81 12 1C 09 10 1C 11 15 81 0F 15 21 90 1A 87 0E 95 89 02 95 0B 8D 81 94 8A 96 8F 1B 20 1D 09 13 09 22 1D 14 97 23 18 1F 1A 1D 1F 84 0C 24 92 81 15 18 23 24 18 1E 24 11 23 1C 98 22 09 81 0F 19 08 15 18 11 81 8A 22 13 17 0E 97 10 95 A3 A0 25 A0 04 81 15 1D 00 8A 0F 1C 1F 91 1B 86 28 01 0E 0C 93 18 11 A2 9F 95 91 81 89 94 0A 94 97 81 13 01 81 02 81 95 81 13 1A 11 1D 1B 14 88 81 0E 98 9E 8C 01 80 80 98 0A 18 18 22 8D A1 97 90 86 01 97 19 8B 17 1A 93 0A 89 81 96 91 8F 98 09 8F 81 0C 01 21 A0 96 98 15 0A 1A 14 14 96 94 16 05 9A 05 23 1A 16 1B 98 17 81 12 17 1B A0 15 8D 1A 19 0E 98 98 1E 82 1E 97 99 95 19 0E 97 1C 10 19 9B 18 8C 1C 0C 84 14 11 9B 18 1B 01 8A 15 14 81 98 24 01 A4 8A 1F 8D 23 8B 23 81 9A 21 1E 1B 21 97 13 15 29 1D 20 1F 1C A5 14 18 22 22 81 07 84 1A 21 8E 01 14 06 1C 9D 9A 98 8B 92 21 01 18 01 93 94 18 92 A0 1C 01 15 19 10 14 96 15 26 93 01 09 0C 9E 21 21 19 81 91 82 1F 18 90 8B 20 24 11 24 81 95 19 17 27 2A 16 93 1A A1 93 20 0C 14 8B 09 13 1C 19 17 92 10 8F 10 28 01 96 27 8E 06 90 0F 81 11 14 91 94 09 01 0C 81 01 01 14 8E 92 19 81 92 81 92 04 89 81 0A 92 81 85 85 82 82 8E 18 0B 14 02 12 8A 10 93 08 11 81 8B 8E 90 12 90 90 8C 0D 94 94 8F 94 92 06 15 89 8B 01 03 11 08 15 01 01 15 94 0A 09 8C 04 01 0D 95 97 81 15 90 06 0A 93 08 89 10 04 11 8E 88 11 01 17 15 01 94 8F 8A 10 03 91 0F 13 0C 83 8F 89 14 92 10 0D 8F 0D 14 0F 93 12 01 96 8A 94 14 15 15 81 12 1E 17 1D 03 23 81 22 92 8F 82 10 1E 01 81 90 0F 03 1C 0C 99 21 01 99 97 04 92 23 92 1A 99 8A 20 99 22 1B 8C 99 01 21 23 1A 1A 95 80 01 21 15 20 19 21 08 1B 25 12 90 91 09 20 18 20 1C A0 88 15 23 1B 0F 86 82 10 95 11 1D 11 93 25 8B 1C 92 10 21 21 01 89 1E 8B 13 11 25 17 06 1A 11 1D 8C 8E 1E 0F 95 16 98 01 96 8E 20 20 9A 8C 1F 15 1B 0C 13 81 8C 18 0E 14 21 0B 13 81 1B 27 19 91 95 22 9A 10 11 1C 95 93 1B 95 26 81 10 25 26 26 8B 18 93 23 1E 81 17 93 8F 0D 92 12 12 89 18 11 13 81 83 1E 88 8C 81 84 23 11 0B 9C 17 21 00 12 18 1E 20 11 12 81 17 14 09 0A 88 81 1E 20 1F 14 80 1A 1C 20 0E 95 0E 20 81 9A 17 81 13 1B 11 0A 10 21 1E 1F 12 17 16 21 1A 8B 8E 1C 21 1B 19 23 1D 98 98 12 0B 9A 86 20 1A 1D 16 20 1F 04 01 23 04 95 1F 92 22 20 0C 87 8A 20 08 13 1A 15 1A 18 0D 81 1A 21 18 1B 9A 82 15 96 10 24 8C 24 1B 09 96 01 9F 24 0E 20 19 14 99 91 99 0C 15 82 97 1A 92 20 81 1D 22 01 A7 01 22 20 0E 01 12 22 8A 1F 21 11 19 13 16 81 1E 03 97 95 0B 0F 21 85 1B 1E 15 81 18 17 01 01 01 12 96 92 01 8D 93 18 08 8E 87 25 22 08 91 1F 01 0A 18 01 8C 9C 17 15 1E 1A 0E 81 9C 8B 94 9C 8A 11 10 20 06 22 8E 13 88 18 11 19 98 94 20 19 12 13 89 14 89 0D 00 21 13 19 01 81 97 0F 8A 8F 07 08 9C 13 19 01 96 1B 89 0C 13 10 9E 14 23 94 92 81 1B 01 9F 17 91 81 19 9C 17 8E 95 21 20 0C 9F 20 92 93 84 97 07 20 90 90 01 81 1E 10 13 97 1D 8C 92 12 10 8D 1E 20 23 20 10 1A 1A 1B 10 10 06 81 91 1A 95 82 81 92 12 0D 80 19 0A 98 0E 13 9B 1D 09 91 16 1D 1B 98 13 19 1E 0F 9E 18 86 9D 0A 20 09 18 8D 86 1D 97 91 14 93 99 18 92 19 85 01 1D 0A 8C 14 19 83 1D 81 1B 0B 12 98 1C 0C 20 81 14 90 05 1D 98 0C 07 86 22 12 1D 95 1B 22 81 99 8E 22 90 9E 11 8C 15 8D 9E 20 9B 98 8A 04 04 9A 06 A0 93 92 18 16 20 98 1A 93 8E 22 19 81 11 90 94 08 08 02 99 22 24 28 1F 15 A0 22 19 00 12 98 90 15 22 12 A0 0D 18 90 0B 02 8F 9D 01 93 15 97 19 1A A0 0A 27 21 81 90 22 24 94 A0 15 81 9C 0B 2B 01 19 81 9B 23 12 81 07 18 81 22 96 26 19 06 0B 0D 18 15 86 96 14 A0 08 95 9B 93 8D A1 22 9E 8D 10 96 25 94 14 28 26 20 95 09 19 26 01 08 19 8B 0A 0D 9F 9A 20 0D 21 01 01 24 99 1D 26 94 99 11 22 14 9D 85 92 1A 0A 19 23 20 11 97 01 9A 1B 81 90 8A 89 9B 22 10 16 23 11 94 06 24 93 01 08 1F 11 09 1F 9E 0D 23 89 85 05 29 28 8E 11 1F 01 24 23 20 01 8E 1B 81 24 27 17 92 1A 20 01 99 13 22 86 0E 03 24 09 07 15 89 16 9D 17 85 22 22 92 92 94 17 91 19 8E 10 9A 23 90 18 95 14 87 80 9D 89 1B 98 13 17 0E 21 1E 1A 93 94 0A 1C 96 07 1D 97 14 91 9E 81 20 13 0B 01 9B 22 16 8E 0E 90 9E 1E 1B 20 15 8F 96 94 09 1B 22 1B 16 A0 91 01 19 10 00 0F 91 8B 1E 99 16 18 8B 1F 0A 03 16 97 8F 21 91 99 06 81 96 84 97 10 0A 17 21 90 88 01 1C 10 18 1C 15 9A 1D 1B 1A 20 18 8B 19 91 12 01 10 98 06 10 18 21 01 94 16 16 05 94 80 13 1B 19 12 96 91 1B 01 03 81 12 19 1B 94 92 0C 1B 0D 24 A0 88 18 10 16 11 04 10 21 1E 14 20 98 22 17 22 86 01 8A 88 1C 12 1C 10 1C 13 14 1E 01 98 1A 8F 9D 8A 10 91 12 18 0F 10 01 21 1A 10 1C 11 09 1F 13 85 03 8A 95 20 1D 21 14 25 10 18 1D 92 0B 94 12 1C 09 12 1B 14 94 09 01 96 8E 81 08 24 90 18 07 14 21 08 09 12 23 23 19 1C 16 8D 94 03 88 98 8A 22 0F 23 92 12 25 87 10 20 18 0E 1B 88 17 20 88 19 95 1C 93 9C 1C 0A 0D 18 91 01 14 1C 92 1A 9C 96 1A 94 1C 12 93 00 11 18 90 99 9C 81 18 03 81 0C 08 99 A0 1E 0B 09 04 8A 14 10 93 08 1B 88 A2 19 15 0E 8C 8B 05 1F 97 09 10 11 19 18 90 92 81 17 98 92 81 9A 23 10 22 1F 97 9B 81 18 12 91 92 0F 01 1B 18 0D 94 0D 8A 93 81 1C 1F 18 80 21 99 13 06 90 93 01 19 20 11 13 08 10 98 07 83 A2 8E 09 01 99 90 1B 99 0A 84 1A 12 01 93 01 16 05 12 11 96 01 91 16 91 18 83 0E 94 19 17 1B 16 11 15 12 19 03 14 1B 8F 21 16 96 8B 03 09 09 04 0F 93 13 05 8B 18 17 03 01 13 8A 18 00 0A 0A 19 10 97 0A 87 19 18 08 89 8B 97 13 1C 95 1D 1A 95 1B 17 12 00 95 90 18 1C 19 1E 0A 92 1B 1E 16 11 81 86 16 0D 05 98 95 93 17 12 19 98 0A 1A 1C 0F 23 1A 1C 12 1F 0D 01 11 1B 19 09 08 92 00 81 81 1A 85 18 08 20 8A 81 09 12 06 8C 01 8C 11 98 93 04 88 12 19 0E 8B 00 15 17 11 97 15 18 81 14 9E 81 94 05 21 90 01 81 02 9A 10 15 93 07 99 16 12 01 1A 90 12 14 93 9F 18 97 0F 8D 99 05 A0 9B 9B 97 9B 81 0C 97 90 1D 11 15 09 1A 88 1A 17 81 89 0D 99 81 94 93 10 01 96 0D 92 0F 81 A1 8B 9A 97 96 81 98 86 0F 20 12 01 8D 89 11 8A 8A 90 1B 8D 94 99 A1 1B 9B 8A 87 14 08 0E 0C 02 8F 1A 8E 91 99 14 1C 9E A3 16 9A 1C 03 19 0D 89 1D 81 13 1E 01 95 8E 13 21 88 81 12 1B 8B 18 13 0A 04 98 99 87 1C 92 93 0E 10 95 90 85 9D 24 94 1A 13 90 1D 99 11 19 95 14 A0 96 88 08 25 9A 99 81 96 12 90 91 90 11 8B 81 10 18 04 0E 95 21 9C 05 22 95 95 81 18 8E 99 92 81 00 88 20 18 0F 96 06 0B 1B 11 01 89 82 13 10 8A 9B 8D 8A 92 15 0D 9A 16 0B 12 81 20 1C 20 92 18 18 1F 97 1B 18 22 91 12 21 8A 18 01 27 98 24 23 9C 25 0C 1D 81 1B 90 23 81 21 8F 94 9E 10 22 81 80 94 0B 1A 07 06 08 20 16 1C 1E 17 97 81 90 21 09 0E 23 1E 1E 84 21 88 13 21 01 90 07 13 94 18 1E 11 01 20 93 20 11 12 13 23 93 1E 01 01 01 97 1F 22 1A 93 19 0A 19 11 01 0D 19 8D 94 91 06 00 01 17 19 15 21 95 18 90 1F 8A 93 97 10 0E 01 14 81 0D 18 12 17 86 21 02 14 05 1C 98 1F 1D 94 A0 24 27 20 13 07 81 14 92 18 90 98 12 20 13 23 04 02 19 81 17 17 05 09 15 8C 22 12 81 20 15 18 90 03 02 1A 80 81 97 93 1E 8D 02 91 8F 97 1A 97 1D 8D 0B 99 01 11 12 98 0F 83 81 12 1D 8B 8A 17 02 86 19 11 05 1A 91 1E 03 91 06 11 81 9A 1F 17 01 8C 01 9A 95 1E 1D 12 1B 8E 81 81 18 96 81 0D 80 08 01 9E 00 1A 10 22 13 01 14 8E 05 10 11 93 81 8C 0B 92 01 13 04 88 15 0D 07 8C 0C 94 1D 10 0E 01 01 81 18 19 1A 80 1A 0A 81 06 92 93 18 99 0D 21 22 09 19 1B 89 01 0B 91 1C 0A 88 01 81 1F 0E 81 81 8D 0F 15 93 92 13 19 17 20 11 08 19 11 11 98 13 13 15 1F 01 06 1C 92 91 97 23 83 8D 89 18 15 1A 01 1C 18 01 81 09 16 81 01 0A 19 1B 09 16 22 23 11 96 20 18 19 81 15 01 01 11 8B 0F 05 13 01 19 90 12 1A 81 22 0F 20 93 81 8D 8F 10 80 19 8E 04 1E 94 18 81 11 21 1B 0E 10 9B 14 1A 01 9B 1D 0B 81 21 18 01 03 12 22 95 0F 8D 1B 20 07 04 13 1F 97 1E 93 97 15 1C 13 0F 22 12 1A 0C 07 8A 1C 86 10 12 12 00 0C 93 91 18 86 96 93 10 01 14 81 11 0F 12 11 14 15 96 15 01 01 88 85 01 8C 15 81 00 13 89 0D 01 00 12 01 88 91 80 01 83 93 14 13 88 11 13 92 01 0E 81 07 15 89 03 03 95 95 96 01 81 8C 01 14 10 89 0E 01 14 82 89 16 8C 95 81 0F 12 05 16 14 81 01 16 83 93 01 14 82 90 01 82 16 01 8C 10 90 8E 86 14 07 01 15 81 94 92 94 8D 91 01 95 92 90 94 90 86 84 03 81 01 02 8B 94 90 01 08 04 08 01 94 10 10 1A 1D 93 1A 90 0F 90 9A 81 98 9A 91 9D 8B 09 81 95 12 91 1A 12 81 8C 19 16 17 08 15 97 14 93 91 86 01 11 01 01 10 96 06 1A 20 81 8E 14 9B 18 14 1E 13 0F 0B 93 18 95 92 0C 9E 05 10 96 94 1B 09 89 0A 95 12 91 93 1A 82 98 80 8D 94 1E 95 92 05 17 01 05 16 10 89 12 1E 1E 1C 08 98 01 93 8C 1F 01 11 13 01 91 9A 01 01 01 06 14 10 81 9F 0D 16 8E 81 17 01 18 24 93 0C 08 93 0E 1B 89 95 01 94 98 8B 99 15 11 81 01 82 94 93 03 93 01 01 1A 81 88 11 0B 12 8A 1B 88 9F 16 94 88 92 01 18 99 95 86 13 81 0A 91 98 92 13 98 95 1C 97 81 01 9A 18 19 93 93 89 86 92 91 95 10 01 0D 0B 19 05 88 0F 99 90 96 98 20 95 19 8D 93 08 95 8B 88 02 A1 A0 11 8C 06 81 98 87 81 0F 15 01 12 9E 90 19 01 01 97 81 89 81 21 91 9A 05 99 0E 8F 02 92 17 94 09 81 07 05 13 81 0E 92 91 91 0A 19 00 01 96 01 11 0E 9E 18 1A 12 1F 14 14 8E 13 93 05 8B 01 80 98 18 14 20 02 01 21 9A 91 10 12 13 98 15 0C 09 91 91 9C 97 81 9A 8F 05 10 11 01 21 12 13 91 20 90 14 8E 17 10 91 8F 90 89 19 14 20 18 11 10 9A 20 91 8D 01 03 0B 94 16 17 08 0A 8B 15 20 8E 9D A0 08 0F 9A 89 9C 1C 8E 91 16 1E 13 93 20 27 92 1B 86 15 81 8C 0E 15 95 1E 94 1A 98 16 14 1C 0D 1E 0D 20 88 13 91 1B 21 95 9A 17 81 0A 18 14 90 16 90 1A 06 21 0B 1E 13 8D 15 81 0C 13 1B 10 0E 1A 07 1A 14 1B 90 87 14 06 1D 15 87 1E 99 1A 18 04 1D 1B 8E 13 18 19 1E 20 1D 1A 9B 12 20 1C 09 05 1A 0C 09 19 14 0F 94 95 11 1B 21 20 05 8F 22 81 19 10 13 95 9A 15 14 12 04 8A 11 8B 00 80 92 01 16 96 1C 13 13 0B 1F 20 1E 1A 12 1B 17 1E 95 06 0D 96 17 96 93 87 13 81 1B 07 83 89 18 01 15 18 8E 21 1B 98 17 15 05 12 8F 11 1C 17 87 8D 14 1E 12 A1 1F 85 8E 14 09 20 9D 91 81 18 23 94 23 01 1B 1F 0D 10 01 91 96 17 98 22 94 1E 89 91 1A 9E 88 16 8A 8A 02 20 90 95 1A 25 1B 91 29 0E 14 11 9A 0A 22 99 0E A1 81 0F 8C 19 1E 22 19 14 93 1F 84 81 98 13 A3 96 12 22 0E 04 1F 88 0B 88 1D 11 15 81 88 9B 94 1E 0C 0B 20 27 24 20 25 18 90 19 25 0D 15 94 20 81 90 0D 0B 27 98 1B 20 19 22 01 12 25 1B 91 96 81 27 81 08 02 19 01 21 8E 17 8F 85 17 81 1B 0E 95 8B 08 1B 94 22 81 08 96 13 9C 11 01 13 01 81 06 18 98 14 10 15 81 19 82 88 01 1D 09 81 8E 07 10 13 19 A1 99 1D 10 92 20 90 10 1B 0B 8F 1E 08 01 0F 0A 22 22 01 1A 13 8D 0F 13 93 10 88 01 24 85 8C 07 12 92 97 14 98 8D 1E 18 8C 90 1B 1C 1C 8B 1B 82 9A 92 8B 9C 13 0F 12 19 9E 8A 81 0A 81 18 1D 85 94 0E 01 94 89 87 A0 81 10 0C 99 8B 11 10 89 97 94 80 12 0E 18 95 15 17 1A 19 12 18 12 0A 8E 0F 9A 92 8A 01 15 09 13 10 18 00 92 19 02 9B 94 1E 8C 1A 96 16 8B 96 10 01 9A 1B 92 81 81 0B 1C 11 17 26 9F 8E 1A 14 20 19 8C 09 11 99 14 92 92 89 85 01 99 01 10 14 1C 90 02 08 81 92 93 91 12 21 98 81 19 81 18 12 99 81 1C 04 94 94 95 1C 14 01 18 18 12 09 16 19 8F 08 04 95 12 04 81 97 80 01 81 19 06 22 09 98 00 05 8A 11 20 8A 19 17 13 02 01 09 12 1C 10 8B 07 81 10 04 0F 15 96 1F 97 01 17 95 96 19 1E 0B 9A 18 1E 88 88 26 92 90 95 0B 01 1A 8F 21 14 97 24 02 18 20 14 11 10 19 20 22 21 84 A3 98 22 23 1F 00 9B 94 0D 0B 93 15 92 8E 8F 9D 0F 91 0C 08 24 0D 18 86 81 93 19 01 98 1B 90 01 1E 08 19 95 86 21 16 11 18 01 90 20 1B 21 9C 94 97 16 24 99 01 20 81 97 0C 93 A2 8C 10 21 29 0E 16 1A 81 13 19 92 92 18 22 14 01 1A 19 0E 17 01 01 25 16 0B 23 00 11 0D 1B 03 0F 19 90 01 13 91 20 1C 1E 13 24 9E 1A 1D 1C 20 81 21 8F 12 14 1C 15 89 1E 12 1A 0F 09 13 97 10 1D 21 21 91 17 99 19 81 20 1A 1D 81 12 07 8F 16 86 8A 80 0E 8F 80 16 0E 1A 12 1E 21 18 8C 01 81 1A 01 1A 81 84 81 1F 91 90 03 0A 1E 11 97 9A 01 17 1C 1B 02 0C 20 1E 12 81 1B 14 86 9E 81 89 98 23 1F 17 81 20 10 91 20 22 18 1D 13 0A 25 20 01 21 81 1F 18 18 17 90 1E 23 92 1E 20 1D 14 16 01 95 21 96 1A 15 81 8A 01 22 81 89 11 12 96 9D 1E 99 A0 10 20 8C 28 14 20 81 99 20 14 91 95 14 81 11 21 1D 1B 1B 1A A0 0B 15 01 22 14 96 92 19 91 92 17 12 01 98 9A A3 99 0D 8B 15 91 16 8C 96 0E A0 94 91 21 81 04 21 98 14 81 1C 23 1C 11 9B 15 A2 1C 14 1C 92 91 1E 22 21 1B 81 1C 18 12 1B 94 99 99 81 1F 21 13 0F 1E 15 81 23 01 93 01 19 81 96 14 20 10 0E 1C 86 0F 90 95 14 9B 9D 91 84 9B 07 18 98 20 0E 80 1C 95 1F 0C 11 85 20 20 8E 09 1D 1E 81 99 88 15 12 10 19 11 91 8D 91 8E 01 01 03 1E 88 0D A1 8D 90 8E 11 11 01 98 98 08 9D 98 01 99 01 8D 94 11 03 03 13 90 0D 19 09 80 01 15 1F 92 1A 01 82 82 1D 14 97 81 1E 18 97 8C 98 1A 11 20 95 11 81 17 03 1E 18 15 94 16 90 14 81 01 18 0D 09 19 1B 17 11 82 99 1E 99 1A 8E 20 81 0B 99 99 18 05 1D 81 98 01 8F 01 12 21 0A 1B 18 98 01 12 11 00 0F 12 22 1E 14 81 1B 20 1D 21 1E 20 09 18 94 81 19 1D 97 1F 19 20 94 01 13 1C 02 81 19 83 15 97 13 09 0E 94 0B 8A 81 1E 99 8F 85 81 81 1B 98 94 07 1D 0E 81 12 8F 11 1A 1F 95 0B 87 8B 11 1A 98 0F 92 13 88 13 8B 17 1A 83 94 02 12 18 14 12 81 1F 11 01 21 8E 20 12 16 12 8C 12 00 1A 10 20 12 18 82 11 9D 1D 17 93 15 06 1D 01 92 01 13 18 01 09 17 0B 8F 1C 08 1E 8D 81 20 1F 01 11 8D 8D 22 81 12 01 8B 01 8F 91 19 04 90 83 98 96 91 92 18 10 85 06 19 99 97 A0 03 1A 83 95 08 13 01 18 01 02 14 A0 97 92 91 8E A1 9D 12 90 95 11 01 92 89 A7 97 97 A2 18 15 1A 9A 20 01 8A 8D 99 81 9B 99 1A 13 89 10 96 01 91 21 A0 08 01 01 01 94 10 08 84 8F A0 00 90 A4 0A 91 1F 8B 9A 0C 92 93 01 8D 03 18 92 0F 9B 9E 94 95 81 9E 1D 85 01 18 94 8C 0F 8B 98 10 90 13 10 99 98 18 A0 21 85 1D 0E 9A 0C 92 81 19 01 8E 9C 1A 90 85 19 1D 0A 98 11 16 1C 12 94 18 18 9E 10 20 21 22 0C 1E 81 1B 1F 24 12 8F 8D 92 01 20 15 0D 18 13 9D 22 13 19 81 90 21 11 9A 9F 8D 01 25 01 0E 15 8A 97 21 8B 9A 11 11 8C 90 94 0B 98 11 1A 98 01 10 20 0C 90 21 22 9D 9C 90 96 13 15 90 1B 0F 14 01 90 98 22 11 06 1D 00 0A 07 18 90 0A 92 08 8A 96 08 1E 02 91 14 96 20 20 22 22 97 1C 11 02 19 18 16 8A 01 14 1B 11 13 19 1B 19 88 1B 1D 1F 8C 8E 18 82 81 0E A0 1C 1B 12 15 18 85 20 19 0A 17 05 81 12 21 24 1A 8E 10 02 94 21 28 06 18 92 12 91 81 01 0F 8C 16 87 01 12 9C 1A 14 23 0D 1B 09 10 16 25 85 0B 01 0B 11 1C 8F 0E 81 01 21 20 87 18 1D 17 19 1F 1D 13 1E 9A 8A 01 12 81 1B 81 8F 1C 03 16 0C 21 18 24 01 81 01 88 16 9D 19 82 17 05 8F 18 8C 8B 01 96 1C 99 19 10 12 22 26 0E 20 0E 17 0E 0C 06 1F 17 01 19 23 1C 81 01 1F 12 9D 9E 25 92 A0 19 22 1A 28 97 25 0B 90 22 21 18 22 01 8B 21 20 26 15 1E 24 9D 07 20 27 13 11 95 0D 1F 1E 09 1C 08 0B 01 1C 99 9D 05 81 21 8D 26 8B 93 99 12 96 9B 1C 03 0B 1C 94 11 91 1B 29 18 82 18 1D 1A 14 23 1B 17 8B 01 28 09 93 95 01 25 01 1D 10 1D 8D 1B 19 29 82 13 0D 81 A1 21 92 84 1D 23 01 1E 18 90 15 18 18 8E 24 11 93 18 01 83 13 11 11 8C 8C 09 90 98 90 92 92 01 84 89 08 A0 18 81 9D 95 14 10 1B 99 92 8A 81 01 93 9D 8B 0F 96 95 1D 16 99 81 81 17 83 81 82 9A 98 8B 02 12 0D 92 8D 93 89 0E 0D 81 98 1E 0F 01 05 96 1B 8A 94 01 14 A1 13 81 98 11 12 00 0F 91 01 10 9D 96 8B 8F 9B 96 85 0E 98 16 16 16 97 8F 10 14 8F 0B 04 06 81 13 9B 90 98 9C 01 0B 81 8E 93 14 06 96 8C 01 13 1A 17 0A 09 15 88 94 96 03 94 93 18 11 21 01 16 08 90 01 8A 0D 01 1A 1C 98 13 0D 95 01 10 03 1F 01 10 0B 1A 18 14 01 10 0B 85 1C 0B 15 19 16 16 81 09 8B 10 0E 12 0F 01 13 08 09 83 20 8F 11 1E 15 15 92 81 13 1B 20 1D 0D 01 16 19 82 94 95 93 1E 17 82 8D 9A 94 94 15 99 0F 20 07 19 90 13 19 1E 01 0F 1E 01 90 16 90 96 09 8B 1B 19 8B 18 84 1E 1C 1A 10 19 93 81 01 12 1F 17 23 90 9C 0D 01 0A 91 18 09 9A 04 1D 0C 81 92 09 8F 0E 03 0C 93 13 14 01 07 03 81 12 09 11 90 0C 17 11 80 10 00 8C 13 05 11 0A 10 8E 94 10 13 8B 0B 15 0A 01 10 94 08 15 12 17 0E 85 15 01 15 8B 91 92 01 17 8E 81 96 94 10 93 14 8C 8F 01 01 06 92 0A 96 15 0C 8A 01 03 00 81 12 81 8A 88 8C 0F 01 81 10 97 0A 81 8F 15 8F 10 8B 93 8C 18 85 13 88 81 81 01 08 17 17 81 81 82 14 0A 0B 91 82 11 90 8C 13 94 8A 89 91 90 01 01 85 81 81 04 81 0C 1C 19 03 18 9F 8A 21 08 1F 20 14 13 1F 20 8E 89 21 19 1C 81 21 01 8E 12 20 06 22 12 22 90 98 25 18 01 21 13 92 1C 21 23 12 26 1C 98 92 19 21 1B 91 95 0B 0E 98 97 12 11 86 9F 18 00 80 23 12 1E 9F 20 83 12 8D 82 09 9C 15 14 0B 12 10 9C 8F 1F 28 80 86 01 14 81 20 1D 81 15 15 1B 20 11 89 93 17 28 83 1A 90 01 19 07 1E 20 20 95 0D 01 9B 11 01 91 19 20 01 0F 97 94 8F 18 09 8A 04 1B 92 18 97 10 02 0A 01 0A 11 13 11 01 13 98 97 93 8C 01 99 98 01 12 90 88 81 11 0D 9B 97 07 81 98 8D 91 05 18 9C 8E 98 97 96 87 08 14 1A 8C 86 94 98 0F 98 98 93 99 94 01 8E 14 92 04 8D 96 92 81 10 02 98 81 8F 8B 02 90 8D 91 0B 81 81 87 10 81 81 16 95 99 10 0B 11 9A 99 10 95 0F 04 1B 18 8C 99 91 11 02 93 80 94 96 9C 01 99 8C 86 80 19 8F 9C 0B 96 0D 0A 1E 81 11 1C 01 10 15 08 9C 09 19 14 8F A1 95 20 00 1F 92 A5 96 01 18 84 2A 1A 91 95 98 8D 11 9B 1D 81 12 1C 8E 8A 24 98 94 9D 01 1A 10 15 21 26 8F 90 81 92 0D 10 98 86 20 8C 95 0E A0 19 23 81 9D 1C 0E 16 98 95 14 24 12 12 04 02 25 14 1D 90 88 90 29 8D 1E 9E 95 99 81 8A 0A 12 17 88 90 0E 20 01 2A 9B 03 1A 1A 8A A0 08 09 14 08 A0 1C 13 9E 87 1D 21 26 9A 1D 8C 8D A2 8D 81 9D 12 08 10 1C 05 24 18 9B 87 84 94 21 90 8C 93 15 18 10 10 01 20 91 83 91 96 14 11 84 20 88 0C 01 21 89 81 A0 1A 81 98 95 11 08 19 98 1C 18 1A 16 1A 01 1A 94 11 16 19 14 19 16 22 92 81 1B 17 10 12 07 0C 09 11 81 88 97 81 90 0C 1D 19 90 81 20 88 1E 8F 0F 93 99 91 9A 81 9A 14 03 10 88 13 0A 20 87 11 18 93 20 1F 1E 10 1D 91 07 13 16 10 91 20 1E 14 1C 95 97 20 18 12 20 14 0E 0D 9A 00 1E 07 08 92 1E 10 21 10 98 92 91 18 17 23 97 01 15 0B 99 1B 93 15 90 1B 0B 15 1D 97 1C 20 0A 94 03 17 10 95 18 23 93 10 8F 9C 1F 24 88 11 81 9D 23 1B 21 20 97 A0 17 20 21 17 86 99 94 0A 15 1E 19 99 1D 96 9D 1F 01 13 94 90 13 02 88 99 11 8C 26 1B 23 96 91 91 22 14 94 0D 0F 91 17 11 11 80 1F 1F 96 0A 1D 18 20 9B 21 22 8A 81 09 15 94 88 94 8D 07 0C 99 14 96 21 1A 8D 28 9B 8E 09 93 99 98 95 0D 95 0E 81 1D 14 A1 98 8F 16 21 17 22 04 20 20 20 99 0B 21 16 28 01 91 87 10 0B 19 01 81 14 17 22 12 91 20 14 9C 97 91 9A 27 93 81 22 9B 26 A2 24 24 0A 9C 19 23 1D 1D 16 11 8D 8E 29 28 25 13 22 0B 21 1B 14 95 01 14 21 1D 91 1A 19 95 1A 26 94 01 81 96 20 14 91 24 91 03 28 81 21 13 1F 27 19 81 81 14 9B 16 01 1C 12 0F 22 20 22 21 13 22 8A 12 9F 92 97 90 93 1D 21 16 8C 21 18 21 18 0A 80 1E 1D 11 94 1B 23 19 1B 24 23 18 1A 0D 1F 08 18 16 1C 96 91 03 13 1C 88 90 20 22 1B 90 03 11 1E 81 01 17 18 1C 8E 01 13 19 96 18 0F 18 1F 89 89 25 04 99 1B 04 18 01 12 1A 1C 01 23 22 89 85 08 13 1A 1B 88 95 13 89 1E 25 19 20 1A 0C 8D 11 20 89 8B 10 20 0C 88 1B 03 95 0D 8D 18 12 1B 20 8D 82 20 98 1C 19 90 11 17 12 16 12 01 01 08 19 10 01 9A 92 0B 04 1A 11 01 1C 0A 8F 1A 21 06 15 92 09 90 81 81 96 1F 95 18 18 15 8A 1F 81 0C 8C 12 A1 1D 19 97 14 01 01 16 96 1F 23 1F 82 1D 9B 23 15 1D 1A 0D 1F 05 07 15 1F 95 81 12 0C 20 9D 8C 81 0D 18 12 10 18 94 1C 0A 1D 0D 20 20 1E 9B 81 95 15 16 15 81 15 0D 16 81 81 12 24 87 0A 19 81 91 98 8C 0C 8C 14 18 98 90 9A 13 9B 01 98 11 1A 03 9B 11 11 22 91 81 9A 18 1F 92 1C 18 89 23 09 01 0A 94 20 13 16 1D 1B 24 14 1F 1C 1C 91 24 02 21 10 92 8F 01 22 92 84 1B 9E 0D 1A 09 1D 1A 18 8D 0D 8A 01 1C 14 17 13 95 81 23 1E 14 98 1A 0E 9E 99 25 95 A1 90 1D 97 20 14 1F 01 A2 23 1F 8C 03 93 83 01 22 24 1F 18 89 9B 11 25 22 19 81 0A 91 81 1C 93 12 0B 01 10 8A A2 9A 21 81 19 92 01 15 84 81 81 0A A0 18 93 10 20 09 98 81 1E 23 18 95 9C 0B A0 16 17 1D 93 83 01 17 1C 10 81 11 1A 8A 15 81 A2 07 1B 14 26 16 01 1D 93 9D 23 9C 91 99 0D 01 0A 00 0C 10 1B 13 01 21 0B 12 23 20 24 9B 21 A0 10 19 0F 15 89 8D 01 15 1C 8B 21 81 1B 1B 98 1E 88 98 97 18 8B 23 85 1C 14 0C 1B 9D 98 09 0C A2 10 19 98 9E 15 23 09 02 29 11 1D 1C 96 12 23 98 97 95 08 96 1D 19 81 01 12 88 A1 1B 14 93 83 8A 99 01 0C 22 10 01 22 98 1C 01 1C 1A 25 11 8E 9D 9B 20 16 97 20 20 24 1D 25 26 0C 08 20 92 84 81 1F 01 01 01 22 27 08 21 28 9B 1F 99 90 23 19 8C 11 20 21 0D 19 1B 18 9B 19 0C 86 1A 17 12 99 10 01 83 03 9C 0E 98 9B 98 81 08 07 1F 9C 8B 14 0D 98 84 09 1F 18 0C 95 81 12 93 95 15 03 81 10 0D 1D 96 19 07 12 0B 9C 01 9A 11 96 1A 01 08 11 07 81 81 98 11 18 81 15 14 9A 0A 0A 1E 18 01 90 88 11 94 19 0E 1A 02 12 12 1B 0B 98 8C 1B 08 81 1A 93 96 0C 05 88 13 14 98 81 0D 0E 03 87 97 8B 03 8E 8F 86 9B 90 93 8F 03 03 95 20 8C 95 96 9C 87 04 1B 8D 02 01 80 01 19 8A 8A 8E 01 0B 01 19 0D 81 12 01 22 09 15 1F 1D 21 93 1B 8F 20 81 1E 1E 01 98 0D 99 8F 27 00 1F 12 99 20 83 13 16 0D 90 8E 1A 20 11 94 0A 8B 81 1C 26 09 97 8B 8A 01 22 15 99 93 10 1E 12 08 99 14 81 19 12 89 0C 81 93 20 01 82 1C 01 8C 0D 01 98 11 14 23 10 08 14 1D 82 1D 1C 1A 01 1F 99 23 1C 1B 81 19 19 11 91 01 99 1B 16 18 1F 16 05 18 19 11 9A 96 87 11 06 01 91 9B 22 14 93 21 01 17 18 92 1A 02 9C 1B 02 1A 81 82 14 1E 08 83 1F 22 1B 12 1B 19 21 01 84 22 8B 17 0F 17 1E 1E 8D 22 0C 9C 1D 16 1B 1B 10 1B 91 12 1C 24 81 20 0B 81 14 19 81 81 13 0E 14 17 90 1B 97 01 8F 20 8A 96 1D 11 23 1B 1E 81 95 01 19 0D 9C 81 98 81 1B 14 81 81 84 1B 16 11 80 21 1C 21 1D 19 10 8B 11 04 15 01 91 0D 1B 90 1D 88 01 19 1F 13 1D 1E 8C 15 99 95 8F 12 81 0D 10 8A 1B 22 81 97 94 99 88 1A 81 94 1B 93 9B 16 0F 19 01 18 81 20 0B 0C 21 8D 20 96 1B 1A 1F 1B A0 18 11 15 81 0C 83 22 90 14 97 1F 16 81 1D 1D 92 81 0A 25 1C 22 21 22 1B 01 0F 02 19 84 0E 81 16 1B 88 08 81 90 97 19 18 1C 01 0F 20 11 18 94 80 0B 20 88 11 0D 91 12 1A 91 01 88 20 24 1C 97 1D 02 1F 01 11 1D 1B 20 1A 22 1C 13 81 01 19 94 12 08 10 13 20 1C 23 00 8F 01 16 14 88 1A 90 21 20 0D 0B 21 13 11 01 0A 18 88 10 0C 17 1F 1B 90 14 09 96 16 96 18 99 98 01 1C 14 01 21 18 88 16 8C 18 09 0F 12 01 08 27 01 18 84 1F 81 10 94 9A 0F 1B 06 1E 1D 09 1A 1D 98 06 1B 16 19 18 83 95 1A 91 94 01 14 91 12 90 1A 1F 14 04 11 01 19 98 91 0C 9F 98 01 15 95 80 18 96 81 11 96 21 1D 88 8B 1E 18 01 1E 91 10 1B 21 1A 1C 84 97 16 23 07 17 80 1A 11 04 11 19 1F 8D 20 01 03 11 1C 8F 18 18 93 14 1B 1C 90 96 19 0D 1D 9C 11 19 1D 81 10 05 09 0F 12 81 95 9B 01 A4 97 98 8A 98 81 9F 18 94 11 89 96 95 11 99 1F 95 1B 0C 18 85 0A 9C 9B 14 14 81 1F 01 0E 1D 16 A2 01 8B A0 18 14 19 86 11 9A 09 88 01 01 93 9A 8C 15 99 81 01 87 08 01 11 84 A2 80 93 13 16 14 81 96 81 94 95 15 1D 10 99 1E 9E 14 0F 0B 14 17 8E 8D 01 8B 10 11 14 96 1A 10 99 98 95 12 8A 0C 12 1A 0E 9A 08 01 98 97 13 95 8D 1E 0A 97 89 01 0E 1F 95 90 99 15 15 0B 1D 8E 98 94 13 1E 1A 81 01 1C 0C 13 09 98 1E 22 10 12 18 21 01 95 06 0A 0F 81 97 0B 1A 9A 9A 01 06 9A 09 20 11 00 1D 1A 1B 81 18 10 93 8C 1C 13 16 94 0C 8B 11 94 14 21 23 22 18 0E 81 18 01 89 8B 13 21 91 12 19 03 92 1D 8F 9E 03 01 8C 01 91 81 89 21 1B 9E 1D 01 1C 1D 01 1D 0F 82 16 17 13 93 97 1A 06 07 1C 1D 11 95 1A 13 18 1A 21 94 22 80 91 8E 98 09 0B 05 13 17 81 81 90 12 20 90 12 13 19 12 09 05 1A 98 8D 01 1A 1E 12 19 20 13 21 A1 1C 94 85 95 01 11 14 97 26 98 88 11 8B 80 16 96 10 15 18 13 89 02 1C 01 12 13 01 1A 86 80 90 1B 81 91 96 06 10 18 02 0F 89 19 81 1F 99 21 01 10 98 95 81 11 1A 98 91 22 97 0E 96 90 1C 81 97 92 14 15 19 17 1D 20 08 1C 1C 24 1A 81 14 20 95 88 92 81 83 1A 25 1D 22 92 1A 92 91 0C 1C 98 1A 21 90 16 12 11 16 14 00 01 13 8B 0B 1C 1A 1D 14 18 06 13 1D 8A 88 11 88 98 1D 22 15 24 8B 24 1F 1A 15 8D 99 95 1F 07 1E 92 1D 1B 17 23 94 00 19 98 88 01 1F 1D 81 19 24 10 8A 24 18 24 1B 82 0D 1D 10 0E 01 94 97 10 17 1E 84 1D 12 92 1A 1B 91 98 0A 91 8E 17 11 10 8D 1D 82 89 01 92 84 15 13 8D 8C 96 20 01 01 20 1F 22 19 21 16 0F 1C 20 89 81 01 12 12 99 1A 93 1D 13 20 24 8E 22 99 8C 24 1F 90 20 19 21 0F 0C 20 19 81 14 95 81 1E 81 01 24 81 01 1B 98 1D 11 93 20 20 1B 12 14 93 26 93 21 1D 87 12 8C 97 0B 1E 0F 10 10 82 1C 1A 90 10 01 8D 91 1E 18 97 89 1D 1A 01 1C 22 18 85 88 92 02 20 01 9D 94 98 1A 16 1D 18 21 0B 10 0B 1C 10 0B 0C 1C 0E 05 09 12 8E 05 09 93 10 14 26 81 98 81 01 04 1C 11 13 1B 1F 89 24 18 19 93 0E 14 12 93 8D 14 09 19 8E 24 1E 01 1B 11 11 81 98 14 1E 14 09 0B A0 24 92 13 10 1A 12 21 92 1D 0C 81 0C 81 20 8C 9B 93 0F 98 95 22 9B 90 89 1F 81 09 1E 23 88 0C 24 01 16 1E 98 94 86 81 1B 92 8C 04 16 0F 12 1F 96 94 19 94 91 21 08 91 14 96 08 1D 12 01 20 14 12 0F 13 19 14 23 24 18 0A 81 23 95 0A 94 11 1F 11 21 8A 9D 89 03 93 1B 8C 14 A3 10 87 11 0A 1B 15 9F 01 1F 20 82 A1 90 19 94 03 87 14 81 85 27 88 23 19 81 02 0D 8C 8B 14 95 18 84 14 83 98 1B 8C 8D 90 9A 9A 1F 96 0C 94 95 A3 99 86 86 93 8C 97 03 0B 1B 06 14 1F 02 01 8A 13 0A 81 19 0E 08 1F 94 A0 12 02 8A 9A 10 11 19 17 19 20 13 99 17 94 1F 0F 9B 8B 06 98 99 1B 95 91 15 92 9B 23 81 80 11 01 12 21 04 09 85 11 1B 1B 81 96 89 01 1D 81 11 8F 0A 91 92 90 99 80 20 0C 9B 0C 11 08 1D 19 81 01 18 99 88 81 81 97 93 91 91 94 1A 10 18 1B 1D 10 1B 84 0E 98 8B 1D 9C 01 0F 1A 94 86 0C 93 82 88 92 85 01 10 1F 0B 19 93 81 09 12 1B 13 1F 14 19 97 8D 08 0D 19 01 19 16 01 20 8B 1D 93 01 06 94 81 20 8C 02 0C 01 1D 90 02 01 8F 96 12 15 13 10 89 21 81 8B 23 1B 11 09 90 8F 10 13 8D 11 95 95 89 89 07 98 1B 81 21 80 16 0A 85 8C 11 90 98 90 9A 16 19 90 09 97 08 01 97 8E 91 95 80 1C 21 8E 01 20 12 18 1D 1A 94 08 8C 81 0E 8A 13 16 1A 04 89 1B 03 0F 10 8D 88 95 13 21 19 14 83 0F 10 14 18 1A 0D 21 0E 14 83 16 1E 17 19 90 8A 81 05 81 99 12 20 15 1C 90 20 9D 1E 29 18 A3 18 27 98 81 1C A0 96 92 94 1F 92 9B 09 1B 96 94 81 91 A2 8B 92 1A 20 11 14 81 02 1E 1B 91 20 84 98 9A 10 89 1D 26 29 2A 20 81 00 25 1E 01 81 98 98 8C 23 98 9E 13 13 90 12 88 93 9A 18 95 1E 9C 22 81 9B 11 29 24 21 01 01 24 94 9A 8C 98 A0 01 2A 04 12 99 A0 20 92 01 1E 10 1B 24 98 25 1E 91 21 1B 19 93 87 98 24 A4 14 97 9B 98 91 19 01 01 05 9C 96 1E 1A 95 08 8A 88 11 88 17 9A 11 8B 99 11 98 11 90 0C 0C 81 81 93 16 94 13 1A 0C 81 86 15 1B 19 01 01 85 9A 01 98 97 88 9B 95 81 81 18 98 1B 85 8C 91 17 11 95 08 0F 16 11 18 96 06 8C 0E 0E 15 10 1B 86 9E 11 8C 10 18 12 0F 8F 12 98 14 9E 19 01 16 97 8A 01 92 9F 13 97 17 95 10 07 01 90 14 83 15 05 97 9C 89 99 05 8A 92 8B 8A 07 05 0B 8B 8E 0E 02 91 17 0A 81 0B 23 16 17 84 1B 8E 20 93 07 15 88 12 19 19 0B 81 07 10 9D 90 25 06 04 89 15 0F 28 97 15 08 98 21 1F 16 25 10 98 13 1C 1E 1A 23 15 A0 08 22 20 20 81 11 10 21 0B 12 0A 8E 13 1B 0A 81 9D 1E 8A 21 0C 08 11 95 98 1F 8C A3 23 18 13 82 95 03 90 A0 28 1F 95 81 1C 94 1F 23 13 8B 8F 85 19 18 0D 14 1C 01 11 18 12 16 1C 14 1B 27 21 0B 25 96 0F 1E 0D 0F 01 07 10 81 08 20 09 81 1E 0A 21 09 91 01 18 9D 85 1E A0 95 81 14 20 90 11 19 19 20 08 19 06 1B 91 18 10 0C 0F 10 16 99 84 0B 14 95 01 19 96 9B 99 0B 98 90 15 91 98 08 1F 19 90 20 19 1C 98 90 10 13 9D 13 0E 13 91 04 81 97 03 1A 13 95 11 01 01 12 81 81 8D 9D 19 95 86 81 88 92 95 0A 8F 81 8D 9C 81 06 20 83 9C 00 15 9D 14 0D 18 02 17 14 8A 90 91 18 93 84 0A 91 1F 09 14 17 81 97 17 08 1C 20 95 9B 0C 1F 11 91 8A 8A 94 01 08 9B 22 21 14 1B 91 01 1F 82 10 9A 94 97 01 1B 11 22 0D 11 24 9E 1F 81 8C 01 1D 0C 1A 11 25 93 1B 13 91 8B 14 97 11 1B 21 8C 81 21 26 9B 09 21 99 26 21 81 92 24 88 10 98 01 0C 10 97 10 12 17 01 19 0D 1A 8A 01 98 A2 89 94 25 16 11 25 90 1C 14 1C 20 20 8C 98 01 03 0A 01 0D 20 1A 20 21 23 1D 15 21 21 11 85 10 92 94 92 19 18 22 14 28 20 A3 20 90 11 20 26 0C 83 21 25 90 1D 20 0C 1D 89 8D 1C 88 92 10 95 8B 94 01 09 8E 81 0C 15 16 14 93 88 92 88 81 8E 91 89 81 93 10 14 18 96 15 13 94 09 8E 8E 84 85 81 8A 13 16 11 97 17 88 01 02 01 05 89 94 09 8B 91 8D 8F 0C 16 0F 10 10 01 0C 16 95 11 12 0F 01 94 90 0D 10 01 94 91 89 8C 92 96 10 15 11 96 87 95 16 08 82 81 92 17 04 81 18 18 14 8E 0C 85 12 92 01 10 81 81 09 89 0A 0F 12 16 8F 0A 94 91 93 89 09 11 15 8E 8C 81 95 85 88 01 88 18 1A 21 86 1C 0F 91 13 92 99 93 24 18 81 81 03 87 9C 0B 13 10 93 1C 92 20 23 10 98 81 02 22 92 81 23 1C 04 18 01 8A 90 04 1B 99 01 82 81 99 1D 18 15 96 0E 16 8A 01 94 95 11 1D 1E 12 92 0F 1A 21 22 8B 8F 98 08 85 22 13 99 13 1E 8D 21 0E 19 10 0D 90 1A 89 1A 9C 01 1C 1C 15 1D 92 81 01 00 14 8E 01 9E 08 0C 88 1D A0 1B 14 09 94 19 13 01 1A 8C 1B 09 8B 1D 1A 90 89 90 10 1E 90 19 10 81 81 87 99 11 01 90 1B 81 22 81 80 17 19 90 81 83 89 1C 12 99 23 1A 88 08 09 84 1C 11 20 12 82 22 19 17 07 80 9B 01 23 21 1A 06 13 07 93 23 1E 81 1E 18 93 90 0D 96 08 97 84 08 1C 08 98 01 01 16 1F 81 01 80 0C 0B 12 98 20 81 8B 12 11 15 97 09 21 0F 11 89 98 17 15 10 1E 98 01 8D 20 15 0D 91 12 8B 11 1D 01 17 0F 1F 21 1E 11 12 1B 01 13 15 19 13 19 0F 90 02 08 21 96 15 12 12 14 19 01 19 85 01 96 97 0C 0D 1A 0E 8D 15 01 16 19 9C 0E 99 96 86 9A 91 20 13 A0 0F 96 94 1F 15 91 12 92 22 12 15 20 01 A0 8A 20 21 24 9C 93 81 97 16 20 15 12 18 08 92 1A 8D 93 8E 0D 1D 1C A1 87 94 84 19 19 83 88 8D 81 22 01 0B 19 18 8E 0D 88 18 96 98 1B 01 01 9A 21 9D 1C 1A 13 8F 99 94 81 1D 1C 97 1D 98 0D 8C 13 9E 1B 11 99 23 81 06 17 82 18 85 97 03 92 90 06 95 18 11 0B 90 21 1A 1E 17 06 20 9A 18 17 93 16 04 82 98 01 17 02 21 81 96 12 0D 99 0A 12 19 01 1D 81 94 9F 1F 11 04 98 81 88 95 13 24 20 0A A1 04 09 12 11 09 81 15 95 88 13 97 1A 1A 10 8B 18 90 99 00 84 1C 23 15 0F 1B 90 1D 19 1B 0B 15 0F 1F 13 1D 95 16 91 85 8E 1B 01 1F 1A 8B 01 1D 19 19 90 85 1C 1B 16 03 95 81 14 0A 92 98 16 99 0E 01 12 85 8C 18 9B 91 9E 20 13 94 9B 83 10 96 10 15 1D 95 8D 13 15 1D 18 1B 14 19 09 1C 95 08 0C 14 1A 01 16 0E 0C 87 20 20 8C 1E 8C 21 18 01 10 19 11 95 12 0A 17 96 1D 81 0C 18 95 0E 1E 01 88 12 0C 09 0D 88 07 1C 14 26 21 14 01 1F 8D 19 10 8F 09 11 01 80 1D 1B 1B 20 11 88 19 98 98 01 8F 81 12 1A 20 81 15 20 05 15 92 81 8D 09 08 8E 0A 89 1B 93 81 1A 16 22 10 20 1B 14 12 11 81 96 89 26 1D 11 08 99 24 04 0D 1E 0E 8F 1A 03 21 18 8B 11 88 24 03 14 14 81 89 20 01 20 1B 18 13 20 19 95 13 09 17 05 88 20 20 0D 95 01 81 23 19 19 1D 14 90 93 85 14 17 8F 91 21 8B 1A 0F 1B 1C 96 9D 87 20 0C 10 80 02 1C 8D 24 1D 1E 06 13 95 81 00 95 88 97 01 18 1C 8B 19 16 98 01 23 1B 97 92 17 15 94 01 18 8F 81 23 0C 13 12 18 23 15 93 19 92 0E 21 20 17 1D 1A 19 81 19 16 90 15 98 90 A0 0B 0D 19 18 0D 20 11 0D 22 1A 8E 98 1C 94 11 01 8D 8D 09 18 81 8E 1F 18 0C 18 81 1C 86 91 17 98 15 10 12 98 01 16 0A 0B 21 81 14 9D 96 9A 01 20 20 17 0F 96 9B 81 15 13 89 1A 9C 22 20 25 24 98 A0 95 1F 1E 26 9D 9C 99 01 11 25 96 8E 13 91 A1 21 11 01 97 0A 17 1D 98 96 12 14 21 1D 18 0B 11 91 24 8C 02 94 80 81 90 96 12 91 8A 1B A1 8B 21 12 1E 0F 1E 1C 93 8E 8F 11 88 1A 97 06 86 8D 0E 0D 9A 1C 1A 19 1B 9F 95 09 9A 17 9A 08 07 81 12 0F 14 0B 9B 8F 8A 00 98 19 84 91 20 1E 19 21 18 13 81 20 13 0D 1B 16 11 21 10 92 20 23 20 8D 88 22 9B 97 07 22 22 1A 14 1E 11 18 23 1C 1E 20 91 1A 1B 1B 1D 17 24 1B 9B 01 13 21 96 05 8E 81 21 1A 14 19 0C 10 87 18 0A A0 11 84 1B 01 10 13 0D 09 19 14 99 01 0C 84 00 0F 14 12 01 1D 1A 81 8D 1F 20 22 16 97 81 0F 17 1B 09 11 06 1E 23 93 11 91 1A 1B 1C 13 24 1D 95 89 17 93 22 81 82 17 12 92 1C 0B 0F 93 81 0B 8C 20 1D 8C 18 1C 23 89 18 9E 10 18 13 19 92 92 9B 01 1D 95 14 1B 01 1A 01 01 01 14 11 1A 01 11 02 1A 9D 1C 99 86 81 95 04 19 84 1D 89 82 20 1E 9D 98 8D 96 22 20 9A 08 22 81 8F 9A 95 92 8C 81 15 89 81 14 19 07 21 10 8A 98 A1 0B 12 10 81 81 18 91 10 95 15 13 16 81 90 89 13 0D 01 94 21 18 17 0A 10 01 90 81 21 83 05 94 1C 16 91 81 81 18 02 07 93 9E 0B 13 0A 20 06 8F 17 81 81 01 11 8C 9A 16 15 91 1A 17 98 0A 0D 1E 94 13 8A 12 16 16 19 1E 11 91 0D 00 91 91 9C 1A 96 95 95 10 1A 18 00 0E 15 12 21 82 81 11 93 08 19 0F 1E 1A 07 10 92 11 97 1C 98 1E 17 92 92 1E 88 90 8F 12 0B 8F 94 13 88 00 13 8A 19 93 0D 90 1C 88 95 15 10 12 1B 88 06 86 8E 18 80 81 18 0B 20 21 01 0E 81 81 88 1B 1B 0E 13 1E 20 04 22 81 81 09 1A 12 12 19 0F 87 90 90 98 8E 10 0A 1A 8E 91 14 8A 0D 18 1B 1C 15 9B 8E 94 1E 01 8A 01 10 01 01 0C 14 94 90 94 8D 1A 8F 1A 10 99 14 11 18 9A 0D 05 20 01 17 92 13 8C 12 81 01 95 97 13 0A 11 96 82 8A 1C 1A 04 01 15 95 09 0B 8F 8D 18 15 83 11 13 02 96 88 00 8E 13 8F 8A 10 81 98 0F 8F 98 04 01 17 90 14 8D 0D 13 01 94 8B 0A 0F 99 93 88 10 18 86 01 15 81 90 12 14 92 14 0E 0B 15 02 16 97 8E 11 89 1C 01 03 13 9C 19 07 00 99 81 01 19 81 81 98 11 90 81 04 01 12 8A 01 91 01 10 15 90 21 88 81 0A 94 8C 0C 18 8B 8C 1B 81 0C 91 1C 06 10 8C 9A 01 1C 8C 20 81 85 1C 8C 08 18 82 98 16 15 10 18 8C 8E 0D 00 1B 12 12 01 20 91 8A 05 89 81 0E 91 1A 92 14 1A 88 89 11 1D 1A 96 81 90 12 01 11 0B 8E 8C 1F 10 18 93 01 13 19 90 06 01 90 1A 8D 1B 04 8E 87 0C 20 1B 10 08 15 8C 1B 0C 09 0F 13 1E 17 12 8C 10 8F 09 95 20 8C 0D 14 13 8E 20 22 09 0D 8C 8A 15 8F 8D 1B 20 1B 91 1F 9A 98 25 10 20 14 13 0B 11 08 11 20 0C 1C 21 03 1A 92 8C 08 1C 22 11 81 1C 01 99 07 90 01 1E 89 00 16 1B 8C 92 22 22 05 0A 22 86 18 12 0C 8C 1F 8E 94 95 88 10 05 20 1A 1A 24 8E 81 13 24 0D 94 0E 92 94 9F 18 08 8F 21 97 1A 81 19 10 1E 8E 01 01 12 1C 8A 01 14 25 21 1F 23 19 0A 14 19 13 01 85 1F 01 18 21 0F 1C 82 20 1E 10 21 97 91 28 1D 96 20 19 23 0F 0D 0E 90 9C 03 11 87 1F 09 99 11 93 91 21 8E 81 8C 8A A8 00 24 81 1F 0E 20 1B 9C 25 9B 9E 89 15 A3 29 8D 21 0F 90 28 92 A6 A8 01 13 9B 20 01 81 21 27 A1 87 28 19 26 0A 85 97 1C A1 01 9A 11 0E 0B A7 93 94 14 13 9E 98 97 14 01 92 A2 89 81 1B 0D 8A 01 81 05 89 89 1C 1B 11 AB 93 99 25 18 81 92 15 01 23 20 1F 95 20 20 0B 11 00 8D 8D A1 1E 01 29 85 20 14 87 20 8A 97 1D 12 97 A1 0C 28 96 01 1D 9E 1E 18 04 93 1E 07 94 16 0F 12 1A 01 1B 98 02 9C 15 22 97 23 1A 21 1B 96 1C 02 92 13 20 9A 16 0F 1F 14 9B 1A 14 A2 A0 91 1B 1B 08 81 96 1B 1B 99 08 22 0F 1D 16 95 8D 1A 92 84 81 8B 96 85 A1 81 95 13 80 87 8B 93 03 04 80 86 94 9B 23 93 98 91 94 01 14 83 03 1F 91 A2 16 01 21 0F 9A 08 1D 17 1A 1B 20 0E 17 1A 12 1F 04 1A 8B 03 20 8E 22 97 19 0F 13 15 19 93 1C 12 05 83 16 21 97 10 84 9C 01 8A 81 9B 0A 08 95 8E 90 80 93 13 87 15 0F 14 81 09 8B 8A 93 88 13 8A 89 0F 09 15 8B 0C 92 81 12 03 81 14 16 10 07 12 92 92 8E 03 8E 11 07 91 0D 93 14 94 8D 12 12 13 12 84 8E 11 93 96 89 93 0E 94 16 12 0E 8B 11 8E 94 12 10 01 8F 12 81 90 92 83 86 94 14 89 0B 07 14 08 14 81 0A 0B 88 10 16 16 12 81 93 92 01 15 8A 8F 8C 01 01 12 91 03 8F 0A 8E 18 10 92 18 09 89 94 81 14 81 8D 95 81 93 0F 01 10 18 01 20 9C 22 07 0D 10 A0 1A 01 A3 81 9B 8E 12 1D 9F 1A 15 09 83 91 89 23 20 19 92 1A 0D 11 93 20 0B 09 93 1C 8B 90 01 0D 1D 13 94 81 8C A0 19 01 85 16 11 87 94 15 03 91 93 98 1C 01 01 92 21 01 12 8A 90 8C 9E 01 89 81 15 14 9A 10 0D 12 0B 8F 19 96 8C 19 99 8C 1B 17 18 99 8B 07 97 93 98 14 0F 10 11 06 0D 88 18 98 18 0E 09 8E 8A 9F 10 88 89 A1 01 0A 1D 22 88 8A 8D 11 89 1D 9B 96 1A 83 9A 8D 9E 01 98 9C 01 8C 80 12 93 8A 0F 04 0D 87 91 0B 14 17 92 8B 14 8B 97 98 81 92 1B 81 89 89 91 A0 98 0C 99 9C 16 8E 99 94 03 91 94 95 01 81 01 01 94 11 12 15 07 94 96 97 18 07 14 08 01 15 9C 89 92 13 0A 94 0F 81 97 01 98 91 0F 11 94 A0 01 8E 05 8C 80 81 10 11 97 81 00 9C 8F 1A 0A 19 89 96 10 10 1D 12 9B 10 90 91 81 92 83 91 90 11 13 0B 93 85 81 88 87 92 96 07 94 96 19 8A 9E 96 15 9E 94 1A 10 1A 88 91 99 03 02 96 01 92 1E 10 14 22 16 0A 16 20 9A 81 01 0B 0D 99 10 10 18 94 9A 9A 06 1B 88 83 1A 18 97 14 1D 81 1E 0D 0A 81 18 98 19 10 91 81 81 12 11 0D 20 1E 20 98 97 21 A0 99 11 93 01 81 17 1B 01 01 19 12 1A 10 90 A1 1F 87 99 15 95 20 84 16 88 18 21 9A 24 26 91 19 96 10 16 8B 18 0F 9F 15 94 1F 13 19 14 17 81 1D 04 20 96 81 97 14 20 94 92 20 12 00 1B 01 86 99 9E 26 82 16 0B 8F 08 01 1E 96 22 1D 19 05 14 13 8A 03 15 14 1A 81 12 00 22 1E 8B 15 98 16 19 88 1F 28 0A 90 11 8D 0F 1B 18 10 21 97 0D 21 9C 18 18 15 08 1F 81 17 81 01 18 26 09 21 18 11 23 97 22 8F 01 01 20 81 20 9B 10 8C 8A 8A 0D 07 22 14 81 95 25 01 21 98 1E 19 17 14 90 18 88 9D 93 97 81 93 95 09 94 00 28 9C 1F 8D 8E 9D 81 01 15 1A 01 81 1C 08 22 9B A4 8A 14 95 26 12 1A 03 24 22 22 95 20 17 81 17 93 1A 14 0F A0 8C 21 15 1A 95 0C 1A 13 0D 99 91 97 16 81 20 91 17 01 11 13 9C 94 0E 01 9B 81 22 90 90 18 21 13 87 21 89 26 20 8E 04 23 99 8A 9C 96 01 19 1E 16 22 22 95 00 1E 19 97 94 90 A0 0F 15 25 81 92 22 8F 21 01 12 1E 26 89 08 9E 85 81 8A 01 1F 22 26 1A 22 21 8B 1E 25 00 9C 81 20 9B 11 16 11 26 8F 1A 23 99 21 98 0C 24 1D 90 01 0B 21 0C 09 20 20 10 1F 14 92 A4 A8 10 9B 12 94 94 91 13 14 0C 24 13 93 8C 97 96 19 98 1A 01 80 16 11 A3 20 06 05 88 14 8F 13 89 22 24 82 98 18 1A 1B 90 A0 9A 0E 0C 9C 23 A0 85 81 8C A3 27 97 13 8C 15 08 21 06 99 20 0E 18 1B 13 91 94 99 28 10 89 03 94 0B 98 81 8E 96 21 20 A3 12 19 81 1B 9B 1E 17 9B 11 A2 14 8D 8E 91 95 15 0D 99 93 81 1E 1E 99 01 9A 14 9F 82 18 A7 01 92 18 18 91 96 95 9F 0A 8C 9C 18 98 1B 10 81 1B 81 14 1F 16 8E 1C 96 1C 8F 0F 98 1C 1A 01 13 11 10 84 9A 18 0D 99 11 1C 93 19 15 20 8B 05 1F 95 11 12 93 12 15 1C 11 1C 19 14 90 89 1C 88 21 19 94 96 1D 18 98 12 90 12 0A 01 A0 8A 12 81 07 96 81 8E 88 98 81 05 91 21 10 14 1A 81 17 8D 91 16 09 83 9B 01 07 18 01 01 07 19 19 0A 1A 06 12 14 81 8C 11 93 9A 1A 07 87 18 09 0D 20 14 92 17 94 95 10 1B 17 8A 1A 1A 09 81 0E 14 14 11 8E 13 01 05 16 8F 1B 12 14 0D 18 0A 93 1E 13 12 11 01 94 18 81 0D 1C 0B 13 95 A0 18 21 0F 81 1C 8D 23 81 19 20 01 95 94 22 20 17 8E 99 0C 0A 14 20 01 0F 11 94 90 1A 80 16 87 10 17 20 20 07 08 01 21 20 94 87 10 01 1F 00 8B 81 88 99 81 94 0C 90 90 21 97 8C 0C 94 1C 1B 0F 1B 98 10 99 01 1F 14 01 09 95 0E 81 85 81 1B 17 0A 23 9B 92 93 1A 12 17 81 88 17 87 13 14 93 12 06 85 1B 1A 21 0F 94 21 1A 11 90 03 0D 92 21 91 1C 01 0E 08 14 18 91 23 0A 21 22 14 88 1E 24 89 8A 20 15 93 9F 1D 11 0D 96 05 19 96 0E 10 17 01 12 0C 81 19 81 18 12 18 9B 1C 87 84 11 91 8D 01 14 21 19 19 1E 1B 82 0E 24 99 96 92 8E 19 01 08 81 10 14 15 0B 88 09 90 80 11 11 8A 01 19 1B 82 1A 1F 21 1C 97 8D 10 93 21 A0 82 96 14 22 21 21 12 81 1F 81 17 24 11 22 10 13 26 0E 81 1C 82 21 16 93 1E 19 0F 21 02 1A 15 15 04 05 19 81 20 96 89 8D 97 01 1A 01 88 12 18 0B 98 98 20 9C A4 91 1C 9A 24 03 20 84 9E 24 18 11 0E 13 12 14 22 25 20 17 10 9F 90 1E 1D 1F 0D 93 8A 16 12 11 81 91 14 0B 95 9A 9E 91 96 12 92 14 10 81 12 0B 96 A0 10 11 12 02 91 01 90 82 22 92 8A 91 80 9C 1C 19 1E 98 97 09 1A 01 9F 86 20 14 10 1D 8D 92 91 8C 1B 25 85 05 18 8F 90 09 9D 0E 80 20 06 14 8C 18 11 0E 01 94 21 0F 81 1B 94 81 98 12 94 13 81 97 13 98 81 81 82 1D 07 01 1A 1C 01 89 23 9C 1B 8A 91 A1 14 90 12 80 97 14 98 81 9B 81 15 82 20 1D 81 94 96 9F 80 08 1C 17 9C 99 09 9A 92 16 11 01 0B 9B 9E 97 0F 80 12 19 A0 00 96 08 81 8A 05 95 8E 83 01 1C 81 93 81 88 1C 97 05 96 8C 06 01 01 91 9E 88 92 1A 11 8A 12 19 1C 11 93 88 9B 8F 9D 15 20 17 09 0E 9B 90 95 01 12 91 88 0A 9A 98 01 10 19 8B A0 0D 1E 90 06 1C 1D 1B 17 86 89 19 94 16 1B 97 18 18 18 90 81 01 12 83 19 12 07 90 00 14 13 18 11 0B 18 90 09 01 10 22 11 A2 1A 22 0D 95 1D 11 01 10 1D 20 0D 1A 01 13 13 07 8A 99 97 81 81 20 81 81 18 14 1D 8E 22 99 81 11 84 12 8F 1F 89 01 1B 92 1D 8E 0B 1B 14 92 1B 1A 1A 8A 88 0F 10 13 1E 1A 11 8D 05 81 18 0D 8D 95 81 1C 1E 8E 20 89 13 8B 25 92 01 94 8E 18 15 0C 18 81 15 06 86 1E 1D 19 20 09 19 85 81 19 94 14 01 01 10 8B 19 14 0C 95 14 0B 97 19 95 99 93 81 87 98 0E 8D 0D 1D 98 0E 08 96 9C 19 18 82 95 15 12 18 14 16 85 06 98 92 8F 01 8B A3 81 08 9C 94 02 08 93 98 A3 8D 9F A0 1A 0B 10 A1 19 98 8F 0D 81 81 9A 8D 1C 01 85 04 81 91 19 13 01 8D 1B 98 0A 97 21 0C 8C 9A 8D 1A A1 A1 01 9E 1C 11 99 81 9C 9C 16 96 1A 81 01 81 9E A0 90 99 12 95 81 10 82 03 99 9C 81 97 9B 1A 08 87 1A A0 A3 25 90 0D 11 81 8B 1B 1D 90 24 22 83 15 A0 91 95 98 22 1D 16 09 15 96 1C 1A 94 07 20 A2 21 10 24 20 8B 97 18 1B 1E 1F A0 A3 20 13 9C 23 9E 16 01 95 A8 26 91 16 93 11 1B 26 81 89 1F 88 21 8E 1F 0C 0B 08 2A 87 01 8A 8F 10 10 96 13 92 20 22 9F 13 26 23 1C 99 21 18 8E 99 A0 1D 96 92 94 99 9C 11 84 95 92 23 25 93 1D 9F 01 9E A1 19 99 9E 8A 03 12 12 1A 94 A0 93 99 A5 26 81 22 93 1F 92 9F 14 10 1F 81 92 0E 04 13 94 1A 22 93 12 A1 83 96 A3 01 24 01 95 8B 01 18 26 13 0A 1C A0 1F 18 22 13 0A 8B 90 22 25 21 0E A2 8D 94 1B 23 10 8F 14 94 85 22 94 06 09 06 11 19 A0 97 13 14 24 20 21 01 92 12 28 94 9B 18 01 0D 0B 0F 10 98 1F 28 99 96 1C 13 80 1D 1E 24 9D 9D A1 1A 03 9A 13 20 0A 8C 1F 0D 9E 18 19 9A 28 94 0B 0F 99 17 A0 9F 98 1E 8F 01 01 11 97 93 93 20 1B 25 14 90 29 17 12 0A 23 0F 10 21 81 0B 9D 10 1C 20 27 11 21 1C 1B 1C 99 1A 92 93 11 8A 18 1C 92 1B 87 18 0F 81 82 1F 91 19 14 23 08 90 1C 1E 86 0F 22 1D 24 1F 92 07 81 96 91 94 94 92 9F 0A 01 0F 01 91 1C 93 21 14 0F 94 99 8F 9A 1D 80 90 21 01 1B 95 06 16 21 81 07 98 85 0D 09 11 19 20 19 20 1F 12 81 81 26 08 8C 10 8B 01 18 93 24 22 92 13 11 9E 11 99 14 21 1F 81 96 16 01 01 1A 20 0D 06 05 10 1E 99 16 09 11 12 97 9C 02 95 14 03 9E 93 81 12 01 1C A1 09 0A 95 93 9C 80 11 01 0E 94 97 81 98 8C 8A 81 89 0F 19 05 99 1A 93 01 15 9B 92 A2 9C 92 9C 11 8F 92 83 91 81 0A 0E 94 0C 0C 14 8F 96 10 9B 01 81 8C 15 88 11 81 88 1A 8F 80 90 96 10 18 9E 88 01 81 81 01 96 15 00 94 8E 82 96 93 99 81 01 00 90 80 96 01 95 18 8C 8A 17 8B 10 9A A2 18 01 08 9D 16 0E 1E 0B 81 11 09 93 07 14 81 10 93 08 91 15 91 11 81 10 15 18 8C 93 81 1F 09 01 20 17 8D 19 96 22 07 15 01 14 21 21 91 1A 20 92 22 21 18 81 8D 1D 1F 0D 0F 20 0E 1B 94 01 01 1D 0D 01 81 8B 0D 15 05 20 90 91 18 10 1F 97 1A 85 1A 19 0C 8B 95 0B 21 04 05 11 19 00 91 11 86 92 9D 93 8F 08 91 20 19 1C 1D 02 14 1B 1A 94 12 06 11 1E 12 8A 20 96 12 19 1A 0C 17 1D 90 15 89 8A 19 19 0F 93 95 11 1B 0A 18 8B 92 15 88 18 18 07 8A 01 14 0F 89 93 06 0D 86 81 0F 0C 85 8F 81 91 01 85 01 11 0D 16 15 81 01 90 14 16 88 96 8A 88 91 90 81 11 07 8E 16 96 97 09 14 82 08 81 01 10 10 0E 01 94 11 93 96 90 8C 11 16 16 16 92 01 06 11 91 88 91 93 95 15 92 14 14 81 0D 07 01 88 14 08 83 13 00 95 0A 11 97 80 01 09 90 8A 81 8D 14 01 08 0C 8B 01 94 13 14 0E 01 89 06 94 93 11 90 85 91 8B 01 14 81 01 8F 07 94 90 0C 11 01 11 01 08 21 13 93 14 A0 81 21 98 20 9D 93 16 10 23 0F 15 18 23 1F 89 0D 8B 1F 89 91 91 13 90 1E 1A 1A 18 A7 A5 96 11 9D 18 16 90 8B 15 21 1A 81 21 19 16 01 08 8D 19 8C 81 9B 0B 91 11 11 1B 1A 21 94 A5 17 12 8E 89 0F 8D 94 19 24 90 03 01 8A 01 97 96 13 1F 94 A1 81 0C 1D 9E 97 1A 23 18 19 20 21 8F 10 1C 92 92 0F 22 01 90 1F 01 21 92 1A 22 1E 10 1E 8A 23 1B 92 9D 0B 20 03 93 18 8A 9F 18 89 9E 92 99 81 1A 91 81 92 8F 1C 8C 81 8B 19 11 95 8F 17 98 9D 11 99 01 94 01 02 99 96 91 81 91 10 01 97 01 81 8F A0 18 01 01 95 01 19 94 0E 96 06 99 9F 98 81 9F 9C 88 01 09 0E A1 01 9E 01 13 0E 0A A2 19 01 96 0A 9A 81 01 97 81 14 9A 93 81 88 1A 99 A1 81 0D 11 09 98 0E 99 0B 96 90 15 9C A0 95 9E 1B 12 9E 09 14 99 09 0B 90 0D 84 95 9D 8B 8A 88 06 82 1B 98 19 04 84 90 1C A0 9E 9B 01 8B 0C 94 9C 11 8C 1D 86 11 90 13 10 8B 25 15 9E 01 9B 9D 01 A3 90 1B 15 99 08 9B 0D 12 0F A3 12 0C 28 19 26 25 14 9D 90 25 23 22 15 97 14 92 1E 1F 94 11 26 14 9C 21 81 0B 96 13 1F 1D A0 90 81 13 23 24 17 12 01 98 25 8E 81 81 97 01 15 01 23 06 23 23 9E 11 1E 14 81 07 16 23 15 9B 95 93 20 18 88 1C 8D 91 8A 97 9E 19 11 94 26 9F 04 06 A0 1B 96 89 95 12 10 82 02 1A 08 98 90 17 27 20 92 94 21 01 91 1F 0D 81 14 8E 0D 0F 17 88 1C 1A 01 0F 81 1C 13 18 8A 23 03 82 87 10 19 16 92 1F 96 09 1C 86 0C 18 0C 22 1C 0F 18 10 15 20 93 81 15 01 1C 13 08 8F 81 8D 92 13 02 90 9F 90 12 8B 10 86 20 81 1E 81 11 81 11 81 01 21 91 83 1E 85 8C 8F 12 1F 09 85 16 81 18 21 20 87 21 01 07 19 19 81 98 0C 21 08 1D 92 10 19 21 0A 1E 15 13 1A 92 81 10 1E 89 90 23 0C 17 86 13 15 16 96 12 18 01 13 1A 9D A2 1D 97 24 89 91 12 0D 1C 0E 23 28 A0 97 A0 00 13 A2 8E 27 8A 11 14 99 06 23 10 9A 24 9C 24 1E 28 22 10 A0 14 24 27 28 95 9F 87 84 16 28 9D 98 1A 10 9D 27 95 19 97 01 20 23 9E 8C 09 13 26 23 1A 8F 96 0D 28 81 95 06 0D 93 9E 14 0A 88 1D 28 9C 01 25 16 0B 18 24 24 A3 A1 A2 1A A2 A0 10 01 A2 11 11 8E 9C 18 17 98 29 A1 81 91 94 18 99 9D 0E 98 8D 90 8A 0A A0 01 93 0A 20 22 00 11 24 25 1B 82 1F 11 80 25 92 98 8E 03 92 01 8B 06 20 1C 20 1A 8D 1D 00 9F 8C 1D 9D 29 81 05 12 0B 0E 94 81 16 13 99 95 18 11 01 1E 18 01 0E 26 93 25 1A 10 90 20 81 94 0A 16 10 21 1B 81 1E 9B 81 96 1E 94 81 04 12 01 93 04 23 1C 04 24 94 23 92 80 1A 18 91 92 17 9C 18 91 14 18 18 26 10 24 1C 16 01 0F 81 93 14 98 91 93 0D 1F 22 10 29 21 8A 21 90 8D 22 21 01 20 1C 27 14 82 1E 23 1D 01 0D 21 1C 17 A0 23 A1 00 18 14 1D 93 11 1C 22 28 0B 1F 8C 23 1E 13 1C 10 0E 8A 9A A1 01 95 18 12 14 1B A5 9F 00 88 9A 88 21 9E A0 08 1E 1F 96 29 0E 19 16 93 95 1E 88 8B 90 13 8D 12 1A 19 1D 21 11 A3 1C 95 96 12 89 9F 81 1C 23 18 12 21 92 08 10 92 1D 20 0C 99 94 89 21 81 9E 21 28 26 21 28 22 82 14 1A 93 9D 01 28 87 02 10 19 28 92 1C 25 1D 18 0B 91 29 19 12 9A 9D 26 90 85 1F 90 A2 20 14 95 81 10 A0 13 11 10 1E 13 87 12 81 98 19 07 96 19 1E 1E 22 1E 1C 11 18 89 1C 0B 80 81 81 1D 0A 06 11 9F 81 16 1B 99 18 10 99 18 18 18 8F 1B 14 18 11 19 94 12 01 83 95 15 01 21 11 1B 1D 1A 94 09 1A 95 0E 0F 81 1A 16 96 92 08 01 81 95 92 96 94 01 0B 0E 9D 18 17 21 02 87 14 18 1D 8A 23 1B 03 1D 98 96 18 8C 23 1D 0D 11 81 21 0E 14 20 04 11 16 0D 18 90 87 01 1A 25 8D 98 21 92 90 1F 0D 9B 97 94 8A 1C 9F 0D 96 03 22 01 0B 26 22 21 14 8B 99 21 81 81 16 93 01 01 8F 20 15 95 20 09 87 20 0E 19 12 86 81 15 27 1B 97 81 1C 0B 81 12 25 13 92 9D 81 9D 19 81 17 98 93 9E 1C A1 9D 21 0C 0A 03 1B 90 15 0D 20 02 0A 0F 9E 95 8A 83 9D 91 1E 21 9F 98 1E 13 1F 1E 97 93 8A 95 A1 24 1A 9E 13 02 1A 90 99 8E 1B 19 1F 81 1C 0F 8D 0D 9F 15 98 92 95 19 19 8D 06 A1 92 17 88 94 8E 01 22 95 20 20 01 9C 24 A1 8F 1D 90 23 99 81 1E 1C 22 92 17 17 21 22 A0 17 00 14 9B 17 9B 81 12 20 87 23 98 9F 9E 20 93 94 92 1D 93 A0 23 29 1A 8A 23 81 26 25 81 94 22 8C 84 9D 88 91 8D 20 22 1E 18 96 98 1C 20 10 0A 0B 91 05 1D 26 01 0E 27 16 21 0E 1F 01 21 94 12 98 06 8F 9F 01 1F 23 20 1F 28 27 89 10 1D 0F A1 94 81 9E 03 01 1B 26 11 24 26 0B 06 88 92 29 1F 81 9A 1A 21 94 19 22 14 9E 97 04 99 81 1D 80 82 89 01 9B 8B 08 01 95 98 9D 00 85 1A 83 99 16 17 95 0F 8E 91 02 12 81 81 9C 14 08 A1 1A 95 9D 8D 04 19 9E 98 9B 8D 1B 90 93 92 81 9C 1C 0F 8A 18 86 10 99 98 92 01 01 8D 1B 19 12 91 81 01 10 88 98 83 01 81 01 18 13 0C 96 88 0B 12 90 01 81 09 0F 80 92 0D 9B 1B 0E 01 0A 9D 84 81 98 88 8C 16 0B 01 0B 96 99 81 80 8A 92 1A 90 03 8E 81 01 0B 93 0B 8C 15 94 01 9A 1B 99 19 95 A0 8D 11 9B 14 0A 01 1D 81 10 07 0F 11 26 01 81 18 92 25 91 10 25 13 81 01 82 98 28 8E 1E 27 A0 24 11 0F 01 15 08 84 1A 20 1A 81 90 90 14 22 25 12 81 17 86 90 18 81 8F 01 05 1A 15 90 91 0B 0F 9A 1B 06 11 81 93 1D 81 A1 18 88 8E 94 12 0E 8F 14 14 0A 8F 98 1B 10 26 1D 0F A1 94 14 18 20 1C 12 22 01 04 0E 0E 9A 1C 98 13 19 18 91 21 03 24 90 12 0B 1A 1B 82 8D 90 25 18 1A 1E 10 12 1F 96 12 18 94 1C 87 20 00 8C 96 1E 89 95 15 21 81 12 1C 1C 1A 11 81 20 8F 11 04 1C 15 1F 0D 26 13 14 17 0F 16 1C 0D 21 1D 83 24 20 0A 1F 9B 8C 18 16 19 01 8F 0A 8E 1E 96 20 0A 09 98 8A 96 19 01 0A 21 0C 21 81 92 9B 0D 96 01 1C 81 89 21 80 00 90 0A 1B 1F 09 16 1A 08 19 1F 1C 01 97 14 23 04 83 81 9A 21 83 1B 14 0F 1A 19 1B 21 19 81 17 81 99 1C 1B 8A 0D 00 95 19 12 12 13 8F 91 18 1F 03 88 1C 07 01 1E 17 1B 8D 81 95 22 0E 14 21 1D 8E 97 87 8F 18 81 81 23 19 01 16 1D 01 18 94 1A 90 81 0E 1E 20 28 14 93 11 21 1F 14 20 21 19 13 0D 19 1A 18 1A 10 8E 25 81 19 0A 13 8B 27 18 0D 9C 0D 20 1A 15 98 90 06 03 10 12 1F 89 8E 25 01 16 8F 22 1C 14 0B 1F 89 21 93 21 1C 1D 97 90 23 0B 13 89 17 0A 09 9E 0F 8A 81 1E 81 21 09 89 09 0F 12 09 15 89 20 01 13 1C 20 9C 92 96 9B 24 0B 18 8C 22 25 20 01 1E 12 96 22 10 11 91 90 1B 1D 1D 95 19 1A 1C 22 89 27 8F 08 94 1B 81 23 81 1C 1D 81 20 89 9D 18 94 0A 20 1C 12 0C 16 21 99 8A 26 1E 23 81 81 10 1A 81 12 08 98 01 20 1A 18 04 20 94 10 17 1B 01 92 9B 81 96 18 22 1A 81 1A 93 18 88 01 20 1A 81 98 0D 98 1B 15 15 14 1F 20 1B 24 01 8C 20 13 0D 15 10 89 01 8B 1D 25 1C 93 0A 1F 91 23 96 88 15 13 13 0B 80 24 0D 01 20 17 13 88 12 1B 81 93 19 8D 10 01 0D 97 98 93 92 A3 93 92 97 96 06 A1 89 8C 19 8E 8D 95 12 82 0A 84 81 9A 12 9F 92 83 01 14 18 80 8F 8D 91 01 14 9B 98 90 9E 18 90 0B 8D 06 88 10 87 81 12 90 8E 0A 98 93 0B 8A 9B 01 01 8B 9A 9B 81 9B 8E 0F 8F 0D 8D 09 98 88 05 89 08 90 81 99 81 14 0B 9C 0D 9A 9B 92 11 86 12 14 93 01 11 9B A0 96 09 96 8C 8E 1A 12 9D 98 95 81 A0 1A 8C 13 81 00 01 0E 90 17 88 9B 8F 97 14 85 95 1A 97 97 0B 92 18 08 8E 1F 04 24 0A 8E 0F 18 85 8D 1E 10 02 81 8D 12 87 81 1B 87 91 1C 99 1E 21 93 81 0A 19 0C 12 8E 19 1C 81 1F 11 17 06 19 93 1A 8B 01 99 08 01 9C 21 1A 22 8B 91 8A 09 14 81 8B 01 1F 15 1B 1E 0A 0C 20 96 10 0C 10 1C 18 95 11 98 18 1B 11 1D 19 1D 19 16 1D 0C 0A 19 1F 98 9C 91 88 0C 19 1E 24 12 01 14 16 19 15 14 81 0F 1A 95 04 82 07 8B 13 08 1B 8F 1A 01 22 0E 0F 14 21 9D 80 88 98 0C 11 95 8E 19 21 84 23 20 09 27 91 8B 94 8C 95 21 18 8E 98 13 82 1B 0B 9A 91 0C 97 81 18 16 97 99 20 20 81 01 01 93 19 01 14 08 1E 99 94 83 95 12 90 1C 17 13 10 92 1C 10 20 8C 95 15 99 15 1C 09 8E 90 22 91 19 86 09 97 16 11 12 82 1F 85 15 9D 1F 1C 01 22 09 07 0A 09 20 15 97 81 1C 19 01 18 01 20 98 1B 0D 95 0B 81 85 1F 1D 8C 1A 0F 1A 08 92 93 1B 15 94 8A 00 21 1B 11 22 14 92 22 04 14 8C 0C 94 19 15 94 24 0B 01 10 1F 8A 88 99 10 19 88 20 01 19 8D 81 08 92 81 07 92 00 01 93 0D 96 1B 1B 08 81 23 00 20 1E 02 8B 23 93 90 81 0F 13 1B 0D 93 18 20 91 91 15 18 81 81 0E 94 81 04 07 09 0B 00 13 01 83 81 18 1E 90 8D 9A 03 21 08 8C 10 1D 19 1C 13 1D 93 94 18 90 81 8F 86 0B 1B 8F 10 21 8E 20 1E 9C 1D 99 97 18 21 0A 1C 89 20 81 14 1B 13 16 0D 0C 01 0A 19 99 1E 01 09 20 0C 17 97 13 25 28 19 07 18 9A 23 13 06 21 01 95 0F 9C 15 26 04 1F 21 9F 27 0D 99 19 06 99 13 27 16 81 90 01 13 89 25 24 0D 08 8A 88 91 15 93 99 81 81 20 20 0A 15 22 90 97 18 19 01 8D 94 1C 93 99 1E 99 8B 01 81 10 8C 81 23 0E 91 8A 19 14 25 1F 90 89 17 15 20 0B 20 01 18 12 01 0F 94 8F 1E 18 1A 24 15 0E 19 1F 21 12 93 15 21 10 95 0C 01 22 0C 19 15 0C 8C 21 10 18 1E 12 19 8A 20 10 05 0E 9C 9B 01 81 09 81 02 22 26 81 26 1C 12 16 19 82 24 18 93 8B 1E 10 11 16 21 9A A0 11 23 1E 8B 97 8D 24 1C 91 8C 0C 0D 17 1D 12 81 1D 0B 98 20 90 97 0F 9F 23 00 14 8B 0E 81 18 81 8D 95 9B 93 95 18 95 93 09 8C 8E 0A 81 A0 20 96 99 81 1B 18 0A 80 10 17 1C 9A 8E 0F 10 20 15 93 20 95 22 0E 12 1B 14 19 81 17 89 9C 1A 18 96 02 14 01 18 10 0D 99 83 1B 9A 1D 93 10 81 9B 98 10 94 18 01 95 01 1D 1C 14 21 24 20 81 94 97 22 A0 18 1A 0F 01 14 9B 13 1A 88 10 02 81 25 92 10 23 83 99 15 21 20 1A 82 8D 04 05 21 21 0C 9D 1A 8B 99 27 89 06 95 96 10 1C 81 8D 1B 95 09 20 18 98 81 91 1E 8D 0A 03 93 93 18 13 8C 12 1A 24 95 01 81 85 16 14 19 03 90 81 9F 1D 19 92 96 1B 13 92 81 04 81 19 22 01 21 01 81 88 12 10 9C 99 12 1E 1A 81 9A 8A 00 0F 10 01 14 19 1A 00 1B 12 19 1E 18 1A 96 22 91 1D 19 01 8F 24 22 08 98 1B 17 01 86 26 92 A0 0F 0F 8D 23 92 19 0B 0D 22 18 19 1A 0F 99 15 1E 1A 1B 20 09 8F 89 22 1C 20 11 01 95 01 1B 08 0B 07 05 05 83 9F 98 1D 8B 1D 8F 20 09 96 88 1A 05 9E 15 09 88 21 12 81 86 19 24 1B 11 93 14 1A 22 21 04 97 0D 82 18 17 91 0D 81 1C 11 0C 98 9A 15 1A 15 25 13 89 19 99 05 18 99 10 0F 22 96 8A 91 0E 91 0E 1B 8C 19 06 08 20 16 21 19 17 0C 87 14 85 01 9D 8B 1B 8D 13 97 23 90 89 21 20 10 82 12 90 1F 1C 00 86 89 8D 13 09 11 8E 06 01 91 83 8F 96 90 1F 23 18 01 1C 9D 12 1B 20 15 19 92 91 88 01 13 16 14 19 17 1F 13 0E 17 01 01 8D 0C 81 96 1A 13 12 10 17 15 19 0F 88 11 22 94 93 8A 1E 87 92 18 26 21 22 11 05 1D 90 1F 0F 81 95 0F 21 93 19 0D 81 1F 88 11 21 9C 12 1D 14 25 19 97 22 1C 1E 13 83 1A 1C A0 06 13 95 A0 98 1A 19 16 94 9D 95 20 0C 12 13 14 0F 82 81 81 16 9C 87 92 03 0A 07 8C 81 01 81 13 0B 15 01 85 10 18 92 98 1D 10 21 14 9E 0C 8A 10 99 1B 94 93 91 93 98 0F 8A 01 81 04 88 20 8A 81 19 14 1D 9A 0E 98 8C 8A 20 0E 02 91 83 8F 8A 92 9C 11 19 0B 9D 11 1E 96 1B 02 0B 15 97 81 98 0C 9B 9F 14 97 13 97 01 07 0B 83 18 9A 81 01 93 98 84 90 89 93 97 07 0E 92 93 9B 9A 8B 81 9A 10 0F 89 90 18 21 92 1C 93 11 8B 23 01 0D 1C 94 14 24 0A 90 19 20 24 86 A0 27 18 8F 01 27 0F 26 12 19 1D A4 28 21 01 0E 8F 20 12 20 23 12 27 1B 92 89 24 22 23 81 15 13 81 20 13 21 05 0A 1F A0 A0 A9 0A 8F 25 1C 1B 06 06 96 1B 88 A4 21 98 0F 8C 0D 83 92 98 20 01 8C 86 24 16 23 25 01 0C 86 99 21 01 1B 81 1E 22 12 25 90 9D 20 1E 26 23 25 01 1D 9A 8D 94 1A 01 0F 01 92 18 1E 22 95 13 1F 02 26 94 01 95 19 08 9E 8D 82 81 19 11 01 A0 89 A4 0E 21 10 17 19 1A 18 9A 1E 96 97 01 16 A3 20 15 1D 82 8A 18 9B A3 A5 01 1B 11 1C 10 9C 1B 1C A1 0C 24 00 20 01 95 02 10 A0 0A 10 00 91 84 A0 99 9F 1B 81 A3 97 92 11 95 8F A3 0B 99 21 99 09 97 0E 81 01 09 13 85 13 A7 91 A0 20 19 9C 90 20 1D 1F 1C 18 13 0D 23 81 1C 01 11 09 A3 1C 01 28 87 20 0A 81 1A 0B 11 8C 1E 95 A1 16 25 89 1D 1B A0 14 18 91 9A 23 23 1D 21 81 96 22 10 18 91 11 98 98 1C 03 25 1A 12 1B 10 14 99 9B 13 21 1E 1B 0B 13 0D 1B 01 9F 81 0D 11 19 19 81 90 9A 22 1D 00 0E 1E 98 1B 16 17 01 23 01 08 98 14 96 0C 22 1E 1E 18 01 0E 0C 20 04 93 12 A6 93 90 20 1C 11 1F 12 1D 8A 09 9B 17 09 95 8F 11 15 12 88 1A 24 22 1E 20 1B 88 1B 24 94 03 93 10 82 83 18 11 19 92 23 23 A3 1F 99 01 25 25 86 20 21 22 8E 8F 19 0E 92 96 90 9A 13 02 14 17 81 88 09 13 01 84 8B 08 15 12 95 92 8C 96 15 0C 94 10 14 8B 93 86 8F 08 0E 92 8D 15 12 01 01 94 90 0C 8F 11 95 10 0D 8C 91 81 8E 16 81 91 0D 82 0E 8E 00 8A 0C 0F 93 14 0F 95 92 96 08 8F 09 16 92 01 93 14 8C 81 17 0E 04 0A 93 16 8D 17 15 12 92 91 81 12 88 8B 0D 8B 82 12 0D 13 96 8B 8C 08 81 0E 10 87 11 8B 15 97 16 93 01 81 05 03 81 13 84 91 05 8C 81 81 93 94 02 16 10 14 07 1B 0E 22 8A 87 18 0C 8F 81 0E 1C 13 20 94 1E 96 89 21 1A 9A 17 19 98 14 1D 96 01 84 84 15 A1 98 1A 17 81 86 12 87 A0 95 1C 0A 21 92 1E 97 14 1F 93 95 0C 8D 82 88 90 11 0A 22 1E 1F 16 0D 19 18 1D 97 09 88 0C 97 16 08 00 90 11 12 0B 80 20 99 10 97 19 91 19 01 9A 10 1A 21 20 1B 98 07 0A 10 01 90 A0 01 22 14 1F 94 9D 10 15 81 21 18 10 0B 98 22 13 96 20 98 14 10 17 14 1F 99 1D 93 97 80 90 97 01 1B 98 16 81 0E 0C 94 1A 1F 06 06 9C 0A 21 96 01 25 1A 99 91 A0 03 12 96 19 1E 9B 1A 96 24 1B 89 A3 97 24 1E 23 98 96 1E 95 01 24 16 81 1A 01 95 1F 98 80 92 94 19 1E 82 96 80 02 1B 18 20 81 8A 0D 1D 10 01 19 82 8D 1D 84 17 81 1A 27 95 0C 1A 95 01 1E 1A 26 92 95 81 13 1E 81 0B 1F 99 90 9B 84 8B 1E 1E 81 25 81 8F 1E 9B 82 81 91 94 01 98 87 8B 04 18 15 18 98 1C 22 19 10 23 97 A0 98 9F 1E 97 8C 01 0E 91 12 8E 24 A1 94 9C 81 1A A4 9A 1E 11 9A 0F 9F 8A 0E 0D 02 20 A0 28 1A 1B 1B 8D 9B 01 22 1D 1D 95 A4 0A 81 81 26 86 0E 15 0B 9A 21 15 19 89 0A 26 93 9E 97 97 88 15 1F 1A 12 94 01 23 13 8D 1C 91 8D 19 04 01 90 9B 18 9A 94 01 19 94 1D 1A 20 81 A1 93 8F 12 21 8F 19 A2 8C 20 89 A1 1B 9C 99 22 8F 96 10 9F 0E 91 99 93 90 9B 90 94 12 19 0E 97 21 1A 23 13 82 21 94 01 08 99 1C 0D 93 8E 1C 1D 95 20 1D 94 94 99 90 80 9C 08 1E 1B 9D 15 A0 0C 1F 85 8D 19 01 1F 0F 20 1E 0F A3 0C 23 17 18 01 9F 1A 02 1E 22 14 13 1F 8B 94 26 94 11 09 14 19 23 01 17 11 13 20 1A 19 84 09 8B 25 09 11 11 01 0A 96 10 18 01 22 23 16 90 24 19 01 01 1C 0F 91 9E 99 11 8A 0E 97 04 A2 90 9C 90 85 8D 1A 8C 21 96 08 13 19 81 8C 91 0D 0F 0B 97 01 8A 9C 8A 81 1B 25 1A 1B 8C 1A 23 1E 14 0B 10 83 22 95 01 18 8F 11 81 1C 15 26 8F 18 20 05 19 83 9E 8B 81 95 1D 15 91 14 03 1F 9B 91 1F 8E 14 91 1C 01 9B 14 21 81 13 27 12 23 13 81 92 18 81 87 88 90 81 22 81 12 1C 18 12 86 1A 19 88 81 01 0A 0B 8B 20 11 8A 20 95 17 15 9B 1C 18 94 A0 04 00 16 18 1A 10 1A 24 1E 23 20 8F 20 12 80 10 92 0C 15 10 18 8B 25 81 23 20 9A 1B 81 81 13 01 13 13 1D 25 16 00 24 87 8A 1D 04 0A 99 97 92 09 17 01 21 96 97 18 91 01 27 01 07 98 81 20 A1 0E 1D 06 9A 09 95 11 26 08 98 27 A2 22 20 1A 04 8A 9B 81 1F 23 22 0E A1 92 8F 1B 21 15 88 14 01 89 19 93 15 93 8B 1D 82 9E 95 11 16 16 14 8F 01 93 93 1E 16 99 92 1C 01 98 14 0D 0C 80 24 9A 94 0B 20 81 1C 21 1B 9D 9A 0D 01 81 20 81 1C A2 01 1D 80 9E 22 01 95 25 88 04 12 81 0D 94 99 15 82 99 8C 11 8B 1D 92 96 1E 1F 1C 13 87 1B A3 A1 1A A0 20 8F A0 12 97 08 8E 26 21 97 84 A1 13 98 99 11 8B 8B 1C 01 A6 1F 15 81 06 1C 0D 16 04 29 1F 11 8F 15 11 19 24 A6 A8 1C 13 9F 21 98 8A 15 01 A7 27 89 03 09 94 0A 20 90 90 14 8E 28 1C 20 01 10 90 28 8B 01 A0 90 0B 9E 03 05 81 19 1A A7 97 22 18 22 08 1B 25 95 9E A4 97 98 9C 89 81 01 93 1B 98 97 1D 23 8B 1D A2 89 A0 9E 20 A6 20 88 9D 9E 94 0E 01 A1 89 08 8C 20 1B 88 13 25 25 1B 1B 0C 88 11 0C 09 10 01 81 A0 19 1F 97 19 18 84 19 03 1F 85 9C 93 1B 17 19 08 22 95 0E 10 1E 96 1F 12 1B 17 19 11 1B 27 20 A0 0A 1B 18 1A 15 8B 05 1D 95 95 10 11 0F 93 82 96 9C 8D 8F 24 9F 21 03 12 94 8D 92 9D 20 8A 94 20 82 9B 94 88 13 20 8F 8D 15 11 19 9B 0D 19 1E 21 21 0F 00 97 10 20 8D 1B 81 1A 11 1A 1D 81 22 90 1F 0E A2 20 11 0E 07 22 81 13 1D 1A 92 91 1B 97 20 08 13 13 19 24 95 1A 17 01 1D 09 01 98 13 96 85 1D 85 21 17 9E 19 9B 1C 95 88 8C 22 94 10 83 81 0E 81 1C 0A 9D 95 01 09 10 22 91 8B 20 1E 99 00 12 18 20 18 99 0D 1D 9A 0E 00 80 92 91 99 13 03 90 02 14 9A 0E 02 10 81 9B 96 93 1F 01 10 1C 92 19 14 84 94 1F 11 A0 11 8A 89 82 1A 1A 1A 20 91 16 19 81 13 11 8D 1D 12 95 0B 9F 17 1C 12 92 15 81 A2 1B 8B 0B 17 19 0A 01 0C 22 92 8F 22 99 94 85 94 81 07 06 0E 96 20 13 1D 12 8C 10 0F 96 1D 94 81 97 17 92 A1 9D 28 81 A0 16 9A 81 27 81 1B 11 97 1B 09 0F 1F 94 9A 19 21 1F 10 14 08 9D 98 1E 1B 1F 11 14 93 19 1E 01 0E 00 01 83 A0 A0 96 9C 97 18 07 04 85 90 04 81 02 A4 14 87 0E 13 11 18 98 18 23 19 95 99 1B 81 85 1C 20 9F 9A 1B 17 1C 17 07 1E 0D 93 19 01 9E 1A 16 19 22 12 92 1A 1B 10 05 81 89 13 12 94 8F 1C 16 81 84 19 18 13 00 0D 1A 1D 1D 91 98 9B 92 8C 82 0B 8B 94 0E 0C 13 92 19 1F 8A 17 21 0E 01 1F 0C 20 16 97 91 18 1B 0E 01 87 91 92 93 1C 81 83 15 01 1C 0D 16 8A 12 17 8A 01 8F 08 01 17 8B 88 95 11 9B 14 16 01 1C 86 0D 05 90 0D 14 8B 03 8B 01 81 02 15 92 81 10 0B 8B 16 12 00 01 99 16 0D 10 85 1C 1C 17 8B 98 19 97 96 17 13 15 81 21 00 18 19 82 0D 10 8C 12 98 14 18 91 17 10 08 19 85 01 14 90 97 0F 93 12 8F 8C 02 98 18 81 15 81 22 0B 1D 1B 8F 01 1A 1C 81 90 81 0F 8D 16 28 8F 9B 90 01 0A 26 13 1D 20 01 25 01 18 0D 91 8A 12 26 23 1C 08 1C 9C 8C 1D 23 19 89 0E 90 81 04 13 1A 96 91 1D 8C 9D 90 03 0C 13 15 1B 01 01 97 17 01 A0 18 99 11 13 89 1E 91 93 28 99 93 8A 8F 98 1C 1B 25 96 94 0D 1D 19 0C 81 1E 1B 81 86 8E 97 9B 9B 1E 29 18 14 1E 09 90 08 80 95 18 81 05 81 01 12 90 18 11 04 1B 12 01 28 12 1B 09 22 9B 96 89 10 21 10 01 08 1C 21 13 29 1D 1D 27 18 0F 14 12 84 19 1F 12 0E 20 14 1C 12 91 0C 01 0D 80 18 11 13 9A 21 19 1C 8B 20 18 12 21 99 14 04 8E 01 98 91 88 99 25 19 20 22 12 84 92 21 95 97 93 0C 01 03 22 0B 95 20 91 93 8B 11 15 19 0D 98 01 0E 1E 0B 97 24 28 1F 22 25 11 84 94 1A 97 0C 01 1E 93 0C 15 0E 21 8E 1C 1F 91 0B 11 0B 24 1A 98 1D 9A 22 96 1B 08 90 87 01 92 99 1B 1B 1F 1A 99 93 10 91 19 01 86 94 13 19 98 18 14 17 81 10 21 90 9C 87 17 8B 22 15 22 86 19 04 81 01 1B 08 14 18 0D 13 98 1E 21 00 98 1F 0A 13 18 93 01 17 96 81 98 81 8D 98 8B 01 06 17 00 1D 92 22 11 93 8A 9A 93 8B 0D 0F 91 20 8F 0C 0D 0A 1C 22 0F 8C 99 98 01 15 01 0D 17 18 20 07 12 81 98 1F 12 01 0B 96 14 16 88 1D 1C 94 00 13 97 15 88 8E 19 23 0F 8F 12 19 02 81 15 01 0F 11 0D 14 93 83 8D 15 85 8B 93 8A 01 97 93 18 13 01 0D 81 12 1B 97 81 1E 11 17 8E 81 0C 19 8C 10 12 9B 06 8C 18 81 81 88 0C 1B 22 8C 0E 0E 09 0F 1C 11 0E 09 81 13 11 0B 12 01 91 81 10 19 90 81 01 91 11 95 1D 98 81 83 15 81 1A 1A 90 00 92 00 01 8A 10 18 03 8E 05 17 91 12 18 09 8D 01 12 1D 81 16 11 94 1B 01 19 06 93 1B 06 8B 11 18 08 14 14 15 01 11 90 13 13 91 01 81 19 81 19 15 0F 8F 95 81 11 81 95 96 8B 83 94 96 01 84 0C 0F 8A 90 14 10 8A 81 17 06 95 0B 8A 81 93 93 94 05 8B 14 85 14 01 16 10 97 91 09 92 8F 07 81 01 16 0B 11 81 8C 92 92 12 8B 95 8B 88 05 05 05 90 0D 11 96 92 95 97 97 8E 91 8E 95 93 0E 15 13 97 13 15 91 02 81 0B 01 01 89 11 92 8F 90 82 93 15 92 95 0D 01 81 09 94 91 11 90 0C 16 8D 11 09 92 85 14 81 06 94 11 09 8E 95 0B 90 8E 8C 96 91 16 81 0C 8F 15 89 12 1A 0A 18 9B 1D 11 10 93 9A 01 0E A1 98 92 03 14 1F A5 18 86 0C 90 90 8A 25 20 1D 01 0F 01 10 0C 14 16 08 95 23 0D 96 89 12 1C 20 0A 01 9A 9E 1B 89 10 97 1C 9E 90 1C 95 07 81 A4 02 9D 81 95 13 9A 0A 01 8B 94 9F 12 9F 01 8F 11 06 13 16 0E 98 9A 14 14 96 1E 96 13 18 16 8E 07 9E 91 9F 01 09 81 19 92 1F 95 94 8A 8B 10 10 09 96 08 93 9C 1A 14 10 A0 1C 8D 1D 25 90 08 81 15 98 21 9C 08 01 99 12 0B 9A 18 81 18 81 92 97 8D 81 8E 8A 90 01 01 0C 95 09 8E 98 88 0A 13 81 94 93 12 8A 81 81 94 01 88 14 98 94 94 01 0E 0F 91 0E 10 11 8C 81 8A 12 81 16 17 11 18 8F 93 18 80 01 03 81 92 0B 12 96 81 87 01 81 81 8C 18 81 98 17 96 85 92 8D 93 13 04 01 18 9A 01 01 0C 01 0B 8F 95 18 14 10 0D 96 11 17 03 07 99 95 92 83 07 98 0E 1C 01 01 06 90 0C 15 98 11 0C 88 15 81 18 8F 01 17 0D 90 10 17 A3 14 10 8C 18 12 1B 98 91 0E 10 1D 93 0C 99 20 1E 98 1A 83 10 95 92 9E 19 95 90 8D 16 1C 94 A0 03 96 8C 99 1C 15 07 81 8A 1C 93 21 0B 23 13 20 10 08 99 91 8D 0B 12 0D 19 1B 20 1D 08 9C 21 99 96 0A 98 8C 14 18 25 94 14 14 02 1E 8D 0C 92 1B 81 9C 0F 9E 24 9E 0C 15 15 16 8C 23 29 8A 1E 8D 92 1A 81 14 97 A2 1F 08 22 81 23 20 1B 18 1F 98 22 8B 0D 98 1A 25 91 81 20 99 1A 18 00 99 20 02 23 1C 13 0B 8E 0B 1E 16 93 90 0E 10 0B 19 0D 19 1E 89 07 88 0D 96 03 1F 8F 95 13 9B 81 01 88 12 1A 85 08 21 1E 1A 96 20 1A 1F 8A 1C 01 0C 0A 80 0F 1E 0D 01 11 96 89 1C 1E 1C 1E 1C 14 86 14 1F 97 94 9A 00 81 09 13 0A 98 16 11 11 14 1F 0D 23 00 1E 8D 1B 09 18 07 1E 1D 13 11 22 13 88 94 1E 0D A0 0B 13 08 20 99 1C 1B 01 1B 19 9A 0B 11 90 1E 1A 8D 81 11 1A 01 19 17 22 0B 0A 8D 17 1A 11 89 19 96 94 24 12 22 90 09 18 21 23 13 16 96 25 0B 8C 23 81 9D 08 03 9E 22 81 16 01 9D 20 A2 91 81 12 A3 19 23 1D 15 14 20 20 12 22 13 21 00 07 8A 22 18 81 03 01 94 15 1D 99 1E 1D 91 8A 1B 0F 94 8E 98 18 94 92 1F 99 92 1D 03 19 81 1B 25 19 8B 87 8B 9C 21 17 18 94 20 1A 1E 24 1D 11 22 08 90 9C 94 13 02 81 1C 20 18 12 18 15 14 1D 9C 12 25 15 12 81 96 22 93 06 08 81 17 18 01 1F 0C 81 1D 8A 22 10 86 94 97 1F 91 81 19 98 80 A3 1C A3 A7 91 21 92 A1 81 1E 1F 26 0C 8B 13 98 1A 1B 1C 18 98 91 18 21 25 21 18 97 9B 83 94 23 86 8E 17 97 9A 25 10 1C 04 81 15 81 81 9B 89 07 24 11 18 11 13 09 23 14 9E 90 97 90 0D 0F 1B 98 1A 21 10 8E 12 1B 98 9E 22 23 A1 A2 A0 97 81 94 01 1A 06 81 19 01 9A 28 15 96 1D A0 10 13 0F 01 12 A1 11 9C 0A 91 1A 1A 9C 8C 85 16 1F 1F 81 14 22 15 0B 8F 10 8A 10 14 0B 08 93 88 87 19 1E 10 19 81 18 01 81 10 85 99 89 20 88 1C 92 19 0A 8F 1B 0F 06 0E 10 17 10 1B 15 81 19 1A 9C 10 0A 20 14 01 94 86 11 86 8A 93 8C 96 17 8E 06 12 89 98 1B 91 0B 09 0C 82 8D 8F 9C 1A 00 8F 1E 94 01 05 01 89 0F 89 9D 19 85 19 12 81 01 89 02 1A 21 1B 92 18 1C 81 1A 81 81 18 0A 1D 1E 21 95 0C 8F 01 0F 81 96 15 22 8F 20 11 01 81 8D 09 83 15 01 8B 17 16 01 99 1D 01 98 15 81 1B 15 96 11 01 20 93 14 9F 16 0C 14 21 01 11 81 97 14 1E 92 01 1E 01 1B 90 18 1C 96 90 18 20 20 19 12 18 10 13 21 0A 12 9A 21 13 85 1F 98 10 96 92 1E 23 19 22 21 05 01 1E 98 80 90 90 1F 0F 01 18 01 8D 0E 17 16 97 17 21 8C 01 8E 98 0C 20 17 8E 01 09 0B 0F 16 09 11 13 88 8B 9A 95 1B 0F 15 14 91 1C 94 0C 1D 0A 0D 8C 89 10 94 8C 97 10 22 94 94 1C 1B 01 16 04 18 0F 1B 0A 1B 98 01 1E 91 10 90 91 93 94 1D 0F 27 01 13 23 17 19 1A 1C 92 11 11 0C 92 0D 94 01 99 83 18 1A 92 07 03 18 0F 97 18 84 81 0A 22 9D 06 94 20 14 1F 95 13 94 01 14 14 1A 21 19 0C 12 18 18 9E 93 84 0B 15 98 16 81 1A 10 19 0C 0C 11 8D 81 1E 93 81 81 18 0C 98 01 10 18 1E 8C 1A 1C 92 0A 8D 90 95 01 21 1B 12 15 10 20 80 11 19 0F 0D 15 92 15 87 98 02 0B 23 98 02 20 17 0E 19 0B 9C 93 96 80 16 03 81 19 16 1B 99 89 22 94 81 91 1C 8A 13 0C 91 83 13 16 9A 91 01 0C 93 94 0D 19 13 96 1D 0E 90 87 8B 85 00 11 98 93 0C 81 82 1D 0A 97 18 07 9E 1C 14 90 8A 0A 85 1C 18 1D 1B 92 05 19 89 10 16 89 19 00 19 0E 12 0D A0 89 1B 12 15 8B 8D 97 10 93 08 10 90 19 1B 12 89 1E 17 93 15 12 92 0E 16 98 80 81 18 11 8C 8D 0A 8A 0C 1E 98 12 93 10 94 01 03 0B 14 11 9B 19 01 11 11 90 1A 09 99 98 1C 99 88 1D 04 81 15 0E 8F 98 1E 98 03 1B 11 94 9F 1F 81 9E 93 0A 90 1D 0D 27 85 8D 09 9B 8A 01 93 09 1A 21 0B 0E 14 81 A2 97 1F 15 15 9F 9A 11 18 18 81 9F 8F 82 90 9C 9A 99 81 0F 01 9C 01 12 13 94 99 8A A1 08 97 80 0C 08 11 81 01 21 12 93 9B 0F 81 1E 0A 98 98 1C 1A 21 80 15 91 10 22 0E 13 01 90 93 9D 20 20 19 12 18 11 01 0F 81 94 17 1C 0C 9A 92 81 18 20 8A A0 92 13 11 17 02 19 20 01 96 91 12 80 20 1E 12 88 12 1E 94 8D 89 95 97 18 12 01 9E 81 8F 17 22 91 8B 1B 10 1E 02 1E 26 11 A0 10 18 1E 17 1A 88 13 0B 1B 22 1A 1B 05 81 1B 1B 09 98 91 8D 81 20 03 98 0C 8B 1A 06 1A 0A 0E 11 0F 92 9A 20 8C 0E 20 12 19 91 1D 25 20 0E 1E 1A 0E 8A 22 16 80 9A 22 1A 12 19 02 92 13 96 A1 15 94 95 88 95 22 93 13 16 16 18 10 9A 01 12 1A 8F 07 8A 09 0A 89 17 21 18 1A 93 18 11 13 1D 01 1A 01 16 14 98 18 14 99 94 85 10 01 08 9E 01 15 81 9E 9B 86 1E 18 22 81 81 81 85 8E 1B 10 01 87 0C 19 16 1E 17 15 0A 96 8C 91 95 81 96 98 09 95 9A 0B 92 13 06 9A A0 96 9E 0D 94 1E 9F 01 81 8C 88 98 95 A3 93 1C 93 90 95 19 95 0D 1B 10 98 0E 16 9B 98 20 1F 9B 95 93 02 9B 8F 90 94 0D 0F 16 84 99 8C 11 90 1B 90 92 9D 0F 8E 9D 9E 0F 9D 12 95 1E 8E 9C 11 87 0C 97 1A 98 0E 14 9B 9A 1B 14 1A 08 94 81 1F 13 95 22 21 1D 16 14 12 13 17 11 86 81 1A 8B A0 22 12 90 01 14 00 1D 1A 1F 18 8C A1 1C 18 14 18 96 89 1A 06 17 16 0E 13 0E 14 8B 1F 93 10 01 81 0B 25 1E 1C 12 0B 1B 9A 20 91 95 81 21 95 1E 96 8A 08 17 0D 1E 09 1E 0A 96 11 22 0C 1C 9C 0B 1D 14 15 06 18 85 12 10 01 87 96 95 88 11 1F 21 16 19 01 81 12 01 1D 9D 12 01 1A 20 8A 06 86 01 81 0F 8B 1F 88 20 81 20 18 01 10 81 13 14 03 8A 1C 15 11 21 1E 10 10 92 81 14 9E 87 28 0C A0 95 8D 09 29 89 1E 1C 9A 27 10 20 1B 08 9F 19 23 20 21 1F 88 97 10 17 22 20 92 19 96 10 26 83 81 96 0F 21 16 A0 94 81 08 1C 11 18 8F 92 96 27 0A A3 1C 96 87 1B 01 1F 08 20 27 18 11 14 1A 01 04 21 23 9C 91 0C 18 23 18 06 22 81 01 1E 01 A0 0E 0F 20 27 8C 94 1E 81 0A 13 99 94 0C 17 0C 94 19 0F 94 18 1C 1D 21 1D 96 26 8A 0F 03 20 9B 0A 1D 07 11 9E 82 10 14 1E 14 20 1A 15 14 9F 22 10 90 07 81 0C 01 8F 18 07 86 10 0A 18 1F 8C 83 21 23 0C 85 1F 1F 01 93 1B 1A 18 94 9B 15 1A 90 01 92 88 03 81 1B 8B 0A 19 0A 11 9B 18 98 95 87 19 01 98 18 94 0C 1B 92 18 84 8B 1C 18 01 99 97 13 01 89 92 15 1B 10 21 21 9B 09 19 21 89 11 0C 18 1B 20 18 25 18 98 1E 81 18 0F 1E 95 25 1A 11 8C 0F 14 12 9A 1C 14 96 12 0D 1D 90 0D 19 94 1E 08 01 8C 14 17 96 9C 98 87 01 8D 81 91 95 00 8E 96 15 01 99 8D 02 90 98 9C 0D 99 01 90 01 92 84 8A 9A 13 1B 0D 98 86 01 9B 98 91 12 18 86 88 01 10 0D 13 8C 11 15 8C 10 9A 8F 1A 10 15 13 10 06 0D 03 01 94 1C 90 95 80 1E 8F 8F 91 91 10 0B 09 0C 94 8D 13 12 81 9A 96 90 96 12 01 97 95 11 01 0F 8C 91 81 8C 89 81 85 0F 8F 98 81 0A 9B 12 82 89 1B 9F 81 0E 9E 0A 14 A1 96 97 18 19 1D 90 1C 13 19 95 14 18 01 14 22 14 8D 1B 1D 9B 18 98 12 81 18 12 22 26 1E 8E 23 14 0F 16 21 0D 20 01 20 1F 1D 1A 21 1A 19 9D 8C 19 1D 82 13 81 81 14 1E 13 21 85 81 1E 14 12 92 1E 01 1E 01 10 14 03 8F 15 8B 13 84 97 15 13 89 18 13 0A 81 8C 01 18 1B 21 1F 10 1C 1A 81 13 15 15 01 93 18 24 96 26 89 23 23 24 0A 18 1F 01 01 96 15 82 13 81 8F 0D 10 1E 21 14 92 8E 1F 01 1B 92 08 1F 10 14 96 0E 82 92 93 89 81 0E 09 01 81 11 96 15 01 14 88 81 83 13 14 14 0A 15 09 04 91 14 93 14 8B 90 87 0F 94 8E 8C 09 15 14 81 86 07 13 16 0F 95 93 93 91 96 84 01 01 12 09 91 14 92 81 8A 8E 93 86 92 96 01 8C 88 15 90 93 89 13 08 90 90 8D 8A 94 11 94 8F 87 81 90 01 11 14 81 92 90 15 81 15 02 0A 0C 8D 02 0D 0E 0D 88 12 95 8A 12 8A 15 13 81 15 16 13 81 01 13 15 8C 11 10 81 12 96 14 13 95 A1 16 9C 81 11 90 24 9A 91 1E 1B 1E 0B 23 97 1B 1D 1A 1E 19 24 8A 8A 02 11 08 10 0F 13 13 96 81 92 88 9D 16 16 9B 81 12 20 09 90 1D 11 0B 14 92 91 03 96 06 9A 02 0B 96 1A 19 20 15 93 9F 8A 07 8E 90 98 09 10 1A 16 90 93 1A 81 99 98 83 1A 85 94 9A 0A 21 19 98 96 1C 21 08 20 16 0A 00 15 1B 0C 8B 92 24 1C 17 19 1C 1A 14 19 01 1E 82 14 85 26 15 8D 08 98 1E 01 17 8D 9B 9C 81 14 9A 9B 90 18 1E 92 96 10 8E 1C 81 8B 97 11 0A 0E 0E 86 0C 91 0B 99 96 99 81 9A 0D 8D 0F 10 8A 17 9A 07 91 04 01 8C 80 8E 9A 84 92 20 01 98 97 8E 8D 90 9C 86 9C 99 95 92 95 14 9E 0C 90 91 02 10 11 9B 95 94 01 81 92 10 95 85 08 16 81 82 93 01 10 90 A0 08 95 8F 93 9A 11 95 17 98 99 18 99 96 11 09 10 10 86 94 1B 99 01 90 97 18 89 01 90 01 99 8A 92 1B 1C 07 8E 0B 12 91 94 9F 9A 8F 14 09 03 1E 0B 08 82 01 00 21 90 1B 1B 0A 1E 20 87 8E A0 01 1B 9C 9F 25 13 9A 10 91 81 23 01 8A 04 11 22 11 01 1F 95 9A 89 17 0E 20 88 87 91 98 20 0D 12 08 21 12 81 1F 81 15 87 99 1D 90 9A 03 8B 05 25 1C 23 00 09 99 0B 96 88 88 99 12 1D 01 1C 09 20 20 1B 00 18 18 11 8D 23 21 91 00 16 25 24 17 93 15 1A 00 9A 8A 98 8E 85 0F 22 9A 98 1A 8D 20 0A 01 12 01 18 8B 91 22 8A 01 15 1A 1F 1B 92 12 26 90 18 20 11 16 09 1B 95 11 95 8A 9D 1A 1A 02 14 18 18 16 A0 19 10 90 11 18 1B 18 01 23 98 97 1C 8F 12 19 01 0D 09 19 02 11 22 20 8D 12 1F 1D 20 1B 08 11 19 02 0D 18 01 0D 9A 96 81 08 9B 0A 13 96 19 81 8E 10 0B 87 9F 23 0B 0E 22 8A 1C 86 01 22 17 10 93 05 8F 19 18 8A 8D 00 07 1E 19 8E 13 1B 19 13 17 14 81 97 8F 21 21 22 06 1F 17 0D 0D 06 8D 19 1E 96 19 10 0D 96 85 00 18 21 19 09 20 01 01 16 83 1E 0F 17 97 18 15 91 99 14 17 0D 01 81 1F 1D 9F 19 04 88 08 0F 84 26 10 1D 0D 94 08 1A 21 1C 0F 97 06 12 1D 20 14 13 1A 8F 20 1B 08 94 1C 94 80 20 8C 13 8F 10 1B 83 81 96 86 88 17 1C 13 09 0F 08 1B 94 8F 01 99 93 93 96 1D 14 93 1E 1A 03 17 19 89 01 18 1D 95 9A 1B 0F 11 17 81 13 98 97 96 94 9E 0D 09 91 10 0E 0C 81 81 88 87 9C 82 94 04 89 1C 18 88 97 18 1C 14 1D 12 01 1B 24 20 10 1A 1B 10 28 0C 95 A0 81 8A 98 0E 81 1B 01 10 21 98 26 0C 81 0D 20 A1 27 16 16 14 9D 19 9E 81 8C 91 02 01 21 09 11 22 21 85 0C 28 10 27 18 21 8E 20 99 82 0B 94 88 27 1F 85 15 97 91 89 27 96 14 01 94 02 0B 8F 27 01 81 28 0E 26 0C 9B 20 24 81 8C 10 A3 1C 06 8A 1D 03 1F 13 23 21 0E 08 91 81 97 81 9B A0 9F 20 23 20 81 27 20 94 1B A1 95 22 18 81 93 27 27 0C 0A 27 23 19 0F 10 1F 02 88 97 22 95 92 91 95 25 99 92 08 0E 1E 91 1E 81 22 1C 81 18 1A 15 88 09 0D 19 8E 19 88 0B 10 A2 98 0D 91 A1 13 16 91 90 01 20 16 11 19 1C 0C 19 97 8F 10 94 95 92 8F 07 11 21 01 10 1C 90 9C 1A 18 89 0C 97 01 88 1D 17 1A 0B 15 0A 88 92 0C 09 14 85 11 81 23 21 99 11 18 1F 1B 22 1F 1A 88 13 15 91 88 95 21 18 18 1A 19 23 01 87 0D 1C 1D 1B 0D 21 17 09 9B 92 22 0E 1F 92 18 94 19 15 93 99 0E 99 9D 8F 0F 0F 88 0D 1C 01 19 24 1B 92 11 9B 1F 14 15 25 02 0F 01 0C 19 1A 96 01 10 96 20 08 93 81 11 0D 1A 1A 23 88 85 85 06 14 21 1F 8F 15 1C 0B 98 17 11 1B 10 12 22 18 1D 81 1A 10 12 23 A1 94 13 91 1B 14 91 20 1D 97 11 91 8A 16 99 18 9C 88 9A 15 92 22 83 03 9F 18 19 9F 1D 20 01 13 9C 8C 19 81 20 23 1A 21 18 02 8C 1D 1D 11 13 1B 07 97 97 98 09 91 22 13 88 1F 90 19 19 10 8F 98 A1 81 19 99 94 13 8B 1F 89 86 26 20 24 08 1A 98 25 0F 1A 1E 0B 1C 91 99 14 89 81 0C 8C 9B 19 9B 11 01 93 A0 11 15 16 1A 12 11 16 00 18 12 81 9B 99 88 97 1B 0A 90 13 13 0F 26 19 1C 21 97 13 1B 0C 87 0B 98 24 81 19 0E 8F 8C 88 13 9A 03 12 22 9F 89 0C 87 21 1C 03 10 90 21 97 22 01 17 92 01 0D 10 A2 14 23 26 25 19 85 85 81 90 1C 1D 9F 0D 12 1E 1A 16 88 9E 18 8B 08 94 92 8F 13 01 04 91 98 12 21 1C 98 88 01 15 9A 0D 29 1F 1E 8C 0B 88 25 01 1A 19 10 17 90 9D 13 8D 91 91 8F 0B 18 98 19 24 01 9D 95 0A 81 16 86 1D 27 90 21 1D 13 21 14 04 20 0E 8F 12 03 02 1D 23 20 1A 03 8B 15 1F 1A 12 8F 89 23 07 1F 1B 8F 8D 16 96 22 95 20 13 19 89 22 A0 23 16 98 1C 1E 14 1C 20 21 1F 0A 89 17 10 A1 87 17 13 22 8A 19 1F 8D 18 17 22 10 17 98 26 87 14 1A 81 17 8C 90 20 25 9B 86 0F 12 9A 1B 06 16 A0 97 A0 92 14 8C 13 12 98 80 10 18 81 94 1E 1E 9F 07 15 17 88 1B A0 84 9A 94 21 9A 01 94 06 05 91 19 9C 97 9C 8C 08 20 91 8B 9C 99 0A 9C 01 19 91 81 81 8D 0A 95 21 1A 21 19 98 10 8A 0E 08 81 97 90 10 17 9A 08 8C 96 97 9B 01 09 9C 16 97 11 9D 20 9F 9C 9A 23 1E 0F 81 94 12 98 A4 99 93 99 92 25 0F 1C 95 9A 99 10 9F 18 8E 15 02 83 0E 11 10 1E A0 99 0A 11 A1 10 9E 16 90 9D 9D A2 1F 10 1D 92 19 0E 88 1B 12 28 29 84 81 97 81 1B A2 22 11 01 94 81 86 17 20 91 9C 20 A1 25 19 18 1B 93 A0 07 22 1E 21 91 9E 1A 97 17 20 81 11 18 15 9F 24 07 10 94 95 22 11 9B A3 20 0D 1A 20 18 01 98 91 2A 04 98 82 85 01 81 10 14 0F 92 21 A1 09 1F 1B 1C 20 19 21 A2 A0 96 81 07 12 92 13 9A 97 1D 94 90 23 19 1A 22 0F 11 07 A1 1E 81 93 03 01 01 01 81 0A 88 12 95 17 19 20 21 12 20 1A 01 13 1B 16 93 17 89 1A 9A 07 83 1C 15 92 1E 21 1A 92 9B 1F 92 81 0F 1A 92 23 0B 21 0D 85 1F 89 1F 11 8B 1F 81 24 25 17 15 1B 9C 80 21 17 17 9A 8D 81 15 11 81 8A 88 97 18 97 98 91 88 92 1E 0F 1D 92 91 91 08 0E 99 21 92 94 1D 01 13 93 06 1D 20 93 9C 19 81 23 09 0F 01 81 18 24 21 1B 13 20 22 0B 23 10 01 1A 10 24 21 23 96 22 84 84 08 02 08 1B 17 81 96 1A 13 13 8F 1A 17 1C 8E 86 1D 01 00 26 81 28 85 9B 88 83 19 14 10 19 8B 16 99 17 96 8F 1A 17 01 08 91 14 1E 1A 83 99 1B 00 0E 20 26 26 11 01 91 1A 22 24 97 01 22 8B 9F 1D 96 88 1F 09 0C 25 98 01 0A 8A 16 22 0B 81 89 96 28 18 1B 96 81 08 23 00 90 9C 99 01 01 04 1A 81 18 23 94 90 21 1D 1E 9A 21 23 01 A1 93 11 8E 8A 92 89 8F 8F 81 01 9A 22 23 97 23 91 12 97 01 81 9C 99 01 09 88 01 21 91 A1 0D 8C 1E 25 20 13 01 2B 81 02 1F 17 9C 8E 90 0C 23 82 01 2A 24 1E 13 0B 9A 21 12 0C 95 99 20 12 9F 15 1C 80 81 14 81 1E 01 82 19 92 9F 19 19 0D 9A 96 92 1F 8E 1E 1A 1C 1F 11 10 0D 1D 81 90 8B 81 89 23 18 18 21 01 18 0B 22 15 0D 02 15 8D 05 88 85 8A 19 01 8D 8A 80 1C 19 12 20 9D 20 1B 1B 93 1A 20 07 22 14 1A 96 18 19 13 02 90 20 1C 1E 0A 1E 20 98 17 13 21 05 19 0C 24 11 81 14 9D 1D 10 90 01 19 92 87 95 09 90 12 1A 9A 19 89 18 88 9C 05 0C 95 9B 99 86 93 81 A3 13 91 13 91 9D 90 1C 99 0F 90 93 07 01 8B 0B 98 0C 12 13 91 10 8F 8B 81 93 9A 92 96 A0 0A 85 81 93 18 0F 01 1B 08 11 9D 98 99 90 8A 96 8B A0 9B 86 11 85 A2 81 9D 1D 82 81 15 85 01 95 90 94 1C 92 96 09 A1 83 81 12 8D 01 80 84 0A 02 81 81 89 81 20 14 81 9C 99 90 01 0B 90 1C 92 9F 80 81 92 84 22 11 91 1A 0A 99 0E 9A 81 83 99 94 13 1A 16 16 1D 9C 92 81 05 1E 86 83 21 11 20 14 1C 9B 18 8B 0E 1C 11 15 0F 8F 17 17 14 01 03 94 19 81 90 1A 81 A1 1A 0C 19 8E 89 1B 1A 02 28 13 81 15 11 14 18 0D 93 8F 95 93 13 25 1B 21 19 88 97 1B 15 89 85 10 20 15 0F 1A 02 0A 1C 95 01 01 16 05 1D 92 81 90 15 1B 18 08 1C 23 22 1D 0F 21 15 0E 16 05 9A 01 23 1E 1B 20 1C 21 94 04 22 01 1B 12 02 28 1E 81 17 9E 10 81 10 18 1C 95 10 80 82 10 10 20 8A 18 13 94 13 85 98 98 0B 92 1B 97 1F 1C 9D 1E 93 0A 91 19 8B 20 11 99 8C 22 92 1A 9F 1A 1A 80 8F 1E 1E 8A 90 0F 1F 18 A0 09 9E 19 14 1C 90 96 11 99 89 18 80 01 99 18 21 20 01 15 24 81 27 8D 15 86 0D 94 15 12 13 92 09 88 11 09 0A 0C 19 81 0F 19 1B 0B 8D 19 21 15 08 1D 21 0B 0B 02 22 90 1B 93 19 1A 17 1C 0D 20 01 1A 0D A2 18 19 10 8A 18 10 1B 01 80 12 83 9B 1E 8B 8F 92 97 0F 00 0B 0D 1E 81 81 8C 13 89 95 18 22 19 14 1B 13 1A 24 96 93 10 08 94 0C 06 11 03 24 11 8A 25 8C 01 93 00 1E 93 1A 0B 11 1F 0D 10 13 10 1E 97 09 12 09 92 96 01 00 91 93 21 21 16 1B 1D 90 18 16 0F 81 81 03 15 92 97 20 0B 04 81 01 11 11 9B 90 0C 0C 96 15 1C 23 88 9B 18 20 02 18 14 0E 0B 88 14 0C 06 0B 19 17 21 1A 1A 23 03 11 20 89 1E 20 8F 1C 10 83 1D 01 19 93 8F 18 86 92 01 09 19 94 A1 22 81 14 09 9A 8C 81 21 13 21 28 92 0C 9B 0C 1E 86 1E 02 12 17 04 91 20 18 90 A1 19 9E 23 1B 1E 19 10 A0 19 01 23 16 92 97 16 88 23 27 93 A2 01 83 9B 29 01 01 87 0B 20 20 95 92 22 89 1C 18 19 11 97 11 25 93 9C 9F 19 81 90 90 81 14 8D 1F 14 8C 25 1C 20 1D 22 0D A0 14 90 89 A0 91 14 9A 9F 01 05 96 8D 25 1B 92 22 87 93 81 9E 1D 98 9F 0B 0E A0 12 20 86 88 08 96 04 15 1C 1E 01 21 22 1D 15 97 10 94 18 81 94 98 94 9A 9A 11 10 13 24 8C 23 10 1F 91 19 97 27 16 1B 81 23 80 19 07 13 8A 9A 08 27 21 01 0E 08 24 23 81 0A 18 03 20 20 02 93 19 90 96 1D 95 8E 8B 91 81 92 13 92 1B 87 20 8C 8B 0C 9C 10 91 15 92 8B 19 8F 11 93 81 99 13 11 80 1B 19 19 12 82 14 14 86 11 18 15 86 15 24 92 12 10 1C 08 8D 0F 01 22 14 81 13 99 20 17 92 98 81 93 1A 18 81 81 9D 14 8B 0A 17 98 8B 12 93 14 0D 20 8F 10 13 19 19 81 82 20 94 94 88 81 83 97 15 04 06 96 89 19 18 10 89 01 1C 9D 23 1D 18 1E 14 98 07 1E 1C 20 8A 8B 99 95 09 21 18 9D 0E 14 98 1C 81 18 81 01 15 81 02 96 1C 0A 1C 03 08 08 0E 11 19 01 9A 92 9C 81 1C 8A 09 10 1C 0E 01 8C 90 0E 1F 1B 14 1B 8C 98 93 11 1F 09 96 81 0C 81 13 00 81 22 17 01 15 04 12 11 12 0A 8E 8E 10 87 8C 90 90 10 11 04 1A 13 0A 20 89 96 1D 1C 0A 1B 10 1B 01 1D 91 03 92 81 02 20 1F 0D 92 1B 8C 86 A2 24 9A 96 01 20 09 25 81 16 91 92 1C 90 92 14 81 01 19 21 14 12 21 1B 99 06 1C 18 22 1E 88 0B 04 12 15 01 96 01 19 9A 97 0D 90 81 1D 12 8F 01 01 97 19 07 92 26 11 8F 1C 81 1F 14 01 24 09 0A 01 81 9E 1E 09 0A 86 08 19 17 19 20 95 23 1D 0F 21 10 94 8F 81 21 22 18 80 19 94 1B 02 92 98 20 1A 01 1A 20 20 91 09 0F 81 1F 90 94 1B 1E 1C 99 22 9B 01 14 0F 1E 95 93 01 14 22 09 21 90 93 22 81 01 91 91 8D 20 18 80 13 90 99 85 87 8E 8A 96 0B 92 01 91 90 96 21 21 12 01 17 08 21 20 81 0B 1F 92 15 91 01 82 8F 24 1E 22 20 09 19 01 1E 90 90 10 A0 81 09 10 15 10 1F 92 01 14 18 81 18 83 99 9F 1C 1B 96 94 27 26 22 11 21 19 90 01 90 8E 98 89 20 92 0C 91 01 19 91 1E 20 9B 1D 05 95 21 19 8F 17 81 15 96 01 12 01 91 8B 84 A3 06 01 05 0A 16 85 10 84 8C 15 13 8D 01 96 91 0C 94 8A 94 9B 9A 18 01 90 0C 92 14 83 94 8E 01 01 8B 17 01 93 85 8C 08 0D 19 92 01 17 13 13 91 81 04 1A 11 09 98 81 81 15 07 0D 0E 1D 19 90 01 1A 15 14 04 81 0F 19 10 17 06 8E 97 9A 8F 01 0A 12 99 91 8E 10 93 16 10 80 01 1E 1A 1C 0B 0E 0A 0D 05 11 8E 85 13 83 93 1D 91 09 19 0A 11 07 8D 8C 86 93 97 19 8E 8A 20 88 80 13 95 92 0C 9E 01 88 17 8D 19 96 18 10 1A 01 84 11 93 28 24 1B 8C 0C 94 21 11 18 81 1C 0E 00 8E 20 8D 84 81 18 9A 25 22 22 20 89 8E 96 18 1C 20 12 9A 01 96 23 20 8F 9C 20 8F 9A 28 12 1D 96 0C 23 1C 98 96 01 01 1D 1C 8C 08 8C 8D 29 81 80 03 01 93 0B 92 0E 91 11 1B A2 01 1F 18 21 15 23 21 9B 93 A1 86 01 93 0E 14 09 96 1A 81 14 2A 21 06 1F 81 90 97 9A 23 0C 14 0E 06 07 81 1C 1A 1B 03 8A 0E 1C 20 16 98 1E 04 89 81 0B 01 8B 1E 04 05 18 07 8B 0A 01 12 03 19 1A 92 98 21 16 81 01 1A 98 21 09 18 87 0E 1C 8C 8E 8A 03 1A 16 21 1F 07 20 1E A0 12 16 16 18 94 91 12 11 98 01 16 0E 91 10 96 A0 8E 07 8A 97 9C 13 92 15 99 0B 15 8D 87 8F 94 05 81 12 11 17 20 13 88 95 91 9A 1B 17 83 99 14 03 1B 81 81 81 8C 18 8A 81 90 A1 9B 93 83 1A 14 95 0D 18 97 0F 00 11 11 12 91 81 99 14 17 93 16 98 1D 0D 90 19 20 21 17 81 0C 8C 92 8A 10 9E 12 91 95 1B 0F 26 08 91 26 13 99 12 80 8E 24 1A 0F 8E 18 92 1E 09 9C 88 01 91 17 10 14 92 83 23 86 81 97 8B 9B 0D 23 20 11 23 80 09 88 0C 0C 81 1C 28 20 1E 12 20 1B 1C 86 11 0E 9C 93 18 16 81 93 20 92 18 94 8A 99 1D 8C 96 97 21 0B 91 1F 29 21 17 10 0A 1D 08 90 1F 94 12 09 1E 00 14 96 0B 17 95 07 1F A0 21 1D 08 1D 0B 80 19 1F 1A 94 98 21 1D 98 84 14 95 11 91 0E 8F 10 80 13 89 07 8D 95 12 81 84 83 05 8A 13 0A 16 82 13 02 92 81 11 95 0F 01 95 17 94 06 93 89 85 13 10 02 8A 01 12 0D 10 8E 01 16 91 85 14 95 8B 92 93 11 95 92 05 8E 92 10 92 95 81 94 8B 01 16 8D 91 10 96 94 01 96 81 03 80 0D 91 81 13 09 0F 0C 92 01 93 0F 12 81 10 16 01 16 01 81 01 16 80 00 0E 12 93 93 87 06 87 0E 95 0C 80 0C 81 10 81 13 8F 03 03 95 11 0F 91 10 81 81 85 92 81 05 1C 8F 0E 99 98 05 9B 98 1B 94 18 94 21 9D 1C 23 81 9B 19 20 82 9B 22 9A 87 9C 81 22 8F A0 8D 00 01 9E 81 04 90 96 0F 9E 20 06 1C A0 01 21 20 98 83 1C 81 01 0C 91 8E 26 23 25 15 81 1F 25 81 98 94 81 20 06 1C 01 81 03 1F 93 1B 88 1A 81 18 0F 21 97 1E 0A 98 15 22 1B 13 93 19 21 94 8A 83 95 9C 8C 27 06 21 98 96 91 15 0D 23 19 9A 21 8B 26 11 98 03 91 18 97 16 9A 1A 96 8A 97 89 14 1E 82 1D 86 99 82 01 1A 1B 92 20 21 0F 8F 97 94 1D 88 18 10 97 94 15 96 1C 1C 94 9F 1B 10 25 92 1D 20 92 9C 81 17 24 21 99 83 12 12 16 20 11 0A 13 90 88 21 13 01 15 81 21 20 84 1B 0F 8D 19 1D 1A 0E 88 15 24 11 0D 14 80 90 0A 8B 00 14 88 17 19 81 1A 11 81 91 1D 14 8E 19 1C 14 13 05 0F 1C 93 81 99 0E 98 13 1B 97 13 85 0C 1D 0C 16 97 8C 0D 1D 12 84 20 1C 10 88 8E 1F 21 1A 14 12 1C 19 17 89 00 1B 01 1F 89 1C 1B 0A 22 1B 03 95 9A 09 19 9C 96 1B 0D A2 95 90 05 23 09 8C 20 A2 25 81 1D 0E 91 A4 01 1C 1E 17 16 98 9E 82 16 19 18 8E 18 09 99 22 0C 15 86 12 1A 19 99 9F 18 87 18 13 0A 81 92 11 20 97 96 10 8A 13 20 05 17 05 01 24 1C 8F 90 13 86 21 1D 16 9C 99 81 19 19 1A 09 17 01 06 18 8F 96 13 0D 8A 21 16 96 08 9A 19 81 9C 81 04 0C 13 9A 1A 18 01 98 21 1C 20 81 94 22 91 94 97 92 9B 08 0E 01 20 17 8F 23 18 1D 14 9B 01 1E 9A 04 20 81 A0 18 90 9B 22 03 1C 1E 02 01 88 11 0F 12 A0 81 20 10 04 10 1D 0E 13 1F 12 19 11 17 94 80 18 89 93 0B 95 8F 1D 92 11 1E 11 19 8B 14 12 93 10 11 0D 96 1A 8C 14 20 88 1C 86 20 23 1D 81 0D 10 01 9A 0B 1C 91 02 81 24 1F 12 01 19 17 01 96 0D 93 9C 81 81 1F 93 14 21 8F 1A 12 88 95 1C 1B 90 88 1A 91 01 19 1C 18 10 15 0B 26 11 98 84 1A 1D 94 1E 05 21 11 92 20 1F 15 89 8B 85 20 0C 88 26 9A 9C 8D 0A 95 23 01 17 0A 9D 26 01 01 1E 90 93 12 29 21 1E 1F 1B 91 95 20 27 23 8A 07 16 19 15 08 0C 92 92 01 01 01 82 14 03 20 9A 20 92 09 0D 14 13 93 19 1B 93 0F 01 14 15 1B 28 19 03 15 1E 81 1D 04 19 A1 80 07 21 20 98 83 1D 1E 92 81 8F 9B 1B 21 20 1E 19 0C 18 81 9E 18 9B 87 12 09 0B 8F 9A 1E 0B 8A 01 11 20 1C 0F 22 1A 81 9D 18 20 09 01 0A 1C 0F 92 18 21 18 07 92 8D 1F A1 9D 17 14 9A 81 82 9C 1A 0B 1E 1A 8C 20 04 1C 18 0C 98 16 1E 1E 19 11 8C 96 0C 00 1A 16 99 99 00 80 1F 08 9A 8E 81 0D 1E 9B 99 83 95 19 1A 18 8A 12 92 18 92 97 19 09 8A 1F 08 1A 81 89 27 01 0B 08 06 18 1D 1C 1B 91 01 88 1E 0D 09 11 20 01 12 1B 95 80 9C 88 18 23 09 0D 83 9D 1E 92 90 15 20 1F 81 98 1F 0D 12 15 01 9A 04 13 13 1B A1 9F 81 03 1F 14 92 85 10 18 07 26 11 91 91 9A 08 88 91 83 0E 1C 09 94 A1 0A 0C 91 81 18 08 00 81 27 24 94 A1 0E 19 1D 26 A0 A2 0F 01 9B 1D 11 0D 21 16 94 28 81 91 0B 95 1E 23 11 01 94 02 23 1B 20 81 11 11 29 11 0E 9B 89 10 1A 93 17 89 20 22 9D 09 25 17 20 86 15 24 91 9C A0 98 12 0A 88 13 95 01 83 92 07 22 16 01 11 A0 91 99 9F 11 9F 1A 0E 93 84 97 93 01 9A 02 08 99 1D 18 18 81 21 16 10 0D 01 1D 81 1B 97 88 8F 81 91 20 1B 85 0F 1A 09 90 0C 25 0A 9A 81 1D 20 24 08 14 11 9A 1B 20 12 18 91 16 09 23 1F 1D 21 20 A3 14 21 1D 1F 12 0F 09 1D 1B 96 16 01 0F 18 93 99 99 19 96 11 9B 81 8D 0C 0B 19 09 98 1F 0D 08 09 07 8C 8B 01 20 08 11 92 14 19 14 0B 81 01 01 0F 26 1A 13 94 16 23 95 11 94 10 1A 19 15 21 19 87 21 11 86 21 91 0B 9A 18 12 13 83 1F 8F 9A 16 15 21 1B 8B 1B 17 22 9B 8D 96 94 05 94 98 9D 13 81 97 81 95 81 13 01 19 9A 04 8E 10 98 1C 05 17 0A 86 94 01 9B 9C 92 17 97 01 8F 81 86 88 20 14 92 0A 14 99 1A 1F 19 91 15 8C 11 01 11 01 10 8D 0A 10 8D 14 92 1A 1E 93 8C 92 99 90 01 21 18 93 1E 81 1C 95 13 0F 1D 13 8F 93 0D 85 88 84 12 94 22 14 20 1A 90 92 17 0E 81 11 89 8C A0 96 94 87 93 18 16 96 0D 18 97 1A 16 8E 96 81 12 10 1B 18 18 93 9A 12 91 10 21 1C 03 18 93 01 13 10 09 97 9B 1A 14 8B 92 05 15 94 1A 21 86 92 13 20 06 21 0F 20 1B A0 23 12 0A 20 15 91 81 15 20 1D 19 88 98 81 1E 16 21 1F 19 89 20 1F 08 18 80 93 19 11 98 9B 8D 13 0D 1B 10 8F 81 12 09 13 A0 17 81 8D 0E 0C 17 98 01 23 1A 81 98 21 98 18 0D 1C 87 01 17 1B 1D 14 81 18 11 0A 1B 80 95 1D 82 1D 21 81 92 13 12 91 1B 92 99 19 12 01 0B 11 8A 96 01 12 21 1D 91 8C 18 90 88 09 0D 16 10 00 8E 18 92 05 13 82 03 96 1A 99 1B 20 0C 1A 09 20 91 9D 1E 8F 8B 88 87 0E 15 10 1A 1F 8C 1C 09 8E 1A 8A 95 0F 1D 13 1D 0B 17 14 0C 95 92 11 08 18 0F 0B 98 1C 1A 17 00 01 23 20 8A 94 81 98 1E 11 06 01 95 81 81 02 85 10 1F 8B 96 94 13 97 19 93 13 83 17 07 14 1A 82 94 97 01 81 91 9A 81 21 20 1E 0D 19 15 12 09 81 01 86 16 06 19 98 14 02 81 89 91 81 01 9A 08 13 8B 19 83 13 04 15 19 94 20 91 20 1A 02 1E 20 81 03 96 01 1A 0E 17 18 94 0D 8B 9A 1D 25 0B 1A 19 8A 25 95 19 1E 0B 96 14 19 20 01 1B 1B 1C 8B 18 20 1A 05 01 96 0F 1C 81 92 0C 92 1F 19 94 82 1B 01 94 23 01 12 10 98 23 01 1A 1A 8E 90 01 93 84 11 1A 1B 1A 01 1C 80 0C 1A 0F 19 97 1B 0E 18 14 18 8B 01 1A 94 90 0E 8C 00 09 11 0C 22 14 1E 19 1A 18 99 0F 1A 12 8C 03 88 1E 8A 99 22 20 19 19 81 11 19 19 0B 17 88 10 10 89 95 92 01 22 24 0B 01 22 01 14 20 1C 20 91 16 11 85 19 21 0A 19 1A 96 1C 16 1D 1B 13 9E 09 09 27 98 16 8C 1C 00 1B 20 17 81 89 10 18 1D 90 9C 03 97 88 22 01 0B 1E 8D 17 81 12 14 11 9B 23 81 81 01 99 8D 81 00 98 97 1A 20 1F 0E 17 1F 10 19 83 01 16 21 12 1F 1B 14 90 93 16 13 01 0C 1E 1B 1C 91 18 0A 8E 91 0D 9C 18 99 00 18 1C 0D 05 1F 18 81 81 01 14 8C 81 83 8F 82 01 0E 1C 01 16 81 01 84 01 81 15 0B 1C 07 14 19 1B 9C 20 96 8B 88 96 11 1C 1A 88 17 09 92 86 1C 12 1E 81 8B 03 18 1C 0F 12 11 19 91 1E 1B 0B 0E 89 92 17 12 0B 81 83 07 20 15 20 97 05 12 1E 13 1B 8A 10 82 08 81 1A 15 1A 0F 14 01 81 8A 81 0C 19 8A 18 95 1B 19 14 11 18 1D 17 17 92 08 16 8C 01 10 1A 01 0D 16 13 16 20 19 95 1E 1A 95 1B 90 8B 19 0E 93 03 13 92 85 1B 17 99 89 13 80 1F 01 94 08 0C 12 0F 10 14 0B 10 10 0B 94 11 0E 81 01 81 0D 12 83 98 14 81 92 08 95 10 18 12 01 92 90 17 13 92 82 1A 88 01 0A 01 89 1A 14 8B 14 0B 8D 19 08 00 07 94 9C 0F 94 81 01 1A 1C 9E 80 1B 83 18 11 95 96 15 01 12 04 97 05 15 95 06 10 1D 83 97 92 12 08 18 81 81 1B 8C 1D 19 81 10 17 90 9A 0B 03 0C 03 0A 11 1B 91 1A 0C 83 11 1C 20 A0 17 01 06 91 90 11 01 10 01 1B 1A 97 95 10 92 11 81 8F 16 8D 8E 80 81 14 81 14 09 97 81 05 96 0F 07 15 0F 12 01 8A 88 84 95 05 15 81 0A 95 81 91 08 11 11 81 10 95 12 14 10 81 0D 10 0F 0F 96 8A 16 16 81 93 92 91 07 95 95 0B 91 01 13 04 13 17 81 95 91 11 88 01 10 94 93 10 12 12 8B 93 16 96 0D 8A 15 94 94 8A 89 01 03 95 91 93 10 01 82 95 90 89 08 14 90 81 8D 12 10 87 80 81 80 01 16 11 11 14 16 90 91 0A 12 01 84 8E 93 10 14 96 01 8B 15 99 1C 94 24 02 1E 01 8A 1C 0B 93 90 A0 81 19 1D 99 11 01 19 A0 91 19 23 0E 11 10 18 81 1E 12 21 92 81 83 20 11 17 8D 22 1B 14 9D 81 90 90 1D 89 20 91 11 8C 