8C A7 21 9A 14 03 A7 A1 A6 9E 25 9E A7 10 13 94 92 A5 A8 A1 24 9F 19 A0 1C 21 9A A1 9F 21 21 9A 18 18 06 9A 21 A6 A4 20 9C 92 A6 20 A1 22 A0 26 A0 12 A7 01 A0 20 24 24 9B 8D A4 93 A1 9A 0F 0D 84 12 8A 93 24 94 24 81 26 A0 22 19 92 26 99 A4 27 01 0B 1C 9E 9A A0 1A A9 26 1F 9D 21 21 27 A0 89 21 1D 1B 92 97 07 8A 1B 23 1F A0 22 23 1A 23 A0 98 18 1F 0E 0B A1 25 22 9B 01 1F 18 84 1F 29 9A 17 27 A0 90 27 A4 98 88 A0 A0 27 A0 93 A0 1A 1D 9A 0C 24 99 9B 