ca ca 40 ca 4e c7 c5 56 7a 42 46 d9 fc 54 f1 f6 ea d1 e0 43 fd 4d c9 71 cd d5 56 ec 65 60 40 c3 4c 7f 44 ff 4c 4e 60 d8 4e db 46 5d c5 45 45 53 c9 c3 f6 c2 c5 f6 5f c0 fa 6b 41 d3 e1 ed 47 fd 5f 50 56 db 4f c7 5f 47 