6e 4f 49 ea 4f c0 65 cf dc c0 ea 58 e4 4f 6a 61 c6 f3 d6 cd e1 65 c0 e8 cf fb ea 4f c4 fb e1 6e d0 e5 e1 ec cb 5c c6 c6 c6 46 40 ea 7b 6a e5 46 d6 c2 6a ea cd c4 c6 dc 46 5f c9 e1 4f da cf 46 fb e1 7b d1 e1 40 61 ea f7 6a e5 c2 d8 d8 d6 46 7b fb f3 00 cb c0 c2 00 c2 6a 61 cf fb c9 d8 fb 4f ea ee ea 42 d8 54 46 d7 4f 7b 6a cb 40 e5 c6 c6 6a ea d6 da 4d 42 dc 65 cc cd 49 46 f0 f3 58 cd cd d4 e5 49 c6 d4 dc c2 54 46 6a fe 46 da cd 4b d8 46 fb e6 fb d1 e9 ee ea 61 42 cf c2 fb 46 d7 c4 c4 f7 c6 00 c6 6a f3 4f 58 46 65 7b c0 6e e3 4b 7b 61 f7 d4 ea d4 77 61 7b cf c6 c1 4b cf 00 f3 58 c9 dc 58 cf ee 40 6a c2 c9 6a c0 58 58 58 c6 c9 c6 c6 d1 c1 54 46 7b d4 c6 cf c3 ee 4f c6 c6 cd 46 cb c6 d8 c6 c6 cf 7b d8 cb 46 6e 46 f3 ea f7 cd 73 fb d8 46 61 c5 46 6a 5c ea c6 00 5c dc c6 cf e5 58 61 46 ee 46 c4 dc f0 4f d4 fb ea cd ea dc 42 f3 d8 d8 44 73 d8 d8 f3 e1 d8 6e fb f5 6a 4b cd 4b fb c6 5c dc 4f 4f cb 4f cf d4 cc c4 f3 4d 6a 46 4d 6e c6 ee 4f df 7b 49 7b 4b 5c f3 d8 e1 fb fb ee 4b d4 c6 e5 58 f0 58 cf d8 73 c2 dc 54 ec d1 cc c9 e8 46 cf cf c6 f3 ee ee fb cb c5 cd e5 c2 d1 da e8 cb f7 7b fb 4f d4 cb e1 d4 6e d8 5c 44 cf cf dc dc c6 6a 6a de 4b d8 cf 6a 77 cb c9 f3 ea 49 d4 6a 46 65 51 61 65 d8 e1 cd 46 c2 54 c4 42 65 d8 42 cb c2 70 41 49 51 44 45 6a 6a d0 c6 73 c2 d8 d1 c6 ea f5 61 c2 46 7b 00 e1 ee 4b dc d4 ea c2 ea e1 cb c6 7b cf fb 