40 6a 94 85 93 49 b6 b3 a5 4e bf 8c 7c 74 5a 9a 76 64 41 5a 7c 8a 7a ab 6c 57 a5 4a 70 51 4d 7f 5d b3 97 8f 9c a3 55 60 9d c0 74 4d 5d 45 a4 a6 72 b9 55 8d 5d a3 7c 59 52 a3 98 47 4d 98 84 62 56 be 97 47 6a 60 8b 43 8d 40 5f 86 a5 59 a6 42 5e 50 af ac 70 5b 4d 4d ba 95 54 59 4c 96 9d 5f 46 b7 b7 a2 93 ba 57 40 ac b5 ad 57 82 7c 47 5f ba 82 69 a0 c0 5e 9a ab 55 aa 00 ba b3 b7 54 42 47 91 b8 70 50 70 46 46 48 a2 a4 92 70 65 46 9c 7c 43 a1 55 a6 9b 9e 9e 5e 9b 5a 88 91 7e a8 45 97 b5 78 70 59 b6 55 ac 72 78 b1 56 52 6b 88 89 61 40 bf 61 67 b3 8e 8c 67 9f ae 5a ac 94 5a 4d 61 a4 9f 90 4b 56 5a 65 6c 43 43 b3 b0 63 8c b1 5a 92 a6 a4 ae 54 84 7a 57 9f a5 54 5d 53 43 7c ad b8 b3 a7 9d 9b 46 52 50 af ba b4 b6 b1 ab 40 a2 bb ba 9d a3 84 84 40 74 71 89 46 9b ab 5d 4a 6b 85 7c be 59 99 b7 61 62 b1 5c a3 b1 5a 46 91 6f 42 9f 4f bc 5d 97 84 53 45 6d 93 74 8c 97 9d be 71 53 b8 b0 54 98 96 c0 bc ad 79 44 c0 bb 7e a6 ad be 6d 40 8b 9d 9e c0 4c 59 8b bc 44 44 c0 9c a0 44 6f 8f 40 5a a3 7d 7d 5a 5a a2 59 6c 9d 9e 6a a6 55 ba 91 46 68 b5 a6 a1 b7 5a 58 87 b7 a7 5e 88 87 85 85 49 7d 99 b5 94 8e 86 8b aa 67 67 59 84 6f 75 7a 6b 54 64 4a 8f 43 b7 78 c0 69 bb ba 84 8d 71 9b 56 71 ad a6 4e 84 96 4f ad b6 7c bd 4d 7c 8e 62 43 75 5e 5e 47 4b 89 ad 41 a0 a7 43 54 4e 62 99 8b ac 46 a0 b0 9a 88 43 95 58 4c ad 42 b7 53 ad 55 ad 65 44 a3 7a bf 61 4a 46 59 a8 8c 42 96 be b6 68 a5 8b 5b a3 4a 7e 65 a7 74 84 85 9e ba 9f 58 bc 68 97 9f 5d 8a 82 98 55 46 ba 70 42 98 53 53 86 be 94 61 8d 97 af 9f 82 94 59 be 57 7c a1 78 9a 48 45 ac 5b ab af aa 88 5d 84 af 60 9e 90 54 a8 bd 6a bf 4f 8b b7 48 40 b1 71 aa 4b bb 45 60 96 a8 bb b3 60 92 64 4b 52 b0 64 90 99 7f aa 5b 62 9a 51 56 bb 84 00 78 4f 98 b5 93 89 96 6e 92 41 64 b2 58 bb b8 b5 45 a4 40 91 96 9f b2 71 a7 92 9c 5b b5 bd 6c 98 bc 63 b0 4d 9c 45 8c bc ae b7 71 b4 68 c0 9e c0 96 47 68 77 87 87 79 be 42 53 61 77 7f 87 42 a5 ad 5b 44 46 88 5c a1 87 44 6a 4b 6e 46 87 9e 4d 40 87 b8 b5 a5 8b 5e b4 5b 92 93 65 b5 5f 99 54 b7 93 a1 4f 70 7a 61 57 61 56 b9 92 78 7a a1 8e a4 7f 55 a3 a6 97 bb 9d 9a 81 5e 89 9c 4d 4d 67 92 a8 b9 69 a0 a6 7a a0 bb b2 b1 b4 b6 49 a6 b0 a7 92 46 a4 41 59 ae ae a1 4d 74 63 58 a4 5f b9 a6 61 9c 90 b8 bd 48 b8 4a 84 a6 86 a6 af 7a 7e a6 48 46 94 bd a2 94 95 42 b5 b4 4c 75 97 6c 82 70 aa 67 bc b4 bd 67 9d 7e 48 4b 48 7a af 48 9b 6a 4a 82 b4 5c 97 51 bd 5e a6 51 6c b3 8d ba b8 5c c0 bf 63 9f 9e b9 7a 73 82 93 40 aa 46 53 b6 42 8e 46 a6 00 42 92 42 9d 8c b5 8c 42 4f b6 89 8d 8c 5b 87 92 72 b9 a5 44 5d a1 bc 43 46 48 be b5 00 9e 53 41 83 6c 82 53 bf 6a a4 46 55 4d 74 be 43 be 53 9d 85 8f 6c b9 a5 bf 98 bb 8f 5f be 9f bd 8d 4f 9b 40 8d 42 ad 8d 8e b8 4f 67 56 48 82 a6 8d a6 b3 42 94 b4 00 65 4c ad 73 46 bf 65 5f b8 61 6c aa bd 44 96 a6 4d b6 73 73 77 8e ba 48 8d 8d 46 bf 73 53 65 5e a6 5e 4a 41 70 72 82 b8 a9 53 96 4c 48 bf 8d 8d a6 aa be b6 9c b4 be 00 89 68 b4 48 00 81 42 46 53 60 9e 91 78 81 b0 96 98 c0 aa 44 90 9c a4 5a 00 a0 56 7a 7c 78 58 9a ac b4 6c a6 74 00 40 b9 50 97 70 58 42 42 9d c0 83 88 49 94 4e a2 b1 b7 50 a0 48 64 b5 94 ba 58 4c 92 bf a5 4d 78 a0 60 a2 88 5b 50 78 8a 4a 5c 44 7e 92 7c 70 74 8c a0 aa ae 98 7c aa aa 9d b8 94 66 7c 68 81 ba 48 51 c0 48 48 6c 4c a0 6c a8 8c 55 a4 9d b4 60 a7 af 94 a0 40 40 4c 6e 7c b2 48 aa ac 8f 9e 40 8a 43 48 62 68 47 9b 96 b8 4b af 87 75 a4 79 af 98 ad 55 b1 b7 79 6c b4 42 89 4e 64 7d b6 b9 4d 47 92 68 40 bd a9 79 53 45 84 00 60 b7 59 a9 be b6 42 a0 79 a4 4f b2 81 c0 42 94 64 83 4c 9f b6 4f 8f 57 a0 bb 4b 60 59 be 4b 90 54 40 c0 aa 5c c0 bc be 4f a6 52 73 8f 40 87 87 9e c0 40 ba 73 b0 75 a0 98 71 00 75 c0 40 a8 8f b2 a0 48 b4 8e 6d a1 66 b0 54 8b a8 a8 93 75 6f a4 b2 7d 7d 64 b3 b6 98 a2 a0 aa bb 79 60 66 a4 44 ac af b8 50 46 75 90 a3 a7 b2 b5 b9 6d 43 90 51 5c 77 97 9f 70 b9 95 ba 51 6e 90 69 4c 91 77 96 70 a0 bf bf ba 69 69 9e ae 00 99 b3 63 93 62 a1 42 af 48 98 4d 5b a1 be 62 a5 44 4e 5c 54 bf b8 5c b4 5f a5 af a3 b5 66 5b 90 41 b1 a1 51 89 60 72 47 98 b6 ae b0 94 48 a8 58 48 82 55 a0 49 59 56 44 90 78 4e 58 b0 a8 c0 c0 7c 4c 9b a6 bd b4 45 89 4a 81 ae 50 ae 8c 8a af 4c a9 a2 88 44 49 50 52 b2 90 4d bc 7c ba 4d 48 9d b7 b2 68 b8 93 84 62 78 9c 50 be 44 ae 56 8d a4 9c 7d 8d af 97 4b 95 55 a5 ba af bd 5b 40 45 ad a5 b2 43 ae af 6c 9c a2 96 86 b2 7d 51 a8 4f a3 64 4f 96 47 9b 81 4a 6f 96 7a 4e 4d 51 b4 9c 91 6c b5 61 bd 9e ab 98 a5 7a 5e 6a 97 6c a5 a0 5f 5b aa 94 88 8a 5f 54 7a a1 97 90 af 8d 60 c0 9b 51 7a 86 7a a5 67 90 94 6c a1 8a 40 49 b9 86 7d 78 6c bd 5f 66 bd b9 9c 51 52 7d 83 86 95 9b 64 59 9f 56 b7 94 62 47 43 a1 7d 94 ae 51 4c 5b 5b 6b 65 7d b3 6c 9b 43 65 c0 86 a0 b6 6e c0 bc 66 53 aa 53 92 ab a7 50 48 6e 96 77 56 55 b0 79 b4 bc 4b 66 7f bc 8e 9f 87 83 9b ab 55 72 85 a9 bd 92 92 a8 66 7b 9f 92 ba 83 9a 46 4c c0 40 64 a3 9b ab ab a7 5f 89 7f 97 91 4c 8b 4a 55 61 a1 6a a1 a3 44 ba 60 7d 99 81 5c a5 4f 7d be 75 5f 8b 8b a4 b5 ac b6 53 a8 42 91 59 49 ab 8f 64 86 4f 58 b1 00 7b 51 4b 9a be be 55 a9 42 5e ad 75 8f 6c 40 a9 96 b0 a3 bb 77 8b be ad 6c a2 6a a0 42 58 be a4 a5 6a 68 a4 bf 51 af bc 9c 8b 40 72 6a ac 63 82 49 60 82 49 b4 90 5e 8c a0 49 90 40 b1 9d 8e 90 be 5c 86 42 b6 4f 5b a0 90 51 41 95 5c 7a 96 77 59 af 63 9d a4 6a 77 7e 5c aa 72 77 56 7e 72 b7 bb 49 4c 4e 69 4e 5c 96 b1 6a a9 7a bc bd bc 4f 42 89 a1 7f 45 47 75 67 45 81 53 81 95 ab 65 b3 77 b5 49 00 5b 6f 79 b9 6f 7e 95 ab 7f 75 5f 5f 9d 50 43 c0 5f b9 51 91 a7 4b a4 77 6b 75 97 53 85 43 67 81 53 a9 45 bb 8b b3 67 65 6f 47 5b 6b bd 5b 63 81 7f b1 b5 b5 b9 6d bf b8 af 45 5c 5b 91 a4 b6 b4 4c 43 47 41 9e a4 54 4c 87 91 b8 41 7a 4c 98 86 42 be 57 9d 7a b4 a8 97 a4 93 b0 5c 96 bc 45 ae 48 5c 97 95 5c ba 73 63 89 b5 60 ae b8 51 86 6f 45 ae bc bd 5c b6 8d 48 56 48 aa bb bf 69 6b ab 4f 7b b1 57 99 45 7b 5c 85 51 46 b7 65 72 85 ba 83 97 72 bf 7b 95 47 78 ae bc b0 5a 53 72 a4 97 c0 aa b6 48 ba 9e 46 bf a8 bb 72 a9 7b 92 a9 69 a0 92 97 85 4c 45 85 7b 4a 41 85 9b 8e 57 76 ad 4a 7b 7b 74 a9 4f 8c 84 b3 6e 61 66 68 59 9a b1 64 76 b9 7c 64 4e 6c 61 94 84 5d 84 4b b3 52 bb 6e 41 9c a3 61 b3 84 41 44 70 9c 94 b3 68 48 84 64 5d 4d bf 90 72 b1 4b bf bb a5 4f 7e 6c a7 a5 8f 85 6c 5d 7a 7c 4a af 45 8c 62 8c ab 90 00 9d 4d bf b0 8c 66 b3 79 66 90 a8 63 90 5d 41 a9 4a 44 ac 87 84 63 50 92 94 7c ba 8a 6b 97 42 44 b4 a3 60 9d 50 69 8a 76 bc 60 b6 b6 68 52 60 62 44 8a 50 60 a3 5a 69 79 60 4a 61 57 79 c0 65 94 5d a9 bc 42 70 7c b6 65 ae 81 77 b6 90 4e b3 61 59 00 70 7f bd 89 4a b6 b4 4c 9f 98 81 7f 41 ba 68 81 b0 43 92 79 a3 47 83 aa 4c 7b 4a 00 4c 52 aa ba 90 a7 49 47 79 74 54 a5 7f 77 b9 89 41 6c 68 41 56 65 65 9f 72 aa a7 45 96 7d ae 68 c0 7b a7 b4 98 5f b3 54 af a0 7f a7 ac 65 b7 75 85 94 4c 5d 6f 9c b7 b1 46 a7 4f 4c a1 67 8b bb 9b 7f bb b3 7b 75 62 a7 8e 5c be 94 bf 94 ae 65 be 45 b7 51 64 60 7f 49 7f 4c 54 42 4a 42 45 a1 9b 62 5a 7f 88 5d 7f 88 5d 5d b4 91 9e a3 5a 91 7d a8 4c 7b 90 b2 bc 51 5a 4f 9d 53 9a 4c 6f 58 b7 6b 95 93 00 a9 ae 6a 53 be 7d 92 be 4c 54 58 bc ae a2 6f 61 58 b4 b9 58 4f b2 4d b9 67 5f a8 a6 9c ad 83 9c 91 64 76 b1 be 7d 49 00 63 4e 49 b4 4f 59 41 af 74 b8 b8 85 b4 60 bd 97 97 85 48 b6 93 70 85 ba a2 43 48 69 9b bb 7b 57 65 5e a0 74 48 90 a2 74 b8 51 79 af 4f 93 ad a2 4c a9 43 9b 77 62 97 5a 7f 9d 9d 9b 53 44 5d 73 a2 a9 a2 53 92 74 9e a7 51 bf 70 a8 be a4 58 bf 98 a4 bb af 5c 48 56 bd 58 73 af b2 be 92 73 a4 ab a4 9e 7f bb 48 bf 45 45 45 aa 00 4e 8d 98 54 b4 5c 6e 81 51 56 a8 a8 8d a4 b8 42 bb 5c 5c 81 59 42 aa 6b 7e 59 5c 72 a7 42 b2 5c 87 6f b5 87 73 7c 51 62 46 a4 43 85 51 bd 53 62 6b 9e 68 49 5a 98 6e 92 9e 82 72 51 6b 8b 9e 51 b0 b0 9b 4b 8e 8e 68 46 aa 9c ad b7 5a aa ba 8b b3 9b 4b 43 c0 9e 59 53 58 bd 44 a4 43 aa 99 b0 57 7c 46 6e 57 61 9e 60 92 59 b7 9c 85 a6 a4 55 51 41 bf 49 9b b7 55 99 5d 7e 00 a1 49 71 9f 41 4b bc 55 51 00 9b 8a 40 8f 82 5b 9f b3 41 b7 66 5b a9 86 69 6a 55 5d 7e a7 b1 8a 6f aa 4d b5 51 4c 00 41 45 43 bf b6 af 4f 5e 76 57 5a 56 95 7c be 8f 8f bf 86 af 59 84 79 5f 7e 97 bf 8a a7 87 7c 90 77 a2 a7 96 84 9a 67 ab a6 6d be 4f 58 97 a1 89 b4 b2 5f 47 8e b5 ad 54 61 b2 86 b4 94 4c 7c 90 55 4c 53 b1 72 72 ba b4 6d 72 84 b4 5e b5 8f ab 4c c0 9a 4c 9c a6 79 a1 00 5b 48 4c 74 63 9a b3 9a 60 a6 62 46 aa 4e aa 6d a2 a1 88 56 85 aa b3 ba 6f 79 bd 4b ae 44 bd 00 8f 46 44 85 5b a5 be 64 5a 46 a8 64 6d 48 5e 8f b5 a2 90 95 aa 9b 54 a3 66 4d b9 46 44 52 af 63 9f a4 78 8f 8e 50 94 9e 9c a8 9a bc 43 4d 98 b3 b2 4e 98 9e 91 64 41 58 97 9f a3 50 bf 45 94 51 71 9a ab 50 b1 b4 a1 a2 48 5b b0 9c 42 4d 71 77 bc 8d 8d c0 b6 a0 8e 4a 55 b4 77 5e 55 bf 86 ba b8 51 af 8a 60 9c 71 64 77 98 a9 96 a7 91 7e 7e 6c 59 6f bd a7 86 58 8a 54 41 49 50 88 b0 ae 9a 9f 46 61 54 b9 82 8c 5a 90 45 5e ae 9d 5a 4b ba 6b 41 63 bf b5 00 9d b5 4b c0 a1 b5 c0 58 89 b9 bd 9b 8c a6 51 78 a2 b4 aa 78 5a 40 95 96 41 4e 55 9b 97 5e 47 43 5a a7 bd 6b 9b 49 8e 88 56 4d 44 42 67 78 bc 49 bc 41 44 6b be 88 42 45 b7 56 6f 5c b9 a8 58 44 bc 67 67 b7 88 5c 50 7c 4d c0 91 5e 63 99 99 9b b7 44 7c b8 58 9f 4d 74 bc 55 99 44 86 aa 4d 67 5e 4e 78 44 51 b1 49 97 a2 bc 9d 44 af 88 47 73 65 5e a7 60 57 9d af 9c bf a1 00 62 58 bd 43 a0 7f 8a 68 59 87 ac b8 9b 9b a0 b4 9d b8 42 91 43 51 b2 b1 bd 6a 52 81 a5 aa 85 c0 a3 87 92 6e b6 ae a9 9e 83 8d a2 8c 95 a8 43 51 6a 58 b6 5d 40 51 9b af b1 af 9b 9e 78 bf 8a 41 88 b6 5f 5e 66 9a a7 9f 8c 8b 93 a7 9d 8b 43 4e 57 b1 b2 5c 8b a9 bd 4c 47 96 5f bf b6 96 8b 49 7e 8b a1 93 51 8d 4a ac 8f 43 b0 b0 7e 54 97 8b 88 66 ab 71 99 8b 57 93 62 8b 75 8b 97 bb 4a ae 41 42 bb 43 be 78 59 48 a7 9d 93 99 52 a6 c0 6a 60 a7 be 78 4c af 49 a4 94 93 4b 87 4e a6 81 bc 48 b1 a7 4c 52 59 49 74 74 63 5c b3 87 b2 88 a3 bf be 44 b6 a0 4e 41 a7 93 4b 93 94 4c 4b 9e 42 99 63 b3 71 42 5b 93 a1 a0 55 ae 40 a5 a2 ac 47 48 4c 6f 41 96 b9 58 63 b6 4a 87 4d 94 5e b9 83 65 a2 73 af 65 6c 43 a2 a3 58 62 6c 79 6f 76 43 65 be b1 4a af 78 43 8d bd a8 9e 67 b1 af 73 b9 65 6c 4d 63 94 aa 83 95 69 a7 6a 73 67 b3 b6 bd 94 bd a8 63 a4 90 8e b5 a9 ab a2 a8 55 4b 57 44 41 95 88 7a 53 b3 90 98 6b 92 ad 4a 93 59 6f 8b 42 9c 9c a4 69 a8 b8 99 be c0 7d 5d 91 7d 49 af 8a 42 5a 74 91 c0 bd 6b 78 a8 95 64 a0 44 a9 57 b3 58 57 44 42 86 86 9c 6b 67 54 92 6b 63 58 ba ae 6c 96 50 41 81 a0 88 7c 56 56 b5 a6 99 54 89 45 92 54 59 4a 7c 4e 97 b2 b4 b0 90 47 6c 46 b9 7f 90 b9 54 ac 94 8c 97 52 9b 49 5d 6b 9b 94 70 7f 94 56 66 b5 bd b8 aa 59 5c 41 a6 49 8a 69 5a 4e 69 bd 46 b2 a0 5f 00 75 a2 b6 8f 5a 90 a1 81 9d 8f 56 71 b2 46 5f 66 42 9e 96 6f bc bd 6a 84 a2 98 78 96 55 55 5c 43 83 83 bb 9b 6d b8 65 81 78 a8 56 96 4e 63 73 56 af 48 66 8f 97 83 ae 5f bd 84 ae ab 4f 62 7f 93 99 55 46 a3 af 57 54 57 46 b7 bf 77 9a 72 8e 89 77 a3 4f 8f 44 8e 6c ab 99 95 77 a9 9a 77 b6 9e b4 64 77 83 48 57 51 63 af 7d 4b a9 4c bf 8e b0 89 59 b4 6c 56 94 46 5c 59 57 b7 40 48 4d 54 6c 9c 60 af 7d 46 51 8b b7 45 67 6c 6f 64 81 41 48 44 44 4e ae ba a2 42 7f 6d a8 41 62 41 6f 90 89 90 a4 7d 7f 41 51 96 85 95 4f 60 52 73 ac a2 46 41 bf 52 4a 79 73 95 41 a7 a4 7f ac ae bf c0 9a 85 41 a2 91 64 73 99 a7 4a bf 4a 49 73 aa 41 a2 b7 c0 62 bf 59 8c 48 4c 98 45 59 b8 42 4d a7 7e a9 89 a7 a5 98 b2 b2 a6 b3 a5 ac 86 8a 96 a7 7e 4a 91 88 b1 77 b9 42 91 91 b6 51 68 73 8e 8f 55 54 a2 9c 89 a5 af 51 45 ba 7a 82 48 91 90 55 b0 56 6f 98 9d 7a a0 a4 55 40 8a 42 45 bb 56 73 64 79 66 a6 7b 64 9c 00 bf ad 85 43 6a 47 41 73 51 55 94 51 ac 9c 00 85 75 92 8d 70 45 a8 a8 94 b3 7d 58 86 42 41 b7 94 66 bb 85 8b 4d ae 7b 85 9c 98 4d 73 ab 5c b3 85 64 4e 94 54 64 9c ad 64 45 a4 7b bf 69 b0 51 53 ba af 85 b1 8f 9b a9 b1 b9 91 95 b1 81 c0 a1 43 55 5f b5 41 89 79 7d b1 49 ae 57 77 95 5b ac 41 a1 95 9b 90 b7 53 9c a5 89 82 5f 49 59 bd 4a 91 5f 91 7f ad 6b 6f 8b bb 6f 42 b2 a3 95 50 85 6b 6b 8d 47 59 b5 8e 4f ab 9e 84 b9 4d 4b b5 4b 8a 90 52 ba b7 97 5e 9b aa 78 ba bd 4f b9 aa 41 ac 65 b0 a6 bd 97 9b 73 9c 78 4d 5a 51 b6 56 47 89 6d bc bd 88 65 a4 4b 40 a6 93 5a 4f 69 ad 78 42 97 64 9c 45 bd 82 9e 96 b5 58 5c 40 7e 89 b2 47 90 5c 82 5a ba 55 94 4d 50 ae 86 9e ba 96 a2 94 ae 89 bc a4 57 46 b0 41 be 7e 70 5b 62 b3 7f c0 8d 7e 99 b0 89 82 4b 4d 52 7a 90 48 9d 7e 6a 91 5b b9 90 9a ba 7f 4e 92 70 93 bd 9b 5e 53 a9 a2 62 82 a4 6c a1 4c 88 93 88 c0 9b b6 88 5c bb bf 96 ab 8f 9a 8b 58 b2 55 45 a0 83 9a 7a ac 66 5c 76 b1 88 75 a4 58 b2 7f 96 45 55 a3 48 53 78 ac 70 b2 55 78 75 83 98 50 96 4a 78 a7 b6 88 b6 bd 51 8f b8 93 96 a9 a3 4f ab 63 a3 aa 93 83 be 6b 44 83 85 c0 4b 4e 4a 9d a8 9e 91 a8 72 5c 8b b3 76 44 53 9a b3 a4 b2 9e 81 7d a8 53 51 91 c0 51 7a 67 ad 4b 40 8c be b1 91 5a ae 62 58 51 99 a6 8c 58 91 72 4a 65 76 4f a3 42 a0 8c 5a a6 65 74 58 8e af 7a 44 b4 bb 51 7a 47 66 69 6b 86 7a 63 44 5f b9 b5 93 b2 af 51 ab 64 00 47 8c 55 57 4e 44 89 bc 64 a5 55 6b 63 be 66 44 a0 4c 66 79 9f b2 b9 7a 44 6c 9f 4b a4 95 5f 86 57 40 b7 a3 95 b9 6d 50 55 82 93 bb bc bc 59 93 a9 4a 60 a1 9e b6 93 8a 7e 6a 4f 47 4a 7a 90 49 b2 a4 8a be af bb 62 ae 4e bb a2 45 7e 9a b2 66 56 b2 54 aa 82 7e 6e 83 5a 96 4a 91 7a 60 00 5a b1 b0 41 49 6e 42 ae a4 62 7e a7 85 85 4e 43 8e 53 92 b2 ac 4a b7 82 a4 83 ba 5d 57 97 b4 9e 4e b4 b5 4e 8e 86 97 a9 4a 6f ba ba 4e 64 b2 a9 64 4c 93 97 53 83 93 57 a2 97 a9 97 95 7f ba ba b6 45 ba 6c 86 91 af 62 6b 6f 88 67 93 ba a9 86 46 57 64 64 4c 00 72 9e 72 46 b2 4e 6f 8a a9 59 69 44 be b4 41 98 78 96 54 50 ad 9c b4 a0 60 a5 7b 5a 69 4a 87 49 5b a6 9b 62 7d be a4 88 42 5f a1 40 4c 5a b9 56 94 a3 88 8c ac 8f b0 88 a0 53 b9 40 8f a3 a0 6a 71 59 85 b9 bd 50 66 87 a7 aa bb 4c a6 47 9d aa 8c b0 a1 82 bb 89 82 7e bd 4d 8a ad 48 4f 95 6b b8 64 76 87 65 7f 95 52 a2 00 9f 71 4e a2 71 6b ae be b5 9b 7e 55 b8 a3 55 45 b8 af 5e 97 bb 5b 45 9b 58 82 5d b5 ae 4d 48 79 6b 95 b8 40 43 65 6b 64 43 8c 4b a8 ae 46 82 7e 52 53 a8 5c 87 a6 65 a0 ac 50 41 8b a4 73 95 41 b5 a2 51 b0 99 b4 aa 8d 89 b4 59 59 49 45 93 86 4d 9c bb b7 b0 b4 45 a8 bf 4c 89 8a bf 75 62 b4 4b 51 5f b4 92 bd 9d 4a ac 7b 47 a8 bd 67 a7 57 7b b2 ac 50 85 8d 4f 85 4b bf 52 92 00 a4 a3 b9 57 84 7c 91 63 8f 63 96 bb 9e 4a 59 c0 40 75 4e bd 75 56 51 87 45 9c 43 4c a3 be 50 a0 bd 55 87 47 99 5c 55 90 7c c0 bf 8f ad 41 79 be 71 b6 48 6a b2 af 4e b2 79 b9 6a a4 b0 55 ab a4 43 4a 50 b0 60 