40 6a ec fb ed 49 ca cd db 4e c1 f4 7c 74 5a e6 76 64 41 5a 7c f6 7a d5 6c 57 db 4a 70 51 4d 7f 5d cd e9 f1 e4 dd 55 60 e3 c0 74 4d 5d 45 dc da 72 c7 55 f3 5d dd 7c 59 52 dd e8 47 4d e8 fc 62 56 c2 e9 47 6a 60 f5 43 f3 40 5f fa db 59 da 42 5e 50 d1 d4 70 5b 4d 4d c6 eb 54 59 4c ea e3 5f 46 c9 c9 de ed c6 57 40 d4 cb d3 57 fe 7c 47 5f c6 fe 69 e0 c0 5e e6 d5 55 d6 00 c6 cd c9 54 42 47 ef c8 70 50 70 46 46 48 de dc ee 70 65 46 e4 7c 43 df 55 da e5 e2 e2 5e e5 5a f8 ef 7e d8 45 e9 cb 78 70 59 ca 55 d4 72 78 cf 56 52 6b f8 f7 61 40 c1 61 67 cd f2 f4 67 e1 d2 5a d4 ec 5a 4d 61 dc e1 f0 4b 56 5a 65 6c 43 43 cd d0 63 f4 cf 5a ee da dc d2 54 fc 7a 57 e1 db 54 5d 53 43 7c d3 c8 cd d9 e3 e5 46 52 50 d1 c6 cc ca cf d5 40 de c5 c6 e3 dd fc fc 40 74 71 f7 46 e5 d5 5d 4a 6b fb 7c c2 59 e7 c9 61 62 cf 5c dd cf 5a 46 ef 6f 42 e1 4f c4 5d e9 fc 53 45 6d ed 74 f4 e9 e3 c2 71 53 c8 d0 54 e8 ea c0 c4 d3 79 44 c0 c5 7e da d3 c2 6d 40 f5 e3 e2 c0 4c 59 f5 c4 44 44 c0 e4 e0 44 6f f1 40 5a dd 7d 7d 5a 5a de 59 6c e3 e2 6a da 55 c6 ef 46 68 cb da df c9 5a 58 f9 c9 d9 5e f8 f9 fb fb 49 7d e7 cb ec f2 fa f5 d6 67 67 59 fc 6f 75 7a 6b 54 64 4a f1 43 c9 78 c0 69 c5 c6 fc f3 71 e5 56 71 d3 da 4e fc ea 4f d3 ca 7c c3 4d 7c f2 62 43 75 5e 5e 47 4b f7 d3 41 e0 d9 43 54 4e 62 e7 f5 d4 46 e0 d0 e6 f8 43 eb 58 4c d3 42 c9 53 d3 55 d3 65 44 dd 7a c1 61 4a 46 59 d8 f4 42 ea c2 ca 68 db f5 5b dd 4a 7e 65 d9 74 fc fb e2 c6 e1 58 c4 68 e9 e1 5d f6 fe e8 55 46 c6 70 42 e8 53 53 fa c2 ec 61 f3 e9 d1 e1 fe ec 59 c2 57 7c df 78 e6 48 45 d4 5b d5 d1 d6 f8 5d fc d1 60 e2 f0 54 d8 c3 6a c1 4f f5 c9 48 40 cf 71 d6 4b c5 45 60 ea d8 c5 cd 60 ee 64 4b 52 d0 64 f0 e7 7f d6 5b 62 e6 51 56 c5 fc 00 78 4f e8 cb ed f7 ea 6e ee 41 64 ce 58 c5 c8 cb 45 dc 40 ef ea e1 ce 71 d9 ee e4 5b cb c3 6c e8 c4 63 d0 4d e4 45 f4 c4 d2 c9 71 cc 68 c0 e2 c0 ea 47 68 77 f9 f9 79 c2 42 53 61 77 7f f9 42 db d3 5b 44 46 f8 5c df f9 44 6a 4b 6e 46 f9 e2 4d 40 f9 c8 cb db f5 5e cc 5b ee ed 65 cb 5f e7 54 c9 ed df 4f 70 7a 61 57 61 56 c7 ee 78 7a df f2 dc 7f 55 dd da e9 c5 e3 e6 ff 5e f7 e4 4d 4d 67 ee d8 c7 69 e0 da 7a e0 c5 ce cf cc ca 49 da d0 d9 ee 46 dc 41 59 d2 d2 df 4d 74 63 58 dc 5f c7 da 61 e4 f0 c8 c3 48 c8 4a fc da fa da d1 7a 7e da 48 46 ec c3 de ec eb 42 cb cc 4c 75 e9 6c fe 70 d6 67 c4 cc c3 67 e3 7e 48 4b 48 7a d1 48 e5 6a 4a fe cc 5c e9 51 c3 5e da 51 6c cd f3 c6 c8 5c c0 c1 63 e1 e2 c7 7a 73 fe ed 40 d6 46 53 ca 42 f2 46 da 00 42 ee 42 e3 f4 cb f4 42 4f ca f7 f3 f4 5b f9 ee 72 c7 db 44 5d df c4 43 46 48 c2 cb 00 e2 53 41 fd 6c fe 53 c1 6a dc 46 55 4d 74 c2 43 c2 53 e3 fb f1 6c c7 db c1 e8 c5 f1 5f c2 e1 c3 f3 4f e5 40 f3 42 d3 f3 f2 c8 4f 67 56 48 fe da f3 da cd 42 ec cc 00 65 4c d3 73 46 c1 65 5f c8 61 6c d6 c3 44 ea da 4d ca 73 73 77 f2 c6 48 f3 f3 46 c1 73 53 65 5e da 5e 4a 41 70 72 fe c8 d7 53 ea 4c 48 c1 f3 f3 da d6 c2 ca e4 cc c2 00 f7 68 cc 48 00 ff 42 46 53 60 e2 ef 78 ff d0 ea e8 c0 d6 44 f0 e4 dc 5a 00 e0 56 7a 7c 78 58 e6 d4 cc 6c da 74 00 40 c7 50 e9 70 58 42 42 e3 c0 fd f8 49 ec 4e de cf c9 50 e0 48 64 cb ec c6 58 4c ee c1 db 4d 78 e0 60 de f8 5b 50 78 f6 4a 5c 44 7e ee 7c 70 74 f4 e0 d6 d2 e8 7c d6 d6 e3 c8 ec 66 7c 68 ff c6 48 51 c0 48 48 6c 4c e0 6c d8 f4 55 dc e3 cc 60 d9 d1 ec e0 40 40 4c 6e 7c ce 48 d6 d4 f1 e2 40 f6 43 48 62 68 47 e5 ea c8 4b d1 f9 75 dc 79 d1 e8 d3 55 cf c9 79 6c cc 42 f7 4e 64 7d ca c7 4d 47 ee 68 40 c3 d7 79 53 45 fc 00 60 c9 59 d7 c2 ca 42 e0 79 dc 4f ce ff c0 42 ec 64 fd 4c e1 ca 4f f1 57 e0 c5 4b 60 59 c2 4b f0 54 40 c0 d6 5c c0 c4 c2 4f da 52 73 f1 40 f9 f9 e2 c0 40 c6 73 d0 75 e0 e8 71 00 75 c0 40 d8 f1 ce e0 48 cc f2 6d df 66 d0 54 f5 d8 d8 ed 75 6f dc ce 7d 7d 64 cd ca e8 de e0 d6 c5 79 60 66 dc 44 d4 d1 c8 50 46 75 f0 dd d9 ce cb c7 6d 43 f0 51 5c 77 e9 e1 70 c7 eb c6 51 6e f0 69 4c ef 77 ea 70 e0 c1 c1 c6 69 69 e2 d2 00 e7 cd 63 ed 62 df 42 d1 48 e8 4d 5b df c2 62 db 44 4e 5c 54 c1 c8 5c cc 5f db d1 dd cb 66 5b f0 41 cf df 51 f7 60 72 47 e8 ca d2 d0 ec 48 d8 58 48 fe 55 e0 49 59 56 44 f0 78 4e 58 d0 d8 c0 c0 7c 4c e5 da c3 cc 45 f7 4a ff d2 50 d2 f4 f6 d1 4c d7 de f8 44 49 50 52 ce f0 4d c4 7c c6 4d 48 e3 c9 ce 68 c8 ed fc 62 78 e4 50 c2 44 d2 56 f3 dc e4 7d f3 d1 e9 4b eb 55 db c6 d1 c3 5b 40 45 d3 db ce 43 d2 d1 6c e4 de ea fa ce 7d 51 d8 4f dd 64 4f ea 47 e5 ff 4a 6f ea 7a 4e 4d 51 cc e4 ef 6c cb 61 c3 e2 d5 e8 db 7a 5e 6a e9 6c db e0 5f 5b d6 ec f8 f6 5f 54 7a df e9 f0 d1 f3 60 c0 e5 51 7a fa 7a db 67 f0 ec 6c df f6 40 49 c7 fa 7d 78 6c c3 5f 66 c3 c7 e4 51 52 7d fd fa eb e5 64 59 e1 56 c9 ec 62 47 43 df 7d ec d2 51 4c 5b 5b 6b 65 7d cd 6c e5 43 65 c0 fa e0 ca 6e c0 c4 66 53 d6 53 ee d5 d9 50 48 6e ea 77 56 55 d0 79 cc c4 4b 66 7f c4 f2 e1 f9 fd e5 d5 55 72 fb d7 c3 ee ee d8 66 7b e1 ee c6 fd e6 46 4c c0 40 64 dd e5 d5 d5 d9 5f f7 7f e9 ef 4c f5 4a 55 61 df 6a df dd 44 c6 60 7d e7 ff 5c db 4f 7d c2 75 5f f5 f5 dc cb d4 ca 53 d8 42 ef 59 49 d5 f1 64 fa 4f 58 cf 00 7b 51 4b e6 c2 c2 55 d7 42 5e d3 75 f1 6c 40 d7 ea d0 dd c5 77 f5 c2 d3 6c de 6a e0 42 58 c2 dc db 6a 68 dc c1 51 d1 c4 e4 f5 40 72 6a d4 63 fe 49 60 fe 49 cc f0 5e f4 e0 49 f0 40 cf e3 f2 f0 c2 5c fa 42 ca 4f 5b e0 f0 51 41 eb 5c 7a ea 77 59 d1 63 e3 dc 6a 77 7e 5c d6 72 77 56 7e 72 c9 c5 49 4c 4e 69 4e 5c ea cf 6a d7 7a c4 c3 c4 4f 42 f7 df 7f 45 47 75 67 45 ff 53 ff eb d5 65 cd 77 cb 49 00 5b 6f 79 c7 6f 7e eb d5 7f 75 5f 5f e3 50 43 c0 5f c7 51 ef d9 4b dc 77 6b 75 e9 53 fb 43 67 ff 53 d7 45 c5 f5 cd 67 65 6f 47 5b 6b c3 5b 63 ff 7f cf cb cb c7 6d c1 c8 d1 45 5c 5b ef dc ca cc 4c 43 47 41 e2 dc 54 4c f9 ef c8 41 7a 4c e8 fa 42 c2 57 e3 7a cc d8 e9 dc ed d0 5c ea c4 45 d2 48 5c e9 eb 5c c6 73 63 f7 cb 60 d2 c8 51 fa 6f 45 d2 c4 c3 5c ca f3 48 56 48 d6 c5 c1 69 6b d5 4f 7b cf 57 e7 45 7b 5c fb 51 46 c9 65 72 fb c6 fd e9 72 c1 7b eb 47 78 d2 c4 d0 5a 53 72 dc e9 c0 d6 ca 48 c6 e2 46 c1 d8 c5 72 d7 7b ee d7 69 e0 ee e9 fb 4c 45 fb 7b 4a 41 fb e5 f2 57 76 d3 4a 7b 7b 74 d7 4f f4 fc cd 6e 61 66 68 59 e6 cf 64 76 c7 7c 64 4e 6c 61 ec fc 5d fc 4b cd 52 c5 6e 41 e4 dd 61 cd fc 41 44 70 e4 ec cd 68 48 fc 64 5d 4d c1 f0 72 cf 4b c1 c5 db 4f 7e 6c d9 db f1 fb 6c 5d 7a 7c 4a d1 45 f4 62 f4 d5 f0 00 e3 4d c1 d0 f4 66 cd 79 66 f0 d8 63 f0 5d 41 d7 4a 44 d4 f9 fc 63 50 ee ec 7c c6 f6 6b e9 42 44 cc dd 60 e3 50 69 f6 76 c4 60 ca ca 68 52 60 62 44 f6 50 60 dd 5a 69 79 60 4a 61 57 79 c0 65 ec 5d d7 c4 42 70 7c ca 65 d2 ff 77 ca f0 4e cd 61 59 00 70 7f c3 f7 4a ca cc 4c e1 e8 ff 7f 41 c6 68 ff d0 43 ee 79 dd 47 fd d6 4c 7b 4a 00 4c 52 d6 c6 f0 d9 49 47 79 74 54 db 7f 77 c7 f7 41 6c 68 41 56 65 65 e1 72 d6 d9 45 ea 7d d2 68 c0 7b d9 cc e8 5f cd 54 d1 e0 7f d9 d4 65 c9 75 fb ec 4c 5d 6f e4 c9 cf 46 d9 4f 4c df 67 f5 c5 e5 7f c5 cd 7b 75 62 d9 f2 5c c2 ec c1 ec d2 65 c2 45 c9 51 64 60 7f 49 7f 4c 54 42 4a 42 45 df e5 62 5a 7f f8 5d 7f f8 5d 5d cc ef e2 dd 5a ef 7d d8 4c 7b f0 ce c4 51 5a 4f e3 53 e6 4c 6f 58 c9 6b eb ed 00 d7 d2 6a 53 c2 7d ee c2 4c 54 58 c4 d2 de 6f 61 58 cc c7 58 4f ce 4d c7 67 5f d8 da e4 d3 fd e4 ef 64 76 cf c2 7d 49 00 63 4e 49 cc 4f 59 41 d1 74 c8 c8 fb cc 60 c3 e9 e9 fb 48 ca ed 70 fb c6 de 43 48 69 e5 c5 7b 57 65 5e e0 74 48 f0 de 74 c8 51 79 d1 4f ed d3 de 4c d7 43 e5 77 62 e9 5a 7f e3 e3 e5 53 44 5d 73 de d7 de 53 ee 74 e2 d9 51 c1 70 d8 c2 dc 58 c1 e8 dc c5 d1 5c 48 56 c3 58 73 d1 ce c2 ee 73 dc d5 dc e2 7f c5 48 c1 45 45 45 d6 00 4e f3 e8 54 cc 5c 6e ff 51 56 d8 d8 f3 dc c8 42 c5 5c 5c ff 59 42 d6 6b 7e 59 5c 72 d9 42 ce 5c f9 6f cb f9 73 7c 51 62 46 dc 43 fb 51 c3 53 62 6b e2 68 49 5a e8 6e ee e2 fe 72 51 6b f5 e2 51 d0 d0 e5 4b f2 f2 68 46 d6 e4 d3 c9 5a d6 c6 f5 cd e5 4b 43 c0 e2 59 53 58 c3 44 dc 43 d6 e7 d0 57 7c 46 6e 57 61 e2 60 ee 59 c9 e4 fb da dc 55 51 41 c1 49 e5 c9 55 e7 5d 7e 00 df 49 71 e1 41 4b c4 55 51 00 e5 f6 40 f1 fe 5b e1 cd 41 c9 66 5b d7 fa 69 6a 55 5d 7e d9 cf f6 6f d6 4d cb 51 4c 00 41 45 43 c1 ca d1 4f 5e 76 57 5a 56 eb 7c c2 f1 f1 c1 fa d1 59 fc 79 5f 7e e9 c1 f6 d9 f9 7c f0 77 de d9 ea fc e6 67 d5 da 6d c2 4f 58 e9 df f7 cc ce 5f 47 f2 cb d3 54 61 ce fa cc ec 4c 7c f0 55 4c 53 cf 72 72 c6 cc 6d 72 fc cc 5e cb f1 d5 4c c0 e6 4c e4 da 79 df 00 5b 48 4c 74 63 e6 cd e6 60 da 62 46 d6 4e d6 6d de df f8 56 fb d6 cd c6 6f 79 c3 4b d2 44 c3 00 f1 46 44 fb 5b db c2 64 5a 46 d8 64 6d 48 5e f1 cb de f0 eb d6 e5 54 dd 66 4d c7 46 44 52 d1 63 e1 dc 78 f1 f2 50 ec e2 e4 d8 e6 c4 43 4d e8 cd ce 4e e8 e2 ef 64 41 58 e9 e1 dd 50 c1 45 ec 51 71 e6 d5 50 cf cc df de 48 5b d0 e4 42 4d 71 77 c4 f3 f3 c0 ca e0 f2 4a 55 cc 77 5e 55 c1 fa c6 c8 51 d1 f6 60 e4 71 64 77 e8 d7 ea d9 ef 7e 7e 6c 59 6f c3 d9 fa 58 f6 54 41 49 50 f8 d0 d2 e6 e1 46 61 54 c7 fe f4 5a f0 45 5e d2 e3 5a 4b c6 6b 41 63 c1 cb 00 e3 cb 4b c0 df cb c0 58 f7 c7 c3 e5 f4 da 51 78 de cc d6 78 5a 40 eb ea 41 4e 55 e5 e9 5e 47 43 5a d9 c3 6b e5 49 f2 f8 56 4d 44 42 67 78 c4 49 c4 41 44 6b c2 f8 42 45 c9 56 6f 5c c7 d8 58 44 c4 67 67 c9 f8 5c 50 7c 4d c0 ef 5e 63 e7 e7 e5 c9 44 7c c8 58 e1 4d 74 c4 55 e7 44 fa d6 4d 67 5e 4e 78 44 51 cf 49 e9 de c4 e3 44 d1 f8 47 73 65 5e d9 60 57 e3 d1 e4 c1 df 00 62 58 c3 43 e0 7f f6 68 59 f9 d4 c8 e5 e5 e0 cc e3 c8 42 ef 43 51 ce cf c3 6a 52 ff db d6 fb c0 dd f9 ee 6e ca d2 d7 e2 fd f3 de f4 eb d8 43 51 6a 58 ca 5d 40 51 e5 d1 cf d1 e5 e2 78 c1 f6 41 f8 ca 5f 5e 66 e6 d9 e1 f4 f5 ed d9 e3 f5 43 4e 57 cf ce 5c f5 d7 c3 4c 47 ea 5f c1 ca ea f5 49 7e f5 df ed 51 f3 4a d4 f1 43 d0 d0 7e 54 e9 f5 f8 66 d5 71 e7 f5 57 ed 62 f5 75 f5 e9 c5 4a d2 41 42 c5 43 c2 78 59 48 d9 e3 ed e7 52 da c0 6a 60 d9 c2 78 4c d1 49 dc ec ed 4b f9 4e da ff c4 48 cf d9 4c 52 59 49 74 74 63 5c cd f9 ce f8 dd c1 c2 44 ca e0 4e 41 d9 ed 4b ed ec 4c 4b e2 42 e7 63 cd 71 42 5b ed df e0 55 d2 40 db de d4 47 48 4c 6f 41 ea c7 58 63 ca 4a f9 4d ec 5e c7 fd 65 de 73 d1 65 6c 43 de dd 58 62 6c 79 6f 76 43 65 c2 cf 4a d1 78 43 f3 c3 d8 e2 67 cf d1 73 c7 65 6c 4d 63 ec d6 fd eb 69 d9 6a 73 67 cd ca c3 ec c3 d8 63 dc f0 f2 cb d7 d5 de d8 55 4b 57 44 41 eb f8 7a 53 cd f0 e8 6b ee d3 4a ed 59 6f f5 42 e4 e4 dc 69 d8 c8 e7 c2 c0 7d 5d ef 7d 49 d1 f6 42 5a 74 ef c0 c3 6b 78 d8 eb 64 e0 44 d7 57 cd 58 57 44 42 fa fa e4 6b 67 54 ee 6b 63 58 c6 d2 6c ea 50 41 ff e0 f8 7c 56 56 cb da e7 54 f7 45 ee 54 59 4a 7c 4e e9 ce cc d0 f0 47 6c 46 c7 7f f0 c7 54 d4 ec f4 e9 52 e5 49 5d 6b e5 ec 70 7f ec 56 66 cb c3 c8 d6 59 5c 41 da 49 f6 69 5a 4e 69 c3 46 ce e0 5f 00 75 de ca f1 5a f0 df ff e3 f1 56 71 ce 46 5f 66 42 e2 ea 6f c4 c3 6a fc de e8 78 ea 55 55 5c 43 fd fd c5 e5 6d c8 65 ff 78 d8 56 ea 4e 63 73 56 d1 48 66 f1 e9 fd d2 5f c3 fc d2 d5 4f 62 7f ed e7 55 46 dd d1 57 54 57 46 c9 c1 77 e6 72 f2 f7 77 dd 4f f1 44 f2 6c d5 e7 eb 77 d7 e6 77 ca e2 cc 64 77 fd 48 57 51 63 d1 7d 4b d7 4c c1 f2 d0 f7 59 cc 6c 56 ec 46 5c 59 57 c9 40 48 4d 54 6c e4 60 d1 7d 46 51 f5 c9 45 67 6c 6f 64 ff 41 48 44 44 4e d2 c6 de 42 7f 6d d8 41 62 41 6f f0 f7 f0 dc 7d 7f 41 51 ea fb eb 4f 60 52 73 d4 de 46 41 c1 52 4a 79 73 eb 41 d9 dc 7f d4 d2 c1 c0 e6 fb 41 de ef 64 73 e7 d9 4a c1 4a 49 73 d6 41 de c9 c0 62 c1 59 f4 48 4c e8 45 59 c8 42 4d d9 7e d7 f7 d9 db e8 ce ce da cd db d4 fa f6 ea d9 7e 4a ef f8 cf 77 c7 42 ef ef ca 51 68 73 f2 f1 55 54 de e4 f7 db d1 51 45 c6 7a fe 48 ef f0 55 d0 56 6f e8 e3 7a e0 dc 55 40 f6 42 45 c5 56 73 64 79 66 da 7b 64 e4 00 c1 d3 fb 43 6a 47 41 73 51 55 ec 51 d4 e4 00 fb 75 ee f3 70 45 d8 d8 ec cd 7d 58 fa 42 41 c9 ec 66 c5 fb f5 4d d2 7b fb e4 e8 4d 73 d5 5c cd fb 64 4e ec 54 64 e4 d3 64 45 dc 7b c1 69 d0 51 53 c6 d1 fb cf f1 e5 d7 cf c7 ef eb cf ff c0 df 43 55 5f cb 41 f7 79 7d cf 49 d2 57 77 eb 5b d4 41 df eb e5 f0 c9 53 e4 db f7 fe 5f 49 59 c3 4a ef 5f ef 7f d3 6b 6f f5 c5 6f 42 ce dd eb 50 fb 6b 6b f3 47 59 cb f2 4f d5 e2 fc c7 4d 4b cb 4b f6 f0 52 c6 c9 e9 5e e5 d6 78 c6 c3 4f c7 d6 41 d4 65 d0 da c3 e9 e5 73 e4 78 4d 5a 51 ca 56 47 f7 6d c4 c3 f8 65 dc 4b 40 da ed 5a 4f 69 d3 78 42 e9 64 e4 45 c3 fe e2 ea cb 58 5c 40 7e f7 ce 47 f0 5c fe 5a c6 55 ec 4d 50 d2 fa e2 c6 ea de ec d2 f7 c4 dc 57 46 d0 41 c2 7e 70 5b 62 cd 7f c0 f3 7e e7 d0 f7 fe 4b 4d 52 7a f0 48 e3 7e 6a ef 5b c7 f0 e6 c6 7f 4e ee 70 ed c3 e5 5e 53 d7 de 62 fe dc 6c df 4c f8 ed f8 c0 e5 ca f8 5c c5 c1 ea d5 f1 e6 f5 58 ce 55 45 e0 fd e6 7a d4 66 5c 76 cf f8 75 dc 58 ce 7f ea 45 55 dd 48 53 78 d4 70 ce 55 78 75 fd e8 50 ea 4a 78 d9 ca f8 ca c3 51 f1 c8 ed ea d7 dd 4f d5 63 dd d6 ed fd c2 6b 44 fd fb c0 4b 4e 4a e3 d8 e2 ef d8 72 5c f5 cd 76 44 53 e6 cd dc ce e2 ff 7d d8 53 51 ef c0 51 7a 67 d3 4b 40 f4 c2 cf ef 5a d2 62 58 51 e7 da f4 58 ef 72 4a 65 76 4f dd 42 e0 f4 5a da 65 74 58 f2 d1 7a 44 cc c5 51 7a 47 66 69 6b fa 7a 63 44 5f c7 cb ed ce d1 51 d5 64 00 47 f4 55 57 4e 44 f7 c4 64 db 55 6b 63 c2 66 44 e0 4c 66 79 e1 ce c7 7a 44 6c e1 4b dc eb 5f fa 57 40 c9 dd eb c7 6d 50 55 fe ed c5 c4 c4 59 ed d7 4a 60 df e2 ca ed f6 7e 6a 4f 47 4a 7a f0 49 ce dc f6 c2 d1 c5 62 d2 4e c5 de 45 7e e6 ce 66 56 ce 54 d6 fe 7e 6e fd 5a ea 4a ef 7a 60 00 5a cf d0 41 49 6e 42 d2 dc 62 7e d9 fb fb 4e 43 f2 53 ee ce d4 4a c9 fe dc fd c6 5d 57 e9 cc e2 4e cc cb 4e f2 fa e9 d7 4a 6f c6 c6 4e 64 ce d7 64 4c ed e9 53 fd ed 57 de e9 d7 e9 eb 7f c6 c6 ca 45 c6 6c fa ef d1 62 6b 6f f8 67 ed c6 d7 fa 46 57 64 64 4c 00 72 e2 72 46 ce 4e 6f f6 d7 59 69 44 c2 cc 41 e8 78 ea 54 50 d3 e4 cc e0 60 db 7b 5a 69 4a f9 49 5b da e5 62 7d c2 dc f8 42 5f df 40 4c 5a c7 56 ec dd f8 f4 d4 f1 d0 f8 e0 53 c7 40 f1 dd e0 6a 71 59 fb c7 c3 50 66 f9 d9 d6 c5 4c da 47 e3 d6 f4 d0 df fe c5 f7 fe 7e c3 4d f6 d3 48 4f eb 6b c8 64 76 f9 65 7f eb 52 de 00 e1 71 4e de 71 6b d2 c2 cb e5 7e 55 c8 dd 55 45 c8 d1 5e e9 c5 5b 45 e5 58 fe 5d cb d2 4d 48 79 6b eb c8 40 43 65 6b 64 43 f4 4b d8 d2 46 fe 7e 52 53 d8 5c f9 da 65 e0 d4 50 41 f5 dc 73 eb 41 cb de 51 d0 e7 cc d6 f3 f7 cc 59 59 49 45 ed fa 4d e4 c5 c9 d0 cc 45 d8 c1 4c f7 f6 c1 75 62 cc 4b 51 5f cc ee c3 e3 4a d4 7b 47 d8 c3 67 d9 57 7b ce d4 50 fb f3 4f fb 4b c1 52 ee 00 dc dd c7 57 fc 7c ef 63 f1 63 ea c5 e2 4a 59 c0 40 75 4e c3 75 56 51 f9 45 e4 43 4c dd c2 50 e0 c3 55 f9 47 e7 5c 55 f0 7c c0 c1 f1 d3 41 79 c2 71 ca 48 6a ce d1 4e ce 79 c7 6a dc d0 55 d5 dc 43 4a 50 d0 60 