b6 b6 40 b6 4e b9 bb 56 7a 42 46 a7 84 54 8f 8a 96 af a0 43 83 4d b7 71 b3 ab 56 94 65 60 40 bd 4c 7f 44 81 4c 4e 60 a8 4e a5 46 5d bb 45 45 53 b7 bd 8a be bb 8a 5f c0 86 6b 41 ad 9f 93 47 83 5f 50 56 a5 4f b9 5f 47 