42 6b 56 42 63 63 73 a3 a5 9f be 42 a5 42 be 84 43 4a b2 97 ba ac 46 be 54 4b 78 63 ba 50 42 4e 5f 41 5b 7c 6a 99 42 8b 98 42 a8 a3 52 75 67 46 7d b6 75 a8 5c 47 5c 83 75 5f 56 96 ad b7 83 a1 8b 8c 4f 42 51 6a 8b 54 a7 4e b6 ba be 6b bc b6 66 95 af bc 5c 6f 64 6b a2 56 75 77 4a 48 42 40 77 59 44 55 66 a0 42 66 73 8b 89 6d a5 61 ba a5 64 63 a1 a1 57 4f 00 57 49 5f 4f 4f 76 a1 76 b9 82 7d a9 7e 5b bf 7e b5 82 47 64 4f b1 9a a1 8e bd 97 69 69 bd 84 c0 a0 48 70 a3 c0 c0 aa b4 bd 40 49 4c 81 af 48 43 84 4f a8 7c 73 78 4c 42 56 4e 70 5c bb 6f 40 92 af 85 ad 4a b1 61 68 9d 63 92 5f 72 73 b2 ad b3 bf 5b 7d 85 ad a7 83 af 7d 98 ad 53 49 7b 40 51 4a 73 85 a6 90 49 a1 4c 55 b2 4c af 8a 65 68 87 43 43 5a a1 8a 5f 86 b2 93 95 79 8c 70 59 77 44 72 af 54 5f 6f 6f 91 9f 54 5a 87 95 83 6b a1 58 91 68 bb bf 68 40 41 b8 bf a8 91 b8 62 92 91 91 aa 9f 76 b2 48 aa b4 ab 76 