6e 4f 49 96 4f c0 65 b1 a4 c0 96 58 9c 4f 6a 61 ba 8d aa b3 9f 65 c0 98 b1 85 96 4f bc 85 9f 6e b0 9b 9f 94 b5 5c ba ba ba 46 40 96 7b 6a 9b 46 aa be 6a 96 b3 bc ba a4 46 5f b7 9f 4f a6 b1 46 85 9f 7b af 9f 40 61 96 89 6a 9b be a8 a8 aa 46 7b 85 8d 00 b5 c0 be 00 be 6a 61 b1 85 b7 a8 85 4f 96 92 96 42 a8 54 46 a9 4f 7b 6a b5 40 9b ba ba 6a 96 aa a6 4d 42 a4 65 b4 b3 49 46 90 8d 58 b3 b3 ac 9b 49 ba ac a4 be 54 46 6a 82 46 a6 b3 4b a8 46 85 9a 85 af 97 92 96 61 42 b1 be 85 46 a9 bc bc 89 ba 00 ba 6a 8d 4f 58 46 65 7b c0 6e 9d 4b 7b 61 89 ac 96 ac 77 61 7b b1 ba bf 4b b1 00 8d 58 b7 a4 58 b1 92 40 6a be b7 6a c0 58 58 58 ba b7 ba ba af bf 54 46 7b ac ba b1 bd 92 4f ba ba b3 46 b5 ba a8 ba ba b1 7b a8 b5 46 6e 46 8d 96 89 b3 73 85 a8 46 61 bb 46 6a 5c 96 ba 00 5c a4 ba b1 9b 58 61 46 92 46 bc a4 90 4f ac 85 96 b3 96 a4 42 8d a8 a8 44 73 a8 a8 8d 9f a8 6e 85 8b 6a 4b b3 4b 85 ba 5c a4 4f 4f b5 4f b1 ac b4 bc 8d 4d 6a 46 4d 6e ba 92 4f a1 7b 49 7b 4b 5c 8d a8 9f 85 85 92 4b ac ba 9b 58 90 58 b1 a8 73 be a4 54 94 af b4 b7 98 46 b1 b1 ba 8d 92 92 85 b5 bb b3 9b be af a6 98 b5 89 7b 85 4f ac b5 9f ac 6e a8 5c 44 b1 b1 a4 a4 ba 6a 6a a2 4b a8 b1 6a 77 b5 b7 8d 96 49 ac 6a 46 65 51 61 65 a8 9f b3 46 be 54 bc 42 65 a8 42 b5 be 70 41 49 51 44 45 6a 6a b0 ba 73 be a8 af ba 96 8b 61 be 46 7b 00 9f 92 4b a4 ac 96 be 96 9f b5 ba 7b b1 85 