ffffb5ad fffff207 ffffdada ffffb2a9 fffff295 ffffd545 ffff9691 ffff85be ffffe324 ffff84a1 ffffe877 ffff948a ffffe40a ffffc519 ffff904e ffffae9b ffff84fd ffffa194 ffff9f55 00000000 ffffc6ca ffffb5c9 ffffcd14 ffffc9ad ffffb637 ffff8d80 ffff8d2c ffffcdad ffff88fe 0000f67d ffffbac8 ffff92e6 0000c85a ffff90ec 0000a03c ffffa5d8 0000c67f ffff96fc ffffdc36 ffff9313 ffffae60 ffffed13 ffffbe20 ffffc0b4 ffffc083 ffffca53 fffff1ec fffff695 ffff962c ffffda6d ffff9f72 ffff88e7 ffffd9d4 ffffdbef ffff86fb ffffd4db ffffafc5 00008375 ffffb213 00008390 00000000 ffffc281 ffffa3b8 ffffaf9f 