42 6b 56 42 63 63 73 dd db e1 c2 42 db 42 c2 fc 43 4a ce e9 c6 d4 46 c2 54 4b 78 63 c6 50 42 4e 5f 41 5b 7c 6a e7 42 f5 e8 42 d8 dd 52 75 67 46 7d ca 75 d8 5c 47 5c fd 75 5f 56 ea d3 c9 fd df f5 f4 4f 42 51 6a f5 54 d9 4e ca c6 c2 6b c4 ca 66 eb d1 c4 5c 6f 64 6b de 56 75 77 4a 48 42 40 77 59 44 55 66 e0 42 66 73 f5 f7 6d db 61 c6 db 64 63 df df 57 4f 00 57 49 5f 4f 4f 76 df 76 c7 fe 7d d7 7e 5b c1 7e cb fe 47 64 4f cf e6 df f2 c3 e9 69 69 c3 fc c0 e0 48 70 dd c0 c0 d6 cc c3 40 49 4c ff d1 48 43 fc 4f d8 7c 73 78 4c 42 56 4e 70 5c c5 6f 40 ee d1 fb d3 4a cf 61 68 e3 63 ee 5f 72 73 ce d3 cd c1 5b 7d fb d3 d9 fd d1 7d e8 d3 53 49 7b 40 51 4a 73 fb da f0 49 df 4c 55 ce 4c d1 f6 65 68 f9 43 43 5a df f6 5f fa ce ed eb 79 f4 70 59 77 44 72 d1 54 5f 6f 6f ef e1 54 5a f9 eb fd 6b df 58 ef 68 c5 c1 68 40 41 c8 c1 d8 ef c8 62 ee ef ef d6 e1 76 ce 48 d6 cc d5 76 