8FB528249FB0B8
B31AB9B921B219
271CB429B2B0B6
A01CA020A689A7
B8A5A72AB49E21
1CB027B2B229B1
2CA3B815BBAEB7
A927A4A1A52627
A09B16A0A42413
94B11CA931B3B3
2125B8AB249E24
B3C031AAB1B1B9
2A92B0B1B92BB1
9B239C982728A5
1FB931B7ACBAAE
2722B9B328280B
17B19FB228B9AB
B6BB300EB42ABB
32B3B7B4A9BA29
B093B21BB29C98
1FAB1A1D9C1CBC
AAB025A6A295B1
1E23BAB122AE1D
B9A2B8BA1EBB1F
32B3BBB5B6B8A2
2CB72AA6B2B4B4
AA1D9CA1A8A1A1
22ADA0A598B7A8
29B69FA1B99CBC
B421B8B4272126
BAB590ABA0AFA0
A8A68CA623A1A2
9290BDA8B42701
1B1BB5B031B8B3
33B8B5B9BAB6B7
B623B9B11AB924
36B9B6B8B5B9AA
ADB528B71FB7AA
16A19F85A5A920
AE19B4180AB222
B9B62AA820AF20
B9B82419A1A917
94881D241EABB1
B725B19CACA727
21BB289F9B25B9
1D958F20ABB5B6
B8B5272295ABA2
2115B90AB6B1A8
A51E2126A3A722
9DA92590A615A0
AC28B4B724BE26
2A28B1A5B89A21
A6BA819FA3A9BA
B9B0229C94201D
20272623250B9F
8E21BAAE1BAE1F
B9B330B0A6BA20
B1140B148AB717
B8BC2321A291AD
AE1BB3B9B4BC32
A62593A095A319
B6BA17019DA6AE
AD16B41EB72829
B826A9B1221A28
