183321c9b0e9c7f9001509ef30f9f0c5c9213bbcd5ec23
0023ddfd25090dc4ca1bc1e60ef70427fbeb24f6120cf9e3
efcbc7faf22cedfa45f923181f090ec118d5f2e60fbefc04
fc00dbf9e3221010cffc191502bdd4c22ddc37cd05ff20d5
d805f53a37d734d7e7e2e6fb9e0210e8dc2637d0f5eaf60b
0fdffe2dd425f31ff1edfdcef208161ddc16fd06f520fefc
1a1cceddf6fd33322505033303e617ecc7f7fdd510d705d9
ddd9c2ede0e3d008f3ebd80c002f21fdd904c5eefd0cc5ba
c63213f2f71c1ae2df321411dd3a1eca2f29152d151eefde
3c27da253edfe9161b18ce351d3106282923eb260427f5d2
e906fd0ff82f09f958cb16f51c26f028f83ddde8cc2b1f1c
fae8e00818d6370ebf310a2517d501ead2dae1d93923faed
c90f1aefb428fff30c1c2de3da0116ddf8dbc32adc23e4ce
0c3dfe32dbd0f425dcc1d905c4c60ad60ac5322c3b2e0033
2ad7e7d330f7001b1c0e09fdcde2ebcff6cb17280ee724d9
02c7f00740cc0ddffd2f0fc6c1e50cf222ed1e1ded3bc816
2f35be0f3a03c9fa34c2ccdde7ba0619fcbb163bc12626ba
38e5bedc071dd20c12e908ff38ddf42de71cf2d0344912cc
f606111b0de2f0b5cf12f834eaf8132ec11dd3e71530e5e2
c900bff6e20bc0da513a22ecf7e7ef1ccfe7f231e9f9e20b
dd1610fbbdbbef342e15e30a141325112210c902f6cf3515
11311ef724d9d23de7da16f00b151acf29092f27f507b825
0febc9f7b61c13ca1d2a2c17d934de0fe00823ee23f71af0
fd0104e6093bbe2bea1e0b0deec6eb31ce0333d8ffbdde0f
102be91bc910fddc071a1cce22c9fdf73029dcd5c6e1fd3e
dd0a0cd6f8212c2c2dd6e605c2f1b8d5c8d0ffc1bfd52df6
22d7e404e2200215dd1623eeecfa2722f22b0310da2fe902
cbc1efd1e6ec063422bee115f61de6e1c1cddf15edf5f4e5
f02cece526e732f205b2eee923c3e4d9eecc35d2bfc80fcf
1d260038373f08043e1f39e2eadd21c5e807ceb9e7deed33
d71802de3dd2bfc30efae1f9330800fd04f3afc41316f7d9
e82afd2dd43bf4d9cedad8051ffa23e1fcf209093ed80ded
cb2f0ce988d2e8d0e3023611c628edfcd2d617fe39e30ffb
f6c4eacff91006d7bf0c12f3ca0b08d0e0282fc90a1833c5
341b342619e2bcbd4330c2cdd918462e203314f01136f23c
24c8c8c0381307ea1bf3e702da0ed2fb1216e5f5050028ed
cfec00df0501033f452adbe327c633e1c6110f155621cc28
cdc413fc2a22eb0ed01fe833c3f7fbf41314d705041803ed
ddd021bbf9de35e3f5e0e8e70c0df025f3d521bf000af752
b6312e1917c800e20708eef7b62b233528cd22fd39faf101
0605cff9dac3f0ca42200ee6bff9f22304e0f02f35d932da
c1ddcab258f8fdc5fe3af0e7fbbfd815e8f804cb3920042b
0408300be8ce33ce2724300ec0130ede033010040f020713
1addbdfed720d1b5e9fecefe10d935ddf9df18f23717cfbc
e00ac8c90de920b53b42ebf6f61110f8321fff28d9d116ce
dd06060cd2ca210c2a2a2533091dfdfd11d5f008183610e7
ccde152003291bfcc52a19ceff41d42ec2dd30f727191bf1
03dc1cd91fc9c9d033f5bff421e1d9b9091acfd8def01031
d0cbe3f50915043a20fe1909150c041bde25f9cc152e08e3
25eb26c726070b330511e7fbed0b0002e91a36c60ee9fff2
1cf3f9eabc3820c999b0c527b52a2b3ce6222c0ed9f93fee
eaf71cc2c70ded1aea34d436c408c508e807d7e7d655013d
27c2f9294ac13ad2ead5b4b837e2cb262e03bce61e092fd1
d5c4ca12041becfc0931cf15cadde0cd0e39e7f20a1ddbf4
c20429fac7d10b18135112e3d3172b01e9fceb20d120b3e0
132cc323e2c9ff1634f7d2cb18d728e1f4f2233c0942c103
2939283126c6c3f6d7dfb6eb1def31462b18d0e013f7c00b
173436d4dbd2ebbdd01e111adfb9f3dcc5ef020025ec2723
db29083cc606d1fa42e7bf2e2cde1df0e80f08213ad9f91c
342b2ed5e914fddb0bd5f9dae9c3f1beff3df7f4f2b433d8
311dc730f034e4ec29d3b5f22010ed0b1ee42dd14127292a
b9c40acad106191fcd2928d403c20dc1c1302efaed12df1d
f4d628b920f706e4b6f6bb29f5f3cd26c41a26da20d8c611
eacebc0e16c60003dae204c6c0c3e3f1ddfacf04c3efd31a
04fafe360ef82231e405051d061525ecf3ced7c534d40b0e
01172223cbdf03d4c62fad2dd5c41bd1d32811e8e030cdbd
07ffc6c0e6f31bbc00fd0131d8f9cd1b0727bacddfc3d303
cff6bc222d15cbeb0130fd08171005dff63cc9d4d6caf1e5
e3082c28eeb9e3f407f106b9c0270fed27e1dec5f207002e
2e170efafa2b2e20f62e30ed1d2335f2d2f61ae4dc05b2fe
29cce7d2ce0d3319cf0f20bd1dd10a3a081edc1900c9ea30
cd17f6c92c10e8bd16dddd13d0e0ff2fefe0c9daf515e8fd
18e4c033f1130a322210e3c4d92b21d8ee36d633ee38efcf
12f8d611f030ff1fcf072404d30a01ebf5d0dc09e3150730
ede4060cfe060f29dcfd06ce0c05f3f8ffd6ea15d6f1d4e2
00e00ff40fe5132714cb2200c7fbe33922fb2104c86cf3ec
2bbcb9d1c0032db42214ea252ff6dc25f8eb33c9fcbef43f
2719062217fac0cb23cac41fc1200025edd1dded0e59e9ca
0c13082befedbe32f0f1ff1b092ad0170d34e801011f040d
21eaeed61bf9e1fdecdf020b37da381905dafd27023cc621
3218ede126facc07e802febcc9f8034bc4f4c5e0ecd8fef4
03361228fd20dffdf932f30d02ff1fedfc36e6dee7efbdbd
c627250f3f21fb09022315f208ec233ff12029be12eb2a30
b8fd18d90ce311c8dfc5f5d12dd7c12ae0cef9fe1cd0eafe
c3fccbec3cfe14dcddfc25c7ba0ef53eede9c2c400fb032f
ec25091ec629fbc43102c7312cdddcdfd9e9c7002f29f8f7
3bb7b6d608c21bec1eef081d0ffdfb2f41b7d3bfe5e8d5e5
2a08dc1b45fe05e312f82525f9d509d03ed21de020271622
c612e200f4cec428f81dd80fcef03025300db931e0f4c708
c5e3c71a44e81fff0443eee9da2df03b27c6c3f50af2d808
3e1613d1f513e710fb2f2dd028e80b49c2f426dbd2c5c2f5
281dde0820deffe8eed119e5bdd9220ac8ebce09e5d7edd7
f0d6f82fa415e6fdf0d7fd12ef32b7e5e3d00dc8d630161f
e7e120c10139c3bf2e3e2f26fbffdff7c4efd42913cf39e7
130009bff812d8f82315e3cbbfd7fdead6cc0c2102d54132
c124de09232dd90c2a1419b824260dc123f0c709d736cbe3
e514e02fd8cdf1d13b2ee4cc2ac62910eeffed11d6160924
f5023ced11da0af8b929cb2ec8c91438c4cb03dd1ae8e8db
08c33410361ed80d1df6dcdfcf0acdd1d2f8240b1310e80f
0a13e6e835440cebb1e1fcddc303f41bdefd38cb17511323
0bd3c90fde0ad1ce34ec03f2163cedc5fb1f1d1d22d3401c
1cbfedfe1904e936dacf23daf2f1d216df29ee15cf34e52c
cc290f1b44e5b9b5c833cec7f107d4e4271a0dc836dfb92b
041b3600dbd51ee1d3081cddd5c830be04d3eed914ed1f14
16dc083719e03611e33e201c1c07fc2dccddfe052f011706
27b9de08fc4433f3262634070a18cf0230e9393ce00703fa
022c0ef6e2f40ffcd334bc173119c1e610e4edeacae908dc
1dbe18dde7fd13c20a251ce92cee08010632e13318fbddde
eef7c2bf2621d60ff322cdfc09d8df413becdaf9070ae836
e8b5f7d7e5c3ff31c52cd811e222dcce2b0ee8c4c41c0803
cae81fc1d1d4370d37e3d9c3dc25e83315c0d221f52df5d7
afca23bccffdcd25b60eb51cf2fe3332c80e2033c5f817dc
00d8e935e23cffe3410e0fc2d3eabdeddbd20fd5fef7f5d8
03ff3124e5d822d4f91d03ebb9ce2f35d6e90f2c0d07eafe
2434c917c30fcc13ff1dfae9e43c2ffd39c707c1deecf0b3
25142622f7df27fdf0fdb6c2c50f0b0fdef3170133fc1404
d73a12d9adee08b8c9ece319312fefe7ebdeedc00b16e7e4
c1dc3adec5190decc9fb1b2bf9f414fcd9f632efdbd6de10
2ebfe60932c5c7ea340d172421f3f014c3fb2bdd1ff8c000
e9d409e0de3e1edb29cfdae0e909dc2c3605faf21301c307
e408c8e90ab2bfea1334f738beda304afc31d0fa2ed3bdf1
142819f72fcf33f11f0b3a0938e9cb0a26d9cd3b29d32bee
d1380d18c6ec04f2c7e0162c2ce0d712cd3b213127dcbee9
ad15ebd224202e01dddf24f1ed32da0a33fe291cbaf7dbda
07c2faf910ead9c3fb152efb15410902fbfeff34f12e2b1a
04b705d9d2fbcbe9133a16ccd4bbe2ca3fdbe2dccb3bf733
290831f0f6eb1606bfe726061014db36c9c0e012e138e20d
c0e41d24e5e7d9f7330fe6d7fefdd512edd50cfc2424f0b7
