b15c5c00b3856e
6a8da48db39f4f
77a8ba58ac7b49
b59fb1b79baf96
b7859ba4499f4f
8d855858ba40c0
969261b1ac6165
494b4692a496b1
acac9240be89a4
6aba466a546ac0
469bbcbe469b96
6558a4b76abe58
5190906a82a89c
61584fc046a84f
65b1ac58a6aa6a
a8a88558b34661
9f7396584b7bba
b3beb3baa8858d
46a496b7468daa
be54a4ba8500b3
549442ba9ab59f
bcaf8daf85c065
42b4a8bfafbec0
65b7a854970098
a898444692beb1
4246737b966a85
b5b1a8ac616196
beb1a8ba42b14f
70ba8db1b185bc
418d9fbdbeb785
4992a89285a89f
51926e4f46856e
448585baa94fb0
45b58bbabc969b
6abb6ab3bc929f
6ab34b46899694
b09bb3b5ba42b5
babe4bba00a85c
73af85a8ba54ba
bea6baba6a46ba
a8985cba8da9ba
afb5a4b14f4f46
ba894f7b587b40
967b4fa8466a96
8b85b5b565b57b
614f4f467b406a
beacb16ec09b9b
46b5ac466eba46
7b9fb48d9dbaaa
00acbc964b6abe
9f6e8d897b966a
92a84db361aa96
4b5c6a7389a6b3
a4444685ac4dbc
acb14da89642ba
96b16e46aca4a4
bea4ba61776546
96a492bb61b45f
9fba4f467bb3b7
b56aa16ab1499f
ba6a7b5cba464f
7ba24996bf90a6
b14b7bba4b8db1
85a84b00b15846
