ffffffa3 ffffffc2 ffffff90 ffffff49 ffffff84 ffffff93 ffffff66 ffffffde ffffff8c ffffffde ffffff12 fffffed0 ffffff57 ffffff36 ffffff6c ffffff4d ffffff78 ffffffad ffffff5d 00 ffffffc5 ffffff46 ffffff97 ffffff8e fffffde4 ffffff6f fffffedf ffffff93 ffffff78 da ffffff6d ffffffb5 63 ffffffac 7f ffffff49 36d ffffffd9 ffffff8f ffffff6a ffffffd3 fffffff1 ffffff9f ffffff9d fffffe7a ffffff98 ffffff84 ffffffc1 ffffff30 ffffff20 ffffff5d ffffffb4 ffffff21 ffffff8f ffffffbb fffffffd ffffff4c 37 ffffff4a 388 00 ffffffd3 ffffff58 ffffff4c 