ab9ab37a5ab68a74497c7c935a8c8541bf94644e6a76a540
5f4d429d4da6965b594c70a559ac8654af5f955040ba5e8d
ac459e55a89eb67e9b5991a6708855785aa1b59b43975e7c
40527cab4643b19b53b69d5db4a754bab3a5afb89f50ad57
9e7e969dbb988bc0544044b06d79b8bead53adbc71a6c0be
695467c06baa787a8bb77586436f8e8f84944a59b5646799
6846adb64a55be61ad96bf53427ab78ca342a844ad59654c
40a8884854aab790af8b9eab4f605bbfafac6a8445bd5d48
b76392aebca7bc98718c6cb245bd9f9cb5964d5b91b09c40
7f5693a461b78e5754a161997a7a5f7870b5924f65b9a193
b5488442a64a957eb8947a48a2afbdbda6b894869046a69c
8c8c8e8d9d428942b6b692534f42464200aa8ca640b54693
65a68d0082adb4484294568d426740b34f9ba6b84f8d8e8d
985389964600b042be8181b478009c9148b69eb4be6068aa
aa44a2a05c608c4aa0748a7870784d7c50a5925bbf7e8892
4e55af89ad4b4298b8b4af966c799b79a447b77568b18762
a087be7587bcb040c0738f5cba73aa4052c0c0a6409e4f54
77959091b9434c706d699fb99097b56e77b2515ca7ba51a3
b0499458a0b04e55ae7882b690489844584756a872594860
aebdaf43af8db2ba7da5a59cad55a445958d404b565b97ae
407aaf8a8690a17a976c51a1949b7a90c05467605fa58d8a
7f56926677534b96aabc6e53b448667950bcb0a7c055ab6e
abac7d49b54f59a4a5918b5c428b81a85f9953757db6be60
bea049908c828e5e639d90acb1b46a40497290824049608b
6f7745b9b3677965756fab475b954500817f4953a1b58189
7a9e9141415bb8475c914345874caf4cb4b854b6bfa4a46d
7b6599bfb7577246b197517b83854fba5cab857b6b724569
4b6468847c665db96184766e9464b361b1846c9a8c4e594f
635d6684908c8763b0aca8bf44904d4a669da9790041b390
7f894e81bd90987fb69f70774c0081b459aeb661654ab3b6
b17554b7b7b39c655f6fac985da7b44c7fa794a07b85afc0
5851916fbc5a4cb2a39a909e537b919d4cb44fa85d5a7d5d
4848b84385b8a29774ba97af85bd4170605993b44fb685b4
9eafbba473a4ab5898a4bdbf7356589248a4be5cbeb2afa8
9e6e538b98bd6b5a51514985726843829ea49e6b46926262
8a9f559b71b700499b51a1495500bfbc7e414b5d51419955
5884a74f968abea7bf6da297a6777eab905f677c799a8784
4b5646bd886279a1a66fa260ba6d9ab3aab3aa4e9a85aa63
50509eaba3989a9f4e7197b25158b394419845644dbf9143
ae54505e6149454641909f545a9a8a8cae5882b086b988a7
a88878b9be675c6b426f444456414db7bc5645498842bc8e
acbd9d8758575962606800a78aa15e7fbf65a09c7343af47
b2935fb18bb6578c884e9f4143a78a8b9abf9d6678a75e9e
4bbe9393a79d9460a7a46a4849c059afa6784c52be789943
73876fa24a4c65b648836347b958ac5eb9a29496a54d4140
ad88a29295ab6b41a99844b590578eb34b905355a47aa863
54569692566c457cae8988ba54a058998163a6416bb55092
9656b69e8fa2429d756681005fa15f4690a0b25ab2718f46
774fbf95a3b7997746ab89576c8e548e7257449aaf8f77a3
7d414ea4a844906d44897f489042416fa28141ba6462ae6f
aca759a58945b3a998a67e4cb2a748b24d8c984259a5b8bf
5143a694856655ad7951bf64730073419c564764bb6a7b45
41b1b1b595855f91af55b9ba43b153a1a951c09bb0818f69
4fb74dbdbab9ba528478909eaa8aab9b4b4f5eb58e974bb5
a49e5abc868289ae5cae5090944d47a294b2965589baba7e
9a9ab6838f9ba0abc045968855bf93b2bb88585c4c8b88a1
9aa8c0539185449e8376a844b39d6b8b4abe5c4e83724b93
47b56900b966645f47ab447a516351af7abbb286b4936b44
4eb27eae498a629093bb7ab6af4a9ebe47a18a4f60a46a4a
4c6fb4644a4ea9a99eb297b46486974e8e57ba4e5dbab5ba
625a509b7b54a6a5965b607849a09887b4414a9cb469adbe
7187ad9f768a00644da2b8bd526b7e9595827f4f896548bb
b4a25089b5ac8d41a0aa9565b473a699a487b08b5c5141a8
759e84bdbb574e96b97563a3408fa4c063005991924a7c52
a6607fa4554d45a3515d9c704d8f4a7497a5c0b3579d5d6c
ab5f409a47575e7cbac08293a057a269adb782b5b7baac46
4d8c895a8e8894b36bac67525a6156aebfb19f4078676172
614a40b75d8499ab84599ba3be469d7c89ba8571bb6b74a2
9da3c06c5a44594044a28fbc5a6f8b5a44597da04c7d9cc0
75b67143ad56624f9b8e96717c848d4d4e84bda6ba7cadbb
55bca7985865829f7e8aba4a5d9ea39f855b97848b6874a5
6252965b4b60aa64457f92bb99604b90b3aa64bb71b0a8b1
5b5347ad4296a5bec042799e8787c07f87687777b4616871
b2a881bb929aa0679d7a4dbba64d97a09ca66989a3b95e55
4a48aa6a7e709b9d8248676cafbd977ab47548bc4c4b67b4
bf005d53b54482bea56c48b983467241439253bc879ea15b
8d4db848a65fba96658e44bf77bd4673aa73736cadb6614c
50ac00b99a5a4058a400789c747c90a67a446c56aab4a0c0
8cc094a851b86c489da0baaa4c81aa6c687c487c984866ae
a00068428492b64547be534da979b959a9b6b7bd7d604064
6f668f75a1a8936d40a88ec0a8b4758b480054a071b0b298
a162695b93694d63ba98b3bf4899bfaf00a042ae70a19e96
44aebd8850a6a2ae9ba9814c4c4a7caf89c08a45c08cb4a8
4d477d4e96b27a4f869664966fa3a24a4f9c81a86c9b51af
b7835f567dbd9f526c595178649c7d9bb98695bdb9866649
4c665546a8ab9a929b839283babd8792a99f9f858e7b72bc
96427ba9a9004055b16cbe588fbe4f759a86ad4b645e518f
5c59907e77a077965b6a7a4fa45cb69d9542634186af515c
85a79d53915f97515f75b9756b5f7f77c0aba443954b507e
5c967a955c9d97b0575c93be48a442ae978645a898bcb44c
7bba53a9485a72b6b0bbaabca8c0aebf977846a4479e7295
90b361bf94a34d9c9c5d704164446e8441bb48845268b3b3
52699768506bb69d8ab660ba60a37cbcb4947644928a4250
470079494a92a77b43904cb0baaa81aa83685247ba4ca341
65a7bbae628b947567bf7ba194b34cbebb4f5c7fa78e9b46
b9586ab454ae584ca961be006f9293a27d95aebe6bbc53b7
4379a0a9515e4cb865a27457ada27b9390bb4f489baf7469
b86eaaa45c458db445a85445a898bf568d48514ebb81007f
59ba689eaa8ec05a8e43b74b4bad9b9b9cb0b3aab08b4651
b55db74d5541aa6ab36f699f8a865bb1a982a75b8f7e6640
72948eb1b44753865f4cb2b25561b49054897cada14cb597
95648590a844a24646b55a8f8f64005ebebd48a5446d5bae
5ec09c778db0b48d5b55bc484a77a28e71a1a04db4b642b1
a6b5bf8ca1639bc041bd4b6bb9b5ba899d4b58005ac0b59d
9f995c586388b85eb77c916744c067b74dbc9b7c44995058
925242876ab8a3bd9dc0b1b485b2a0aa519ba5439b8191b8
b0a15f438b968f7e47ac494c4a8bbd8d96a951b68b93bf5c
445ca7be63b1bf7448a374bc884981b259a687524eb34c87
9eb162a8be58bd65a38d43a2437643786f6caf79654a6caf
5a7d9c42c09c8abe42af998b49b86f7da8599169935da44a
49b9b09b90b4527fb297b9978c464e946c7cac474a549059
56bb78a883987883a2814384655c6ab855bd6d55bc9b966f
b44b77597d6489afb4b0639e8e51b6bf57774c489aa983a9
7f5260a4bf4fa7419541468595a29673ac517973414a527f
9c5188a2b69154914a55917e8f42a78eb99673778a68b186
8b867085588dbb7d9266b375949485b7a80041a89c4245ac
4990775f9b578295ae89a149a541b19cac7d535b79b79589
8851bdbd5aa6bc4db06d7865899cac477341569baab697b9
48b05b9099707a7e7e528dbe4dc0414b7fb082b346896257
78a375555588b245b1709676ac7f5c78b2665358ac48a47a
624b53aeada85a677d917a81b1519ebec0b28c91a44051b3
44a0647a44bcb96689b2be449f634e796b576655554ca58c
b15a565a8366006eb2607e9a7a827e91aa454a54a296b2bb
6f45976bb6a262ba57afba93917f838695536c9797baa993
408c40b988a153a35fa09442885688b0b9a48f5abeac4c7d
82af9b58b8b59b45be4555ae5ba36bbbb8719755a25e7e4e
514c9c4bbf4db4a88662459375b445bfb0498ab75989bb59
ad99a38f474cbf8743c0559c7cbd4590a0875550515cbe56
4362598b847c6098a36a4d5d47478d979855bea3b9565272
9c46424646546570b77050b39270baa4b800a291aa484755
7ab165848c5a546356aeb04ba4b390a6439f9243a45a6c61
9d84919797468c5d5a74bcb1934fa36d9f5c4542b1536f62
7db768498746855891855aba87b75588a1a65ea66aa7b59e
58aca0958b414399ad8862899a4e4bb05447a0435e46a75e
9a8286789f53a1af537c9798578d42be61705994ba94be46
a4414f459278b56e00b89684bb89bb589356b2b55164989a
92876a5b4044b44d875e9ea18b875ca54688b56e46b84b44
614d92a6a1a7b9aeb05faea6a459495841b663a4b47446b1
82c0a6735c5e7ab8bdb9ba519e8d979fb35c636cb4bf5182
bda5439fb9bebe6c745f8f4d8f8555bb9d469853a4bfbe6a
a6a9a68db85e8d8265bf72534870734c41bf964a46535e8d
4c508358b7c0bab19d94a242b54e42649458484970a08897
48489443b2af8a7ca7406e609e4cb48f409dac40a4aaa055
9057944b8f42be4fc059b681609fb24b4c4fbb83a4a06479
90a4987566b64660b3507964b8bb7dafaa7daca0b244a2a4
89b5bf51a354a1af5cb1a54e415f4490b4a55b5c6266b8be
44b87cbe68bc50b24d9cb790789db2624852844d5093ba49
8897bd946a61aa5eb55b7a6c5fa591a0989ca5abb46c9e51
b6b3aea07d9486657dc06ba1655b43435b479b4c626c5194
ba4aa7448baba34caba1919b6a97a3a17f64618940555fc0
9ca56cbca4adafbebe51588bbf4277a4a0bb686aa36aa2b0
42b1bb4f96b7bc5c72bd4e7ebc69567a4e77a94c726a49aa
b9bd8bb56bbbb55b45b147a97f6f538165816367675bb343
bf5cb8bbbdaeaabc6048aeb5564589486f638d8673b651ba
a98e4c749b857b85977b41924a4aa0ad7b697685a9574592
ab7a7e8c5d4f626ca58c85bb458fbfafa54b4aa7b17c6c72
7cc05a7079a3425760bc6150a94a8a5d6044947962656960
689f89ae65b97d657796567f4541a5a76854aa6c74724179
88a1497f457f5d4260884a647f42515a54b7624c459b7fbe
4976a84e645f639167009cb949834d7dadb2be9c4fb1a658
70a29dbfa99d51a27fa7735a9e5d97744462925377539b9b
51b2aa7c424273a759877281b55c5c6f595c877ebb5c6b42
a49e99a661aa8557439c6ea4b74644597cbd92575860b053
5995b6af56bf865a43bf57458f76418f5e00be4f4c7caf51
749c5e4c4cb4489a845bc072004c6da1abb4798fbaa6b572
bc8f469a78b9a8a44d9c9f669e63a394af5450529b8e44aa
bd968a6fa9af5998516c77b87e64ba7e7186919cbfa76055
495e409b975a6b9b78bd55aaa74eb45a41a2439678479551
88b1aaaf51864444449d7899bc4e55a25ebc976774494d4d
9bb6a2af588db16a83af519e9b43a951a8ae4095b65d8c6e
bb75ab428b66416288ae938b4a5797bb8b5497997e8b71b0
aeb39355634ba09993a142a7939e415b4b4e424ca07194b6
a86a4dbda76c946965bd95b9b68373b3aaaf6794b1736367
5457956758a86bb3789c576b86a9bd8644c042a091446474
bd4156695c944e597f5aaa7069b8948abd9b49b56ba6665d
46ae6655844899bdaf935f567fae736283634f974eab8f96
6cafb7676057459c59b76c5c8b5446514d944648567d406c
624aa2c0bf41b74a85a2a79a4199c0aa73bf7364ae4991ac
4298828a6f7a4056ba55b045a45551a090af7a91a59d4889
bf54737b944da44e9845649c648585adb37b9c5cae64ab4d
59a3ad47b27f8d42916b6f5f6bbb91858b4a506fbd956b59
40454f5c9c5a586493b597a69642409e784b82ada4bd6965
6c9b9aa4bd908293b962705ba29291a94e6a537f7e5eba9d
aa93a7a3b878638f4aab51964fbd50a3b698a9888396b675
7a8c72afa0918e425858a38c744fa6657699a665515a4a58
a95557935086596d5fbcb995bc95a4bba34b93b79f82406c
835362a48ea48243aeb74e424a856eac8549b2a741927eb0
444657697246599e86a972a98a00ba6f4c934e6467b26488
824cb9a1bb85b0aa598ca771aa876a9d66a04750a3a6bd8f
538c9552436b7e6479826b4846654dae43aea840b54bb85d
bfb27b4b7bac85574a4fa79d8d67bd85bd9250a8b4ac475f
60b0b2b0a46a506a484ab9b6437971a4b2beab4e7955af41
