ffffb5ad fffff903 ffffdada ffff6553 fffff295 ffffd545 ffff2d23 ffffc2df ffffe324 ffffc250 ffffd0ee fffe5228 ffffc814 ffff8a32 ffff209c ffff5d36 ffff09fb ffffa194 ffff3eaa 00000000 ffff8d94 ffff6b93 ffffcd14 ffffc9ad fffdb1bc ffff1b01 fffe34b1 ffffe6d6 ffff88fe 0001ecfb ffffbac8 ffff92e6 000190b4 ffffc876 0000280f fffe9761 000633fc ffffcb7e ffffdc36 ffff2626 fffeb983 fffffda2 ffffbe20 ffffc0b4 ffff020d ffffca53 fffff1ec fffffb4a ffff2c58 ffffb4db ffff3ee4 fffe239e ffffb3a9 ffffdbef ffff86fb fffffea6 ffff5f8b 00008375 ffff6427 00083900 00000000 ffff8502 ffff4771 ffff5f3f 