c9befd273ad0da09170a01ba3aedb12ad5ba21332226c62a
3e0c2be006c6bc3b3a3124e21de5d836cb3ebb3415f51fee
e52dc037e3c0d029be3ab8f124d9370504c3d0f016de0f28
15350ae42d2ccdbf36e8c008cff237faf4e2e6e9c134e539
f029fcc0d4dfedf6372a16cc2302f4d5ca1be5d409c6ebd5
221b21f623e40a27ede813d90524b7b7ecba303acf4022de
112df2fa181bab1ff9ded6350528d1dbc32bc72df91d4232
2ac7d90c1bc8d1dce6dac0c91a1f1dd6cbca11fb0bd41e0c
d040ddcbeae3d4de25b523cd2dd5c1bfcfde1902b8ccbf0b
2a1cddc510d1db3836c23fde27281f0125fdb91910d2c2ee
d02ed82bfd18bb0afadd1406e2e6ead4fdd1feb1db2df1bf
ededdbb5bf02b301e8e8dd1b1a000c0100c9b5c629cf0bba
11f2fa05bbda1c0134ef13fb46464bd538f504ea2510c908
df36b3dd2e00e62bd5aeaef31300bfb82ee8c0e8eb1022c8
e40bc3f00f10ed30fe13b40a2527321434c5b93bd629ecb9
321ce6b3fd0c2bded2cfccdd1213bf14f92ee81311e7b23f
fed9d526b2eae603eb25f70fd225c8151badfbc501e0331b
0adefcb8d22b31011122c1d2eebce7240acd1a3cc6fd1ac4
cc2fdd1ce1cc3237cb0ad7e8b82ede0b392e1cf225392f1f
cbd5e605f3eeced314f1c5c0e537c516bbdb0b301c0fefcb
162815dcf4eafc14cbf725e6e6fa01efd83823220dc4d9be
1538ee08261b31dec9ea1236cf1709270dfff3e3d637f212
c9c90a18e8331de3c5b8f71d01fcd7c73dbd0e260ad0aa3e
fbed1bb2e3fb0d1840e3c9dcf50bec2c034328fe0e3a32d5
1e4239f0d62f2c1c3624d21311ef121902fcd20ef4d0f2df
02c0b82a2a3be82e07dc2b0bb131cc06e7d107d0d6e2fc23
0a21bed5d11c2501f3f71a0aafec06fa0fe4d91423252d22
164831d2f12534d3ddf92b24faf8fe20cff735d8f6521a00
0e2e1eb4fbc318f416c2d7fb13000a0538fa0732f22ec01c
31e160f603ebf01e00e721394bf9e0c7fecd0d442c35c82f
ee2e3ad5f4dbb6d23841d6e926f6da2dfde0f0c125f5bcda
1d34ff12d40706e7c4dfdbc10228fbbf31cf1ae33c0f053c
4216e82be60736cd34cad5dee1ea1917333534e51ee4fa06
cc12fb061b01072f0803bfbd380930e60f021122dbfbffaf
09283ef9ed04404825331004080031e1fdfbe60f3b08192e
c51931c218df07d9d02cd212220ceabc301f37142433c83a
21decc38c0b9fac6d628c6e1e32629fee114431428dfd9d8
31380cd4d92027c3c524c33efa11dfcec8cee433efd8e440
1a33e0c9f1efdfc11925bcf41a39cedd15bc2d2132ebdc2b
f31c1a1e0817172d2ab7f81b02bedab5f91dd7ccd9f4d9c6
d6e732ddde121b4a390903013e43e2f6f62cf939ee56eebc
e5eac0f639383a103e4300c6dac20f29d608c2bf0a16fd2e
cdee10cddad00eb5ed33c1052cc7daffeff5c02114c63de0
30d6baeef2f0ba04f2c4112f2fd60fcbe3133107d527ef2c
0af015f2241eced319df2414fefae124dbf9eee1ed083aeb
e5d9c3b9efc9112ac8bd16cfdb38edf431b8360ef114fd40
361cbcb91c112d28cbb300d21bc239beeb20c62a22fd1adc
ef1cd0c0ffe12bc01310eb000fc20f2eb7c2cd1de700db03
2537fcc0cff41b0b32c30118dfbb29de020125aebdda3af4
28050dc4c716b7232cb32917b82b1524e2ad01f52002f312
c9f902c5ed2dcee4efc62931cee318ce32b5fc2b07c5e9eb
2c29c5f3f23b1aa6010ed62bf9d71f20ea33cb13113817f4
2bf9f3e7bbd802eee61cfad20bf30efec71ad6dfccecdb22
1ad032d5d2f5d235ec01b8f0c8b3c8be060d0ffdb6ef03fd
c5e03aead8d7f6e51ecb1af7dd0d2ec3bacebb1bedd3d305
efefd0d7fbbec1e5d616efd91bd5ddceeaf61d3b31edecf0
befcd61beed82ce0f609fe16f3c023b430d51e33d71219dd
4bee1701d8f70f3ae1e7330211f91ef215d0e9debdf03030
1afd15e518ed20dcbaea27e8cb0cc1d506c3ed331fe22231
463dca38310309ddabf3f6cb29cff315d630350f57eca403
200e02df1436e3e2bc1e3e2718c2bdd9cf1530c0e722e5fb
28bdf1c04dbf034d56c9d2da4b4d04f2e8e7274bd5060f01
cec31adae8cab62ae1c8ef21fa25e3efe2d9f3da04352af2
13c0ecf5ea3806ddd21310c40ab7c4d620001db8b9182835
c61014c50e0d06e20d03e0240db73013bcc5d6e738c00405
e43e15be2e0e3d28eaebf6b9c20ec308cad0d8e8e8d3ca03
32b5b30fdbedbace23e521350e200ee5ebcde02a01211f25
10302ad102ffdff9d81dbffcd60be005b2e9b012d34509c3
c0c3f62304061d150bc3edea3b24ed1e053a14c23114e0eb
26d0090bcb38101adfb6bb2414ecb61933ecd5f1d214cbea
1cd4c7de3921d7e129b4d20c1ec0e2e1b01dbcf6b51005e2
4002dd3b1910c8401614fefbef3f0cdce7c810ea25ccc7cd
3b072ef92bfcfcd5d72b0af0d9fed629ed222727cf3f2209
cec7f6eab9bec243c02732d3fe19f8c2bff122b3c4f40f37
1817c8222924bef8ec012112f9a9bc14e7132fa8193111f3
d6001e1bcf16d7abc5122fd2af17252a2bdc0deab2c0f108
0940010fd73a05cf2bc615d726b13afef601270ff0bc2cfb
1af300d2df1d0107e2000af01328dce3282c111ce4f4f1f5
dad7bae434d22306c0c2d3c831aec92308140614ef2e42cb
c2002201b0dcd01617d50e32e413f41df2d0e8d4141f2a10
2421ee13c2f9ba112ae3b7fef9f313b50c001bc124e6cdf8
f104220fee111940f5bcced62ebdebe600c10be512e1fcbb
16cbd5d91ac6c3cbbec8ae31191828ccb3d7da2cfdedcfc7
322e140ddecd1433f6de41de24c4c3061ac0d7f201f807fe
cd2913321adcea2b3b32e74022cb29e5ece3cce7cde54b17
19041c17c7fdfcf7bfd8b8d8d2a9b2b9c8e1f0ecb61412f5
dd0328c7f2001538e609ff39b7f53305dfb1ca31211e34ee
34eb07231bd836f62d0b0c00e612ebbdbf0a364beadd2340
9cf4f407cef7cf124041db3f35370523b8dacd51d7101454
02bb01ef02c0bccc3807ddd518fe2be6bcd905f2bcd4ce31
27fa1be42f1d0ad0cca6c8a9c6adcbacfc2705f12ee013ba
c32522e3c5ca20e7fe29311d273f24df3bd55ae612211046
23eff1402443f5e2ed0b06d724fc39ead4e22626e2c32245
6103453502bdf53620ca22dac40106eebb1e332ac351f224
05dbedcb14d8e1413ce743cbbfe12cd4d51c33010bfced3a
d23945fa36cb1c31c704d60012b9ddc314efcbeb23d402d1
fef8d4f4230d0dfcdee7ed0dbfdf35dce2cf130330e1fb1a
cf17ea07f70fe5d11eec0f38d406c913bb3227151e1b080a
41071804eddc0b51d742ea3128abefcacaf5ded2eec54144
f13401282d00d535f015fff5b8e73ddad7c10d2ee344414f
17bffbd1d41136b1081eecec1b3fcfe13bde28cafc0c9ebd
dd41ecb8f22dc3032ee83adcfb41003dd6d517f12c121ecb
3dd6f005b6e6cfb61e1bd42f1801e2b625c2c132cfd02bcd
f2e8ebb5c320dfd715d40322f5cfd3b3e0181c001df6f4c0
c1e9423336e0d315f40fd3fa1dc219de2105da25fad8203e
dd362bfb22e9c4f5bfebe6cfd8cdc2e40dbff10bdfd7eed1
f3e10f16ffbbee2917f3030d30f7d5dbeffe34d0fff7eb3b
0b3ce3d610ccf5262ec413d4ed18d7ce0ec6d91b0dce31d9
dcf701fce025fffaedd020e60d391244311403113525403d
1d29f00bebbff7eb0bf3f0b42fe8090af23af722b93cf10c
2ff5ccf0f7cf1b29f3bcd2dedb2e33dd1214e517301bdb3a
1ce913c7d8bc27d7c3d70bd8210709e90eea2403d4bfde24
d4351232fe1cd7d8b4e52bc7e116ba010c2d1130e3ebcec0
290320e2fb33c603de0a16ecefc3bb05e534270901300329
bf1ad9e2f4dc37b8030eb829dc06f9b6d2bb2501b443ccd8
aebe35e425d6fae21933d527dcbbc6ebd9003ad4c023bec7
18b7271fbe0eaeefcbdaf030f12af3bfca290d0f27e8baf6
ff34d4ea3bc6d419cc230021b3c0e417252a1ceff2d0efe9
2ff31efebd02280a141bedd506eb2a3129e6fbf306f60838
09c426020ef7cd2de749de26ca0a3b27ce421b39ca18e227
20191bcbcafe1d0414b827d7e634e0f5ebcddaeee22907f4
17c92a2121fff135eceae001c907154025203a162346d616
cc0e1c1db0110005cd1f02f814ff05b8f916181cfcbccdea
572dba41d4c61536edd809c2be1fb0ebc22c32e0df140aed
29ed2ae9d9c236f81fc2dd03ec37fbfed2c4f70ff5ca3128
14f00a15e7c14acf1a1204e702d018d4d632fbffef19ec31
3506c018f632e7e3b11f2cb926e70bebcc0cb4d13adaf53a
cadfc4fe1731d5ec0bf60ebf28f52db8e1ed021a0d0fd537
2c201db5fb1410efe2221907172eb6bcde1bd5f9e9383525
bf062b2d17361001d1051afadc01d3c4d100c3b8c82f1737
27cd21d8b50837201cf2cc18e3cef7c616e1b90be23a463f
e0ffb9efef0bda1e3a13d4ccdd1afe23c13c2c0be636243f
28d12118d917d939b8d80fd3fee81cb2c2c53dfe04e3f4e0
39e4c2bbb52a2bbdf3ff20b3be330ccc1c2ee10b1e2ec60f
bed7d827e004e1e61b14bcef38b503d51f1239ddd2ddf50c
c52a332df727f40500d1effbf5daea39b91ccdcf1a20bdbe
b8d904072a2cce32ec1fc0c2da003cfe16b2cf122df4060b
3f19b9f9c3c6e9f3cc3ecbe3e23a181d2ad020c4cf252dcc
f6ade3251e0f14feeaa4d30dc1dbbce1ce1e2023f4eb0df6
d4e22ce1d2fd0023091fb719b7b01bd3f80bef1bc4d5fb22
e7c8ff00e910fae042c86d17191cfe2733c6df3d330902f1
3134af07d1f6e9cdc0eee115d0331510ba072f2f12f8edbc
0c06ba2ce7cbb414c6294708c031f4b70ac0ca01f1e4fc37
dc0edd18b716aa33d61dd0ae1fc1cd063134d4f6e2e10213
b8e2ef1321e82e1fce342711d1d314cbe428c9c1cd16e2f1
f7cfeb1ae20dc3e63ce7f9332a1f16ffcfc5083b3f11e9f5
16fa28d608ea0de732e0d1dc13c0e71f061bec3206bae92f
d9bcf5ff453fc83dcf1e0a013ef1dcc2bdbfe2c9e802c103
d0b1c2c61fef14f838f335f0ee3bd7272100dd0c152909e1
d318c616b5f2e231f9e1b8bf11bce2c30a2120f72a1b3ed6
f0c611d4f1f2e6eafe1a39f6d61526f1f1d34445c445e2cc
fee8de04f7f4ca251ec54922d357f93c44fbeffc1d223c04
e6b3dfd52af2dd165df71f00c61c33e62bce31072618e62e
d608e9d4d4e5e4d43e2fcbcf1c0bb30b2408f7ff12d035e9
e4db3225f0f627f6f8140bb91818c1f3282213d8f21d2db9
f6fd2cd812254e10e3e181f131a3d1e7ee3859e6fd074f5a
0acc230a12e00b3742e9560ae136db05faf5ea2e483b1a2b
44fafeca0bd148565cbb4d223e0ed6e92c34f0fcfd38f418
b3ab210d1702243930f13f3a2f042f2e52c22ffa2bf0ecd4
1726c733213e40dc4300dfd218d83205f3cdeadf33f3f21d
4202bcdedec11deb0ecc6b2ae44bd1032f2cc0f70d20b52c
12c0f8241119f0eddbbc1ecde255013455f6f731c3f70a29
ce13ddca68d4da1041c506dfda2d40323aec22485c5fb51e
1de0cb0170f4fa23590d282cc00bd8e558f6d50a4d57b70c
50f4411108022fbeec40b40a001811feceff27b7d3f1d002
d3dc0bbe14d2c7c40dbfc121e040c4bae6023435bfdb16e4
d5deb412c8cc02bd352327e91420f51424d8eee0d6fc100e
181e15f0fc0222df03ea37c8c632cf072ae205bc022ebb35
e9fd32f317d01f4d5bcd08f5c44349f30c04d8e931112905
f8e8e2f339edcd22eccc01f0bf03c834f9e50abbfa3cda23
f513e42b00040520d9cbeeda1839bce9ff1bbcbd29fb25f3
e5e7ee1c2031c2dffec32bf9fcc0153b060c2b31c225bad0
fe05fdd5c116f54e1bed8bdcffd94305b5024310be1f342f
3739bb1107fc11e727c01c22ece4d5ec2ceb06e1dc2c1026
ea150e081edd0d3a1502f20922d1badafbf02fe822fe421f
2dcb1002ec2fbdf5f3dc1f3705cb253fd80433bc19c900f7
0ed5d20527fd08fecfcffe30b10cff1e0edf160a3b032341
0430e1d6fa15d10cecf1c6be01bed6e425ac1220f32fb8ca
0bfcf6b409142a38d237cc2df10e35e1b8f928eee3c02ffe
f42d380bef24d202d21124fb02cbc0cac206cc18bb39dc29
1dc4f317cd01db2bee22090f11d3b8b0b4303409eabb111d
2a2d0d1ebf043920b9fdeffebb2b0bc1020cd7f9e2fb1141
23bebec5d400fbb9d108050fe2ddb8f219223529293df5bf
e4dcc6c4d10a04db0ce51aef33f534c4e8dec7d9d8eff413
27b525f9f1b8ee0b021dc4da2519e32113fcc5210d3a3007
d5fe16da28cc592cfcf102c733bbecccbb1af0fae9c81a2c
af3610e2dbe2f62bf2d1032b31b024c9b02ff3c62ab929cc
4712e6181b2a43e6c6e644daf000c93629e5ec1251000308
f632d2c3d3ece6e43adac709e4d902c042c2170df1e3d4f7
3bcae4244a39481b43e1033b3dfb1ef342f0e03ee8e1ed5c
d6e6013005c9fb383034c6c0db22d5f6ebb90df2f4f32e3d
1fe6f3e6f10934222e18e9f4160a09e2e6d5fc0d270ecc15
