e0 d0 45 a4 09 aa e7 ea b5 09 3e d9 f5 e0 e2 fb 3d e9 c1 22 db ea c4 17 0a 81 05 d6 06 d7 c5 af ab 2e 5b 74 32 ba 13 0a 0e e0 03 ac 15 b2 b6 35 00 ee ec ea 60 bc 1a 46 17 f8 f8 a5 f7 59 1e c6 e6 a3 7f 52 f8 e7 ff 38 0b 39 fd e0 e9 5c 2e e1 c7 bf 25 81 e8 f0 cf 1c 19 21 dc dc bc 3f 19 29 05 e2 37 25 18 c4 58 2a c7 3d d9 2a dd d4 7f 31 12 28 dd bc d9 01 10 41 cb 30 5b 43 55 e7 da f7 2e ff 7f c4 eb 4b dc a7 5e 1c ac 3d b6 37 70 8c 81 40 3e a9 81 1b 33 23 c8 ec 0a 09 d9 d3 95 2c ef 0d f1 df 2d cc 0c 3c a5 03 53 36 fb 52 ed 25 d2 ff 0e 7d 98 05 30 02 81 38 2c e0 dd a6 53 46 27 52 d3 16 fe 9d bb af ec c7 ca 12 eb fb 44 be 3b 2b e3 f4 ee ba 14 e9 31 d0 24 6d ff 8b 3e 7f ce 83 ce 3c 0b ed 51 64 26 c8 35 ae b2 d7 d9 f6 ce 47 43 2c e9 3b f7 c7 15 1f 23 47 1d 43 26 40 b7 24 45 02 f0 24 fc fd ee c9 df f9 c8 c8 26 4e 36 0d fb 44 b7 3c c0 0c 81 e5 ee 10 40 98 94 c4 