c5 85 e7 1b df 06 f9 d6 ef ca de e8 d7 e3 ed ef 12 ba 15 e8 e8 c7 0b 23 1d 07 fe ca f8 1e 0a c4 30 bd a4 fb f1 18 0c de 90 c8 f0 e0 ff aa dc 1e 1d f1 e0 ff 30 2b 08 d9 f2 13 e6 21 d4 15 37 f7 00 c8 bc b6 a5 ea ee c3 08 d8 e0 14 da d1 1d 2a d1 b6 a0 01 11 f0 d3 0a 25 bb fb 20 96 0c df d5 04 e4 af d1 e8 ca 81 1b da fa d4 f3 d7 c3 f0 dc 23 ea 0f 1a c9 b0 e7 e6 d2 df 0e 18 a5 e9 25 1e dc ab e0 c5 0c d6 28 04 fe e2 fc d8 02 ce 09 eb 08 fc 0d e1 1a 06 0c dd e2 07 ce fe d2 16 06 1b 2d dd c1 22 39 33 07 35 db 00 30 e8 d4 da 0b d7 0f db ea cd e4 c4 06 2c c8 17 ee c4 d9 0b dc 0e f5 e0 dd dc eb c4 1a d7 fb 03 2f f4 12 fa e5 f1 e0 de da 00 ef fb f4 c6 d1 00 a3 01 a0 03 b0 27 21 f6 e9 0c 32 0c d8 c7 08 06 10 0a ff f9 e1 fd c0 f9 f5 0a d7 da cc 10 e9 13 2c 2a 06 33 00 d8 c6 c0 eb 2b dd 22 f9 ca c3 eb 2d e6 35 da 28 0c d4 e2 cf 1e 2a e1 d0 ec cf 1a b8 2b be cd 06 da f5 f2 c0 26 c7 eb e1 05 1c be f2 cc 21 d3 10 dc 13 e7 15 c6 2d e1 2c 00 cf 1a d6 2a ba 06 2d de de c8 f4 14 f6 25 15 27 bb fc 06 12 d6 16 00 dc 0e c2 08 23 e0 1b fe f6 27 e2 e2 ca ea 1e ce 06 ce d3 de db 03 0e fb c9 cd da c9 e3 d9 d8 f5 f2 c2 e1 d9 e8 e5 f1 f2 08 c1 fb 08 d6 05 f4 1f d8 c8 31 31 1b f1 fd d5 c3 14 eb d3 41 11 d2 0c e7 de be ce d9 d9 21 bc 09 30 e9 a9 f9 db af cc db e1 34 10 e5 23 ec be d6 1b 02 ca cd d6 33 3c cc 2a d5 d0 e1 20 ce da e6 04 bf f8 e0 21 34 05 2b 