bc 4b fb e1 da 04 09 8c d4 9d e2 0b c9 e7 f3 fa 1d d6 cc a4 e5 b1 06 1e 05 38 38 d1 bc fb dc 24 1a 7f fe dd d6 eb c5 ee ef 0c 16 81 17 fa f1 f3 fa c1 f8 f4 11 28 f0 a5 28 09 3a b8 d4 f9 fa c0 c8 b7 23 0c 23 3a a5 e4 c9 2e ce cd df 26 f9 9b 45 17 c4 bc fb e6 41 f8 06 29 68 4b 13 3f 2d fe 08 59 7f 12 fd d7 1e cf 59 ae d0 4c c3 34 b1 b9 43 45 ea a2 f7 5f 97 1f 40 c8 2f 11 1f 81 34 a6 1a 64 a8 02 11 d3 c2 99 fd 13 42 2e f6 2e e0 a1 e8 09 3b 41 15 be 02 11 13 25 df d9 00 b2 2f cf 49 31 32 87 b6 e8 05 c6 4a 06 53 2d 72 68 64 12 3c 7f 2a b3 39 ea ba ee a5 16 1d c1 02 27 b9 49 e2 25 1f 27 dc ab d0 07 11 ff 81 b9 f6 dd a7 16 05 db 12 40 30 1e fd e7 4a 0f 21 0a 65 bd f8 7f c0 22 d4 b0 49 39 e2 43 2d 26 1b c1 00 95 c2 0a ed 5b c4 0d 67 4a 10 2d 91 66 41 3b 17 f3 10 4f 35 e5 81 37 3a c2 32 51 3f e9 ad c6 22 f2 f2 07 d0 b1 9b 55 94 0f ed c6 df 0d c9 27 9c ad 99 59 