28 1d 35 da 1d d2 24 c7 df d2 ed 21 aa 0f 05 11 f3 d6 c2 c9 cb 25 a4 b7 d5 f5 d9 1c c8 e1 d1 28 c2 d1 a8 ba e2 22 e6 e7 a2 06 2d da 09 0a dc 0d c3 d0 13 af c8 cf fe be 33 19 cb de 39 e8 e3 07 d4 bb 16 c5 ba 2e 11 ee d4 13 db e8 8d f7 c3 19 0c d3 ec ff 97 d2 a1 d3 d6 04 24 c5 d7 95 cc d4 e5 e2 81 d1 1a f0 1d 33 9e 0f 0b 14 9d 2e db f3 da 04 ed 88 bf 38 30 bd 24 86 c8 45 07 93 eb 10 c9 c8 e2 dc 35 e7 c4 df d0 1e 1a 0a c2 06 bf c8 1b c0 0d f4 c4 ea c4 c1 09 da 23 1d bb eb d1 07 b8 ca d0 e8 e5 01 cd 05 f0 1d 20 04 12 2d d1 28 e2 36 2d e7 d5 e1 d9 c3 2b 20 16 ee fd e0 36 c6 00 ec 08 cb de 08 c6 d9 2d 12 e9 cb ef d2 08 1f 07 fe cb fa f0 c5 a2 f7 0b 2d c4 08 f6 b1 06 0f fc fd c2 f9 cf fa f8 fc d4 c7 16 ef fd 33 27 0d e3 ed d5 da 29 f6 f1 07 24 db 02 08 22 f3 fe 00 22 df f3 c7 dc 10 11 03 d9 03 cf de e0 1c c3 f5 ed c8 d9 df e6 d7 f7 dc 1c 14 f9 13 e2 bd dc 27 c3 bf c9 eb c8 1b ea f4 dc de 39 0e 06 3a c7 c4 d6 cf d6 1e 13 02 38 28 ce fc 1c c1 0b 07 0c 35 21 ec f0 ba e9 ea d8 37 e2 cd b6 09 ce 08 f1 f9 15 d0 bd 3d d4 c6 92 d5 e9 0d e3 06 ef c5 c7 d8 f2 e9 ca e2 e0 d0 c5 bf af e6 d6 2c fc 0e c3 c9 d6 e2 29 d4 21 32 c7 f2 de 03 fe 03 06 9b 36 f9 e4 05 2c e5 cb d6 ed 34 e2 26 07 24 0f 23 24 f0 ee c9 0e d0 2c cf 18 2c 10 30 e5 9b 2a 44 3a 3b 1b 35 0e 1c 89 fd 29 d0 03 c5 fc fb ad 11 d1 0c 29 00 dd c1 1a de c4 fc d0 ab dd fd f3 0b e4 e9 