ae cf f5 01 5d be 93 4c 27 4b 0f b8 81 14 fe de ba b9 10 7f e9 dd cf 1c 20 86 f3 8b e2 1b 38 c4 34 51 44 9b f7 1c 19 dd 5f 81 2a 21 d5 1b e6 21 bd c8 c3 f5 ed 0d 1f 89 c4 e9 f0 c7 88 cd 2b bd 09 4b f1 c5 ea b0 7f 5c 