c8 03 0b 04 19 c1 f8 dc ea e4 f4 e9 0b c6 c4 0e ca 2b be 2f 0c dd db e1 23 fb ea e9 01 ba f5 10 aa f3 20 b0 c1 b9 2a b4 2e 03 dd bd 1a e5 28 17 33 02 ee 24 17 ed e1 3e fb 30 de de 13 17 17 b1 15 ae 0b 33 1b b5 ee df fb d0 d0 19 07 0a 14 1a 36 27 ea 2d ed f3 e1 fe cf f7 d1 e3 0f 26 0d 0f cd 13 e6 2a db ea 04 0c f2 04 2a d3 d1 f1 0a e6 ef 30 d1 34 ff fc c7 19 09 0b ed eb 27 c1 b5 cf c2 07 29 ff c3 13 06 f4 05 ec d1 16 e0 d0 dc d9 18 2d 0a 28 ed d9 2b 1e 3c 1f f7 ba 12 2f 25 46 1b 38 e0 0e 26 39 02 c0 22 43 16 0c 4f 3b db ec 36 40 0b e1 07 0b db 4f 32 fe 0b f2 fb fa 34 3d 1e 00 31 da 1a 00 18 de d0 af fd 11 ff 58 b4 ce 0a 40 f7 f1 f3 24 1b 20 06 f0 eb f3 e5 ea c9 c6 fb bb f8 fb f0 c6 35 20 32 28 e3 d8 ea fb 19 f7 0e f3 d8 d3 0f 08 06 f5 33 ec 2c c8 03 25 ff ec 1d 12 e3 fa 08 12 da ea 14 37 26 e8 0e 1a 15 fc 46 07 10 c4 d4 23 f5 db 0a 0f f2 29 f9 cd e3 cc 3d 37 ed e8 03 02 3f 21 e9 04 d6 0d 37 05 e5 25 34 2d 46 c3 21 ab 05 44 cc 4d 25 05 00 2e ff dd 04 39 cf ef 28 17 3e f9 0a c3 fc e5 20 17 f7 de 3d d1 38 0e cb ee 08 2f 12 38 fc ed 06 f9 13 20 ef 1f 25 ce 4a 0b 2b 2e cd cb d8 e7 dc 31 1c 01 12 10 d9 cf 10 34 4b c1 f0 e3 24 f1 21 1e 09 eb 03 e3 43 f0 0a fb fa c3 e8 ca 34 42 c3 f7 23 cb fe f2 fd 21 11 fe 16 ee dc 22 e9 27 db d4 37 d6 f5 10 17 df ef f3 1a 2a 00 d6 fe 10 e8 d7 c3 d4 2f 2a f5 19 d7 e1 eb f0 e9 ed be e8 1b e2 f4 e1 e0 07 e5 fd fa d8 d6 2a 37 19 c5 c0 f0 0e bd fb 02 eb 16 e2 fd 2b b6 f4 0f 1e 13 2e c7 e0 e6 06 d3 b8 15 fd cf 04 06 05 18 c2 09 c0 23 c4 0f e5 15 1a b9 bf fe fc 38 05 d9 1d b8 f4 d1 32 b8 db f4 e0 32 14 c7 ec d4 0b 2e 25 12 cf 1f d3 e7 0f e9 d8 13 0c 42 03 de 22 eb d6 ce fb be 2d 32 fd e3 01 e6 04 cc 17 e0 ed f5 0e f5 1a 25 33 b9 da 2e ef 0a 05 12 f7 3a 15 d6 14 fa f1 17 f7 e3 d6 0c f0 c8 bb 2e ff 23 d7 eb 15 24 bd cf 02 e0 fe 21 dd bd e4 06 ea 0b 36 2b ce 3d 1f 39 26 cc 20 34 33 f9 d9 e8 d2 1b c5 ec f9 f9 2f 25 d1 dd 27 d4 bd f2 1d 37 b9 e7 cb 19 be 26 c5 dc 2a d7 e5 25 17 1d 12 eb da fe fc 2b fa 0c fb f3 19 10 f6 f6 16 d2 f2 0b 17 df 2c f8 c4 e7 16 fa d6 01 fc 32 25 ea c7 bf 1b b8 ce fe 21 e5 d3 c2 05 23 af e9 f1 25 02 bf 20 fc f2 c4 d7 dd d3 2c f2 1b c7 2f 20 11 14 c1 30 16 23 1b cd 2b 13 b5 2c 03 0b ce bd b2 27 d1 b7 29 d3 b5 0e fc 2a 20 1e cd 0b f1 c6 e1 12 0e 22 ed c3 1d e6 d9 f8 f4 d2 24 f7 fe da 2e 11 d3 23 dc 0c 23 29 bf 03 e8 fa 1c c0 c1 14 2b f5 f8 c8 c4 e8 d2 08 1c be c8 d4 02 23 31 eb 31 29 d6 d2 c9 18 c1 12 f3 05 dc 00 f6 f1 d0 e5 36 e5 29 ef e1 30 ea 33 06 3c ef b7 df f8 f3 06 02 d9 b8 20 c2 bf be 32 c8 d7 26 14 1f e0 f1 20 f2 cd 26 cb 18 b9 c4 cd 31 ee 22 0c c4 18 12 f8 dc c2 19 38 fc 01 36 e2 0f 21 ee 10 04 fe 2c 1e 04 1b dd f8 dd 31 c8 c6 e7 03 d3 d1 f8 08 39 d3 0d 06 bd db 25 09 32 d7 16 df 0b ca 2f 23 fd 34 f8 03 3b 34 bb 32 2f d8 05 2a e7 0e 31 2b 02 e7 d5 d9 49 c4 c8 bc 19 da 11 ee 23 b0 f4 02 fc fa 33 1d f1 de 2a f0 e9 2b c3 ef 21 cf c1 f5 d7 bc 04 c7 d3 ee e6 13 34 e1 c3 1b 20 b2 f0 ea 3d 18 c7 0e fc 1e cb f1 eb e7 c6 d1 11 e2 1a 17 1e ef 35 c6 ed da 38 fd 3f 2c 1a d1 e5 1b 33 0f 20 30 ca df d7 e4 fa b9 17 00 bc f5 2c ca c1 db 09 bf fb cf 2e bf ee 11 eb 1e fa 3a 3e 0b 14 30 f3 f5 d3 3c ec ea e3 be d1 e8 06 2d cb 13 f7 f0 ce 31 e0 da dd 02 fe c0 06 ec 1f e9 d3 e1 f6 db 36 da 15 c5 cf 1a bb ff c2 2e d8 c3 c8 f1 07 f8 1d e6 0d f8 ed d4 d2 06 fa f3 c2 c1 24 dd c8 d2 c6 ec e1 e2 20 36 f7 08 2e fa f7 35 cc fa e4 c9 36 0b 28 e4 2c f5 de f5 f5 e0 fd 06 d1 e2 16 e5 e9 33 24 17 e9 16 d6 2f 2d 1d 1d 12 c6 d5 c1 08 09 07 2f 0d 2a 22 eb 29 fc d3 f2 16 fa 13 df 19 08 d4 0d d0 fc 20 37 16 18 e4 28 02 f6 e3 0d eb c7 21 1b 32 cd cf d8 bf 22 19 e4 e4 de 24 dd 16 cf 05 e2 bc 16 c4 d9 21 e3 e7 ba f9 1b d3 31 00 f7 dc f8 eb e4 1b e7 c7 e9 35 c9 d5 1c bf c6 32 c0 1a e6 c1 c8 33 1a 2c eb 11 f2 ce 01 2b cc f7 ea ca 3e ea c0 22 21 f1 d8 c7 41 11 49 ce 1e 2a bd 36 12 f1 fa 3c 2e 34 ef e6 ed 22 07 cf dd 1e 39 f8 c9 f0 d8 12 e8 02 c6 02 43 e4 ea ea 21 12 fd 24 d6 18 34 df ed f2 d4 fd d2 eb cd 3b 31 1f ea db 47 d0 eb 1b 31 30 e4 f5 dd f7 ce 42 13 1d 37 1c c4 2e 1e e6 29 0e d3 f3 f8 25 e7 ea 07 09 24 ec 06 f7 01 3a 12 c7 ce 01 1b 13 b5 ae bb 22 21 46 df 10 e2 f7 35 1d fc c6 f5 ff 3d b4 1e f9 45 fc 4b c7 f2 02 09 05 ea ed f7 27 27 02 03 ce 93 20 0e f3 1f ef 9f fa e6 10 fb 10 12 08 3e de cb aa d6 25 0b 1b 32 ac c1 e4 31 c0 30 f2 cb ff 11 19 dd fb fc 1e ff 17 de 2e 07 db 33 16 d5 1b bc 17 28 e5 14 f9 fb f9 da d0 0a cc e7 fa 22 06 0e e7 e8 e0 22 23 f6 12 05 ba 2d f5 00 29 d8 0a 07 e4 0a 23 b5 27 1c de eb c5 f7 e5 ee e0 05 dc ce cd ff ff 27 bf e2 b9 e4 2f eb 26 e9 1c fe f7 13 1d 01 ca bf 08 ea f5 e6 f0 f2 cf f0 08 0f e9 15 0a e0 1c e4 1f db 24 ea e5 20 2c f4 f3 01 c1 0a e0 18 2b bf c7 02 11 cd e7 c8 34 10 15 c5 19 e9 fe 36 1a 12 23 1a 13 2b f8 1f f6 ec c5 c2 22 33 ce 25 1f e9 c7 d5 31 f7 e5 08 17 1f df da 05 2d be c1 f8 20 d6 c7 ce 25 30 eb c9 23 c3 32 05 14 d3 ce c0 db f4 c0 db 0c b6 c1 0c 37 2f e6 20 18 b5 02 24 2f 1a c0 1a 2f 18 e4 d3 da fa 17 0f d2 c2 2a 17 1d 04 d9 2b 32 de 2a 0b eb 02 ee ca 0a 0f ef d1 29 18 11 ee ca 21 c2 e0 1a fa ed d9 02 2a bf 01 19 22 ff e3 c2 ff 0c 0d d9 2c 08 04 34 29 24 17 e8 e0 d2 0d 2d cf 16 f6 25 23 36 fa d4 d0 d0 33 05 ef f3 34 fa c5 22 1e 02 d7 ce da 01 db 22 0b e7 0e ca fd 3c cd 03 dc eb c7 0f e2 e2 24 d4 dd 1d e7 01 e6 1b f5 12 e9 eb 28 2d ca f6 d4 d8 34 2a 2c 29 23 d8 ed ff 39 1d 2f fb 29 14 45 ee 44 14 e1 d3 00 0d 3b 34 f5 2e e0 f3 3e 31 2c f9 4b d2 ff f1 33 1e ef fe 10 15 22 14 27 ed 01 5b d7 27 12 ec d1 29 30 40 17 d2 27 1a 37 21 d5 c0 2e dc d0 09 3f f3 22 26 c5 26 d9 10 34 30 e5 ca cd 2a 07 08 ca 2d f1 18 07 04 1d eb d1 d4 28 32 e9 52 d9 e0 f8 f4 f0 d3 35 e3 f6 36 20 28 09 30 d0 fa 0b 07 eb 1b eb d8 d8 ef cf 31 28 ca e5 20 02 20 f7 cd 3b bc 11 02 f1 08 d5 2a f2 2e 1f f2 11 db 24 c1 dc bd 1e d7 db dc 0d 0e d2 2f ff 2a c4 ec 03 c9 e0 0f 1d bf db e3 3a 3d e5 e4 37 c3 12 1e 30 2e 00 e3 22 b9 0a 29 19 de d9 e1 f6 ef f6 1a e3 d8 d9 ec f2 e4 0c 2e f2 13 fb 2b 07 3f d3 26 f7 ee 0f 0a f4 11 16 4f 22 ff 16 03 ff fa f3 c2 d6 36 0e 2d da fc 0b 3f 1b fd 17 0b 37 0d 2d 1d 0c 2a 3a f2 3c 47 0d 3f 62 13 3c 50 29 e1 36 1e f1 2e cb 42 e7 25 ef 11 29 0f f2 34 27 15 19 31 35 16 29 f0 f9 d5 cd 41 33 f5 3a e9 53 e6 bd 58 d9 43 d3 14 dd 04 e5 de 01 21 f3 3a b9 01 15 39 41 da d3 eb 39 53 cc 5c 28 d7 1d c2 15 cf d8 2d df f6 cb 34 e2 e5 fa eb d4 33 da e4 fd 1f 05 08 07 17 25 37 37 d2 0d 29 35 ee c2 c1 e3 02 42 cb 14 1b fd 38 d3 3a e9 ff f4 28 f0 bd ee ce 2d 1e 0b c4 10 2e ee 22 c1 2d dc c9 d8 1a d0 29 1c 2f e2 36 0e 25 27 24 0a f2 eb 11 c5 ea c6 fc 33 cf f6 ea ff 1e fb 07 e2 d2 dc d3 d9 ce 20 be 2c d4 fa 2e 02 c7 f6 3a 35 20 04 d0 dc ca 19 dd fc 22 ef 41 06 2c 0b 07 c5 33 00 f1 d3 f8 32 f0 d0 f8 05 2d 14 ee eb f3 3d 11 db 2a 29 e9 d7 13 1a 08 f8 31 24 09 cc 0b f3 c6 e6 b3 dd e1 04 09 f0 e5 d6 32 12 e7 e0 02 e8 16 cd f5 07 21 c2 17 2a 37 dc f0 f7 2b 25 cc 13 0e 2c e9 fd fc fd d8 e6 c2 28 de 03 f3 28 fc 23 35 21 06 ff 14 07 3b d7 0c f0 df 01 20 0d e4 f0 ec c9 36 28 f2 df d0 1c 19 dc f3 e2 1e 1f 1f 09 15 10 f9 34 e7 df 06 be e0 cf e1 02 dc d9 0a 32 dc f0 d4 3f ef 1f 2e 06 16 e0 02 1d 02 ec 25 f6 14 32 f7 e8 1a f1 01 f5 fc 35 2f f8 e9 e5 cd 16 d0 00 e1 eb c9 2c 1c fb 32 e4 17 de 34 e0 f8 d8 fe c8 2e db e1 fa 2e 0e 36 34 50 1c ed e7 f2 35 fa 22 fb 03 29 f4 e9 08 13 27 da 43 2c 15 0c ec 20 d1 ed 2f f0 fc ef 26 f1 fc f0 2e 36 03 27 c0 ed bb 0f e0 33 d8 16 e2 df 21 45 d7 f3 d4 f3 33 53 24 0f 39 1c 2e 01 42 3b f1 52 0d de 0c 39 02 07 ee bb 26 b3 0c f0 27 e8 de 36 35 fd f0 20 c5 03 0f 1c f7 17 20 07 25 18 0d 06 cb 25 32 e5 e3 ea 20 29 ce d4 1e f7 ea cb 19 bf b7 07 34 25 b6 11 04 dc 2d f8 fc ea 2a c1 f4 ea 10 ed cb 3b 0d fa ff 22 de 1d f1 fb f3 c9 c6 16 f4 33 2f dd ec dc f2 06 cf 2f d5 3a f5 fb 3f 1f f1 db 3e 0d c1 ec f7 f6 10 12 c2 ea cb 04 ce 1b 13 2e f9 df 33 d9 30 0f c9 ea 13 e4 d1 e4 13 c5 c3 c9 15 15 21 07 0e e2 d0 1c c6 34 bd 2d 1e 0c f3 e6 fe fd cc 31 0e ed 38 e4 f4 de d2 33 ef e9 d2 05 03 cc df 0b 37 23 c4 ce f9 08 dd e9 30 f2 13 2f cd f6 f4 0d d9 39 fd 2a f7 19 c3 ea 3a c5 02 0a d4 e7 d4 e7 ca cf 3b 0e 1f f9 3b 08 16 ee ed 4e 10 27 d7 ed 2d 22 f9 d4 06 f9 fe 19 3e 05 0d 2f fd 1a de f3 df d5 0e d3 12 27 30 25 30 3b ce f9 23 f9 fe c0 c6 23 03 fe f6 29 07 12 3e f8 09 49 e4 ee d6 e0 ea 18 10 32 05 35 18 e9 e3 22 32 e1 1a eb 09 ed 04 d0 db d9 0e 35 22 d6 e1 0e 39 10 02 32 f6 24 d0 39 fa d0 11 c0 f1 eb d1 fb dd 16 3d c9 02 1b cf 33 0a d7 d9 e3 1b d8 07 02 b7 ec ba 01 28 f1 42 fc 1a e9 ef 25 09 00 c4 e2 28 06 e0 d3 d7 fe d9 33 16 04 1b e4 10 c1 d7 e7 d5 0e db db de f0 15 fb 35 2b c2 13 42 d8 eb 1b d8 c4 e3 2d dd 2e ba 0f 20 09 1a 3a 00 03 25 dd f3 ec 28 dc 1f d0 10 d9 e4 23 e9 0d fc 03 29 1a 0a bb 38 ef d4 46 24 de 0c dd fb 1d c5 1b e2 08 02 35 f3 c8 2f bf 16 c7 f4 f3 1c fa 4f 25 04 14 34 27 15 08 cf e8 19 15 d3 eb e2 fc 0e 26 31 40 c4 d1 bf ff e7 2b 0a 34 d9 37 ce 37 e0 00 fb 1d 28 19 f5 df 11 27 f7 ed 0d 09 e2 f0 14 2e 01 ef 11 f1 15 39 1c df f1 f4 2b f6 3d 02 d6 d5 bc 31 ff c3 c1 c1 d1 fb d8 12 0c 33 ba d0 1a ba d2 e4 cc f5 bd b9 f9 cd 26 de 1f d2 22 d8 34 27 fa 01 20 2e d5 d0 12 05 d9 31 e8 c9 b0 09 24 09 b6 d8 23 f9 ca 0c 19 29 2f 1e c2 04 f0 35 0c 08 f5 ea ee 01 f2 fb 1d 13 c3 fb f7 1a bb 37 17 bf f3 d8 eb 16 bb 1a 14 00 a8 e6 28 c0 d4 0e 0e 29 cd e2 cd fd 14 b5 f1 b5 1d fa 1d 0a cb fe e6 d2 0a c4 39 3a 22 2e 16 30 27 1c 30 d7 47 25 13 06 d6 15 05 0f 23 24 dd 1c 0c e5 2f 2d ef c9 0d 25 07 ef 05 ec 09 d9 09 46 00 e7 da cd ea 0d 2e fb 0e cd ed d9 dd f5 1f f4 0c 2c d1 2b 0a 2e bf fa 53 f7 2c 4c c9 bc dc 2a b6 1b fa 16 f5 1a 24 3a d9 f9 ce f6 e2 1d 15 c9 d3 fc 2d 3a 42 3d 16 33 2b d3 39 f6 1e ed 20 17 14 e3 04 19 24 06 26 f8 f9 fa 33 dd ec 3a fd 0f 40 20 61 30 1b 21 f4 f4 00 13 db 43 fe 03 2a 24 7f 3e da 60 ee 1e dd 10 e3 f4 59 02 28 3e 20 46 fb 14 e2 4b 33 bd 1a fd 0b ea ee 19 0e e8 e7 c8 2a c5 2e fe ff 08 ff fc 2a f1 fc ef e5 fd 05 1a 38 c9 09 fb 1c 5a 02 03 b6 f9 ff 08 07 0c d8 3c fa 13 0b 4b d5 f3 41 1b f9 f2 0b 2a 3f 35 22 e7 f8 29 dd e6 33 23 df e5 fa d1 f6 05 2c 2a 3e f8 16 14 c9 35 c3 38 e5 37 e8 f7 1e d5 00 d0 18 de cb fd d3 d6 f1 19 0b 06 f5 1a 07 06 19 34 10 ce f3 fa ec 22 f3 03 03 1e 40 50 d9 1a 40 c7 c8 ce e8 0c 32 07 16 2e c3 00 cf fe db 0e de e3 17 17 cc 42 dd c3 ef 0b 2f e1 ef c6 be 28 0a 03 eb d3 13 03 23 0e 3b 16 d6 c4 2c 10 d6 cb e3 01 41 f1 34 1e 1f e9 f2 dd 0f d6 ec 1a 0e 35 ca ff 1f 10 25 c3 f4 ec 05 ea 2d d9 fc 38 23 0d f0 31 e8 22 c8 ff 18 2f 02 cd d0 c7 c6 d2 d9 16 cb bc 1e 0f fd be fc 02 36 30 ed bf ef 1e f3 f7 ea 0c 1b 31 cf e2 11 e7 bc cf f4 d0 f3 1d 02 dc 0d 1d 19 d2 e9 33 fc d8 31 dd 31 2d e4 e7 e2 3b ee f9 eb cd 00 f7 ca 21 38 ee 12 36 c6 0f 0d 19 0b 07 e2 db 23 11 cf bf e4 21 d6 16 3b f7 ee 2e f2 d5 28 bf e7 19 e9 11 22 d4 d2 2b 25 de f9 ce c3 c8 2f c5 0c c7 ee 3e e9 3c 14 2f 0c 07 d3 25 d6 d0 df 3c 34 36 17 ea cb 09 c0 cc 15 27 fd e3 d2 e6 c2 d3 fc 19 ef 0e c5 ee c7 c3 ef 1c f9 d8 e2 e2 18 f7 c8 f6 f9 f6 1f d0 18 d0 d5 35 07 06 e3 cb f2 2d 01 f7 e6 5c c9 d1 03 c4 03 f1 d6 2f e6 11 ea fc 22 9c d5 e6 e5 1b 34 c4 f1 de d4 da f1 ce 3c e0 d2 c9 1f f5 20 d0 02 e2 f6 3d ec 39 2e e1 15 e8 fd c7 47 fa cf 42 11 17 46 e5 e6 34 3c 27 1c 17 e3 40 eb 3d 33 0f 10 e0 41 14 11 0e c6 f0 4d 0f dc fe 11 fc 1f 3f ec 41 0a ec fe fe bc fa 0c f8 5f f6 15 3c 0b 01 05 bb 02 30 35 31 26 20 e8 0a 24 d9 f4 ec f1 f1 10 0b 23 1b 1d 18 f8 a5 c8 af cd f7 e6 fb ed 26 38 32 f9 ee e5 11 e1 02 13 02 1f 03 d0 e3 03 03 e2 22 4e 0e ca 3e 18 0c 25 fe f4 e9 c8 1a 0f 37 f6 12 fa 2f ef 00 05 1b df 05 24 f8 eb 0f 4e 3b 28 0b d5 fc 01 eb 0d f6 35 00 0c 2a 13 3b 31 09 ea ca 94 fc 48 01 16 f9 cd cc 33 24 11 da 15 d7 1d 2b 0d 08 e1 40 13 45 24 ee e6 14 09 35 de dc ee ff c5 2f 1b e3 0a 29 11 1a e6 17 1c 22 11 27 26 e7 12 0b 02 e4 e1 32 25 b8 c9 14 d4 bd f9 c8 02 20 0c e8 0b 2e e6 23 f9 17 e7 ca 0c 2f d5 26 f7 29 3d db cb bb 1d 10 08 29 2b cc f3 d6 33 11 d5 e0 30 1f dd 25 22 03 fc 18 0f e4 1a ce 27 e1 1e 36 d6 eb 34 f4 20 e9 b7 0d f4 d0 cc ff f8 1f 1a dd e4 ec c0 d2 c7 de fb 31 3b fe c0 c9 18 dc c7 2f f8 f8 f6 fc c1 22 e0 30 f2 ee 04 d2 20 c6 f3 04 03 32 c2 de e6 2e e9 2b e8 1e c4 f3 07 27 08 ee ff f8 0d c4 f1 ed 41 30 c2 e3 d6 ee d2 fb 27 cc 10 3b 15 db 39 eb c3 fc cd fb c9 eb dc 16 04 23 da c5 ed 1c e7 09 03 d0 cd 07 f2 28 16 14 cd f8 df d5 1a 1a 07 39 f2 ef 3d 30 fa 28 3c f6 e0 d0 fb d1 da 36 ce e9 d2 c6 eb ef f0 cb fd 29 d3 e9 32 0e 0e e9 f3 f6 05 d9 fe db d5 fb 2d dc d9 29 d2 0a 22 e7 cf 29 ce c8 c1 e8 fc e0 12 13 28 e8 f9 11 09 e9 e8 0e f4 c5 ff c1 dd d3 f6 d2 ef f5 22 ed 05 fc e0 d9 3e 27 c8 c4 23 c4 de df 04 30 06 2b c8 d6 de d9 36 26 33 3f ed c5 c1 e8 ec ca 28 dd cf 19 2e 11 0f f7 22 d9 fd fc 2e e1 25 23 de f8 2e 1b 3c 26 01 46 f0 0b 26 ec 1b ed 3a d8 f8 25 17 4b 3f 3e 2f 25 49 e5 ea 10 d1 c5 e4 2d e6 41 33 ed fd e7 14 4a 12 02 36 f0 0e 10 17 1e f0 16 eb 06 13 25 de fd 27 e4 00 ed 46 33 f0 f2 0e 10 d4 04 2b cb 2b 31 1d ed cd 25 cd 0f 0a 21 f3 dc d0 03 23 f5 fb 30 0b b7 fd 29 cd ed d4 fc c1 df e8 bd 2f ef f0 30 d7 09 db 27 c2 1d fd 28 ea d6 f2 2d 1c cf 31 d5 e1 c5 e1 d0 fb f4 35 15 dd fd b9 02 08 cd e1 dc be c1 f1 d1 df f2 2f eb 39 25 19 ed 2a df d0 3b 0a f7 c1 38 1b 16 be 02 01 ce 32 35 0f fc 2c 0a 0a ca 12 04 d4 16 21 06 01 0a 0c f4 ef 1a eb b8 e6 21 23 08 d2 fb 23 d8 35 fd d9 00 c5 e0 28 f3 f1 0d e3 1b 05 35 ff 01 e3 00 38 1f c1 dc 09 f0 22 df 0d 14 f4 d2 30 cf 08 dc 33 2f 0b 14 dc cb da e2 d5 f9 09 02 e6 3a 26 01 e2 ba f8 13 34 c9 fa c3 08 28 18 c6 0d f9 13 11 41 0c 2a e2 17 ef de 10 f3 15 f9 27 d1 2b 05 f6 2a f8 ec 0e fd f0 e8 32 d7 c6 0a 3c 07 07 19 d8 25 ea 3c 2f f3 da e0 41 14 30 1f 9e 03 dd 1c da cd e7 ea 14 d9 22 ec 23 33 c6 d9 27 0c bf c0 f6 ff 15 b5 37 d3 1d 2c 20 f5 06 d8 c0 1d d9 0c 2f 09 c9 08 ba 0f ce 28 ef bf 2a cf 16 f1 1c 31 09 dc d3 e4 31 21 be 2c 15 10 f7 bd 08 2f 31 d5 c6 e5 dd e7 15 c6 f1 1d dd fa 0b 0e f7 2b bf d9 1d e1 0b 08 dd d7 b9 c3 c2 c3 c4 10 23 e0 0a fb 20 da ff d7 dd d5 2d d9 ff 26 c9 03 f1 c8 18 ee 22 fe ce 0f f4 09 e9 32 bb fd 0e 02 f2 00 1d 17 c4 c1 38 f7 0b ee c2 f6 ea 1f ca da c3 b6 fb 10 09 21 ed c4 ca 18 df e9 03 c0 d5 17 1d d0 d3 c7 c1 37 02 2d 2c f9 da bd fb 24 c8 c3 f2 d5 0a 2c e2 f2 b9 c5 f9 e9 38 ed d4 fe ef 18 fb 33 11 f5 e3 fd dd 34 0a 17 ce ee e9 f9 11 cd e3 e7 e6 0e f6 ce 09 27 b8 e3 eb 2e f2 29 1d 31 b9 bd c4 ce 25 1b bc f2 c7 1d 0f d0 12 cb cc df f2 c7 1c 17 fc c3 c2 e9 19 24 38 2c fb 06 09 23 e6 03 14 16 2d 09 cc f8 e3 2c 1c 23 ee e1 36 c2 db e8 0e 30 eb 19 19 c5 b4 12 b6 bf b5 bb 05 01 06 20 e3 06 ea ff fe 15 25 08 d8 2d fd e3 e4 dc 03 ce 20 bc cd d9 0f fa e3 17 f7 16 2e 26 e6 15 ce 0c 35 25 05 c6 ff ec f0 0d 05 15 e2 05 f3 02 33 f7 e7 fe 33 f4 fb 36 15 cb 1a da d4 c6 2d 08 ed 13 04 00 1f 0b 0d d1 31 25 e9 e5 26 b8 2e dd da dd 07 e9 11 1c eb c2 2b e0 09 f1 cc d7 c1 19 fd d8 ce 0a d9 0f 08 22 16 0b e6 e1 39 d8 12 e7 e8 ee f0 ce 25 bf e7 d4 cf d2 11 f9 28 04 ad fd 30 dd 24 22 c4 02 f3 f5 c7 25 ee 19 2f 19 cb fc 23 1c 34 1c d8 b5 03 b6 1b da 3a 24 16 e6 15 f9 e2 05 32 cb 1c 0e c2 12 15 2a 1a 16 b2 fa 02 30 2a e0 20 24 42 2a fe b0 d5 51 df e7 d3 f6 05 fd f1 0f 10 fd 14 f1 02 23 fc ef 1d 2f d7 15 2e f6 ec 33 3e 34 22 e3 0e 1d ec 0d 34 e0 15 e7 00 45 e7 25 df 58 0c 1c 34 cf 2e 1d 07 dd 05 0e e3 43 45 f5 42 27 3b c5 20 99 ea 13 d7 42 29 b6 e4 00 07 cf 22 dc 22 f0 e8 02 dd 1e f8 fb f0 23 3b 1d 34 c8 e3 d3 f3 37 41 ff c9 34 13 c7 fb bf 1b fc ed eb 18 31 c1 2f e9 3a da 1e d6 be 1f da 0c f3 1f 08 3a fe 2a f5 11 34 31 f7 1e d5 29 e2 2f 30 2e dd 07 cb ca df 32 c5 02 f8 43 d1 3e 14 29 e1 cf 08 26 25 2c 0e 1d fd fb cf 0b df 3a 0f ca cf f1 f3 1b bf dc fd 12 51 e7 ea 2d 22 3e ce bf 1b d0 07 fe e9 2a 33 05 ea 09 34 d0 0b cd da c6 01 f6 16 cf 14 23 ec f9 df 31 12 04 ee 2e 2a b9 b1 da d3 26 0a c5 b6 f9 f0 c9 29 1f dd 13 33 f9 fa d7 32 e2 f9 f3 1b fa b5 34 ca dc 15 f2 c3 d0 bd 3f e3 ca ce b5 fc 3a c9 d2 18 f6 fa ec e4 31 bc f4 19 32 29 b4 32 07 09 dc ec 28 10 fd f8 d1 0d ce b5 11 fc 0f 0d e3 13 b8 ea ea f2 c3 06 c7 ed 34 33 1a 09 ff 00 c9 f0 ef 13 fd 02 32 bf e8 bc 03 35 f0 33 20 1b 04 20 3a 0b c3 d1 e4 06 22 1b e3 33 0a 0f 2d be cc fb 14 1b c4 e7 e6 d8 f1 d8 d1 b9 36 0f d6 37 ff cc 08 c7 bf 04 d9 16 c4 10 1f 08 16 0e 25 df 0c da 3d 2b 2c 34 04 d9 d7 ea 0e e2 c5 b5 0c d0 33 1a fc 16 bd db 1f 03 d4 eb 20 bd 1f 27 cb fd fd c8 c4 e3 ff e8 bf 0c f8 eb 36 e1 f3 c2 31 25 d4 fd ec db f1 01 e9 f7 0d 10 f3 d0 e9 37 f4 0d d2 c0 d2 be 2c 06 08 f4 06 07 eb 00 fd d1 21 c9 0b ed ec ff eb fd 19 00 03 cb 2e e8 ff 13 c0 e1 df 11 fb 05 1f ff c3 d9 0a 0c e9 1e 33 13 ff cd 22 27 0d 1e 33 2e cb d9 e9 2c d7 fd 1c 2f 28 f7 03 e2 bb 1c 10 20 e7 d2 d2 e2 01 de c3 ce e9 29 15 38 c1 d1 c6 06 34 f7 f8 f3 b9 0d 13 06 03 ed fa 21 fe c2 ce 13 15 12 cd 1e 0a e5 e0 f4 21 d4 3c 0f ee c5 b2 ec ea eb b0 f2 37 f6 f7 f8 b4 30 3a 0d bd b6 c9 e2 26 3d 88 19 05 f9 da e8 0d 03 09 bc 4a c7 26 c6 f0 20 0e e6 ee ce f1 fe c0 ef 26 3f 3c 08 f4 f5 a4 f8 d8 36 de 44 19 e2 26 d1 e2 c3 ad 32 0a c6 10 f6 09 22 25 e3 df d6 d0 cc 1d 0b d9 3b 21 ec 3f 3b 10 13 22 c8 f8 20 ca c9 07 0d 1b c9 d2 14 06 c6 df 15 2b 10 30 e5 fa f9 20 e3 29 fe e8 de 39 2d da 44 04 d5 44 fd c3 fd d8 df 19 3e cf 20 fb e7 25 e3 d4 e0 3e 18 db 40 07 e2 24 09 f8 e6 37 d4 f9 38 2a 17 58 d7 d2 1f 26 c7 04 e2 db e9 d1 16 cb 2d fa 2c f0 0f 17 1b fd 0c c6 45 44 20 01 23 11 35 19 db fc e7 e5 cf e5 f7 c5 de 2f 24 d2 e5 c9 fa 3a dd f2 0f ef d3 0f 1b fb f7 1b 04 e5 de e9 26 df bb f9 0b c9 20 f5 ea 29 fa 31 3c 30 b9 36 c0 28 d2 33 0c d1 2b e1 0f ec d6 00 d1 2f bf 2f 10 0f 1b 37 f6 bf c1 35 17 d9 09 e9 18 f9 f0 21 c7 f5 ce 13 fd 1a e7 be 11 10 c9 e9 e4 ec 02 0c 34 00 21 cf 30 c8 15 e3 f9 f9 29 28 08 c7 28 fe c6 2c e7 c0 06 b9 08 ed 25 cb b6 e2 13 f8 09 e0 34 c9 0f 08 0e c2 1f e9 c9 12 e6 c8 0d fa 31 fd f9 2d ed 25 08 32 07 dc f6 f7 e6 d6 d1 38 2d cf c0 fc 19 b2 fe 0c d9 c7 c2 12 23 d4 d5 ca 0e 23 22 fa c9 11 f4 22 d6 28 d9 1e 1b 1a 08 c1 09 ed e8 fe 00 08 dd d7 bc 24 22 de e0 f7 d2 d9 24 dd db fe c2 da e0 fe f0 be bf 1e 04 0c ef 00 fd ea c8 13 2e ca bd 06 1c 26 1c ca c3 36 2e 0a bc 22 bc 0e f6 d6 0f 06 ee 12 18 09 dc c7 de 20 de 3c e6 ed 36 de 18 f7 23 31 26 3a 09 19 eb 05 1d 33 cb 05 1c 32 06 0f d7 35 06 16 eb 2b d7 2c 18 2f 1b ec d0 05 08 0a de cb f3 c2 04 39 29 1d d6 fa ff 08 cc e4 e4 bc 13 18 27 fc b7 12 16 d6 00 14 c3 d3 29 dc 2c f7 e8 d8 34 3a bf 08 38 c2 08 18 ef d8 1a c6 e9 c9 2a 2f f6 dd 0f 10 22 f0 d7 cb 34 cf dd 06 04 e0 cc d0 1c 27 c2 29 db 31 f4 04 07 e3 29 18 ed 2b 0c 32 c6 c3 3b c6 3e f0 13 e5 08 0b cc 16 02 ee ca 00 24 d7 2e e4 d1 07 29 23 00 df d9 27 e8 3d c7 e5 00 31 01 0a c1 26 2a c4 c8 c4 31 dd dd 06 dc eb f7 c4 2c 34 2b c4 ce 17 f6 17 17 f8 e0 19 ea 36 fd 25 08 e3 1d e1 24 02 13 bf 1b b9 be b5 ca ff 14 dc d4 28 15 b7 e4 00 fc 0f dd 3c fa 0c 02 38 c9 11 fd dd cb 1d e8 f6 24 cd b6 c1 1a dd 03 25 ea d5 13 17 34 b9 ea 01 cf 2e cd 12 00 27 21 03 b8 ec 2a c5 28 e7 c1 f5 0a 1c 04 27 1d e8 af 03 25 c1 e9 14 ad 04 c0 23 04 0b d9 de 1c ce d9 ba e2 15 f0 3e 02 cf d9 fb 3c 28 52 da 13 ce f1 e3 ee d1 e0 0b 1c 2a 11 0e 03 2e 30 cf e2 3f 0d f4 30 2f e5 08 f5 1f 32 24 0f 1c 2b 06 dc 36 d7 d8 b3 e4 00 f1 e9 1a 0d ec fc f6 05 ef 1f e4 24 26 e5 35 1a fd e9 0f f7 0f f2 cc f7 32 07 16 1b 08 3f 2f b3 c0 f9 29 c6 0b d3 00 ea ef d4 f4 04 fe 2a 03 d5 c7 c2 16 41 09 e8 40 b9 17 08 e8 f5 f5 f0 e7 c0 bd be 2b e2 e3 d5 fc ba d2 ed 33 16 cc 0b 25 0f f6 e5 33 ed c5 ed ed 01 2b bc e7 31 f2 3d f4 03 23 d8 1d 1a bd e5 fe fd 30 ec ca 21 bd fe f7 22 08 d7 e7 e3 db 23 2c 14 fa de 03 dc fe 04 10 07 ee da 33 b7 f9 20 fe c5 f5 fa 00 c8 12 e2 b8 de 2d f4 ed 0d 33 28 03 f1 04 cf 10 10 ff 01 db c1 27 33 df d3 cd f1 b2 e8 07 f3 e9 c6 bd ea f8 16 d8 ed 39 cb e8 13 e5 1f 03 dd 08 17 ea 14 de c3 2b db f7 f0 d5 be ea d7 1e 2b 23 e7 26 30 cf f7 e1 2f c8 16 e3 36 21 0a d9 02 d1 19 2e f9 09 20 f7 d9 27 d8 d4 c3 07 c9 38 f1 be 1f d8 eb fb e8 f4 c5 30 d5 16 10 d3 df 01 e9 0a 2d f7 ec 16 f8 d3 dc 2e 38 bc 0f f5 10 15 cc dc 0e c1 15 f6 23 c6 da bf 13 39 11 56 00 35 0f d9 27 15 d9 1e d1 13 3a 41 20 34 df f2 00 ee d6 fc 01 ec 12 00 e5 e0 d2 d6 02 d6 13 22 36 2f ca 07 f5 fe de 0b 1f 2e 27 f1 e1 0c ff 20 0c 27 23 2e 3b 49 f9 07 bd d5 f5 de d8 18 00 18 fa 20 17 36 f0 e9 55 1d 42 ec b4 12 ef 30 ca 05 15 15 6c 59 3c ef d0 29 27 f2 d7 cf 36 e8 51 34 ed 07 fb 1c f8 07 fc d6 01 d3 f7 3b 24 12 05 f5 fd 04 39 3b ed 34 e9 f5 ff bf ed e7 3e 0a 05 04 39 39 37 18 de 0e d6 0a 09 25 f2 ed c3 e0 d6 dc f5 e3 c8 0e 02 e7 1c 2f 20 0a e5 13 d7 1a 17 cf 14 e0 18 c4 c5 0d 33 db 13 29 ba cb 24 3b e6 d0 d5 2d e8 2a 28 3b e7 02 ee d5 10 d2 c4 fe f0 15 bf 2f 04 28 f7 cc 0e e6 20 e0 21 d1 da c5 cd c5 19 33 15 c9 01 e0 be c4 bf 31 db c8 21 11 0b 1d c8 05 ea f9 21 d5 c1 c0 dd fa 31 34 12 21 f2 37 fd 15 dd c3 17 16 d3 c9 23 dc 03 35 af 17 14 0f 21 f0 10 ff 30 f9 2c bc eb d0 08 2d 26 d7 ba de dc d6 ea 33 e8 c5 29 c2 d3 b9 26 0d 0c ed 24 1d 0d fe ed da d2 0f 07 ed 2b d0 21 ff e0 f6 cd 06 ee 26 d9 2c 1d d0 31 27 d8 c1 15 b9 09 c9 f5 05 fd cb f2 08 d8 c6 e7 f2 3c 00 f4 fa 04 e8 d4 e4 da 09 04 ed 27 de fe 00 e0 f5 09 29 09 dd cb 15 d9 3c 33 c4 33 2c 01 ef f2 3b 1c dc fc 24 37 fd c5 eb e1 32 1e f2 f2 2f 33 ff df ce 09 2f e5 d7 22 04 18 f0 cf 36 d7 e7 23 02 f7 2e cf 11 c9 1a c9 dc 21 dd fd e6 f9 c7 1d c3 ce d4 c7 03 38 ee ee 39 e1 e8 20 0f 17 32 fa cd 29 e2 0c 