84 1e 37 bb 1c 08 e6 cf 27 e8 ff f4 de 44 c7 17 5b 58 ab d6 4e 02 fe df 23 ba 8e 05 ec 37 17 8f 07 2c af ed 2c fc da 95 c6 da ae 23 f3 28 63 ed 45 84 bc 5c b5 14 2d 35 8f af b6 96 c2 36 81 8d 11 d3 26 95 24 2f da e7 0c e3 62 c9 e1 23 46 b8 a5 fd e6 ac e1 22 c0 01 20 16 21 0a d8 24 ff cc c9 44 b5 e7 f6 4a 79 d4 8d f1 cd a4 fa 0e 81 05 00 fa 0d 35 ff 17 d2 ca ca 47 bd cc 3f e0 46 07 36 c0 20 03 da aa 17 28 0c 1b de d7 fb f8 1b f0 cf b1 03 d7 60 c7 f7 7f 2d 37 b3 46 eb c2 c9 f2 4d 0e 4c 97 3f 19 32 49 c1 bf e7 41 ee 8a 0b 1d 0d 47 d2 e1 ca b7 f3 f1 3d e6 28 07 f9 52 46 d5 15 d7 1a dd e6 09 f5 2e da e9 fc 2b 26 eb d7 48 35 c3 f0 d3 1c b1 25 19 d7 e2 d4 f6 3d 59 08 db 1e 0e 12 30 b0 36 bc be 1e 1e ab 4a 20 f8 d7 b9 27 e3 0c e4 e6 ee e9 23 14 13 21 d6 1b 0b f4 20 33 36 d2 0e f5 1e 31 1e 2d 13 48 3a 3f ff e1 b6 de 40 e3 bd 50 01 c8 31 a9 c6 b4 f1 18 41 7f 61 b7 cd 7f c4 eb cb 13 23 42 05 d9 3c da de 9e d2 e9 1c 98 59 58 13 3b c3 9d f5 c8 43 b4 3b a7 ac 45 b7 fe 3b 19 39 e8 a7 23 e5 bb c0 08 e4 22 4a 9b 30 12 c4 9f 44 0c db 4b aa fd 00 d2 d3 ee bc e2 b3 42 28 00 1f ae 46 0b 3e 17 d6 1a f3 48 fc c5 34 cb db 07 df eb fa 85 3a 00 cf 81 28 f4 ab 17 15 db ba 65 c6 19 da e6 0b 4f bf 15 23 67 1f d3 27 d0 9d e4 98 08 52 93 d6 f7 de d4 be 79 47 61 2a d1 ff 12 06 63 3f 17 09 54 c0 33 bb fa 27 ce 49 05 ee e0 14 bf 1f 23 f5 ee f3 44 f1 34 15 cf e7 26 f5 c2 03 d6 08 95 e2 b3 f4 e2 1c 29 b6 0e c4 f5 e2 00 ee da ca b5 db d2 c7 1d 0f 2d 00 f5 6a f4 02 d6 42 3c f5 d0 53 1a f4 df 03 07 c2 21 34 22 e6 c2 1b 7f b5 cc 40 f5 94 e8 d9 ed df f9 d9 2e 19 fd c1 b9 fc 1e 37 f3 f8 46 13 b6 38 e9 12 be f7 c0 09 81 e8 2f 19 3f e6 48 e5 ae f3 e8 24 0c 27 ee ec d2 3f ea e3 d0 03 39 10 f6 b1 24 be 0d fc 40 06 c2 d3 34 93 e8 bb 2f d9 e0 b2 a5 11 47 c6 08 e9 e9 b5 0a 81 19 03 1f f2 f4 d8 34 45 4e e8 47 a2 4b 44 e7 08 e1 d4 3a db 00 92 dc 1d a7 fd d5 cf cc a1 dd ea d5 aa 0e c1 d1 f6 16 3e 1a 0a 57 01 b2 e8 f4 4c 15 f1 07 66 0e 4d 37 06 c9 f0 04 e2 19 d7 aa ff 2f 0b 0a e6 21 e3 0f 47 2e 1b 0f 26 ca db c1 42 a8 b1 b6 39 04 da b9 f3 31 07 20 be 93 87 9d 98 f9 97 a1 99 c8 12 09 0d 81 b2 ac 06 d6 0b d9 4a fa 16 0c 36 cd 5f 2d d6 0e b4 00 fd 9a 04 44 59 08 5a ed 12 93 0c fe 46 bf 14 c7 2b ca ab 65 43 8d d3 d0 01 e9 83 33 55 81 f0 e1 f7 18 dd 05 e4 44 24 1d d6 ed 43 df a7 2f 89 05 87 0c 34 33 13 00 1a 13 fd 23 75 15 fc 28 dd d2 59 5b 31 61 1f 23 b1 7a 0b 35 24 07 e7 fa ef 53 c3 99 3b 0b 10 da da b4 b2 27 ee e6 0c 9a 1f b7 8a f3 c3 c2 dc cd 1a 0b f3 eb cc 25 1c bf ed cc ce 51 e8 c8 5b 07 1d bf 1c da fd d3 36 e2 ff 15 db 7f e4 0f 36 cc 01 21 30 1e 4c ca bd c4 c3 4b b4 df 2b 3d c6 ad 2b e4 13 05 2b 