78 d7 ffffffc8 ffffff8c ffffff4a ffffff11 fffffebf ffffff7d ffffff70 ffffff6b ffffff29 1f fffffbe1 fffffed9 ffffff0a ffffffa5 19d ffffffaa 190 ffffff9b ffffffc3 25 ffffffe2 ffffffd1 cb ffffffc8 158 fffffea1 53 16f ffffffca ffffff93 ffffffa8 ffffffad 1b3 fffffdc9 00 00 1ec ffffff8e fffffe21 ffffff2c ffffff4e fffffedf ffffff5b fd 1c ffffff26 ffffff3c ffffff55 ffffff39 fc ffffff73 ffffff20 ffffff1d ffffffd6 fffffec1 fffffb5f fffffef3 ffffff68 1a1 ffffffa0 fffffedd ffffffa8 