2a 22 ba b1 ba 17 d0 fd c6 33 d5 ed 01 09 3a be 26 21 2a 3a 0a da 27 c9 05 38 c5 30 24 0d 0d 14 04 e7 bc b7 e0 e2 0e 10 c0 d6 13 0d 03 06 c5 c6 25 e9 1b b6 07 e2 14 1d 35 f9 de 2e 19 ef fb 20 38 d5 bc 17 22 10 b5 2c ee 15 3e d8 e2 3a c6 2b 1f 34 cb e5 24 3b 06 0c f5 bb 36 1d 31 bc e0 3e 03 e8 d0 c3 b9 ea 0e 15 ca e8 ca 0e f6 28 2e 3e d3 d8 08 c2 eb 3d be e4 37 c8 00 d3 fa d1 36 2b 17 b8 d1 01 1a 01 17 06 2f c3 c4 dc 05 10 2d bf 28 16 c3 37 f1 be c0 c0 0f f0 04 d9 b8 29 e3 2d de d0 05 24 3a d0 37 e5 25 01 cd 0e 35 23 ed b3 1f 2a eb 20 21 ce db b5 21 e0 e5 0e e5 ba 0f 32 3f e2 e1 f7 18 1c 08 21 46 0b 16 ce cc 20 b5 cd 3a b9 c6 e3 f2 37 d8 27 39 c1 e2 37 08 36 2c 0a e5 e9 f4 f2 c0 bf 2d 35 34 e6 fa cf e8 cd e4 15 c3 d3 e9 e0 fc d8 ff 2a 09 12 b2 0b bf f9 02 30 45 b0 05 d6 1d df d1 10 3f e6 3c fe cc 3a 0b b9 24 0b c1 1a d4 1e ef ff 36 2c 23 dd 13 da ef e0 d5 09 1b f4 cc 37 df fc eb d4 ca 02 16 f6 d4 29 c6 e5 d5 23 2a ed c0 f0 eb 31 3a ed ea 0b 06 f6 e0 c2 05 24 ed 15 04 c3 14 14 1e 3b c3 1d 23 c0 e0 04 c5 1c d3 b8 17 21 f4 fe c2 e8 0f 39 d9 d1 e3 3d b2 fe d8 d9 18 28 de cf ba b7 d9 ed e4 21 22 3a ec 24 13 27 23 1b 40 30 b7 05 e8 0a f6 22 ea d2 ec b6 24 df 38 09 cb f1 33 ec bb 1a cb d0 14 d5 19 14 b6 10 0b 26 0f 1e 2e 0c b3 f3 2a c2 c6 0b 1c 33 20 bd b5 e4 2e e1 cc be ff 2b bb 39 32 f9 2b d1 35 f9 1b f2 42 2d c3 28 d6 1f 18 2d 1d c7 db 05 de ab fa 11 e2 b5 1d e2 0c 29 21 c7 05 f6 b0 c0 d2 e1 39 d4 10 bc e1 1e b4 d7 de 1c 0c d2 12 03 ef 1b 04 d8 f5 dd 1f b5 bc e6 e0 d7 dd 39 d5 38 14 e1 27 be 0c 0b ca 1d c9 e6 c8 d9 1e fb cb 1f c0 dc 1b c7 d4 11 d6 1a da d1 0c 2a cd 25 c8 0c fb 16 10 dd c7 ea e7 3f fe 40 19 02 cc 10 dc ef 14 c8 3b 40 be 1a 1c ea fb 00 27 33 bd cf b9 da ef 05 f7 2a 20 cd 39 f5 d1 f4 2d c5 0b b8 de c1 cd 25 e3 dd bf 02 cf d5 23 de ea 40 cc 19 bf 2d b5 d4 cb d0 09 cf 22 d6 f0 d7 fc 2e 22 27 ed fe 0a d5 2b 07 3f 27 29 d9 2b fc f9 3b 0b 2d b2 3c c2 ec 2c 04 06 12 16 00 c0 32 2a d9 f4 cf fe da 1f ce 07 b8 ee 10 fd 1f de 36 d1 dd c2 19 25 28 3f 38 10 1c d2 b9 01 27 c2 db c5 2a 37 c4 f1 f8 d3 c0 be f6 0f b3 bf 19 32 43 b9 c7 f4 22 c2 fe 27 c2 ea ce cc cf d0 18 e3 cc c6 b9 2d c4 2a 3a cb f3 c3 19 25 20 1d e2 3e e9 f9 3f bf db d1 ea 06 fa 18 d8 f1 b1 fd e6 14 0a fd 2e 2d fe d4 e2 dd bb 2b d0 f3 19 13 bc 12 ec 24 c8 11 a8 e7 a9 21 f8 29 17 31 2f 14 f9 01 be 22 18 f6 f4 1e bc 0d ea 0f e3 0d 23 ce db d3 fe 1e ad eb 20 e1 c1 a4 14 25 f6 ba 29 c9 0c 1b e8 02 db 0b c6 00 00 dd 01 bf ed cf b5 01 1a e8 b3 b5 ed 08 b2 dc 25 d2 c5 16 1e f1 ea 2b 17 2f ab cf 00 c0 0d 2a af 12 d7 1b d6 22 c4 0b 1b 19 09 fd 2c fb 1b f8 b0 b7 23 d2 e2 d5 ef d3 b7 1f 00 e1 d4 08 25 f5 4b fb 34 da fa c9 ea 38 46 13 01 bb f2 10 04 d5 46 ef 1c 05 11 fb f0 01 3a d7 2b 3a 01 2c 0f f6 b1 15 cf d7 40 bc 27 fe 26 c6 05 0f 09 f1 33 c6 fe 17 42 10 ff 02 3d 33 1c 6d e0 e9 c8 09 df 27 19 c8 fa 00 e7 c8 eb e8 bf f3 d5 00 b3 22 e8 2e 00 ae 2b 2e 36 10 c0 b8 13 ae e6 dd df f5 e4 2c dc f0 e2 1d 00 f1 1c 28 28 0a 07 df f3 f4 11 e3 13 00 01 d2 1a bc 12 07 15 15 c0 f6 af ed 2f ba 33 e1 cd d1 34 f8 2f 10 d0 ee e9 07 31 b9 d6 c5 32 0a fe 10 c3 ec 3b 34 27 b4 30 0f 0b 29 b9 14 25 13 ed f0 e4 cb ef 14 c9 c8 c0 d2 ba 42 14 08 ae d3 06 34 d7 2e 06 23 31 c2 23 e4 da 37 f1 c0 f4 08 c6 cb ba fc 01 0a 31 47 14 e7 06 e4 ca b7 c0 29 b4 2c 0c 3f 11 2e bf dd d2 0c e6 b2 13 f9 13 cc de fd 1c e7 e8 14 12 cf 2b b3 32 10 14 d0 f4 32 17 dc 22 2a d4 f2 13 0e 16 b0 00 1f e8 1d e4 d5 d0 01 c2 13 e2 34 cd ae d6 16 dd 02 f6 31 c1 d0 33 b7 0e e1 d4 06 1f 1d aa 18 dc 1b 01 ad c8 0f eb ea d5 33 c5 1b 25 f7 03 b2 d9 e0 fb 15 d2 25 e6 26 fe f8 24 00 13 fe 2a f9 ee cd c1 0c f3 b7 11 c2 21 e6 1b b5 f9 e3 ba 13 24 f1 cd 28 14 11 ce e8 ef e2 c1 e4 d3 27 1f 21 e2 16 c9 cb d1 34 2e 13 b8 c4 c6 cd e7 d2 11 2b fc 1a 3c 0a bc c1 01 d2 de fd 1a 24 ee 22 31 b8 0a bb 12 c1 eb d6 f5 11 22 fc e5 00 bd ce 40 ee 04 e1 0b e6 2e bc 19 0f f1 f5 3f c5 16 33 3c 0d eb e9 3b cf 1f f9 e6 e2 cf 11 08 ff 2a e7 c3 1a f7 1f 25 2e de e8 cb cc dd 2f f2 39 2e d7 37 e1 2f 39 1c 0b b8 0a 32 1c cc c7 fd d7 28 31 be c6 d5 cf 2c b3 18 ae cb 1a cb ed da cc 19 c8 c3 d9 16 2f 06 1b e7 dc 32 ea 28 e9 32 06 c0 d1 e7 08 fa ba ec 1f 13 e0 0d d6 16 cb 1c db c5 c0 14 ee e6 ef 30 bb 37 c5 d3 f3 d5 0f 0b 16 e5 f1 ce 05 cb fe 01 c0 c3 de f6 cd 14 07 f2 1a c4 41 33 de 2e f8 d7 06 24 de 14 0d 32 03 e8 bf dc 01 cf 3f f5 c1 c9 bd f1 0a 3d 45 bc 02 e2 c2 3e 1e c8 ff d9 be 0d 38 01 e6 cb ea 15 d9 22 d8 fa 25 14 f4 28 c4 23 ef e6 f7 fc dc 16 17 cd e3 29 40 3b dc 13 4b e7 ec cb e7 2b 1a 29 e5 cc e5 22 32 ea 32 cd e1 15 00 d7 f0 38 ef c2 09 0c 21 3b 35 f8 1f b1 29 dd 27 ee f3 14 c6 d0 12 d6 ff 09 36 c9 1b ee f2 e3 0d 17 12 de 26 38 37 f3 27 cf ea 31 08 15 f5 b6 e1 b2 d8 bf fd 1c 12 ec c8 a9 b8 f7 c7 04 14 f0 b9 d2 d8 fc 17 19 d6 2a 21 e2 bf f9 f2 c6 3e f7 0a bc b8 31 b5 18 1b 20 c3 11 e1 e2 16 d3 3e 0a bd d7 1d c5 33 0a aa 26 3d fc f7 e3 e8 c9 d0 0e c7 01 b8 1d 18 c9 ee 21 b1 33 39 e6 00 28 34 31 df f5 ff 38 f2 03 1e ca 05 b7 09 15 c7 dd cc c4 d3 26 f6 fe f2 11 e2 45 f1 15 39 ea f1 c6 45 44 f1 d6 1a e6 d4 f0 d5 0e 43 ec dc 40 fb 1b 32 fe 03 0b c9 18 e3 ed 3a 28 2c f5 e3 0d b2 fb 40 ea 0a eb 00 2d d8 07 23 4b bf 12 0c f6 1b eb dd 36 bd e6 0b 36 23 34 04 1d fb f9 22 1e f4 de 3c fc 44 57 49 25 f7 e8 22 ef 3c d3 c5 ca 04 fe df f4 fc 12 13 36 2f 39 f2 0e 02 ef d2 1c d6 42 d0 d2 19 11 24 2c f0 1e 54 d7 da 05 3f 40 f7 f4 14 51 b8 37 db 12 ce f4 10 cd 23 35 41 cf 07 9c 2e 26 ce 33 00 5d f2 df e6 07 2b 1c 1f 16 2a b3 18 31 e6 c6 f7 dd d5 e6 23 d6 d1 cc 0b 07 3b b8 fc d0 e7 31 2b 2e 2a c0 e2 07 06 b1 dc e8 2a 02 31 bc d9 2b d5 38 c0 01 ce f2 bc fe dd cc 02 bb d4 05 e6 18 07 bc ef 02 e9 12 08 b3 cf 3e e5 e9 35 ff 24 0b cb d4 d4 08 d0 f7 0b 1c 2f e4 d4 d6 22 23 e4 06 0a f3 1c be 2d 14 0f ec 1a 01 d1 21 25 d9 fa af f7 25 d5 0a ba 2e 27 cb a9 cc 1d 1b 13 f1 fc ad c8 d0 2f fa e0 05 ac c6 a6 0a e4 27 b9 f2 22 c1 b9 f8 f6 32 2d d8 28 18 0b f6 f0 db 1d 13 f3 18 14 27 25 e4 00 f6 f7 fe 24 dd 25 31 1a d8 cf f8 2b d3 f1 48 52 35 20 fa f9 34 d2 16 46 12 d5 24 1d fe ca 22 10 e6 3b 3f 31 e7 c5 25 21 5a df 27 29 20 e3 c3 5a fd 38 d1 f1 e3 25 2c 4f e6 ee a3 81 10 12 fd 07 59 e7 31 e1 4e d8 f6 1c f2 fa 0a fb 16 c3 1e c0 32 38 00 d7 f4 fb 2e 2e 07 05 13 c2 18 b4 0e 45 e2 e2 39 d7 ed 43 f1 22 26 d4 fc 06 e2 24 ef c3 26 ea 24 0b f5 40 23 2b 48 f5 db 0a 42 e0 23 1a 2e fa 36 56 37 12 cc 3b ea 05 e1 e9 0b 0a 0a 2f 2c cd e0 39 00 eb 60 c8 44 fe f9 21 1e 03 e1 35 0d c7 4b e7 f0 f6 31 24 c3 1e 06 da 20 bd 45 f2 2a bb 01 22 36 02 03 51 33 ee c4 ca f5 35 61 18 fd 34 d6 22 5c d1 fe f4 fc 2c 0e 4d 56 0b fa 38 f0 e9 3e bb 48 ca 44 da 25 e0 da e9 38 db 3a bc c1 fd f6 d6 d2 f4 2e f5 f0 2d 26 41 b6 d5 ee 3a 0b 1c 2c cb 3c d8 ed ed 01 d5 e1 43 41 14 db fc 33 d4 bf e7 e1 cb 05 d4 2b c2 2f 3a 30 02 21 ec fa 52 04 3f 39 17 ab f0 2f 2e 2f f1 24 0d b3 3c 3c cf fb c1 c4 07 ff 05 e3 31 28 db e7 d4 34 0f 1a bf 02 df 06 12 1d d1 23 ef dd 00 c7 cb 45 02 eb 14 b9 d6 31 36 39 d4 cb c3 12 04 1c fa d2 1d 33 cd 32 d2 43 3e c7 f2 df f3 d8 df dc 21 26 f3 ea 05 18 00 40 33 17 06 1e 35 19 de 34 07 e8 fa e5 33 ea d5 cd e6 16 e4 34 17 e1 ca 36 2b 42 1a 30 cf 35 0d de 0d d4 fb 03 e2 df ed fc 23 f8 e1 13 dc bf e7 0d f4 fe 2c 0d 2c d1 2a 0e c1 bc b5 f7 2f 4b 6b eb de 02 20 c0 03 e4 cc 1d de 42 af db 02 30 bd 08 01 fb ff 22 0f 09 bf 2f 1b 12 fb 11 e6 38 03 07 06 cc 0a 1e 32 c9 38 1e 0f ea 08 15 bb 06 0f d1 f7 17 1b 27 13 d4 ec e5 07 cf 29 c3 f6 01 cd db 19 f8 0a 31 55 55 1e ed 11 c0 f7 f7 34 e2 bc f0 24 12 2e 3b fb 31 04 25 04 3e 19 0f fd 00 10 48 ed 28 08 e6 e1 08 33 40 f9 09 44 ee f5 ef 31 d7 dc 18 41 d2 ca ab ea 51 ed 07 c5 de ca 28 42 0b 04 41 1e 5c ec 40 df 41 d4 dd b5 48 3a 2d 06 10 68 13 5f 22 32 da c5 da ca ce 3a 24 1f ea 12 d0 df 31 c8 14 30 0c d2 d9 18 19 33 37 bc 22 2c 07 c2 c5 4f e3 c1 3d f5 f0 00 01 41 2e d7 e7 ff 35 2d 34 44 0d da b8 15 d5 28 f1 0c 4d f6 d8 2c 59 f4 cb b7 0a 58 0b 28 23 70 e0 57 d5 e5 c0 0d fa 01 1d d8 28 14 29 e1 d6 b9 cc d9 14 e1 26 c6 c6 c0 de df 43 fe e3 28 fa 38 21 bd fc de cf ec 08 11 fb 9e ca 3b 3f ec b1 d4 bf 0c 28 e1 1b 1e 36 d1 17 02 d3 ff 11 0a ec 02 41 d0 b7 ce 18 b4 be 08 f4 f1 27 fe 00 40 2f 11 50 40 ef ce df 3e c5 20 0c e4 33 c8 11 c3 c3 d9 38 d8 e4 ce fa 24 27 d4 31 cb 2c d5 00 dc 2e 2d ec 1e f1 d6 41 3a 03 f2 41 12 17 3d fb e8 c3 b8 dd e4 bf 02 c4 21 0d d2 0b 16 35 e6 40 c1 c4 14 dc db 34 ba e0 bf c7 be d3 2b 32 bc ce f4 19 ef e0 dc 21 15 39 bc c1 f1 33 eb 2d dd 1a 25 df c9 1a cd cf c2 e2 2f 1e e6 f0 2b 32 25 01 d4 b6 b6 d6 d0 c1 b6 18 1b cf 05 3d 0e d6 d8 f5 e9 35 cc b4 10 e0 24 20 27 bd c8 de fc ee 14 14 23 02 12 d5 c6 d9 1d da 1b 2a 17 1a d9 cc f9 be f8 2d 08 1c f4 d7 b5 02 b7 17 1e f3 c0 1d 18 d3 22 15 20 eb f4 00 e0 cf 03 d7 c3 e8 f6 1c b3 f5 d4 df b5 f2 35 02 e2 cf c8 03 02 15 bb bc 2a 32 37 df fc 1e 2e 05 07 c6 ea 22 f0 18 bc ee 2c e2 01 39 12 32 ee 39 f6 43 03 4a de e7 56 f9 f6 3e 09 1b dd d6 3e fa 05 19 fa f4 e0 42 20 25 21 c2 d3 15 36 e9 d8 da de 1d 0f d3 33 c1 05 31 04 49 f5 5b d0 32 29 e9 0c 43 08 4d 17 fd 11 d8 f3 c4 cd 1f f3 e9 2e 0a 08 0f c6 3e 38 c0 fd bf d6 c2 00 10 39 ea 16 c2 29 da 43 3a f6 e5 d1 df bf c2 cf bf e9 2b ee 0b 0d cd e6 f5 22 36 d7 f1 e4 d8 eb c4 fb dd 23 fa e5 c8 f0 ec ed e2 da bb f9 03 01 22 39 e8 3c 0a 34 bf cc cd f3 f8 e0 14 f5 da 05 ed d0 10 3d 21 ef c7 c1 b5 da ee c6 c0 ff 2c 33 0e cd cd 3b ff fe d5 0d 17 bb 0f eb d0 ef f7 03 29 ff e1 f7 34 db 30 f3 ee 16 f3 f3 29 1b bc da d9 04 e4 25 bd ff 39 ee 20 00 13 fb bc e9 18 cb 05 2b f5 2c d5 13 0f 2f f2 f0 ba ef 07 e3 d6 11 04 f2 d6 27 31 cb 2f c4 ba ee 30 d9 0d c6 d7 d4 2e cc e3 31 1b 0e 18 13 26 10 3c ce d9 ce ed c4 f5 d6 0b d0 c2 0c 15 f9 fe 31 ee ba 31 06 c0 2b df 20 e7 25 2b 3b fc c3 c2 1c e5 eb ed f9 e1 14 19 1e 15 3a e1 db fa 24 d3 24 f0 08 ee 24 fe df ce f2 0a 3d 35 14 12 e6 ed 25 01 40 11 31 39 20 fa e0 f7 25 03 44 0d d0 ff fc dc 2f be 02 43 dc 1b 16 fd 34 10 b5 d9 8b 4e c1 05 1f 43 05 ff ed f5 d5 fe 40 f1 b8 ed cf c8 c9 c3 fd 0e 31 38 16 2a ef d9 14 36 f4 db bd 11 b9 e5 0c b9 3a 09 b4 0b bf f0 f1 22 f2 e8 f0 eb eb 29 3c f7 0a 2f f3 f7 0b 1d 26 dc eb d5 22 27 fc bb 10 e1 2c e4 1c e7 07 39 2c 06 ec ec c0 11 11 37 dc 22 20 39 d2 cb 11 bc 1a 2a eb c2 00 28 1c 1c fd c6 be 1b b3 2d b9 36 3a 30 14 33 de f3 cf cc db 17 12 2e d2 29 f7 f5 1b e5 dd db bc 1b f0 2f 1f 22 f0 ba 09 15 dd 0e 42 e8 fb d1 f2 3a 1e 15 fe 2f da 22 02 0d 08 ea 03 e7 c2 0f 00 13 e1 d0 db 1d b7 c2 eb c0 ff 1c 00 cd 2e 0f 10 2b c0 ef 24 d4 ea 09 d8 c3 bc 13 de 03 0e 07 0b d7 d8 e9 bf 24 e9 21 d7 27 c7 1c f7 19 04 25 37 f3 2f 10 00 bc d8 cb 1f f5 ec cb c9 33 3f 05 dc bd 02 2d f4 bd 01 29 18 32 f4 fc 3a ae 02 bb 01 0b cf 37 da 25 de df c3 1b c0 25 c0 e3 2d ba c7 b4 1c 12 ce 30 0c 16 2b d8 fe 35 eb 11 01 e1 e5 d7 32 d4 41 3b df ff 30 cf fd d2 23 0a 0e 0c fe fe 27 d5 03 16 1e b1 cf 08 05 0e 12 20 ad 15 17 2c 16 0d f3 f5 e2 2b 29 23 c7 05 02 01 24 b8 b3 b7 c4 28 29 01 34 bb ec de 33 20 03 09 e5 c3 16 03 fb 03 30 27 05 ef 0a c6 e2 29 ca f3 ac d6 be ec 15 e1 b8 20 25 be c6 0c fa 30 2f 12 e4 01 f1 d1 d6 04 eb 07 b5 18 31 ef 2d 02 e9 2b 32 e3 29 e4 ed f9 c5 fc ce ce c6 ce c5 c9 d8 b4 bb f9 29 03 dc d9 cc 01 d2 06 b8 b8 f4 1a 43 25 b6 dc 0e 37 e2 bf fe e3 f9 35 2d d2 14 f6 2f ee b8 0e cc 38 09 fc c0 28 e1 f1 37 2a b4 0b f4 11 33 1f 2b 01 3b c5 17 13 ea d7 d6 a6 f2 29 38 cb 20 f9 0e 1a f3 2c c7 c0 00 c6 27 19 d6 35 be d4 d9 bb d5 e2 25 be 23 3a eb dc 33 fa e4 ae 29 bb 06 c0 fb d2 24 38 dc 18 c2 cb 24 02 ef 2d 39 cc ca 02 11 d2 0b f4 22 cc 1a 0e d2 e6 d8 f3 db df c7 f3 fa ee bb f9 ec d6 fe 0b 1c 02 e7 2b f6 27 29 f3 30 cb 0e 27 ba 0f ca 2a f0 ef be b7 e8 0d bf f1 da ae 1f 18 1d ea 30 b8 0f ee 01 f3 11 09 b4 d3 09 2b cd c4 bb 34 b0 11 22 db 17 1d fd b6 0d c8 f0 ec f5 32 03 fd 06 b3 b8 35 d2 d0 ef 0f be c8 01 d2 d5 1a e9 f2 2a e4 21 cc c6 d4 ef ef 25 c0 00 19 3b 34 d0 1c 17 b3 23 d4 ea ff 41 e2 0c 0b fe b9 04 0d 11 f9 02 2b ef 20 bf 2d fb d7 c1 bb fd 39 1e 2a 05 ed ce 2e f7 1e d7 3a d3 1b ba 0d 1a e5 d8 e0 d3 bb c3 dd cb f6 ea c5 38 06 e6 2a d5 14 02 1e 08 f3 29 eb ed 0a bd f3 f6 fb 31 06 1b 28 fe 2f bf 29 22 b8 0f d1 00 be f5 29 19 dd 05 b9 d4 be 3d 35 f2 e2 08 fb c5 23 f0 31 f6 dd d9 d6 be d0 ec 3b ea d5 ef e5 fb ef ed 1d ce 1b 16 c1 d7 ef 27 ca 42 3b 26 e7 f7 26 e2 39 ce 0a de 2d 0e c4 18 1b 27 ca 49 cd 02 09 13 d8 de 34 ef 0c 0a c6 f4 d9 e8 f5 1a db d1 dc ef c7 c4 33 e5 04 c4 e4 dd d7 d5 23 16 f6 d8 d6 19 33 30 c0 fe e0 ee fc 12 1e b4 f3 09 2c 1b be f4 e2 cd e0 d7 14 fe 1b 07 ee eb 34 27 04 ca 19 29 da f5 e6 b8 1d cb 20 07 0d fc e3 da 02 b8 25 30 21 13 19 c4 0b f1 b5 3a c5 21 25 1d ee f9 27 30 bd d0 1e 02 e1 f7 17 30 de 15 f9 33 3a d8 ee f0 e9 f2 11 e7 0f 01 4b 16 23 20 15 01 ec ff 2a d6 16 25 07 e0 35 21 c9 46 3a 40 c9 ea f1 21 17 2c e9 1a ec c7 fc cc 16 1a fa bb bb 02 2c 28 fe c8 f0 cc 33 f1 59 da d5 31 1f c3 c1 e8 ba ed 15 22 33 06 0c 27 dc 18 fd e2 ed d5 cb ea 20 e5 1a ea fc 16 05 f8 cd 11 1c cd 1c f9 ff 02 05 b0 0e bc 18 b8 14 1f 00 1d cc cc 2a 2f 24 2b f2 e2 10 29 c6 b0 b0 03 2b db 36 b9 f3 c9 31 d1 f6 e2 af 03 57 30 f3 cb ab 03 ca a4 0f d6 cf f6 dd 31 3d ec 35 15 29 f3 09 38 46 ed df 2c b0 c2 ed c6 ba 0a e0 c2 1f 09 36 d4 2d 14 32 eb be d8 15 41 57 08 51 e5 c9 da c6 2a e6 03 12 29 00 44 e6 1b 12 00 ec 36 f0 e6 43 18 47 fb e7 15 bd 27 bc 36 02 e5 c0 cf c2 3e e2 14 0e 22 30 d9 18 1e e3 df 20 28 f5 c4 fb 03 1f c2 2a 31 0f d2 37 dd f8 d9 ed ca f7 fe ec c2 36 e9 29 f7 f1 c2 02 09 3a ec d2 d4 0d 42 d9 c7 e4 d3 32 e3 17 c0 e4 da e6 c3 f6 01 d5 e7 04 da 56 bf f1 0f 4b e8 4d d2 4d 4d bd 06 27 f2 4b c9 03 c0 28 31 ef 32 18 e7 1a c1 0a ec ff d6 d0 04 cf e7 f0 19 fb d4 02 12 4a 15 14 5c e8 f0 1e 3b 43 39 e4 ed 3e 42 fb 03 1b 4a ca e1 e0 f3 3d e1 48 24 3b f2 04 d9 e3 21 e1 ca 1a 2a da e2 25 ef 2a e8 c3 35 f3 ef fa c8 b6 da ce 3a 3a 0c 0b b9 b1 32 c0 f5 d1 cc e7 2c e3 f6 06 da b4 eb 26 1f e7 18 35 3d f4 b9 d5 c0 30 c9 01 2e f2 eb 22 c6 38 05 e6 f3 0d f6 db 34 fb 30 d6 35 b9 00 c4 c4 d2 38 ec 28 b8 20 b7 10 dd ea c0 18 1d d6 0a 13 06 f5 13 37 0d ed 2d bf 0b 31 c4 d5 1a e1 f5 0e ec 17 df 0f 02 b8 28 f6 d5 fe ca 15 27 d5 09 f4 2e 09 f3 cc 0d e6 0a e9 22 f1 e6 0e fc e2 16 18 34 e6 1f 